#ifndef PARAMETERS_LENET_OBJECTS_H
#define PARAMETERS_LENET_OBJECTS_H

const float conv2d_3_w[864] = {0.10512813, 0.06772943, -0.022687614, -0.12573594, -0.13667218, 0.008497355, -0.05927784, -0.19775571, -0.06229596, 0.08253811, 0.23426665, 0.26356053, -0.15969822, 0.018051485, -0.04278097, -0.050758753, 0.120515846, 0.1330373, 0.19309454, 0.04449787, 0.15259051, -0.123858966, -0.0834576, -0.08019989, -0.1041287, -0.09197895, -0.13853972, -0.10379322, 0.16182469, 0.14956495, 0.022694862, -0.006360695, 0.13458927, 0.10401542, 0.041024305, 0.024262603, -0.2529771, -0.0073915794, 0.1268374, -0.2824634, -0.09948343, 0.020759536, -0.06736558, -0.046357412, -0.056808926, -0.100982554, 0.13551837, -0.0064427583, -0.04340803, 0.04383003, 0.19089667, -0.07813715, -0.060432415, 0.088979855, -0.0141880615, -0.008968381, 0.1272046, -0.06798535, -0.11491598, -0.04608866, -0.019877687, -0.145981, -0.1261414, -0.20277351, -0.033360388, 0.051545117, -0.2809575, -0.15285178, 0.16246353, -0.23450103, -0.25492293, 0.06549805, 0.19349831, 0.17836374, -0.005871843, -0.024043778, -0.061843783, 0.22363056, 0.032512166, -0.08317604, -0.024982419, -0.022291781, 0.012485891, -0.10722937, -0.21556027, -0.16188435, 0.06152332, 0.10955074, -0.05831102, 0.029192507, -0.0742905, -0.22867595, -0.0015220576, -0.22920462, -0.20589632, -0.19096585, -0.066663526, 0.037276763, 0.19928196, 0.1608112, -0.2776388, -0.25176734, -0.0902785, -0.12551606, -0.17460488, 0.123961255, 0.024123255, 0.22378227, -0.15446497, -0.0057227192, 0.1435524, -0.26591083, 0.1337962, 0.15148504, -0.2609916, 0.068573944, 0.19045535, 0.00063698896, -0.0829178, 0.15447433, -0.109379455, -0.026227469, 0.13943203, -0.2492208, 0.0064103347, 0.1399181, -0.048292443, -0.035066996, 0.09211064, -0.22833052, 0.122355685, 0.11208463, -0.16673915, 0.009481387, 0.13066176, -0.020265061, -0.03263614, -0.1684307, 0.16222273, 0.036693938, 0.17940198, 0.15035002, 0.03707058, 0.18476437, 0.08325441, 0.16121076, -0.016065393, -0.0503226, 0.017928421, 0.15321618, 0.0033930782, -0.05879571, -0.10256038, -0.053808596, -0.10829932, 0.047153816, -0.22989503, -0.058665946, -0.1692834, -0.13854107, -0.08618729, -0.21967494, -0.24251121, -0.24401118, -0.008804536, 0.07718253, 0.0914059, 0.006748131, 0.09438769, 0.06786214, 0.029265275, -0.16893573, -0.23272367, -0.15692022, 0.2088828, 0.099396124, 0.18195944, 0.04461199, 0.071796805, 0.051488284, -0.12658364, -0.24769455, -0.20539546, 0.12582587, 0.1811558, 0.022758465, -0.003334461, 0.17783065, 0.051966876, -0.14870946, -0.18278097, -0.12312246, -0.06378476, -0.19051948, -0.009021959, -0.24776119, -0.29683086, -0.08145759, -0.06762267, 0.1451082, -0.038245536, 0.1757078, -0.0075302, 0.0332332, 0.16909592, 0.03443321, 0.08088486, -0.18947162, -0.09625989, 0.083941855, -0.12131669, 0.16295713, 0.11087519, 0.111107506, 0.1571316, 0.119249925, -0.18846977, -0.012419981, -0.16453016, -0.117623456, -0.10751455, 0.05939576, -0.16862483, -0.02848774, -0.2086507, -0.19224805, -0.24459752, -0.18125838, 0.085377894, -0.11518707, -0.13642631, 0.17000256, 0.09756982, 0.07202942, -0.12769294, -0.27483135, -0.19098693, 0.1155285, 0.07067352, -0.16978121, 0.29321334, 0.00410174, 0.1554256, -0.1365906, 0.039322633, 0.31361502, -0.06743775, -0.26617894, 0.045806114, 0.10905281, 0.06455867, -0.09472497, -0.1686863, 0.0650162, 0.27033493, 0.0022115293, -0.36379585, -0.123675704, 0.26955277, -0.025881855, -0.11730829, -0.09270099, -0.12728755, 0.2458371, 0.20944124, -0.4259471, -0.053632703, 0.2748685, 0.16259108, -0.11850066, 0.15836379, -0.012034182, -0.020765938, -0.017758511, 0.10744641, 0.19130689, 0.15358974, 0.20243165, 0.10280206, -0.066447884, 0.053770088, 0.0018275158, 0.017404169, -0.01876669, -0.047697984, -0.024975732, -0.16800216, -0.018191818, 0.024149217, -0.036256664, 0.018339792, -0.04869226, -0.12610428, -0.18693164, -0.27798814, -0.25507858, -0.2593864, -0.028392266, -0.09435316, -0.163019, -0.1132103, 0.012925554, 0.07706982, 0.06547227, 0.0048635616, 0.12792765, -0.05629371, -0.12864569, 0.14115286, -0.10566265, 0.15551837, 0.08264867, 0.16376522, 0.022147076, 0.15207526, -0.1924361, -0.2590185, -0.04726335, -0.2395491, -0.07805565, 0.13139991, 0.045264017, 0.20980084, -0.015606737, -0.22044013, -0.31575835, -0.20350027, 0.107270606, 0.12785783, 0.13596423, 0.04649774, 0.2086413, 0.20234261, -0.15865652, -0.17721178, -0.18578707, -0.070349716, 0.08781681, 0.114292644, 0.11801312, 0.0839039, 0.10838803, -0.06813518, 0.011341666, 0.0785305, 0.111999154, -0.06251087, -0.056782298, -0.09340565, 0.03681984, -0.06449343, -0.08907055, -0.11352522, -0.12676947, -0.14712997, -0.0042738607, -0.04823073, 0.00203124, -0.2134134, -0.19387881, 0.03927215, -0.066751435, -0.10672265, 0.10831801, -0.0014879226, -0.11805471, 0.12190782, 0.112116024, 0.015771983, 0.1033536, 0.21625152, 0.2128404, -0.0054605845, 0.1967267, 0.14689675, 0.10979502, 0.22218987, -0.022896139, -0.17706378, -0.09068998, 0.12475318, -0.055042543, 0.19213699, 0.17354335, 0.17606004, 0.30245513, 0.109382, -0.024365144, -0.0991089, -0.23702066, -0.110318094, -0.13405755, -0.07946126, -0.15385053, -0.2523959, -0.22222571, 0.22521013, 0.15982899, 0.11792723, 0.16257861, -0.0854421, -0.15010704, 0.022992, -0.12934601, 0.12575258, -0.05326048, 0.10502802, -0.02523155, 0.037201427, -0.048018537, -0.069846824, -0.08656603, -0.15710716, 0.09569618, 0.22526832, 0.034087297, 0.036923394, 0.067206696, 0.1967036, 0.03796784, -0.026982807, -0.04252471, 0.21756406, -0.14651433, -0.06660235, -0.20561977, 0.011795312, 0.042230625, -0.22343, -0.1494298, -0.15787181, 0.100023344, 0.11466226, -0.07563642, -0.1947078, 0.19655013, 0.16684598, -0.25347558, 0.14779028, 0.20671561, -0.09845518, 0.16062883, -0.12898324, -0.2623831, 0.08439715, 0.11024442, -0.31716827, -0.016753815, 0.16084415, -0.11695863, 0.086986095, -0.055873718, -0.20760792, 0.06437807, 0.17448673, -0.19452637, 0.11352178, 0.081316486, -0.051032603, -0.052996095, 0.0779599, 0.08777477, -0.10287381, 0.17107594, 0.15956634, 0.12842748, -0.04962745, 0.18956967, -0.14769769, 0.028423151, -0.005539064, -0.12130578, -0.024822596, -0.05565235, 0.0012886202, -0.13920979, 0.0490427, 0.09373491, -0.05026965, 0.16229035, -0.18335055, 0.12565853, 0.04917457, -0.24217449, 0.13858177, 0.19806534, 0.021982946, 0.209694, 0.030305203, -0.31885856, -0.022637442, 0.073872596, -0.17633143, -0.0813684, -0.065391965, 0.0751567, 0.05290995, 0.10814548, -0.32503772, -0.061943613, 0.22520052, -0.08825632, -0.21144791, 0.013178164, -0.1933075, 0.20146395, 0.2663742, -0.23099458, 0.035089605, 0.09939513, -0.27793616, -0.22462311, 0.016634537, 0.007170603, -0.049862813, -0.116449215, 0.02200524, 0.03741377, -0.23788145, -0.20984767, 0.16349195, -0.042240296, 0.01686728, 0.061470173, 0.07224681, 0.06496316, 0.2262624, -0.027717398, -0.057637937, 0.29086837, 0.1658735, -0.13465242, 0.007798929, 0.044306554, -0.033400208, 0.12079996, -0.21020465, -0.2637716, 0.20443997, -0.18959777, -0.10471693, -0.10063433, -0.010479432, -0.12932953, -0.21867825, -0.13045178, -0.120973445, 0.035681102, -0.054806236, -0.121570535, -0.07018287, -0.14681402, -0.04152369, 0.052084953, -0.037660982, -0.035154436, -0.070909776, 0.14620562, 0.06986042, -0.102624275, 0.14513054, -0.018836556, 0.2136205, 0.2316738, 0.17046535, 0.23076463, 0.1769892, 0.03841815, -0.13565025, 0.09618675, 0.041351702, 0.031021921, -0.020815318, -0.0129771745, -0.010445328, 0.10796954, 0.0306789, 0.13362433, 0.031218138, 0.046691872, 0.05540926, 0.09992427, -0.12425244, -0.18564078, -0.15420856, -0.04454796, 0.19174054, 0.2620668, -0.25091746, -0.07682194, 0.24630654, -0.2659776, -0.2531825, 0.017619733, -0.005287348, 0.13284338, 0.100620955, 0.1736002, 0.13111919, -0.053078793, -0.10490909, -0.07678379, 0.027587691, 0.076868825, -0.12925726, -0.16678785, -0.07485167, -0.1119254, 0.09745956, -0.20877035, -0.1576317, -0.16179812, 0.0445044, 0.103517696, -0.06915662, -0.007913021, -0.07305372, 0.15376091, 0.03248758, -0.056778736, 0.031627476, 0.33192635, -0.06119696, -0.060003374, -0.052311607, -0.3070351, -0.14597803, -0.041552793, 0.06008962, 0.16345692, 0.36004514, 0.12555675, -0.12921163, -0.006978916, -0.453286, 0.034095705, -0.16937974, -0.08322688, 0.3263609, 0.2478766, 0.17750852, -0.2462821, 0.017792668, -0.31491148, -0.07451177, -0.04538685, -0.055435628, 0.22807914, -0.07463975, -0.29417458, -0.056345657, -0.28466654, -0.15330462, -0.21621007, -0.278367, -0.22714387, -0.32815054, 0.017915256, 0.1148889, 0.06254979, 0.06548435, 0.18651867, 0.09048744, 0.17008051, 0.10449684, 0.005626261, -0.15646492, -0.25647554, 0.10582522, -0.2293065, 0.045205228, -0.12475077, -0.2249493, -0.05014478, -0.20136574, 0.029698905, 0.041107226, -0.06403266, -0.16559036, 0.034155384, -0.011133685, 0.08103795, 0.043807425, 0.089129694, 0.09930984, 0.05415937, -0.07281941, 0.007879761, 0.078288585, 0.06273603, 0.083636954, 0.09117263, 0.018054694, -0.013646282, 0.069002084, -0.10138557, -0.088916406, 0.09162204, 0.06473586, -0.054995686, -0.15549098, 0.10656508, -0.21857542, -0.08997762, -0.20738891, 0.07984139, 0.22954932, 0.18952984, -0.13249296, -0.12819348, 0.06814891, 0.026608279, -0.05008155, 0.13110557, 0.19983853, 0.20478238, -0.0032512476, -0.21889743, 0.05775228, -0.1081977, -0.055215873, -0.20806485, 0.09206093, 0.23878722, 0.2449082, 0.060760047, -0.15886979, -0.13121396, -0.2193932, 0.093912095, 0.11816523, 0.059740234, 0.07455898, 0.013822978, -0.05034653, -0.20085174, -0.029798945, -0.039312538, 0.1805283, 0.2413534, 0.16331111, -0.08771011, -0.10580535, 0.033805497, -0.22968955, -0.18482992, -0.23321581, 0.059032638, 0.0060319817, 0.028709814, 0.19636174, 0.13660762, -0.022709943, -0.03816315, -0.22789909, 0.0329512, -0.18609877, -0.040522125, 0.18355916, -0.19305903, 0.084768884, 0.078600004, -0.04870386, 0.21683511, -0.12780707, -0.32426673, -0.022325374, 0.1666545, -0.2807219, 0.29348812, 0.20946221, -0.10696497, 0.15318936, -0.17211308, -0.22414148, -0.059044898, 0.049497176, -0.30480427, 0.2864156, 0.02729967, 0.016861811, 0.17982584, 0.046840057, -0.07192387, 0.01048638, -0.06795381, 0.034613814, -0.07793513, -0.14809042, 0.38666514, 0.0028828299, 0.08268503, -0.13075644, -0.20768757, -0.23639412, -0.10488802, -0.17345953, -0.10380897, 0.27407196, -0.05186244, -0.1368143, -0.22765559, -0.16617942, -0.08867083, -0.04581763, -0.2888198, -0.13800421, 0.12661898, -0.004714568, -0.1201177, 0.18307415, 0.16630702, 0.0622329, -0.14132677, 0.14185795, 0.07826129, -0.33044446, -0.12969144, -0.022190655, 0.097501546, -0.038445268, 0.02474233, 0.06909576, 0.070353195, -0.0069614863, -0.06958647, -0.13889404, -0.073745206, 0.11736111, -0.057105176, -0.1706245, -0.13169287, 0.20007463, 0.0026443822, -0.16296946, 0.05524805, 0.10750572, 0.08690698, -0.037687514, -0.051581446, -0.18937989, -0.20924811, -0.0610992, -0.19777216, -0.010472877, 0.00048790447, -0.08722551, -0.0584873, 0.0067433193, -0.015760377, 0.11195964, 0.1005822, -0.17737588, -0.15460023, -0.050133534, 0.14615919, 0.1140218, 0.18376921, 0.13036154, 0.18539241, 0.060804028, 0.13550657, -0.041800212, -0.039758425};

const float conv2d_3_b[32] = {0.009560211, 0.033956856, 0.18330626, 0.228902, 0.008261736, 0.019081881, -0.00039069136, 0.11850723, -0.020602755, 0.022839848, 0.012380208, -0.011236513, -0.005714456, -0.076799765, 0.02313662, 0.023252415, 0.0199429, -0.30961683, -0.1376007, 0.0015835197, 0.017951626, -0.051379543, -0.08533112, 0.019456645, 0.15181914, -0.24275266, -0.0036516997, -0.018740838, 0.010176098, 0.088334136, -0.034312002, -0.1261064};

const float conv2d_4_w[18432] = {-0.05508589, -0.14832132, -0.07094597, 0.06754584, -0.039684415, -0.08830731, -0.073992826, 0.07213956, -0.06442876, 0.06132353, 0.00024532492, 0.09409016, -0.005210047, 0.11052472, -0.08705776, -0.0019140368, -0.019329086, 0.11274141, 0.16844271, 0.008527637, -0.15311505, -0.07023479, -0.18872626, -0.2757096, 0.046981722, -0.027653886, -0.16926293, 0.053315684, -0.0052524586, 0.04112973, 0.036768038, -0.058891483, -0.10657057, -0.089236364, -0.15561396, -0.10597021, -0.022166843, -0.014990677, -0.032079563, -0.061446108, 0.15307191, -0.058771543, 0.09850532, -0.101525396, 0.16994797, 0.12621348, -0.05078505, 0.10625456, 0.07227614, 0.06999266, 0.05259868, 0.010216109, 0.07194112, -0.0262359, 0.043974, -0.008695695, 0.056989323, 0.047372993, 0.000942427, 0.046238024, 0.06849768, -0.07580346, -0.15034047, -0.09788343, -0.080866285, 0.032487243, -0.09406023, -0.20139396, -0.23563841, -0.21957207, -0.2972211, -0.33991396, 0.16912538, -0.08982943, -0.0030653686, 0.16346051, 0.002310035, 0.14587274, 0.17527366, 0.17241487, 0.14416383, 0.25111553, -0.045235332, -0.045629736, 0.042228647, -0.11890567, 0.08628532, -0.024634017, 0.04010526, 0.04436928, -0.016393667, -0.04009432, 0.054756492, -0.10689281, -0.008699405, 0.043043993, -0.07274796, -0.099154815, -0.04213823, -0.031120291, 0.070344865, 0.03414059, -0.06276145, 0.112382315, -0.093962595, 0.061028276, -0.011122907, -0.12801826, 0.016701836, -0.0007359783, 0.0064566205, -0.012947583, 0.06295428, 0.05180127, 0.033213284, -0.06666902, 0.005916251, -0.065555066, -0.0828114, -0.079327874, -0.2037512, -0.16004612, -0.19981943, -0.08855174, -0.20739895, -0.26272625, -0.15597187, -0.07399136, -0.012211187, -0.18831176, -0.13487944, -0.08782706, -0.10731193, -0.11912865, -0.21690878, -0.024591308, 0.07722481, 0.011704789, 0.031442832, -0.09079928, 0.040261455, 0.024483653, 0.045537487, 0.0061514694, 0.0315907, 0.05315552, -0.002642175, 0.09691635, -0.12591222, 0.11587983, 0.04680445, 0.09493945, 0.0361484, -0.010127774, 0.022635845, 0.033327408, -0.14176674, -0.00043030482, -0.09719818, -0.09882471, -0.18031165, 0.08962933, 0.11408806, 0.16842467, -0.14396623, 0.08162085, -0.07988616, 0.060356267, 0.0820841, -0.071256556, 0.049552035, 0.07902393, -0.03820894, -0.06383112, -0.020250725, -0.040044602, 0.074692965, -0.18886957, 0.0350711, 0.12514094, -0.23982066, -0.24694276, -0.16271552, -0.14414854, -0.37915936, -0.28262365, -0.06970591, -0.3220538, -0.34651348, 0.13899218, 0.03264301, -0.07330946, -0.028504092, -0.107659794, -0.1561754, 0.0028453947, -0.07359354, -0.10559358, -0.02738359, -0.021370644, 0.0816506, -0.14566089, -0.0919205, -0.023888916, -0.020986676, 0.026672874, 0.07080136, -0.11033572, 0.057592764, -0.011450961, -0.064101405, 0.033353813, -0.029792164, -0.032648645, -0.018621214, -0.015709426, 0.16493075, 0.13137215, 0.010150091, -0.018245507, 0.009116442, -0.24120961, -0.26140648, -0.211309, -0.31910238, 0.0652068, -0.04617289, -0.11867541, -0.03731886, 0.08599358, 0.031934272, 0.019480491, 0.054072935, 0.038437504, 0.048195176, -0.07622402, -0.15928802, 0.02420575, 0.073340245, 0.036319964, 0.017500285, 0.08815153, 0.060909364, 0.029618489, 0.044354398, 0.0017766985, 0.04556688, -0.00075363246, -0.027125193, -0.043516867, 0.0012896486, -0.038025577, 0.10519522, -0.14534302, 0.0005993337, -0.000345819, 0.11099987, -0.1366883, 0.007823986, -0.046502307, -0.009247182, 0.18157843, 0.16899201, 0.17671596, 0.02267951, -0.1695225, 0.054279372, -0.05442534, 0.120813124, -0.1292746, 0.039989043, 0.08475523, 0.08141799, 0.04752941, -0.10452658, 0.06192545, 0.00028613774, 0.050613616, 0.0005849552, 0.056626964, 0.048753086, -0.06470706, -0.10828174, -0.21849667, -0.19796383, -0.0057129203, -0.2777174, -0.19457336, 0.13484468, -0.051161163, 0.12675485, -0.08616148, -0.07386773, -0.042119224, -0.22655341, -0.043939684, -0.054636817, 0.070956334, -0.046591155, 0.14049341, 0.030990062, -0.0695035, 0.04169646, -0.18189903, 0.1080213, 0.1624569, 0.15957542, -0.0641182, 0.05326879, 0.15727288, 0.040329993, -0.043918747, -0.11939855, 0.12607345, -0.054727044, 0.032240752, -0.1538553, -0.019630842, -0.10014339, -0.19219509, -0.026471479, -0.033588387, -0.1145023, -0.2527124, -0.08997784, 0.0149904275, 0.072780654, -0.17192355, 0.10385847, 0.042873405, -0.30528563, -0.054848548, 0.19414085, 0.014480326, -0.1494179, -0.06749641, 0.14824203, 0.09945582, -0.078021966, 0.08752943, 0.06066285, 0.098085895, 0.016285589, -0.083683535, -0.12215632, -0.1224514, 0.06636545, -0.16335677, -0.16927579, -0.12909494, -0.085977875, 0.089336134, 0.0835262, 0.032931898, 0.07950258, 0.04352269, -0.06237325, 0.02037006, -0.18059786, -0.099198, -0.23555696, -0.3033425, -0.20006326, -0.09292711, -0.3226274, -0.2402487, -0.019110087, -0.08048463, -0.28097847, 0.32072067, 0.34823775, 0.4717939, 0.12767963, 0.23107266, 0.6061205, 0.06139735, 0.5543703, 0.35572413, 0.083430365, -0.22809102, -0.093182474, 0.261901, -0.08696623, -0.25078896, 0.054914303, -0.05141854, -0.11725623, 0.029655762, -0.10948584, -0.20858848, -0.06828315, -0.1137287, -0.12587662, -0.044812355, -0.2547732, -0.1179816, 0.019561449, -0.12821586, -0.17511822, 0.001801851, -0.052681994, -0.15472135, 0.040223505, -0.044691894, -0.033321455, 0.016625598, 0.13375963, 0.24638186, -0.027258173, 0.008912439, 0.111285955, -0.10957196, -0.10297564, -0.06958165, -0.1299398, -0.4002958, -0.108020626, -0.15310284, -0.5554312, -0.55693007, -0.10524036, -0.41075277, -0.5406739, 0.13283062, -0.11725579, -0.004812622, 0.18981157, 0.23474668, 0.11858658, 0.04825888, -0.060364008, 0.23760135, 0.15532851, 0.017421652, -0.006079415, -0.13432905, 0.09858965, 0.041332237, -0.10184591, 0.1031399, 0.18225788, -0.009123651, -0.14376958, -0.05076147, -0.024437359, -0.12093147, -0.19659148, -0.19753952, -0.16849065, -0.1564297, -0.062326618, -0.2188847, -0.13684209, 0.014727167, -0.24912097, -0.26826534, 0.24354051, -0.07518898, -0.15326881, 0.26281458, 0.21395428, -0.014021411, -0.06876559, 0.2967782, 0.08872856, -0.1445775, -0.031815786, 0.21615808, 0.13464567, -0.055464562, -0.09204927, -0.017298521, -0.052427415, -0.2650116, 0.011732136, -0.021639878, -0.31881735, 0.2693872, -0.0718471, 0.060002707, -0.026729714, 0.060542997, -0.08706122, -0.12946859, -0.034619693, 0.050141614, 0.10544119, 0.048730787, 0.027282402, 0.09072578, 0.06351785, -0.07436278, -0.00362076, 0.16633517, -0.024206204, -0.019679716, -0.25408745, -0.23182586, -0.017067036, -0.2377058, -0.34476855, -0.2190381, -0.38290077, 0.28576407, 0.2645468, 0.24986307, 0.31436947, 0.19735363, 0.19056682, 0.25557128, 0.145149, 0.13042113, 0.14729507, -0.02225337, -0.09200993, 0.003144227, 0.07912738, 0.10424109, -0.063256025, -0.14680743, -0.08187309, 0.079052135, -0.070934296, -0.06399443, -0.063389994, -0.02029428, 0.08994982, -0.18212432, -0.22801682, -0.087216265, 0.10894444, 0.14701875, -0.09613226, -0.0032622556, -0.016964033, -0.14322542, -0.07211562, -0.20484848, -0.061089814, -0.08032508, -0.24470344, -0.09768397, -0.05387103, -0.21070702, -0.15168257, -0.073453546, -0.2336006, -0.25911695, 0.023864672, -0.12763382, 0.10971523, 0.043710254, -0.015401819, -0.039772302, 0.14606498, 0.040756192, 0.14016576, -0.055928223, 0.049237434, 0.0071528363, 0.099016316, -0.0058078766, 0.039552227, -0.031071806, -0.23444988, -0.118841596, 0.11778351, 0.1662579, 0.10714646, -0.05420794, 0.03610867, 0.06162393, -0.09486432, -0.017299755, 0.0008299344, -0.11587477, 0.031425253, 0.039901957, -0.2263854, -0.013489122, 0.10979755, -0.13568664, -0.17909873, -0.06526804, -0.38074914, -0.07451384, -0.059356492, 0.14829163, -0.09819074, -0.33870038, 0.1508466, -0.18882388, -0.12652156, 0.17082669, 0.06491408, 0.15707862, 0.052006442, 0.061330415, 0.12156295, 0.11808138, -0.07701413, -0.004372165, 0.1401321, 0.22698084, 0.19706576, 0.17669176, -0.054327052, -0.011295282, -0.13599828, 0.03153493, 0.1279215, 0.034092557, -0.1762221, -0.1646252, 0.18623826, -0.2984963, -0.21518813, 0.13704158, -0.536965, -0.3661803, 0.13887581, 0.10969226, -0.028519066, -0.082721114, 0.04305002, -0.06258047, -0.24693537, 0.14569116, -0.041110076, -0.05025214, 0.04421641, 0.022512347, 0.02463502, 0.018550254, -0.021308558, -0.22532733, 0.07960927, 0.0140833445, -0.03202711, 0.296902, 0.18016843, 0.26592413, 0.11461476, -0.054436926, 0.12288459, -0.12066575, -0.14180213, -0.15888721, -0.13020903, -0.02418383, -0.0067820842, 0.1412895, -0.031396843, -0.044143308, 0.044002686, -0.021333855, 0.17418905, 0.07875422, 0.027666468, 0.010104256, -0.12967359, -0.2604714, -0.105547406, -0.01970717, -0.21373825, -0.015488788, 0.0067946743, 0.038896285, -0.139904, 0.0068609533, -0.057803627, -0.1920636, 0.11256436, 0.04570263, -0.005551289, 0.10484375, 0.02795904, -0.08669885, -0.13836913, 0.04543616, -0.058584783, 0.12653258, 0.16323256, 0.009870127, 0.11543329, 0.04675367, -0.010452849, -0.03575891, -0.1538143, -0.28435048, 0.2624749, 0.1008534, 0.1082781, -0.08968733, 0.11988579, 0.043730073, -0.23866422, -0.041427244, 0.056423716, -0.22331718, -0.0897302, -0.08486466, -0.08069951, 0.025168585, -0.17633548, -0.3434928, -0.48693708, -0.5746006, -0.4601405, -0.4303769, -0.32130197, 0.004045329, 0.027570711, -0.10043413, -0.03491307, 0.006852428, -0.14892678, -0.10034263, -0.0102916155, -0.06743029, -0.1611832, 0.11876985, 0.30666804, -0.3178545, 0.09181904, 0.30030674, -0.10526982, 0.03724893, 0.25482947, -0.18151146, 0.016721984, -0.32936808, -0.11938911, -0.22607395, -0.12156408, -0.16597505, -0.16227882, -0.08030617, -0.114918716, -0.25527275, -0.30019233, -0.01534881, -0.025165008, -0.057769988, 0.22279604, -0.026470622, -0.08344538, 0.0063937013, 0.099423155, 0.2527538, -0.14703366, 0.032902036, 0.19893016, -0.1512571, -0.1832678, 0.1269977, 0.018403314, -0.01921923, 0.088506125, 0.06654818, 0.04356591, -0.09249729, 0.052843574, 0.00058961555, -0.085486874, -0.11950755, -0.19761404, -0.24833693, 0.007318564, -0.0075802845, -0.026359811, -0.072572395, -0.08811685, -0.105303496, 0.061423067, 0.02636594, -0.18911044, 0.022242267, -0.104201734, -0.1990349, 0.012938634, -0.15567556, -0.24519207, 0.07842918, 0.061927482, 0.26758447, 0.07336084, 0.02354515, 0.18805252, -0.23056418, 0.14333603, 0.28220356, 0.0074444516, -0.06335419, 0.10027871, 0.0613038, 0.18463688, 0.16294858, -0.08734942, 0.12609766, 0.08762024, 0.017822152, -0.06645198, -0.059687655, -0.14878711, -0.01751992, -0.082487956, -0.05704594, -0.061949015, 0.04039015, -0.013293704, -0.08476349, -0.18761094, 0.14721107, 0.26068705, -0.1274293, -0.06659139, 0.0100779915, -0.11344912, -0.0771313, -0.20462905, -0.300224, 0.06448252, 0.080664895, -0.16363771, -0.10045731, -0.19237827, -0.28683826, -0.0863679, -0.18924035, 0.20655553, -0.10884628, -0.2326917, 0.28901005, -0.26451364, -0.28539002, 0.14478375, 0.22157975, 0.09106993, 0.07691134, 0.005667781, 0.11996271, 0.06997131, -0.012762232, 0.21944293, 0.0023155014, -0.10380576, -0.20593478, -0.1925428, 0.12621874, -0.012120832, -0.017021457, 0.17960446, -0.06849499, -0.13371624, -0.02650671, 0.054654673, -0.2067313, -0.054375224, -0.09156693, -0.22094171, -0.00046441177, -0.104937784, -0.21838206, -0.10378035, -0.12236682, -0.12060183, 0.0026289306, 0.15534757, -0.035545524, -0.23554645, -0.033838525, 0.05291273, 0.16384704, 0.09286252, 0.007254578, 0.10588701, 0.17232212, -0.002407889, -0.18882206, -0.19573337, -0.011321303, -0.003194687, -0.033912208, -0.029029028, 0.061519235, 0.09061683, -0.23085263, -0.22271954, -0.041261796, 0.10177487, -0.008243867, 0.03139178, -0.031894322, -0.0013860161, 0.059921246, 0.014509135, 0.19613086, 0.12489211, 0.10468728, 0.19577372, 0.19261934, -0.08162334, 0.051345408, 0.16043122, 0.025257843, -0.016492605, -0.3397933, 0.04268036, -0.16553748, -0.03099449, 0.10277079, -0.099604934, -0.15017423, -0.087717496, 0.15554804, 0.07849082, 0.0004686201, -0.06381697, -0.0963212, -0.23143934, 0.0059936703, 0.07013128, 0.15742657, 0.11672187, 0.19412477, 0.15458816, 0.06922637, 0.03057796, 0.018021872, -0.15560138, 0.0158949, -0.08891303, -0.0801967, 0.085291795, -0.061008576, 0.11884307, 0.26269603, 0.030617278, -0.024971157, 0.013141933, -0.1851188, 0.12534367, 0.08425065, 0.14638308, 0.3519136, 0.12847352, -0.071389996, 0.3853815, 0.16886978, -0.22220865, 0.06214706, 0.4844002, 0.118327774, -0.12839952, 0.04867008, 0.40607062, -0.1909887, -0.15673772, 0.01246895, 0.21649675, 0.070098095, 0.056747954, -0.16062818, -0.26148656, -0.12065819, -0.17161453, -0.28970903, 0.04335345, 0.15782785, -0.009300876, 0.057071034, -0.11795217, -0.24059457, -0.029597666, -0.11855046, -0.28763637, -0.044077657, 0.07944928, 0.032895293, 0.102670796, -0.028641764, 0.040583715, 0.07192776, -0.08284018, -0.08276285, 0.006487071, 0.029960953, -0.024541013, -0.07643599, -0.12329125, -0.19995455, -0.036800496, -0.36464235, -0.14591432, -0.20621152, 0.11255005, 0.06386512, 0.05983104, 0.023779241, -0.17108911, 0.015532385, 0.154658, -0.1130345, 0.07887494, 0.08641295, -0.00071951165, 0.03232828, -0.009004596, -0.079925746, 0.13696252, 0.13784681, -0.049791165, -0.031796034, 0.010613238, 0.051354744, -0.14809589, 0.07786611, 0.1424933, 0.04313746, -0.025597371, 0.08990033, -0.17960548, -0.24480562, -0.12035341, -0.03229007, -0.11538008, 0.03309779, 0.32845145, -0.085299104, 0.04838078, -0.0022962461, -0.09775124, -0.03669245, 0.026092237, 0.11210881, -0.37910074, -0.19046909, 0.14617682, -0.29791662, -0.31233087, -0.011044177, 0.055080462, -0.04558755, 0.031692453, 0.098573595, 0.26442206, -0.19290051, -0.08462652, 0.05406927, -0.023983365, 0.002716501, 0.13260058, 0.017936954, 0.05615135, -0.04697953, 0.033760868, 0.08184223, -0.18381673, 0.0069285766, -0.08573394, -0.113188565, 0.07951416, 0.046586726, -0.04115135, -0.03544389, -0.062108018, -0.24846525, -0.102752395, -0.102973364, -0.062746145, -0.17559132, -0.6605897, -0.17127205, 0.07892349, -0.3063663, 0.18915826, 0.13623346, -0.14191017, 0.36394113, 0.33574128, 0.08378766, -0.008548305, 0.33683822, 0.23087355, -0.010010663, 0.62098145, 0.5852844, 0.32204536, -0.017520418, -0.100251846, 0.0037941844, -0.027957834, -0.036569875, -0.122911885, -0.06062269, 0.14661464, 0.07057774, -0.06702366, -0.07056606, -0.053886577, -0.26400343, 0.049087875, 0.14575434, -0.13316792, 0.0680362, 0.29262385, 0.046682376, 0.011460128, -0.009900005, -0.10198155, 0.03242231, -0.016410863, -0.21739319, -0.35307792, 0.123736426, -0.039701674, -0.04961031, -0.047117162, -0.074826434, -0.10151762, -0.07115828, -0.05108828, -0.1956019, -0.032465894, -0.11384714, -0.05984146, -0.00016086127, 0.05413304, -0.17407295, 0.02480743, 0.22481342, 0.09150298, -0.20008324, 0.040287018, -0.07638987, 0.031173727, -0.0495407, 0.29188803, -0.0019060929, -0.18734126, -0.06164871, 0.14028065, -0.042111564, 0.15513274, -0.0046475683, -0.012495988, 0.16284041, 0.048701253, -0.23171866, -0.20623612, 0.089357406, -0.20313306, -0.092622414, 0.08777038, -0.2894373, -0.087873556, 0.08547172, -0.028441237, -0.13836333, -0.017214589, 0.2172181, 0.06557708, 0.056785736, -0.054022595, 0.027258687, 0.024737608, 0.1674576, -0.0771167, 0.16246477, -0.008409064, -0.1743815, -0.077777006, 0.060856033, -0.114192426, -0.10049332, 0.07145413, -0.03720818, 0.029364977, -0.097862676, -0.33254206, -0.2805322, -0.06390026, -0.12806095, -0.14942251, -0.25507542, -0.0579531, 0.071221, 0.06120771, 0.11214947, 0.038335178, -0.017227607, -0.04041641, 0.028987112, 0.095807336, -0.023747189, 0.030743266, -0.06499139, 0.07273481, 0.085418485, -0.059381142, -0.050395563, 0.0039924784, -0.123663045, 0.038104013, -0.03862323, 0.006107906, -0.17566198, -0.02458909, -0.049531646, -0.12492581, 0.02143008, -0.044365443, 0.045854155, 0.03204035, -0.08007436, -0.29895738, 0.02091746, -0.04320007, -0.28113627, -0.10766515, -0.18762691, -0.3361679, -0.101569206, 0.20014402, 0.11540477, 0.07905477, -0.01242863, 0.07222954, 0.12477631, 0.010252917, 0.08149957, 0.07418452, 0.025650047, -0.09594668, 0.0818965, -0.016983066, -0.051545214, 0.10902515, 0.3442266, 0.16098237, 0.15153827, -0.11929924, -0.01636691, -0.05912191, -0.02780895, -0.06979536, -0.055378523, -0.065927796, -0.054254774, -0.050033797, 0.06668482, 0.082120724, 0.05815127, -0.07917226, -0.091561235, 0.06346887, -0.0680869, -0.142233, 0.053684585, 0.05609052, 0.009222247, -0.06445662, -0.015215261, -0.03897635, 0.042096894, -0.011280153, 0.059926912, -0.006428981, 0.0069221146, -0.20513375, -0.17214322, 0.12352275, -0.16377743, -0.14652826, 0.10479706, 0.0017230551, -0.16904363, -0.11387262, -0.32901168, -0.23239218, 0.00956706, -0.13255876, -0.2389261, 0.004217322, -0.026158974, -0.16335154, -0.07877411, 0.098796636, 0.05379874, -0.13693513, -0.0825095, 0.029922934, -0.18493682, 0.095394775, -0.01707664, -0.011167059, 0.063623264, -0.11546377, 0.20133701, 0.07622208, 0.008842109, 0.08501359, 0.16637117, 0.15397598, 0.039024323, 0.044876873, -0.019496549, -0.038091436, -0.059402436, 0.06733561, -0.056666844, -0.13438262, 0.1333827, 0.20700921, -0.11191293, 0.068947874, 0.2960532, -0.31347927, -0.16259183, -0.003921485, -0.14176366, -0.11346883, -0.10348525, -0.052264266, 0.11938559, -0.0446545, -0.067950256, -0.18532321, -0.112204365, 0.026776899, 0.053525038, -0.08310857, -0.18275003, -0.091310635, -0.2093292, -0.24934587, -0.06870162, -0.015259393, -0.08964691, -0.04398575, -0.1301454, -0.14492029, 0.002940492, -0.14705612, 0.033536684, 0.069724135, -0.058232006, -0.19294776, -0.07052895, -0.1500733, -0.10252523, 0.042131905, -0.06545566, -0.099613495, 0.046108525, 0.08391761, -0.08645342, -0.07801038, -0.116599, -0.064475626, -0.23085901, -0.28235602, -0.31455022, -0.21752027, -0.28535095, -0.0015023722, 0.00037535586, 0.000568677, -0.08921411, -0.07183046, 0.12139159, -0.16681758, -0.24727121, 0.1386995, -0.06866313, -0.14416718, -0.1476921, -0.044999592, 0.0066202674, -0.08771732, -0.16067232, -0.060064524, 0.044993956, -0.12651697, -0.030548554, -0.24707308, 0.006736131, 0.08541208, -0.08561898, -0.08386832, -0.056385476, 0.05699523, -0.044933073, -0.04985315, 0.010675969, -0.04005545, 0.033024807, 0.03822104, -0.02518208, 0.08639297, 0.120441265, -0.044019952, -0.08457396, 0.17112248, -0.0018652705, 0.0038054036, -0.05494472, 0.010133623, -0.08642133, 0.09492103, -0.09120967, -0.030462816, -0.0037373959, -0.15046406, 0.06753756, 0.029938994, 0.0206858, -0.043554667, -0.0806194, 0.04459808, -0.018154118, -0.029797262, -0.09713076, 0.01618213, 0.06840022, -0.0062734657, 0.14218152, 0.036834773, -0.029424159, -0.01978186, -0.0023462947, -0.16372472, -0.007261664, 0.13329025, -0.034125045, 0.0026871946, 0.055085488, -0.03325437, -0.22237656, -0.008236567, 0.1690653, -0.009635232, 0.13778836, 0.19770354, 0.12500946, -0.024323352, 0.066241965, 0.19866201, -0.18334992, 0.084731184, -0.20340893, 0.047007803, 0.12247089, -0.061582435, 0.05152841, 0.20655978, 0.08002749, -0.19801363, -0.18919085, -0.1722338, -0.34445092, -0.029320478, -0.085655496, -0.032861535, -0.2545668, -0.047305413, 0.21622832, 0.112792, -0.057257574, 0.14044555, -0.1623346, -0.21530908, -0.26316363, -0.029701997, 0.06810388, -0.21083328, 0.029496405, -0.30443043, -0.14501603, 0.24947664, -0.17071635, -0.1728325, 0.18450356, -0.09539235, -0.20838524, -0.13506551, -0.24114615, 0.021318343, 0.03419739, 0.08021486, 0.09858805, 0.14750384, 0.13013624, 0.022986209, -0.09480175, 0.03235443, 0.0390995, 0.08824376, -0.045045093, 0.010880224, 0.080240004, -0.06452891, 0.24001594, 0.28353378, 0.34761855, -0.19175765, -0.09736925, -0.048296053, -0.27972695, -0.17562898, -0.14302206, -0.120596334, -0.01920632, -0.18444258, -0.04010096, -0.09945441, 0.04407834, 0.18265949, 0.11451502, 0.10945639, 0.07895582, 0.039634928, -0.19581077, -0.13173173, -0.16173753, -0.1756263, -0.2501869, -0.19769533, -0.107359745, -0.039223928, -0.09653716, -0.17272618, 0.10431118, 0.096531294, -0.07926725, 0.056575052, 0.046029057, -0.020986157, -0.16468337, 0.050281618, 0.02875074, -0.14524323, -0.0727692, -0.05822026, 0.059841413, 0.19660178, -0.034840282, -0.15352069, 0.0053645885, -0.09874671, 0.03501832, 0.06142285, -0.19874565, 0.06756537, 0.20375787, 0.05013373, 0.22368789, 0.25733498, 0.18767892, -0.036351293, -0.15805471, -0.06670345, -0.14899889, -0.1446703, -0.27151373, -0.15847567, -0.025996452, 0.03575512, 0.0039248834, 0.10234308, 0.10054723, -0.07328515, -0.0050595775, 0.07313688, -0.15105052, 0.027634652, -0.0648206, -0.01035727, 0.038567048, 0.056731515, 0.08563592, 0.063415416, 0.086007476, 0.02284939, -0.22629443, -0.12866072, 0.11798459, -0.14546126, 0.017291335, 0.28433248, -0.09457278, 0.09485038, -0.12466198, 0.13074161, -0.0032288164, -0.2764237, 0.14648728, -0.07172402, -0.22872509, 0.0108231325, -0.16463324, 0.01745287, -0.05810941, -0.1813557, -0.132947, 0.0764889, 0.019449143, -0.15874346, -0.18683651, -0.07019035, -0.12008502, -0.13299902, 0.039880626, -0.11111817, 0.059521105, -0.037107047, 0.0046587996, 0.026170097, 0.052518055, 0.09633404, 0.07739271, 0.09501759, -0.08816396, -0.05425688, -0.27846906, -0.37052217, -0.2304892, -0.3435115, 0.04999913, 0.16761605, -0.08150216, 0.023652324, 0.10097944, 0.025117934, -0.20352727, -0.08518007, -0.17286685, 0.09241333, 0.057472326, -0.07358153, -0.08766425, 0.078263804, -0.05684461, -0.2210677, -0.09906661, -0.19942145, 0.08385217, -0.07554867, -0.118925646, -0.23973307, -0.30058402, -0.22094041, -0.25956866, -0.2542454, -0.33081818, 0.24776775, 0.14590761, 0.16707598, 0.064040184, -0.046508025, 0.16211276, -0.1271017, -0.1111291, -0.17658654, 0.033435084, 0.03211886, 0.0043682773, 0.0072940886, -0.08309032, 0.0003533492, 0.029738445, -0.07647337, -0.0058662537, -0.011580472, -0.039757185, -0.007414253, 0.061507124, 0.10300852, 0.08960239, -0.02066289, -0.014673419, -0.11111896, 0.116300575, 0.0069844667, -0.15732111, 0.22379175, 0.15095723, 0.015628068, 0.043742165, 0.0685395, 0.008938164, -0.27845642, -0.10995145, -0.16894199, -0.15115336, -0.027544642, -0.26554295, -0.3125441, 0.13814054, -0.23241381, 0.38632923, -0.012706377, 0.06888807, 0.07972946, 0.050907914, -0.004327553, -0.10347508, 0.13026744, 0.30997527, -0.09841469, -0.001644492, -0.23011264, 0.16809785, 0.15797402, -0.002739089, 0.10550991, 0.018749973, -0.04228036, 0.17934793, 0.14846534, 0.069768995, -0.14623496, -0.05014854, -0.12954426, -0.08594047, -0.18668823, -0.2716335, 0.06430235, 0.04110371, -0.053645972, -0.21187378, -0.16909885, -0.16027406, -0.1192132, -0.13812898, -0.014764403, 0.030700842, -0.08092066, 0.015929434, 0.098582506, -0.02498188, 0.002756803, 0.11440688, 0.16038063, 0.2313727, -0.005941974, -0.029323269, 0.25119087, -0.15696089, -0.22353636, -0.09130118, 0.012534144, -0.03279763, 0.18384156, -0.09361357, -0.042955205, -0.21309493, 0.03297913, -0.0020898823, -0.21062788, -0.030364726, -0.19510284, -0.35144874, -0.1161938, -0.22688201, 0.13590506, 0.062319778, -0.20638832, -0.17098896, 0.10363337, 0.10271647, 0.1180805, -0.10954836, -0.016048228, -0.095255665, -0.0101147, 0.008910604, 0.08273855, 0.13878645, 0.09030774, 0.011933955, 0.114652134, 0.17022136, 0.22909686, -0.05844117, -0.08207184, -0.24569683, -0.610112, -0.4408831, -0.40182704, 0.030163478, 0.1338159, 0.25265664, -0.06316339, -0.10001402, 0.16789865, -0.055126194, -0.07518714, 0.044189773, -0.12925646, -0.13056077, -0.19136477, 0.023109097, 0.056523822, -0.014462847, 0.1615395, -0.0855516, -0.002022283, -0.02292067, 0.07024372, -0.040344477, -0.46726617, -0.2618242, -0.030144187, -0.13308543, -0.10567575, 0.18314458, -0.33734924, -0.22912455, -0.21547122, -0.026646392, 0.14944793, 0.1709917, 0.2019176, 0.10136736, 0.14876643, 0.10928465, 0.053456824, 0.07582287, -0.047597516, 0.006608943, -0.056011926, -0.11883333, -0.13704515, -0.033930227, 0.2401513, 0.28578562, 0.15924095, 0.042357966, 0.08542372, -0.013705008, -0.41498512, -0.46844196, -0.39978632, 0.2194924, 0.17664354, 0.18587999, -0.1383765, -0.05759594, -0.13961853, -0.20638378, -0.091182105, -0.025896033, -0.029950397, 0.16711238, 0.27239546, 0.10623637, 0.117021464, 0.16883047, -0.09014061, 0.07079577, -0.061212502, -0.14464071, -0.12524745, -0.2875846, -0.05593223, -0.014957328, -0.1093718, 0.06894793, 0.167411, 0.14264916, -0.18069512, 0.004584598, 0.064187005, -0.047523584, 0.079076484, -0.06862113, -0.10664, 0.12577854, 0.04186681, -0.10711983, -0.008444776, 0.08611967, 0.044035785, 0.059293516, 0.074724324, 0.0660084, -0.044592664, 0.064881004, -0.12075536, 0.06189908, -0.03508573, -0.098186515, -0.103244446, -0.13163616, -0.0067510144, -0.06570198, 0.20889588, 0.054395944, -0.111886494, -0.17605358, -0.26547247, -0.036261424, -0.18592335, -0.16174513, 0.07841883, 0.06300866, 0.1021854, -0.0041217026, 0.13184787, -0.16349673, -0.34431455, -0.31583068, -0.11744556, -0.045471463, -0.05824696, -0.1897417, -0.08404634, 0.0053921095, -0.0008517284, -0.028125659, -0.025451533, 0.07782492, -0.06962839, 0.29799342, -0.12179806, 0.018731924, -0.091872804, -0.080184065, -0.0013206998, 0.16989186, -0.048209913, 0.043376915, 0.054478057, 0.104915075, 0.098503344, 0.049135163, -0.3281959, -0.4286555, -0.35190272, -0.0053613875, 0.036934976, 0.048483584, -0.07635097, -0.12556829, -0.13674627, -0.18913855, -0.02582957, -0.18258394, -0.06769999, 0.03730054, -0.14974836, 0.07265489, -0.0052717826, -0.018204737, -0.016220484, 0.09141768, 0.080610774, 0.02672288, -0.03922148, -0.08133754, 0.21591395, 0.32623446, 0.19995604, -0.04970015, -0.13928448, -0.14658184, -0.23626202, -0.33679372, -0.2363208, 0.03545713, 0.07198911, 0.09715015, -0.1142544, -0.07948887, -0.11525019, -0.04020547, -0.052855145, 0.051319454, 0.03328931, -0.11279281, 0.04745511, -0.05144387, -0.32443115, -0.21448739, 0.07068082, 0.1012618, 0.12621282, 0.076740816, 0.20610411, -0.20215057, 0.15276678, 0.12258116, 0.05837739, 0.10502511, 0.05090189, -0.10735906, -0.13138282, -0.1265081, -0.21263628, -0.3269523, -0.25313112, 0.048396446, -0.10529596, -0.05097307, 0.19215445, 0.14668909, 0.23024108, 0.16434292, -0.029766448, 0.028613385, 0.0025871783, -0.2653779, -0.189177, 0.09229249, -0.019011874, -0.07713518, -0.029682247, -0.012475449, 0.029235804, -0.020961912, -0.103276856, -0.037006013, -0.022020884, 0.006729116, 0.033205904, -0.06932791, 0.00844668, -0.06545033, 0.024579145, 0.018978024, -0.06730405, -0.12223327, -0.045569252, 0.008202306, 0.011707569, -0.06290925, -0.04025513, -0.0720352, -0.019929439, -0.059997965, -0.002252243, 0.024759201, -0.015947869, -0.06343981, 0.033458043, -0.063381165, 0.01916534, -0.08641939, 0.041583292, -0.0039976635, 0.03888917, 0.035655383, -0.09811608, -0.02767051, -0.02299702, -0.06924911, 0.00017871725, -0.09343218, -0.023987195, 0.010690706, -0.10530594, -0.03756609, 0.0059401416, -0.0237032, 0.013559515, -0.016145304, -0.085912764, -0.010300368, -0.0034003046, -0.07115136, 0.053798057, 0.018028175, 0.025704965, -0.07306624, 0.011108972, -0.07972612, -0.05866112, -0.05247567, 0.043809608, 0.030956158, 0.0066374694, 0.05989791, -0.10062584, -0.042239375, -0.0044515613, -0.015256043, 0.08404366, 0.0075818645, 0.022740945, -0.036329575, 0.031195922, -0.04323814, -0.027929997, 0.017005526, 0.0006843796, 0.012925129, 0.044844355, -0.05669666, 0.024265861, -0.08708514, -0.0712357, -0.058978252, -0.017313255, -0.06128188, -0.026479876, 0.0015521671, -0.09386436, 0.017655771, -0.08234785, 0.026334772, -0.07588892, -0.009945851, -0.024578614, -0.024776755, 0.032752946, -0.033256594, -0.018611904, -0.030637791, -0.030303838, -0.031168394, -0.08408656, -0.073268846, -0.072331555, -0.027414963, -0.046155248, -0.10367941, -0.08777501, -0.02268631, 0.031836964, -0.040452447, 0.01834389, -0.016784975, -0.050395876, -0.08238228, 0.012145096, 0.0059690494, -0.07769103, -0.052995663, -0.007484537, 0.057132006, 0.054828428, 0.01620572, 0.028079381, 0.004473962, 0.033726007, 0.06472145, -0.061217766, -0.09983508, 0.037859272, -0.102804884, -0.025872272, 0.021768538, -0.084090285, -0.0011449702, -0.00051296665, -0.07851664, -0.008519998, 0.0161633, -0.04157378, 0.015440024, 0.011497106, -0.046243668, -0.06293371, -0.045720823, -0.047356676, 0.037975915, -0.05224666, -0.09399609, -0.09178181, -0.015032474, 0.035265446, 0.019744117, -0.026499746, -0.020534765, -0.048030734, 0.05114944, -0.067603104, 0.014702357, -0.09759449, 0.042573143, -0.068944514, 0.022954544, -0.046766307, -0.014340666, 0.003606697, 0.025136782, -0.021298662, -0.059765365, -0.029804276, 0.03188327, -0.0804077, 0.046989378, -0.100182034, -0.04837399, -0.087915085, -0.06979519, 0.03411815, 0.076679826, -0.0425755, -0.068722226, -0.026499487, 0.02811876, 0.0012579917, -0.07787341, -0.063660555, 0.04276114, -0.02662279, -0.03900344, 0.06125022, -0.016788555, -0.047059823, 0.0011883638, 0.02517831, 0.009808527, 0.056375194, 0.004322572, -0.083740376, -0.014765491, -0.050285343, -0.0015247978, 0.012411726, 0.049451083, -0.08390819, 0.02252583, 0.019692516, 0.03989373, 0.01797514, -0.06442778, -0.07085499, 0.025409924, 0.0052157044, 0.030174434, -0.084839664, 0.037288364, -0.03150278, -0.0891546, 0.029583931, 0.039129853, -0.10728483, 0.036939334, -0.019271074, -0.05253702, -0.09321431, -0.012759246, -0.04297815, -0.03511293, 0.049291812, 0.044916213, 0.018998595, -0.027260378, -0.07577845, -0.091114864, 0.04877985, -0.004727756, 0.025476163, 0.04232142, -0.018917535, 0.008630067, 0.0407264, -0.093914084, -0.04672867, 0.054648176, -0.06349209, -0.036976222, -0.09004065, -0.05789884, -0.11457324, -0.061876476, -0.04401878, -0.046920095, -0.030123359, 0.0038353135, -0.043866385, -0.032362588, -0.094747595, -0.08178767, -0.005182768, 0.0008836803, 0.06727075, -0.052977793, -0.03366172, -0.015616334, 0.06629237, -0.11285823, 0.017156428, 0.05865913, 0.021739336, -0.022535069, -0.029932985, 0.049692024, 0.030467117, 0.058041155, 0.059911147, -0.08098701, -0.04925233, 0.018819265, 0.00987636, -0.024798041, -0.035050772, -0.012397158, -0.09223437, 0.02600161, -0.257631, 0.13598005, 0.21051231, 0.119105704, -0.24916251, 0.16526318, 0.013778125, 0.048522983, -0.03575309, -0.25622338, 0.13723294, 0.103642546, 0.1126259, -0.05930629, 0.16898511, 0.09508028, 0.12530611, -0.112040535, -0.18848222, 0.29098377, 0.2052699, 0.07753752, -0.27367395, 0.14908573, 0.3221359, 0.054742787, -0.115375794, 0.11114708, 0.0035165013, -0.10249035, -0.23012063, 0.018889973, -0.021964395, 0.0035230666, -0.071777195, 0.032542776, -0.12518296, 0.066666074, 0.040306166, 0.28467512, -0.10983719, -0.12988587, 0.042523336, 0.025135886, -0.027406318, -0.03778941, -0.09980502, 0.02076027, 0.040464923, 0.018975498, -0.18025932, 0.03229831, -0.06993262, -0.031973407, 0.19468106, 0.09000148, -0.14217007, -0.32635283, 0.16230674, 0.057240214, -0.17345805, -0.29145816, 0.24541889, 0.07111885, 0.08249441, -0.14531307, -0.07416038, -0.04657211, -0.07228583, 0.11564473, -0.062044322, -0.012814212, 0.12344334, 0.08025397, 0.06744953, -0.0274688, 0.042072255, 0.033490043, -0.17398202, 0.15555544, -0.059690922, 0.10254717, 0.47389552, 0.261658, -0.06201491, 0.30206597, 0.6886638, 0.5739376, 0.12603498, 0.07031123, 0.086987406, -0.03836186, -0.065626144, 0.19256212, 0.107757404, -0.1495038, 0.18471998, 0.08243577, -0.115268335, 0.055948187, -0.0063381074, -0.1530779, -0.20079817, 0.010060466, 0.08471025, -0.07568983, -0.08832335, -0.0013846578, 0.087826625, -0.118242994, -0.16483706, -0.2487626, 0.15596882, 0.01432169, -0.12440641, -0.14240971, 0.24396624, 0.049128212, -0.044012953, -0.044765037, -0.099987425, 0.048276283, 0.0066138133, -0.018100135, 0.01204363, -0.018258516, -0.052161705, -0.06049368, -0.12539767, -0.048765443, -0.13796572, -0.039872214, 0.14042825, -0.09431564, -0.21630818, 0.15386143, -0.060117595, -0.013223245, 0.19231053, 0.13070917, -0.11631898, 0.034430627, 0.04186387, -0.010939718, 0.30864602, 0.17063452, -0.20748186, -0.17447214, 0.27686948, 0.22810866, -0.0026627234, -0.31032482, -0.02054069, -0.18305783, -0.10092123, 0.038865216, -0.011059592, -0.1120197, -0.07761507, -0.123012826, 0.0063669486, 0.15382795, -0.1829373, 0.0016281698, 0.06657354, -0.22302073, -0.07813524, -0.035311602, 0.013180035, -0.08589988, -0.08027847, 0.15734059, -0.020223448, 0.08721457, 0.03771887, 0.068932824, -0.03234561, -0.051771242, -0.10031338, -0.11279567, 0.037708737, 0.07612857, -0.19449043, 0.015938409, 0.083617486, -0.08884547, 0.034240678, 0.107522115, 0.15165232, -0.36552635, 0.07292144, 0.12728508, 0.068274364, -0.12237835, 0.05130628, -0.11063647, 0.08147096, 0.014561189, -0.104418285, -0.0021642991, -0.029408177, 0.21719247, -0.0051658456, -0.12203819, -0.08102988, 0.10559573, 0.07457732, 0.094017275, 0.053604875, -0.23483881, 0.08263704, -0.33268854, -0.6199158, -0.2212441, -0.15776657, -0.14965186, -0.038119324, 0.25332573, -0.0690914, -0.0831257, -0.11679688, -0.29905155, 0.15362412, 0.018801227, -0.03182003, 0.06447954, -0.06204562, -0.027684048, 0.017368011, -0.04310869, -0.09095424, -0.14264977, -0.15691103, 0.05894398, -0.13864689, -0.12637009, 0.15036772, -0.01318944, 0.07623004, -0.20790885, -0.22864237, 0.05849248, 0.16006185, -0.07534427, 0.08153221, -0.05481427, 0.20280997, -0.16680548, -0.12039248, -0.07597557, 0.11942937, -0.03026461, -0.051230546, 0.0114267375, -0.16592272, 0.055330455, -0.11445576, 0.00023430376, 0.045624897, -0.010197104, -0.13115525, 0.13133892, -0.1172073, -0.111148104, -0.25315195, -0.057473633, -0.3428893, -0.0096312445, 0.00462899, -0.40448293, -0.13212697, 0.047568902, 0.10418081, 0.28890195, -0.07395518, 0.0058683977, -0.07131619, 0.12422251, 0.08139055, -0.11385485, -0.015023107, 0.041639786, 0.13077202, -0.091343306, -0.023464112, -0.021287275, 0.040536784, 0.039538596, -0.037077036, -0.14801486, -0.03838978, -0.035286468, -0.2723018, -0.0528745, 0.09059315, -0.22114275, -0.10685843, -0.22371846, 0.035430167, 0.18293385, -0.47052243, -0.14453824, 0.15858887, -0.39377254, -0.040275514, 0.14005262, -0.17574082, 0.18528503, 0.12899213, -0.101255514, 0.24724789, 0.020519989, -0.14568849, 0.14535716, 0.14639683, 0.13720627, 0.08383014, -0.053896394, -0.032509148, 0.031245483, -0.073979124, 0.23750107, 0.15911663, 0.14693165, -0.011044495, -0.014798643, 0.013776905, -0.29971784, 0.032941118, 0.03238672, -0.30159783, 0.17125879, 0.10101347, -0.14693178, 0.0018743273, 0.05277777, -0.12150763, 0.034586538, 0.056950357, -0.0081780525, 0.023774218, 0.077400856, 0.24347635, -0.101754874, -0.028662406, 0.15944266, -0.21120201, -0.117916204, -0.18301384, -0.15619098, -0.11077463, 0.0022541622, -0.18869725, -0.45658493, 0.07478907, 0.023609007, -0.3797408, 0.2982483, 0.0902205, -0.019091524, 0.010394994, -0.18008594, -0.093620606, 0.048343003, -0.1649034, -0.027947256, 0.06789642, -0.11667461, -0.15815859, 0.014843865, 0.09124958, -0.15200521, -0.37497097, -0.092548035, -0.3335643, -0.029523855, 0.04913884, -0.0331644, -0.11643373, 0.15390259, 0.12550396, -0.12971166, 0.053648714, 0.08187311, -0.08452971, 0.15920085, 0.041370228, 0.09107313, -0.12021501, -0.08670787, -0.123365276, -0.19328757, 0.051762965, -0.42730668, -0.11279943, 0.022004914, 0.16867973, -0.10315839, 0.0090288995, -0.122858755, -0.15617421, 0.08015982, -0.30162233, -0.22124396, 0.05289539, 0.2137493, -0.087492496, -0.32715195, 0.2693285, -0.05113644, -0.22692743, 0.23541105, -0.09016546, -0.04626787, 0.010638561, -0.0079298895, -0.033019934, -0.2091862, -0.023244033, -0.20130093, -0.075273156, 0.0796398, -0.04328871, -0.15936567, -0.07136351, -0.04991341, -0.15132189, 0.025883224, -0.07924152, -0.015380056, 0.15306559, -0.016925419, 0.13238347, 0.22759016, -0.04075043, 0.10850095, 0.2293781, -0.10783472, 0.1637231, 0.16291478, -0.10748299, 0.055277094, -0.19926307, 0.093037985, 0.009721593, -0.29727575, -0.023042357, 0.033243477, -0.12646843, -0.08605919, -0.111833155, 0.064836994, 0.08345834, 0.17805664, -0.1726184, -0.19708276, -0.14638177, -0.12878762, -0.12879537, -0.1261421, -0.37698156, -0.31773597, -0.04856575, -0.5400186, -0.11028095, 0.0071366993, -0.25309914, -0.06881811, 0.22886446, -0.3687683, -0.32907692, 0.058849342, -0.1291566, -0.16810708, 0.09448694, -0.1467503, -0.08749107, -0.29238027, -0.0264229, 0.12199092, -0.13037768, -0.107407205, 0.04537863, -0.13009062, -0.14291674, -0.08087943, -0.048068956, 0.025334874, -0.10936493, 0.1330442, -0.16250303, -0.20882954, -0.007212719, -0.12728389, -0.13654618, 0.013164907, -0.0072774193, -0.19626468, -0.28283617, -0.18050583, -0.33866203, -0.11688743, 0.051896278, -0.10677666, -0.23676258, -0.1060767, -0.15320957, -0.10870852, -0.10163482, -0.17149596, -0.047834337, 0.033343934, 0.12087697, 0.13699134, 0.022667846, -0.17292148, 0.0696846, -0.0011445365, -0.04450841, 0.1627778, -0.033142146, -0.028897235, 0.24881558, -0.110481024, -0.11057272, 0.22014837, -0.28119543, -0.22087926, 0.20783341, -0.16843848, 0.025459174, -0.07581498, 0.05147755, 0.07909338, 0.0031784852, -0.06739383, -0.10991846, 0.12502483, -0.014315134, -0.02143397, 0.10395542, -0.0840883, 0.09073011, 0.020972855, -0.20319827, 0.09738567, -0.20295078, 0.026602186, -0.00019192955, -0.016235618, 0.050543282, -0.0010267532, -0.22452419, 0.15580156, -0.13688059, 0.18431708, 0.18289997, 0.10015018, -0.079676345, -0.12136739, 0.03076371, 0.1262373, -0.22072038, -0.17955813, 0.17099202, 0.00075711205, 0.022760091, 0.11172462, -0.048917715, 0.08229565, 0.05816424, -0.22797152, -0.06606133, 0.21128103, -0.26100066, -0.06797306, -0.047781527, -0.09632095, 0.06313423, 0.17361447, 0.07937785, -0.05974691, 0.11095757, -0.038926598, -0.007973041, -0.20498542, -0.12541501, -0.012114612, -0.0076551093, -0.054093376, 0.038714785, 0.07498546, -0.07765214, -0.16018589, -0.04954745, 0.07312158, 0.1391078, 0.03478441, -0.14243521, -0.066473044, 0.27583453, -0.046029348, -0.016114525, -0.10984001, -0.12853855, -0.11976865, 0.053140618, -0.026332738, 0.015390339, 0.09727391, 0.1677483, 0.113626115, -0.22131383, -0.117550865, 0.054065596, -0.16120027, -0.1918309, -0.10107041, 0.06543101, 0.14096843, -0.07483469, 0.018220102, -0.07696505, -0.05303577, -0.06041069, -0.21962897, -0.09846112, 0.033578444, -0.20286879, -0.19862416, -0.07285984, -0.023236968, -0.08377647, 0.113448106, 0.10001145, 0.032931235, 0.007737959, 0.03754393, 0.09497523, 0.040407002, -0.104823746, -0.02638987, -0.12527323, -0.07413343, -0.054664876, -0.08386614, -0.073332585, -0.025338585, 0.009238024, 0.15590233, -0.14807568, 0.09476906, -0.18014869, -0.06974314, -0.02542211, 0.008487544, 0.14260301, -0.113649115, -0.048845533, 0.14280124, 0.058733754, 0.1329671, -0.05589456, -0.21799742, -0.16506892, -0.23562223, 0.09103977, 0.07032357, 0.115046814, 0.081118375, -0.06437801, 0.0013892406, 0.11764511, 0.034154147, -0.13944598, -0.16155438, -0.107619986, -0.05749816, -0.03377307, -0.1995256, -0.23823915, -0.23387998, -0.34440467, -0.28779858, 0.0633392, 0.060769226, -0.0009267399, 0.13578345, 0.05936039, -0.065636694, -0.21366468, -0.020515215, 0.16941482, 0.19369328, 0.10954914, 0.16700795, 0.029731678, 0.075786695, 0.040623546, 0.07184357, 0.054874543, 0.047429018, 0.22868583, 0.12978336, 0.24912377, 0.21683568, 0.09068437, 0.35694137, 0.1000221, 0.1190986, 0.086684465, 0.038493115, -0.025407428, -0.18732932, -0.26519537, -0.34242272, -0.3248285, -0.10929151, -0.2728669, -0.12806232, -0.19194666, -0.06907199, -0.15189429, -0.09668372, -0.069091626, -0.0070006107, -0.2560335, -0.07640239, -0.13812198, 0.01942009, 0.12902157, 0.03690948, 0.024681149, 0.0885541, 0.065573245, 0.12968524, -0.04120508, 0.017670628, -0.08364587, 0.021587396, 0.23740414, 0.09615188, -0.087331854, -0.035591245, 0.039025914, 0.022770649, -0.030331893, -0.10060119, -0.22028556, -0.26473373, -0.18967955, -0.1954509, -0.22941072, -0.16686489, 0.028343856, -0.050570678, 0.06938454, 0.10410386, 0.013150772, -0.043728195, -0.075834386, -0.05594751, -0.10767754, -0.06466106, -0.06434436, -0.010848323, -0.12176921, 0.12470171, 0.06525204, -0.17806067, -0.04256106, 0.2434035, 0.015044078, -0.091535084, 0.07565442, 0.083356574, 0.053964045, 0.006393747, 0.06865737, 0.10929776, 0.13032828, 0.041998543, 0.23242387, -0.14167242, -0.03723091, 0.113819845, -0.18358609, 0.093253225, 0.11717228, -0.24903023, -0.2655766, -0.08394305, -0.017268145, -0.19334026, -0.15350805, -0.08110548, -0.2122794, -0.12131914, -0.26492742, -0.3106534, -0.14635396, 0.059104513, 0.12932026, -0.05787546, 0.13790283, 0.10605549, -0.000406829, -0.018720707, 0.0062760958, 0.07334099, -0.07027262, -0.089921206, -0.042812843, -0.12786165, -0.016741225, -0.078907825, 0.1295298, 0.086464636, 0.008808578, 0.014593073, 0.03459048, 0.11499663, 0.05053481, 0.051629264, 0.12588064, 0.09155931, -0.04938115, 0.08247988, -0.3241616, -0.024544954, -0.009619389, -0.29573384, -0.35796025, -0.2486875, -0.12092399, -0.2305884, -0.2865969, -0.15644023, -0.18496324, -0.18076374, -0.06460548, 0.12042648, 0.019400014, -0.08255182, -0.3243384, -0.20697024, 0.09116417, 0.06170452, 0.14764924, 0.063872255, -0.0865507, 0.031870764, 0.20825209, 0.039327342, 0.06410626, -0.046471886, 0.07249578, 0.028250137, -0.04736121, -0.13015507, 0.039547756, -0.07299176, -0.11756235, -0.17709383, 0.119940765, 0.0271854, 0.14750336, -0.34393597, 0.059059847, -0.15348536, -0.060091786, 0.05894852, -0.16526845, -0.049785167, 0.07706952, 0.011297628, 0.08080689, -0.10202221, -0.14710563, -0.107480995, -0.13598676, 0.011172453, -0.0015707702, -0.22367087, 0.05611787, 0.007082085, -0.073867336, 0.12611945, -0.25981906, -0.11751381, -0.086444885, -0.32168818, -0.23954494, -0.13077053, 0.09855894, 0.023613477, 0.076047555, 0.28526354, 0.46284735, -0.12671675, -0.14106788, -0.2256646, -0.25431985, -0.061451398, -0.07666879, -0.016093686, -0.008383654, -0.12631041, 0.07310838, 0.11588409, 0.11818316, 0.039186254, 0.005733887, 0.069962054, 0.13542403, -0.13967888, -0.1717955, -0.0808104, 0.053230017, 0.2675469, 0.027087715, 0.06016402, 0.27432388, 0.22921602, -0.08037966, -0.049597457, 0.16556735, -0.30148083, -0.0796393, 0.1872178, 0.0808156, -0.13886884, 0.06633581, 0.21393245, 0.13889717, 0.087808475, -0.09688124, 0.034917105, -0.11635246, 0.11089907, 0.16531473, 0.2502708, 0.011533966, 0.26374197, 0.073989496, 0.19821547, 0.18061826, 0.15453248, -0.14821546, 0.17365447, 0.41256133, -0.60511494, -0.2085995, 0.32565495, 0.04124224, 0.09874514, 0.07394287, 0.059188385, -0.04422257, -0.0052465065, -0.14483409, -0.055870526, -0.033503838, 0.0010768415, -0.038670342, -0.109507196, 0.15648393, 0.14391094, 0.026477538, 0.08377982, -0.008939691, -0.18601601, 0.16079897, 0.21897845, -0.07159908, 0.14704646, 0.036590103, 0.061643105, -0.11757434, -0.068115905, -0.19084676, -0.18865408, -0.1293123, -0.06516489, -0.041030373, 0.0015042765, -0.042592235, 0.14949742, 0.19544151, 0.108454935, 0.1611181, 0.1195849, 0.26828733, 0.113262974, -0.016534671, 0.16912735, -0.3329242, -0.34986624, -0.21609467, 0.053305555, 0.027368184, -0.08838461, 0.008550081, 0.088993646, -0.010494431, -0.20219721, -0.114409424, -0.16094038, 0.12588193, 0.0924735, -0.09091993, -0.016551977, 0.22396544, 0.24272822, -0.2058376, -0.14331801, 0.15372914, -0.1779219, -0.27426413, -0.3272887, 0.13101034, -0.009475368, -0.1147767, 0.09128309, 0.04821988, 0.052054368, 0.10619038, -0.309442, -0.12197551, -0.13949955, -0.1696991, -0.09317184, -0.004930749, 0.0030984345, -0.001400962, -0.00042005887, 0.09531092, -0.06589918, -0.26715562, -0.12644032, 0.22705102, -0.15327998, -0.10860617, 0.07618788, -0.047236875, -0.21192221, -0.15050526, 0.14217079, -0.05649884, -0.200771, 0.15016338, 0.10289591, 0.083536, -0.12293896, -0.10997675, 0.29177493, -0.31144512, -0.19308414, 0.006388541, -0.011511308, -0.018937998, 0.014179907, -0.048518784, -0.28394002, -0.12605375, -0.14189959, -0.16635057, -0.12041112, -0.080660485, -0.002736263, 0.006635255, 0.032855038, -0.14367513, -0.24933864, -0.037593376, -0.16847862, -0.18689501, 0.16388649, -0.15253045, -0.1438845, -0.07384722, 0.27221894, 0.19638528, -0.1255349, 0.088838935, -0.17806545, -0.319957, -0.26540247, -0.52764577, -0.02098466, -0.15541242, -0.27931076, 0.018294806, 0.049962223, 0.05086938, 0.03721575, -0.0065771323, 0.1281787, -0.025666848, -0.053318106, 0.015331263, -0.006865159, 0.0107271895, -0.15756007, 0.09466574, 0.15203977, -0.067089885, -0.027953586, -0.12767428, 0.0497849, -0.24833092, -0.08858598, -0.21671955, 0.04964909, 0.100288145, -0.073329985, -0.23987241, -0.38327345, -0.33511287, 0.15636651, -0.06302538, -0.50881153, 0.101493165, 0.017747201, -0.00811342, -0.36911184, -0.29000548, 0.041907184, 0.04939566, -0.013920992, -0.06475926, -0.2644466, 0.097413376, -0.18331665, 0.12076536, 0.06847363, -0.15764615, -0.047639277, 0.0383122, -0.1416642, 0.0373235, 0.10729567, 0.020042805, -0.011455119, -0.039271556, 0.04774891, -0.28609726, -0.15752594, -0.27559954, 0.101059064, -0.0067471154, 0.16191155, 0.02451952, -0.042768486, 0.059185132, -0.002277518, -0.14939447, -0.072503604, 0.03304913, -0.08456512, 0.013894459, 0.09180731, 0.108561136, 0.06567077, 0.0957432, -0.0005878729, -0.0072680633, 0.04304951, -0.051851306, -0.19053003, 0.16779953, 0.2419793, 0.14607903, 0.13260284, 0.114925556, 0.009318038, 0.27303305, 0.06293111, -0.08179893, -0.2515011, -0.25607806, -0.31211603, -0.16549033, -0.24547666, -0.22168465, 0.24731311, 0.11348407, 0.24739674, 0.11457433, -0.19635864, -0.01211987, 0.02880077, -0.29362097, -0.15903713, 0.095252305, -0.2071025, -0.1575069, 0.011331052, 0.12423305, 0.041827727, 0.05857679, 0.06648099, 0.032806765, -0.00030187718, 0.007186285, 0.04033089, -0.2867499, -0.36165035, -0.26177308, -0.51996124, -0.49075195, -0.41226766, 0.040357966, -0.16080414, -0.12652309, -0.00937946, -0.03827085, 0.004493598, -0.027547732, 0.0006230371, -0.07792411, 0.0119597, 0.083885476, 0.07604968, 0.030254962, -0.08505948, -0.13292994, 0.23599206, 0.01271356, 0.034882337, 0.2124485, 0.14766848, 0.10572035, -0.35624206, -0.44713894, -0.6242232, -0.0295597, -0.3928975, -0.7731911, 0.32471955, -0.13212645, -0.10786943, -0.003682654, 0.116473906, -0.012716446, 0.014854031, 0.0385986, 0.011232007, -0.14367206, -0.045543224, -0.07355216, -0.115202904, -0.10809803, -0.05724676, -0.15813956, -0.09390456, 0.026983617, -0.04292218, -0.02325293, 0.1317773, 0.04083868, -0.1351543, 0.046283416, -0.17503445, -0.22777855, -0.23572119, -0.13433053, -0.065081686, -0.1537526, -0.012393432, -0.068723746, -0.09996015, -0.08492221, -0.07993301, 0.024720699, -0.0667481, 0.007817786, 0.031001199, 0.22140369, 0.14202672, 0.15224671, 0.0011251625, 0.06356868, 0.06990998, -0.22826034, -0.20340508, -0.20935626, -0.008726217, 0.07466478, 0.064490676, 0.05122593, 0.100860946, 0.15578595, 0.13450561, 0.124632515, 0.080666244, 0.018943738, -0.22331542, -0.10800708, -0.03874372, -0.23540568, -0.25825235, 0.19127314, -0.08479472, -0.17431359, -0.009330318, -0.039538354, -0.016261892, -0.120321825, -0.17930849, -0.022364333, 0.028115533, -0.20763196, -0.12360649, 0.04281892, 0.19184685, 0.09880972, 0.0802811, -0.011708725, -0.012940218, -0.06517548, -0.109049246, -0.22105265, -0.043330587, 0.049058955, -0.039456535, 0.08701123, 0.0030981204, -0.06840149, -0.015318895, -0.0126373395, -0.09586117, 0.024283513, -0.037583705, -0.01861594, -0.105869345, 0.045070276, 0.0028233384, -0.001046704, 0.09823774, 0.088111736, -0.08204432, 0.0010241796, 0.16046102, -0.15778752, -0.14622512, -0.063575976, 0.069529295, -0.105199926, -0.011007056, 0.09410412, 0.14867644, 0.12795271, -0.10670888, -0.14448997, -0.04386893, 0.050717372, 0.026085522, 0.06648417, -0.19676273, -0.34511393, -0.30377832, -0.42855126, -0.26816073, -0.35335377, 0.061678816, 0.104979254, 0.23365961, -0.026988933, 0.08033792, -0.021874214, -0.028376149, -0.0016614883, -0.10145628, 0.08616307, -0.021873726, -0.052762587, 0.0003691368, -0.053507335, 0.071225256, -0.08767871, 0.009339555, 0.0344479, -0.088421285, -0.05433684, 0.018251581, 0.00971197, -0.20926343, -0.21615648, -0.061321467, -0.24688809, -0.2631792, -0.0041410103, -0.08028841, -0.058367707, 0.13120553, -0.01961297, -0.034804117, -0.012080895, -0.21770217, 0.013614306, -0.015995918, 0.037752945, 0.06732813, 0.024369573, -0.3347731, -0.24407867, 0.01570814, -0.38784724, -0.16170345, -0.06273583, -0.2967646, -0.20777637, -0.15253955, -0.026680805, -0.18265599, -0.2206922, -0.14610104, -0.21209548, -0.029694721, -0.06414261, -0.0048286114, 0.17514277, -0.09613175, -0.061592344, -0.030111013, -0.29070508, -0.107370645, 0.20187603, 0.16158706, 0.09155013, 0.13975964, -0.07233551, 0.09427143, -0.027402807, -0.113782346, -0.022178842, -0.070556484, -0.07516471, -0.0021927329, 0.2092877, -0.020641834, 0.13894114, 0.013324346, -0.06079152, -0.043634806, -0.09516345, 0.0131427245, -0.16326569, -0.085990205, -0.39521998, 0.02752442, 0.15112472, 0.0045534866, -0.4501579, 0.13351886, 0.18236694, -0.093216114, 0.110889025, 0.054869372, 0.45115054, 0.3261149, -0.17289561, 0.072590776, -0.021063026, 0.057402726, -0.32404956, -0.08578553, -0.018530952, 0.16008732, 0.024130676, -0.13039455, 0.26612625, -0.037182614, -0.07481342, 0.2485794, -0.07267315, -0.47142756, -0.035486568, 0.030917427, -0.07487533, -0.4234301, 0.053034063, -0.002007674, -0.021320002, 0.07725212, 0.057404887, 0.05255788, 0.054863416, 0.05520429, -0.09652637, 0.03303448, 0.118785545, 0.09232906, -0.25407672, 0.15755616, 0.2856605, -0.46183094, 0.062122967, 0.41686335, -0.08693106, -0.33639032, 0.24753202, -0.3161829, -0.18547273, 0.23744734, -0.03662648, -0.33345175, 0.20903474, 0.13677274, -0.20090415, 0.026299328, -0.04889229, -0.21006791, -0.015777167, 0.055156704, -0.0119477445, 0.16565727, -0.014149651, -0.16479981, 0.04460641, -0.11433393, 0.22298756, 0.07592691, 0.09269917, -0.28835985, 0.2855594, -0.036654092, -0.13190998, -0.31918418, -0.08788799, -0.12495307, 0.027716396, -0.03435504, -0.047245342, -0.031181434, 0.13211924, 0.08523769, 0.018685631, -0.11467405, -0.31508088, 0.121363625, -0.08210512, -0.24273694, -0.064944565, 0.043931954, -0.24386066, -0.017125146, -0.21274093, -0.015212873, 0.17726381, -0.29056415, -0.079903714, 0.2467054, -0.08264547, -0.11963061, 0.16959344, 0.08558536, 0.061620068, 0.02149266, -0.081235446, -0.047490112, 0.07831935, 0.02432603, -0.03918343, 0.035935767, 0.0032163728, -0.05383468, 0.14868496, -0.18056132, -0.16980496, 0.03692711, -0.07111973, -0.035658106, -0.18893665, 0.05068464, -0.00010451721, -0.033597156, -0.20579104, 0.10366115, -0.10239373, -0.19707617, -0.2607406, -0.016595483, -0.009857105, 0.29780507, 0.14815997, -0.35858148, 0.16957778, 0.2928745, -0.052195396, -0.30764332, 0.12937844, 0.099515304, -0.16959296, -0.105613224, 0.053219277, 0.029543303, -0.15539111, -0.015979584, 0.07069688, 0.04250016, 0.2416995, 0.1277143, 0.06470437, 0.016564533, -0.07770287, 0.006780128, -0.058891445, -0.21684463, -0.20134398, 0.042991012, -0.062490955, -0.28701282, -0.45552242, -0.1532579, -0.15483949, -0.07585035, -0.46042576, -0.17300518, -0.12314826, -0.19552614, 0.15447536, -0.046100575, -0.3171034, -0.022268033, -0.002827061, -0.07794407, 0.054676976, 0.2515365, -0.15646413, -0.0010373262, 0.11546546, 0.15241809, -0.045946255, -0.069639474, 0.049730755, -0.07268197, 0.15790394, -0.12218287, -0.013917307, 0.029302757, -0.055149376, -0.098007165, -0.07975634, -0.03293556, -0.13505964, -0.47131115, -0.2753944, 0.28248113, -0.40906382, -0.22178683, -0.1508388, -0.08485408, -0.15123287, -0.03257065, 0.06120157, 0.106517226, -0.13021974, -0.19543804, -0.30578384, -0.28751266, -0.1113352, -0.25020945, -0.22294328, 0.13518453, 0.086720824, -0.07257822, -0.020282846, -0.0058810143, 0.027076801, 0.02597702, -0.038928848, 0.075250216, 0.14897731, 0.017036356, 0.003426447, -0.07221369, -0.06510336, -0.13617022, -0.11087865, -0.12464326, -0.052609973, 0.19861472, -0.08680511, 0.22697312, -0.025569284, 0.0050738617, -0.021387383, -0.051876985, -0.04594622, -0.049232624, -0.3099877, -0.8008173, 0.08062689, 0.042895954, -0.15494886, -0.45319813, 0.07160954, 0.07640957, -0.1673951, 0.25389224, 0.016005842, 0.049432576, 0.0011726827, 0.06023405, 0.35003892, -0.03210236, -0.19228594, -0.066021726, 0.12201612, 0.0012929451, 0.16339582, 0.057526316, 0.2318613, 0.10768526, 0.00255682, 0.025109267, -0.12133879, 0.27457747, -0.03173213, 0.011919702, -0.023902012, -0.05378712, -0.051879693, -0.013236152, 0.010619404, -0.1485185, -0.4030098, -0.25394157, 0.09319751, -0.091348514, -0.44975114, -0.027998107, -0.11220982, -0.13614209, 0.19088604, 0.06577317, 0.17382775, 0.07186132, -0.16981891, 0.14771602, 0.06295725, -0.244892, 0.13093694, -0.018426772, -0.24205606, 0.08655825, 0.19096826, 0.064429924, 0.11445533, -0.11538541, 0.20274353, 0.26091364, 0.1535568, -0.037883963, 0.08885211, -0.017390253, -0.06593472, 0.053455442, 0.075130895, 0.18270822, -0.04382465, -0.061564527, 0.17436203, -0.0021652167, 0.013318028, 0.12267958, 0.16322578, -0.053456567, -0.06581766, 0.18962096, 0.061617102, -0.0041813455, -0.036013313, 0.009670463, 0.013729568, 0.050596774, -0.024330547, -0.044173736, 0.011785618, 0.07111201, -0.111924835, -0.2983421, 0.23847218, -0.3341488, -0.2646781, -0.030351236, -0.17340729, 0.07669742, 0.056581028, -0.18232499, -0.07740514, 0.06770954, -0.22577892, -0.08298645, 0.07950191, -0.05678647, -0.15837735, -0.082144886, 0.21395028, -0.07719524, -0.106224634, 0.04209954, 0.18954651, 0.17176823, 0.025670087, 0.15596516, 0.3215563, -0.08583776, -0.22717024, 0.33485776, -0.08844915, -0.23576641, 0.21114878, 0.14617419, -0.03180768, 0.21489754, 0.02930695, 0.07947537, -0.058801733, 0.13758038, 0.08094259, -0.07121141, 0.1302741, 0.001412064, -0.0705528, -0.30648127, -0.10931086, -0.06521011, -0.29729345, 0.059405178, -0.018049026, -0.15186758, 0.122770004, 0.10669451, -0.17820983, -0.11064847, 0.13476153, -0.37835324, -0.030445736, 0.036979422, -0.15728162, 0.13361408, 0.072302595, -0.038101032, -0.14924479, -0.10471882, 0.024331102, -0.08447236, 0.011431221, 0.08222702, 0.06744837, 0.071317054, 0.043222595, -0.11141468, 0.02663133, 0.0127222035, -0.09686035, 0.012984701, 0.024757603, 0.12745348, 0.031366512, -0.23784587, -0.1756326, -0.09465035, -0.054134496, -0.13804297, 0.04907218, 0.14842512, -0.018596048, 0.13518158, 0.31683233, 0.11448657, 0.04162931, 0.31030372, -0.04352971, 0.020056318, 0.2056524, -0.07255915, 0.074641, 0.0074171983, -0.20855671, -0.07019029, -0.12045987, -0.41625583, -0.069145635, -0.07340216, -0.2415972, -0.1592878, -0.064783834, -0.6620067, -0.04076523, -0.29930285, -0.7737607, -0.08924099, -0.13680623, -0.14581396, -0.21332145, -0.21138942, -0.42449135, -0.11500692, -0.1896423, -0.064509526, 0.0857319, -0.13885306, 0.31482556, 0.17542967, -0.19367386, 0.08336103, 0.0360877, -0.14953083, -0.02072855, 0.01103338, -0.15022515, -0.0164394, 0.079274274, -0.07036937, -0.10382729, 0.07408737, 0.010792052, -0.23827001, -0.07120927, -0.10771719, -0.117533095, -0.07524396, -0.028043844, -0.025174374, 0.027314192, 0.006247989, -0.25281653, -0.06200247, -0.097251676, -0.27257234, -0.20064138, -0.23836532, 0.03286866, 0.002695596, 0.051204823, 0.07147902, -0.10813305, 0.056693047, 0.04742677, 0.28507212, -0.15230957, -0.2851024, -0.1292634, -0.26879892, -0.058224663, -0.04235656, -0.19445528, -0.26193434, -0.1632246, 0.027831653, -0.25587878, -0.18660198, -0.054775268, -0.25167915, -0.10988378, -0.10379443, -0.042851638, -0.11201969, 0.1080015, -0.2849174, -0.057948835, 0.04633945, -0.32051533, -0.025052136, -0.04786652, -0.07624281, -0.018646754, -0.07421291, 0.05158334, 0.11766132, 0.022040855, -0.3555755, -0.18687387, -0.14524807, -0.39964747, -0.054185394, 0.07942005, 0.16084914, -0.041055597, -0.15090886, 0.16969708, 7.4629905e-05, -0.099572934, 0.1711362, -0.039151106, -0.11153105, -0.4342664, -0.16060534, 0.030840984, -0.051532507, 0.082549095, 0.019598912, -0.07553486, -0.11293771, -0.05862648, -0.120256275, 0.090117976, 0.19403453, -0.46147916, -0.14157781, 0.0037035095, -0.19067043, 0.006847041, -0.22310351, -0.25464872, 0.21794602, -0.05862293, -0.3249349, 0.06408274, -0.14742477, -0.18905127, -0.10080232, -0.14114654, 0.032747857, 0.009477929, 0.030086862, -0.0033321732, -0.027325628, 0.04782907, -0.016396647, -0.10445934, -0.064002715, 0.021344794, -0.093082234, -0.053812772, 0.032108422, 0.006242406, -0.055161793, -0.078706086, -0.03726532, 0.04549248, 0.024119431, -0.078202754, -0.032936294, -0.0016739531, -0.07777579, -0.044614602, -0.05375871, 0.047786333, -0.021186981, 0.038244814, 0.049845207, 0.034682512, -0.04832738, -0.0050909026, -0.0743088, -0.035652228, -0.041428454, -0.008471861, -0.012433345, -0.11594882, -0.05733203, -0.087398656, -0.00069301046, -0.1307298, -0.0076108496, -0.11307399, -0.0649783, 0.0051941024, -0.103089444, -0.099819675, -0.013803758, -0.056059483, -0.081182875, -0.113778986, -0.053316362, 0.028743755, -0.020518856, 0.01205722, 0.026681004, -0.09435918, -0.019319694, -0.03418169, -0.10125897, -0.008444826, 0.028609278, 0.060273487, 0.0013788383, -0.0271081, -0.057059467, 0.0026340133, -0.047724683, 0.03308562, 0.04712532, -0.06286584, 0.029740427, -0.081708044, -0.044232067, 0.06166126, 0.058644984, -0.043062676, 0.03496664, -0.041396376, -0.030313877, -0.07530198, 0.0701111, 0.071148776, 0.0215686, 0.034475498, -0.1309398, -0.065608844, 0.008358468, -0.080413036, 0.05258603, -0.03914617, -0.114457004, 0.053576015, -0.007985582, 0.0037066645, 0.0075733876, -0.06732958, 0.059578482, 0.008248763, -0.05891315, -0.07268614, -0.12906726, 0.010173952, -0.12023152, -0.0887159, -0.0008049766, 0.036717962, -0.009696462, -0.030293807, -0.003270539, -0.13974681, -0.11242684, -0.09355038, -0.07030233, -0.12089857, 0.04764002, -0.04504768, -0.013539415, -0.02497383, -0.09883667, -0.046461653, -0.008160974, -0.09679004, -0.10205712, -0.0020125692, 0.0935955, -0.033736028, -0.0031246794, -0.02416719, 0.015832333, -0.009754061, -0.004243967, 0.07414179, -0.097567, -0.03271788, -0.09685264, 0.036170248, -0.055609223, 0.016621001, 0.004066442, -0.010811636, 0.008147519, 0.01226749, -0.08879118, -0.05573916, -0.018017089, -0.07019663, -0.06752298, -0.06697264, -0.076349154, -0.046826955, -0.032789998, -0.07571288, -0.057584725, -0.017158438, 0.025666472, 0.013674238, -0.12494249, -0.043718833, -0.11970623, -0.03853063, -0.12074151, -0.043839112, 0.013976294, -0.02421809, 0.021306153, -0.018127209, -0.11240029, -0.09037806, -0.07968346, 0.0009498575, -0.023783525, -0.057700217, 0.026133612, -0.1036165, -0.13985139, -0.011768321, -0.02389234, -0.009288776, 0.022001233, -0.06864541, 0.006491786, -0.033747666, -0.060044963, -0.04087954, -0.048658486, -0.08100648, -0.08843494, -0.11842272, -0.06437864, 0.020181827, 0.039245505, -0.047476027, 0.018351551, -0.12600307, -0.04968535, -0.0007263336, 0.024657715, -0.060253106, 0.06396094, 0.027702875, 0.020392615, -0.08510075, -0.027291512, -0.04911017, 0.077093706, -0.01315527, -0.06653368, 0.050122593, 0.05449103, -0.01836738, -0.013666302, 0.008264081, 0.0398092, -0.08460755, 0.021109764, 0.029924292, 0.036768794, -0.003678716, 0.016659947, -0.053108238, 0.05830858, -0.028715812, -0.06775172, -0.05973369, -0.10813854, -0.0063925837, -0.013684364, -0.03372922, -0.0549092, -0.056813125, 0.00988528, -0.050563686, -0.015773397, -0.08836303, -0.0007621235, -0.06304205, -0.09814854, -0.06490723, -0.10518652, -0.13022417, -0.07550774, 0.022209387, -0.064492956, 0.06562117, -0.045153897, 0.039499912, 0.0022055446, -0.01692155, -0.027142659, -0.049331296, -0.11714757, 0.01632468, -0.10654367, -0.11836152, -0.044184376, -0.0014909725, -0.08484709, 0.04666938, -0.029513532, -0.0123548275, -0.022520777, -0.008261269, 0.0856484, -0.03250791, -0.07014409, 0.058303438, 0.09607103, -0.054292165, -0.11795596, -0.09217022, 0.014818769, -0.0027326865, 0.03620985, -0.051529534, -0.10003079, 0.030449072, 0.0001889699, -0.050060138, -0.11568564, -0.08658642, -0.0355567, -0.07921856, 0.0027303156, -0.115086086, 0.0049015745, 0.021369644, 0.054968767, 0.03826649, 0.06035229, 0.043792922, -0.03357151, -0.082416326, -0.1213057, -0.046469767, -0.12082754, 0.041446894, 0.097773984, -0.13930099, 0.015629485, 0.014531519, -0.15022968, 0.043631434, 0.08940649, -0.06459711, 0.035976414, 0.17678024, 0.0049277833, 0.051262148, 0.1484946, 0.07266812, -0.014502819, -0.028071936, -0.299546, -0.30081475, -0.47997066, -0.07036729, 0.11671894, -0.024221072, 0.0025157074, 0.21796687, 0.15309311, 0.051019058, 0.116579555, 0.13389349, -0.10793973, 0.092205964, 0.038394526, 0.0032615922, 0.052932937, 0.07175278, -0.46470055, -0.048322897, 0.3922068, -0.4323948, -0.11363042, 0.44436267, -0.3474123, 0.00555527, 0.28892127, 0.16325359, 0.107552744, -0.18177313, 0.030777134, -0.024776436, -0.121895626, -0.024765337, -0.05874451, -0.18890765, 0.27592722, -0.08842838, -0.27683645, 0.14492476, -0.0048193275, -0.21260329, 0.26654214, 0.103213295, -0.18294992, 0.01100627, 0.022102114, 0.16429937, 0.3235202, -0.10520659, -0.2846205, 0.0932396, -0.08064726, -0.23483978, 0.016847415, 0.17412893, 0.09353678, -0.25953722, 0.10881301, -0.054739866, -0.24982004, -0.016120259, 0.057569396, -0.5205615, -0.127505, 0.2983358, -0.44718948, -0.034189172, 0.34094462, -0.22560638, 0.17069016, 0.28864652, -0.023831451, -0.07692077, 0.031282347, -0.3146638, -0.20759277, 0.035421908, -0.1201672, -0.06856022, 0.0873831, -0.10861056, 0.108135104, 0.10133173, -0.08087153, -0.09458795, 0.04798429, -0.050478682, -0.15978149, -0.110768124, 0.2783399, -0.053872064, -0.55568874, 0.32906938, 0.020702817, -0.45980346, 0.3071867, 0.14065315, -0.18309037, -0.11186248, 0.28461, 0.10897981, -0.03470035, 0.1582107, -0.03825567, -0.0029124762, 0.18334575, 0.07422074, -0.3730513, -0.043399267, 0.25547448, -0.57543164, -0.030349946, 0.42841446, -0.435803, 0.09032228, 0.40572315, 0.16760786, -0.007865953, -0.030889919, -0.17997319, 0.013212724, 0.120909356, -0.12829007, -0.01112038, 0.059301767, -0.10420334, -0.036764048, -0.1205377, -0.2294548, 0.09871529, -0.033108488, -0.2208459, 0.122668214, 0.08642554, -0.02966076, -0.079938546, 0.074198194, -0.10056493, 0.10682906, 0.16126691, -0.1802394, -0.032316342, -0.028727196, -0.039622277, 0.20027456, 0.3024978, -0.2586143, 0.034576684, 0.27570444, -0.48955917, -0.2964794, -0.04968236, 0.31124488, -0.17318542, -0.5480936, 0.34281698, -0.06568488, -0.52616346, 0.4771669, 0.1611764, -0.28673396, 0.039144594, -0.19370952, -0.01223376, 0.053378962, -0.1701374, -0.11331251, 0.022684734, -0.24847654, -0.12204542, 0.13172263, 0.12821744, -0.046889294, 0.071367055, -0.08946996, -0.062470675, 0.03921006, 0.057967402, -0.017273635, 0.11781975, -0.25529066, -0.23210923, -0.124522455, -0.051659137, -0.20529333, 0.20468234, 0.00039632482, 0.048253976, 0.2063672, 0.008374407, 0.0016093694, 0.2934269, 0.19950376, 0.12793902, 0.26575604, 0.24752155, 0.13892496, -0.19875483, -0.07906682, 0.07275786, -0.27589527, -0.09157763, 0.21181104, -0.120611675, -0.080541715, 0.15170246, 0.2883184, 0.17826405, -0.016628098, 0.012938813, 0.003444146, -0.06324318, -0.0060541173, -0.09901107, -0.1442251, 0.049353994, 0.044206433, -0.14154108, -0.11077656, 0.06072938, -0.15225515, -0.15234463, -0.062208764, 0.05148524, 0.10096843, -0.0621953, -0.07487863, 0.119488984, 0.15513179, -0.038840506, 0.14545844, 0.17761347, 0.15096915, -0.33936575, -0.23402539, -0.115437575, -0.014884476, 0.14017734, 0.043549858, 0.08091934, 0.3228973, 0.18170136, 0.08360998, 0.11372114, -0.0696352, -0.033202354, -0.010416357, -0.11003467, -0.2014195, -0.08786541, -0.07586478, 0.1948485, -0.02468624, -0.2616632, 0.27008563, 0.020140076, -0.28695053, 0.15834305, 0.031264875, -0.15976284, -0.01811511, -0.0013868025, 0.02548432, 0.032396592, -0.2134022, -0.31418586, 0.08787711, -0.15489043, -0.033264402, -0.031773113, -0.057154022, -0.18530752, 0.042590745, 0.0967406, 0.059079945, -0.038099658, 0.040613633, 0.12103901, -0.26983884, 0.21481468, 0.013838529, -0.024732165, -0.10279341, -0.17213283, 0.08464571, 0.1420866, 0.12484217, 0.089901455, 0.09343386, -0.1729027, -0.052305866, -0.34499204, -0.42182755, -0.17146447, -0.36206824, -0.31563663, 0.13924943, 0.17184636, -0.022356242, 0.05766378, 0.07479919, 0.007618917, -0.10033095, -0.28888613, -0.270897, -0.09808428, -0.2879751, -0.27631813, 0.012173745, 0.01077907, 0.0053883996, 0.13899522, 0.21782671, 0.25045955, -0.028852886, 0.020511303, 0.020660834, -0.09750113, -0.041509878, -0.03840814, -0.06356475, 0.018501032, 0.06855604, -0.092777155, -0.13989131, -0.11325298, -0.08541722, 0.044455785, 0.0948759, 0.23858114, 0.22413178, 0.34493515, 0.056439973, -0.13607943, 0.058924023, 0.015774963, -0.27714524, -0.07145407, -0.009065736, -0.26364598, -0.2990627, 0.023562195, 0.044790473, 0.05956219, -0.02514324, 0.2388054, -0.06299622, -0.06777886, -0.09984097, -0.08021261, -0.23549493, -0.6939694, -0.4190412, -0.08520239, -0.20240743, -0.058376607, 0.17614456, 0.23479854, 0.30060652, -0.077199616, -0.13318808, -0.09101567, -0.19396621, -0.1630728, -0.21990116, 0.09118263, 0.0025697495, -0.065555684, 0.0071561844, -0.079248935, -0.164276, 0.040799223, 0.022609118, 0.035618138, 0.2295156, 0.15091777, 0.08972404, 0.12064218, 0.09075748, 0.018339206, 0.094047114, 0.11451881, -0.06339874, -0.07052416, -0.10193634, -0.09532479, -0.6622532, -0.6646382, -0.30239514, 0.03321925, 0.15487662, 0.4472962, 0.31078595, 0.42946842, 0.5769857, -0.2280507, -0.1264141, -0.21039195, -0.08874684, -0.28372914, -0.2355526, 0.09699611, 0.15274951, 0.056146555, 0.1435219, 0.14444812, 0.024401441, 0.17766066, 0.15865406, -0.05875269, 0.025506787, 0.13071378, -0.02088555, 0.023947436, -0.1449509, -0.2263293, 0.11575464, -0.12239845, -0.13104746, 0.11151626, 0.048392653, 0.0050654113, -0.23094364, 0.039265774, 0.010192097, -0.11566032, -0.081490755, -0.1935134, -0.08105249, -0.28843367, -0.15444514, 0.0449815, -0.020760773, -0.099832915, 0.17689744, 0.01728867, -0.19466093, 0.12654571, 0.14881845, 0.103534244, 0.0697973, 0.017907748, 0.036940265, -0.08083965, 0.039922316, 0.062358037, -0.07562749, 0.075323574, 0.13570246, -0.018213749, -0.004727081, -0.17183627, 0.17051396, -0.15369757, -0.31571245, 0.05355517, -0.1359429, -0.12004888, -0.11463209, -0.011155999, -0.23872444, 0.12353053, 0.021150528, -0.02607555, 0.17674983, 0.15996014, 0.09476054, -0.0027021233, 0.22854118, 0.08391632, 0.15730599, 0.07449915, 0.15211068, -0.044748552, 0.05015286, -0.025331073, -0.086518504, -0.33583215, -0.42956433, 0.033964705, -0.25181696, -0.19831856, 0.15102549, -0.22592193, -0.17491396, 0.068282396, -0.12755154, -0.15327321, 0.07685206, 0.07033356, -0.13606577, 0.007953761, -0.037860136, -0.10900132, -0.026922077, 0.022512583, -0.050391924, 0.09235483, 0.0198658, 0.0618099, 0.06890953, -0.04124739, -0.06356389, -0.10454176, 0.08509703, -0.092458144, 0.07391314, -0.085270494, -0.07723135, 0.047584705, -0.05585222, 0.037503544, 0.13339257, 0.15183957, 0.111212246, -0.064382724, -0.03883536, -0.1591036, -0.14585273, -0.2706165, -0.2416748, -0.13579868, -0.15875214, -0.20323414, -0.06571447, -0.16081421, -0.20831093, 0.088662684, -0.14756511, -0.2523898, -0.0094025405, 0.062621325, -0.032556515, 0.15029325, -0.124051765, -0.16979216, 0.06577869, 0.09002409, -0.12568027, 0.031098291, 0.029817283, -0.06447344, 0.00032146368, -0.039381478, -0.12744458, 0.015912166, 0.04033489, 0.023837151, 0.12687409, 0.15544035, 0.18910775, -0.033882517, 0.040793195, 0.07773754, 0.07288153, -0.10718564, -0.10626613, 0.04622334, 0.14704822, 0.0021947266, -0.19565955, 0.022491297, 0.06833604, -0.07494561, -0.13719568, 0.10657306, 0.109485745, 0.1716554, 0.13773903, 0.1018017, 0.12586245, 0.1269381, 0.30980116, 0.24032718, 0.049312185, 0.03332419, 0.23322035, 0.18977451, -0.014183773, 0.058429006, 0.12035205, 0.09367544, 0.092113085, 0.08990592, -0.035290375, 0.00049670605, -0.012795101, -0.3305319, -0.11491998, 0.13080677, -0.24092077, -0.055547018, 0.10898733, 0.047468126, 0.09711988, 0.01624615, -0.14249155, -0.17239627, -0.102511585, -0.04160477, -0.021601962, 0.0076481905, -0.41062737, -0.4396808, -0.18741359, -0.41402277, -0.44760764, -0.20149526, -0.23197879, -0.24201858, -0.1544277, 0.03064212, 0.07325857, 0.19691607, 0.1343023, 0.2297056, 0.2329865, 0.21021467, 0.2985913, 0.15402551, -0.014481724, -0.09365722, -0.1639104, 0.14515181, -0.14413482, -0.13249607, 0.22197019, -0.06365631, -0.23778827, 0.14326806, 0.11411591, 0.07488691, -0.16106729, -0.0023163955, 0.19023238, -0.03297929, -0.19276074, -0.14046869, 0.20719795, 0.16749135, 0.08648477, -0.15124485, -0.01177842, -0.12741406, -0.042445883, -0.08187823, 0.019422866, -0.21647966, -0.39577594, -0.06901423, -0.40547848, -0.60300326, -0.05821098, -0.17011942, -0.18845375, 0.06423027, -0.35379767, -0.6094362, 0.048188753, -0.40161908, -0.6216819, -0.004299097, -0.11154287, -0.15041655, 0.106604725, -0.16366386, -0.17681207, -0.13819882, 0.038432535, 0.016667407, -0.0635837, 0.05143256, 0.076967105, 0.01678688, -0.0026323192, -0.104260966, 0.0011613797, -0.09272591, -0.04755973, -0.07804213, 0.34004092, 0.24917914, 0.2632461, 0.04056923, 0.08245065, 0.16289015, -0.108301096, -0.15762706, -0.009588437, -0.19189948, -0.03940702, 0.09547191, 0.11699825, -0.17789866, -0.17968515, -0.15710977, -0.36603102, -0.498163, -0.053511593, -0.35524887, -0.7297484, -0.04803731, 0.12136338, -0.11984285, -0.2550829, -0.2582986, -0.08890051, -0.37134022, -0.14573818, 0.044524945, 0.24473087, 0.17605375, 0.10007961, -0.027502552, -0.13824914, 0.083665684, 0.14761785, -0.06511779, -0.1809286, -0.37431502, -0.071624555, -0.028184716, -0.4046703, -0.2032132, -0.1966815, -0.10986973, -0.01880942, -0.104868986, 0.02156369, -0.079902485, -0.17383301, 0.11248313, 0.10008526, 0.030934386, 0.0014538271, 0.044342592, 0.07265331, -0.07198571, 0.099918686, 0.14904769, -0.2674401, -0.11746501, -0.044130474, -0.9041621, -0.9721862, -0.5957098, 0.04663334, 0.07919885, 0.059212882, 0.023413694, -0.18145305, 0.08299027, -0.004272351, -0.0100860065, -0.21844125, 0.23615289, -0.0613655, -0.05602651, 0.22799543, -0.013324067, -0.114502005, -0.15782298, -0.06893946, -0.08009257, 0.15254465, 0.06414171, -0.07384021, 0.09846029, 0.031419303, -0.21646245, 0.23626514, 0.20832203, -0.025901524, -0.04684677, 0.041612484, -0.06847314, -0.16337922, -0.2028975, -0.16589472, 0.027774192, -0.11867349, -0.2686217, -0.14587162, -0.04834078, 0.060810458, -0.36547786, -0.4347045, -0.2077596, -0.25377512, -0.15939102, -0.049872745, 0.16354118, 0.13261381, 0.19816169, 0.12006609, -0.008395917, 0.16499035, 0.028948456, -0.28238806, -0.3908232, 0.016406652, -0.043392707, -0.13207547, -0.2739762, -0.14234456, 0.10045235, -0.39903983, -0.14822719, 0.1520778, -0.16072176, 0.01778734, -0.14587958, -0.016180929, 0.009428547, -0.1498792, 0.21268097, 0.13683642, -0.2052053, 0.054068856, 0.19599037, 0.18600191, -0.023418762, 0.03647751, 0.10088688, -0.17446853, -0.27873215, -0.4681385, -0.09689906, 0.084802344, -0.01646879, -0.038759448, -0.18573721, -0.00831293, -0.018823564, 0.0065935706, 0.021918235, -0.036674775, -0.12780151, 0.043307986, -0.002770566, -0.11560675, -0.08077413, -0.0058500944, -0.09902932, -0.08516578, -0.035072237, -0.050638366, -0.11341938, -0.14597571, -0.03191547, -0.042777047, -0.027921565, -0.06817018, -0.005723199, 0.009382086, -0.06880877, -0.0033220204, 0.012167154, -0.061057515, -0.11840822, -0.099230565, 0.023335155, -0.07080897, -0.08750425, -0.04508047, -0.10938804, -0.05978357, -0.08959575, -0.06500508, -0.09481325, 0.0040485403, -0.046336092, 0.0028606728, -0.039196283, 0.00895515, -0.046296656, -0.03297564, -0.11511483, -0.05000744, 0.022492751, -0.09918323, -0.007562446, -0.025152056, 0.029688017, -0.11114477, -0.006668406, 0.051444206, 0.0073312507, 0.026758991, -0.0795708, -0.0045033623, 0.013587545, -0.054136436, -0.05325709, 0.038893513, -0.06334121, -0.05124527, -0.074745014, 0.00014610644, -0.034997605, 0.03735036, -0.025312858, -0.06425524, 0.022492109, 0.022013685, -0.006164436, 0.030611984, 0.040064335, -0.054678384, 0.042045094, 0.07132573, -0.040385757, 0.007995174, -0.043535974, 0.040676996, -0.060764607, 0.021705342, -0.08485526, 0.037795324, -0.009284712, -0.019952543, -0.04653342, -0.044129368, 0.0018967735, -0.031313453, 0.01823878, 0.04676343, -0.034698047, -0.07424198, -0.042548493, -0.05550903, -0.03475988, 0.02800282, -0.062590115, -0.0952652, -0.0013306722, -0.06035108, -0.031096518, -0.021318592, -0.029373985, -0.09703518, -0.07475446, -0.06590978, -0.12895711, -0.028380856, -0.025262743, 0.0055525256, -0.03564885, -0.069301575, -0.06721382, -0.14421424, -0.14846693, -0.14198993, 0.027272126, -0.025346328, 0.05740577, 0.02499566, -0.09710973, -0.041085947, 0.040435158, 0.021592977, -0.11668832, -0.050590105, -0.048484493, -0.058262803, -0.04993158, -0.08690216, -0.11569564, -0.0039968737, -0.07856706, -0.09206485, -0.03697682, -0.02228247, -0.047652956, -0.13887727, 0.00910603, 0.02186232, -0.12814367, -0.06445324, -0.099681884, -0.092967816, -0.057088315, -0.07924284, -0.07234946, 0.045293715, 0.017992372, 0.05312403, 0.040053267, -0.049466357, -0.038892683, 0.044961233, -0.05537906, -0.10042453, 0.035266913, -0.030321758, -0.041605663, 0.02839534, -0.08613609, 0.04587662, 0.023375975, 0.04665837, -0.0730658, -0.018847702, -0.013656588, -0.023103388, 0.06536828, -0.041502334, -0.09471786, -0.060807195, -0.01739776, -0.033302452, 0.057585217, -0.0554061, -0.10342817, 0.0181621, 0.069618985, -0.090798326, 0.07644995, -0.04556706, 0.005944556, -0.016971568, 0.032226667, -0.039113235, -0.09033151, 0.018997457, -0.054774903, -0.033240817, -0.053483613, 0.027533608, -0.021310452, -0.08402602, 0.04016411, -0.020582259, -0.041526172, -0.08299962, 0.035826936, -0.11662231, -0.0016702515, -0.046096396, -0.08368784, -0.026657669, -0.08039187, -0.03890221, -0.056579262, -0.004642919, -0.015600348, -0.13788308, -0.03822845, 0.03868566, -0.14547755, -0.053229462, -0.040056586, -0.00032442602, -0.053160187, -0.071807474, 0.016341016, -0.059698652, 0.059719957, -0.05280154, -0.058109865, -0.033672776, -0.09178504, -0.01766783, -0.031170206, -0.02980117, -0.0894821, -0.085553735, -0.09789809, -0.020579299, -0.1278825, -0.13386267, -0.04342411, -0.032320194, 0.020027691, -0.025904596, -0.028164411, 0.00024560918, -0.06985479, 0.03328729, -0.014264635, -0.08173516, -0.026471453, -0.014607111, 0.038337983, -0.07758072, -0.04866076, -0.0064827655, -0.059970774, -0.051585995, 0.041754495, -0.050631683, -0.07386488, -0.026705483, -0.03762644, -0.07161577, -0.1177824, -0.026795385, -0.05314161, 0.0034315262, -0.03142474, -0.028199768, -0.042305596, 0.073935285, -0.10900275, -0.0022516628, 0.0040107993, -0.12530378, 0.03324035, -0.00014828925, 0.028005239, 0.0128340395, -0.039539788, -0.0109227095, 0.035981726, -0.10856981, 0.0052804565, -0.10112083, -0.07104719, -0.070062414, -0.022584578, -0.10303708, -0.09655603, 0.023321507, -0.030143846, -0.22556801, -0.27598628, 0.07249569, 0.06701677, 0.22182645, 0.117334574, -0.22045569, -0.09926097, 7.165262e-05, 0.10896149, 0.06568479, 0.06705798, 0.09124094, 0.05175923, -0.073098525, -0.12393302, -0.05248669, 0.09516318, 0.06968867, -0.14091228, -0.015740855, -0.15779299, -0.041081212, 0.08282316, -0.010168945, -0.023571964, 0.09662073, 0.14202553, -0.047126446, -0.11274343, 0.12707749, -0.10309658, -0.12623465, -0.21672146, -0.06143875, 0.17198431, 0.001909436, -0.14303552, -0.27484182, -0.088694915, -0.2194359, -0.12148775, -0.312542, -0.123352274, 0.0095054945, -5.430736e-05, 0.048004273, 0.0785207, 0.035970144, 0.115744315, 0.035876304, -0.04019589, -0.039149724, -0.005899326, 0.107443735, 0.1936389, 0.3086562, -0.06858813, -0.19681379, -0.025921514, 0.08785536, 0.038255524, 0.096481875, 0.10366065, -0.021288324, -0.09205515, -0.09072174, -0.15115009, -0.11092677, -0.030413294, -0.20128715, -0.02253974, 0.06282941, 0.0026518074, 0.20350304, -0.1811832, -0.124250464, -0.2019759, -0.054093167, -0.094871454, -0.16311371, -0.026214348, 0.1682654, 0.081712365, -0.09497053, -0.010487616, -0.17436187, -0.18146394, 0.15775372, 0.072282374, 0.06419907, 0.12524334, 0.08163766, -0.053716805, -0.016387591, -0.029661242, -0.07530192, -0.10309639, -0.08947473, 0.08902231, 0.23872766, 0.1601714, 0.04247391, -0.23347262, -0.027989546, -0.05037298, 0.033630453, -0.058460385, 0.11551657, 0.061246652, 0.13941504, -0.09976047, -0.20914522, 0.009338173, -0.0432448, 0.07890797, -0.06444338, 0.0751529, 0.12150326, -0.0037119025, 0.06021445, 0.017652998, -0.10136809, 0.07058062, -0.0044776485, -0.13752213, 0.077111125, 0.16119455, 0.017729752, -0.17622583, 0.15850157, -0.037262, -0.15303999, -0.026000237, -0.020924184, 0.041907698, 0.019636193, 0.023978323, -0.09664119, -0.061483063, 0.13402441, -0.01749488, 0.09760424, -0.01961041, 0.07102451, -0.015292709, 0.10364356, -0.20064776, -0.095623955, -0.074788466, 0.12511006, 0.03310918, -0.09662196, 0.0436266, -0.046253234, -0.0008096981, -0.0012525552, -0.041558113, 0.024999127, -0.13182123, -0.08854702, 0.029505914, 0.14018187, -0.21763568, -0.13228591, -0.29289874, -0.26451892, 0.09732658, 0.3615092, -0.00892787, 0.091053896, -0.07245775, -0.06681019, 0.0042669075, -0.18818267, -0.20918852, 0.0030809178, 0.039335024, 0.079592906, -0.005774821, 0.08180836, 0.1497216, 0.06351432, -0.016200794, -0.11230175, -0.15033801, -0.089272216, 0.018872967, 0.014622371, -0.10920841, -0.02910167, 0.109928206, -0.033299167, -0.08060027, -0.010105608, 0.13480873, -0.0048174085, 0.099306956, -0.12218829, -0.078080185, -0.01360903, -0.10725705, -0.11242256, -0.08017234, 0.0145472605, 0.10176187, 0.10458397, 0.20298873, 0.04417071, -0.21242194, -0.04813668, 0.15427507, 0.30774716, 0.05965911, 0.035093337, -0.116869226, 0.28993273, 0.31019968, 0.0840622, 0.09861664, 0.0243963, 0.08895655, 0.051597193, -0.12703356, -0.1268622, -0.029543761, 0.03569776, -0.034929063, -0.020734318, 4.96457e-05, 0.053214896, 0.03549874, -0.1272024, -0.17561866, -0.11459611, 0.09563653, 0.011252298, -0.012357903, 0.14528485, 0.035306655, -0.07550648, -0.1936739, -0.12070967, -0.18127374, -0.11769948, 0.20244029, -0.05955293, 0.24625212, 0.15541664, -0.084487125, 0.03333324, 0.2135988, -0.13484837, 0.057535514, 0.10572961, 0.11172085, -0.16159962, -0.15087621, -0.24513201, -0.06829852, 0.0908546, -0.15127502, 0.18258317, -0.20210789, 0.06854774, 0.034649853, -0.07447243, -0.20521049, -0.12244083, 0.056405295, -0.17439045, -0.15230945, 0.13081032, -0.20062731, -0.030168688, 0.07528909, -0.18664107, -0.003420043, 0.10981188, -0.06787636, 0.03701282, 0.00026388612, -0.0853647, 0.13536431, 0.10303224, 0.018010896, 0.024458406, -0.032442834, -0.24597204, -0.23357886, -0.17885485, -0.36420316, -0.16506599, -0.18864398, -0.010893257, -0.24558596, -0.12096191, 0.0066961395, -0.05733806, -0.12927833, -0.083611704, -0.17883773, -0.05255215, 0.114619784, -0.049858175, 0.1345457, -0.16188437, -0.16068491, -0.1954432, -0.23010604, -0.15743208, -0.38246524, 0.14133292, -0.117432274, -0.16687885, 0.05433793, 0.045223627, 0.016984435, -0.053675957, -0.08475738, 0.06067414, -0.069731936, -0.1372413, 0.019542951, -0.31230348, -0.40037605, -0.24647383, -0.22540517, -0.43413362, -0.18474731, 0.18254484, -0.029365972, 0.10849907, 0.14218548, 0.029771129, -0.010176315, 0.10922905, 0.1600332, 0.09347302, 0.060607947, 0.13576013, 0.010290305, -0.08462606, 0.022743944, -0.06842315, 0.041859508, 0.10905029, 0.0030696439, 0.116387606, 0.11558308, 0.17863902, 0.12616405, 0.107015125, 0.024022179, 0.002651444, -0.046779018, -0.062617846, -0.109990746, -0.16583867, -0.18679285, -0.024466863, 0.039777916, 0.06664276, 0.004387486, -0.030966068, 0.223971, 0.14170457, 0.06199095, -0.05611152, -0.102299236, -0.30200413, -0.30433995, 0.079733245, 0.03379293, -0.28705588, 0.042335093, -0.06529436, -0.015473027, 0.0621734, 0.104652844, 0.03367732, -0.015102155, -0.045629136, 0.06524385, 0.041520514, 0.12163548, 0.04896595, -0.035984583, 0.043103974, 0.037622884, -0.045178503, -0.049395278, 0.0018697805, -0.00813626, 0.07534979, 0.15073362, 0.053573705, 0.01529601, 0.15398793, 0.09300374, 0.08339861, 0.05068098, 0.08425929, 0.13812852, 0.21447475, -0.015716989, 0.097790696, 0.11280126, -0.018470801, 0.1077326, -0.0054890383, 0.055436317, 0.08963883, -0.0119653875, -0.16263668, -0.21317638, -0.34701, -0.0800791, -0.12003501, -0.082882784, -0.021859383, -0.087557904, -0.026658164, -0.1491184, -0.04605192, -0.118916, -0.035554726, 0.007134401, 0.010148884, -0.024653876, -0.042404275, -0.06672609, -0.13979189, -0.21390592, -0.38341764, 0.064094394, -0.079101816, -0.13367711, 0.1917537, 0.16396439, 0.14360218, -0.16926049, -0.21348058, -0.015178017, -0.13858047, -0.030553158, 0.034755606, 0.18106416, 0.109769516, 0.12796788, -0.027870165, 0.071064405, -0.015216016, -0.053248335, -0.061354436, -0.15142144, -0.074090086, -0.18256663, -0.03748349, -0.15075476, -0.20284109, -0.3174565, -0.0031614178, -0.05217941, -0.20591213, -0.02846551, 0.032708004, -0.05808372, 0.043931913, 0.05793214, 0.065705694, -0.034950834, 0.019862467, 0.079561114, -0.10425233, -0.15428303, -0.01391756, -0.022839604, -0.20462863, 0.03731541, -0.10611932, -0.27870667, -0.31446463, 0.11541649, -0.15697183, -0.09918479, -0.033345673, -0.08489189, 0.0053009437, -0.08780224, -0.014577669, 0.010560442, 0.14026658, -0.056976605, -0.071746506, -0.45545292, -0.7408749, -0.34018862, -0.8533043, -0.5451801, -0.14404172, -0.7239438, -0.27944574, 0.11569583, 0.28509533, 0.2198032, 0.3114775, 0.20276386, 0.12254919, 0.1638792, 0.19497608, 0.19172247, 0.16824514, -0.15987267, -0.11235806, -0.07233696, 0.004908557, -0.0016912306, 0.06413662, 0.15740256, 0.16430613, 0.119395845, -0.05039111, -0.117797285, -0.011810679, -0.10186912, -0.16802274, 0.052098908, 0.07558491, 0.08958527, 0.01162227, -0.31268507, -0.25143084, -0.083511874, -0.38876018, -0.27128017, -0.06554314, -0.033957355, -0.21507764, -0.0076653133, -0.42745143, -0.34263152, -0.13683394, -0.30354437, -0.4125104, -0.11449914, 0.018391617, -0.13260734, 0.26319668, 0.121187955, 0.2839301, 0.3633292, 0.055022407, 0.101200804, 0.33173582, -0.06300875, -0.27626547, -0.014546893, -0.22916232, -0.33396137, -0.09090259, -0.24846679, -0.32202506, -0.08516358, 0.11976152, -0.13575864, -0.13591802, 0.078260556, 0.047570936, 0.08573513, 0.039122205, -0.011511352, -0.056439847, -0.08143638, -0.06047274, -0.11740494, 0.030297516, -0.00560336, -0.055925887, 0.011058324, 0.010116453, -0.06513194, -0.0720895, 0.022838954, 0.052021705, 0.04172863, -0.06434131, 0.0332956, -0.011698397, -0.036621496, -0.10190518, -0.05355268, -0.05369627, -0.0746617, -0.09830788, 0.05347946, 0.080446504, -0.009500646, -0.022243682, -0.0016539686, -0.03406115, -0.070401385, 0.035421718, -0.017646285, -0.041196715, -0.063803904, 0.031660344, -0.046905313, -0.05480586, 0.035457496, -0.02507539, -0.076279655, 0.023462286, 0.01164778, 0.04621322, -0.115480654, -0.07072864, 0.05791539, -0.068032235, 0.055435393, 0.045413233, -0.08067187, 0.03261104, 0.019708378, -0.02545125, 0.019603211, 0.035194382, -0.103998065, 0.030295119, -0.041325957, 0.04558417, 0.021981565, -0.069866315, 0.046915673, 0.0040395847, 0.011445156, 0.049869247, 0.04749204, 0.050598692, -0.11186243, -0.0314721, -0.02437175, -0.113892056, 0.02152901, -0.09404245, -0.025323728, -0.0073090796, -0.03192587, 0.08302446, 0.06876552, -0.02588749, -0.046810202, -0.023918541, -0.03799875, -0.056185182, 0.04779628, -0.035850525, -0.03932321, -0.058459, -0.10679085, -0.04740139, 0.0035268203, 0.09048114, -0.005680992, -0.08436316, -0.10038871, -0.06851342, -0.0754484, -0.029460827, -0.05618604, 0.03307087, 0.015990524, -0.019184614, -0.11122886, -0.09224212, 9.201192e-05, -0.10711188, -0.07432392, -0.00022336774, -0.015617481, -0.10500441, -0.08355684, -0.072710976, -0.029320268, 0.0043173125, -0.050913256, -0.03790687, -0.08724166, -0.033502374, -0.12052173, -0.08798563, -0.010006503, 0.01833711, -0.0655439, 0.061466817, -0.026230503, -0.047376093, -0.07686192, 0.0026761414, -0.043912746, -0.0648298, 0.02908483, 0.07061011, 0.12103318, -0.004643909, 0.076780334, 0.029873157, -0.034801133, 0.051256604, 0.023150612, 0.053543992, -0.115873694, 0.012837401, -0.036970932, -0.08325112, -0.009628627, -0.018284068, -0.034490168, 0.04686681, -0.012935572, -0.041094955, -0.028404342, -0.02412663, 0.007748793, -0.02778365, -0.025451198, -0.12363669, -0.053956553, -0.06511856, -0.034106854, -0.067988485, -0.04124989, -0.10848073, -0.04956929, -0.028745245, -0.13290012, -0.109021805, -0.12324212, -0.0876842, -0.01622618, 0.024641521, -0.038988166, 0.03976334, 0.07450989, -0.0077810427, -0.022427635, 0.05874138, -0.09050226, -0.103868224, -0.01655294, 0.0346306, 0.031881385, -0.05054518, -0.053362694, -0.1155263, -0.099203765, -0.07313198, -0.11427369, 0.0330289, -0.07660342, 0.04607969, -0.034972083, -0.043486733, -0.039481346, -0.04258636, 0.021108901, -0.050356064, -0.026174638, 0.023925358, 0.0018121158, -0.068940066, -0.033371955, -0.09046008, -0.0541801, -0.022208288, -0.028521657, -0.079876065, 0.0002704697, -0.09105332, -0.040612992, 0.03430471, -0.0051884414, 0.0075149443, 0.04859109, -0.17435896, -0.05466374, -0.0639915, 0.006123682, -0.0019322671, 0.06745166, -0.09427622, -0.09137708, -0.0061162114, 0.06563183, 0.08634812, -0.075717114, -0.022185035, 0.010079288, -0.10526331, -0.009928998, -0.06304745, -0.022430778, 0.067234725, -0.08850967, -0.011012558, 0.016387587, 0.026478285, 0.033155307, -0.10117895, -0.059488736, -0.079243414, -0.0011402884, 0.06577915, -0.050366733, 0.03559057, -0.049084257, 0.06896991, -0.029404912, 0.06285685, -0.09964473, 0.034740373, -0.004310308, -0.058370005, 0.04339798, 0.030721866, -0.048683, 0.004238119, -0.08932806, -0.075596124, -0.07338828, 0.040085055, -0.10364596, 0.02857345, -0.026750503, -0.080563776, -0.03333203, -0.029748248, -0.077447355, -0.045739517, -0.0062424843, -0.06735076, -0.00021407913, 0.053584464, -0.051432803, -0.050857265, 0.0057622204, 0.023155533, -0.086307004, -0.06538318, -0.05095051, 0.0031483357, -0.026968472, 0.022035751, -0.043466095, -0.12669426, 0.05734068, -0.091810875, -0.025783278, -0.041059922, -0.023647854, -0.082096815, 0.076329246, -0.07420722, -0.04424383, -0.12804562, 0.08931888, -0.039559312, -0.10323358, -0.03368331, -0.0034309232, -0.07087562, -0.118464306, 0.044805788, -0.08707845, -0.0724147, -0.012735731, -0.11057302, 0.27545512, -0.10444538, 0.022417214, -0.080246046, -0.0039531495, -0.034363437, 0.029489992, -0.013690813, 0.08597369, -0.037603747, -0.069258094, 0.11294742, -0.057914276, -0.018713659, -0.07651425, -0.14623095, 0.017936902, 0.045339234, 0.017562984, -0.09556347, 0.020554498, -0.078871384, 0.03293049, -0.06630164, 0.172323, -0.07590124, 0.06300232, 0.18910837, -0.18981494, 0.081841856, -0.25247574, 0.011755635, -0.09593028, -0.022860644, 0.076686285, -0.105982736, -0.06159439, -0.00022738492, 0.021656675, -0.02211889, -0.03391334, -0.016987775, 0.035440944, 0.1283139, -0.030117458, 0.117402986, -0.04032932, -0.049933806, -0.15952606, 0.09520923, 0.08691192, 0.13372634, 0.18217476, -0.12541038, -0.05144604, 0.14700764, -0.25385514, -0.23608008, -0.17260441, -0.28546444, -0.004190205, 0.0038832538, -0.025455346, 0.016766796, -0.066830136, -0.09068952, -0.22300994, 0.01577475, 0.18450363, -0.07528098, 0.24341112, 0.04796635, 0.008942882, 0.27595577, 0.20604739, 0.03778833, -0.05740336, -0.06920065, -0.027494626, 0.18382539, -0.06253884, -0.06640814, -0.05891232, 0.0014618738, 0.016643528, 0.03405998, -0.18128556, 0.045992386, 0.031106245, -0.16504498, 0.15360773, -0.1446332, 0.020752411, -0.049332563, 0.09911233, -0.1413897, -0.028331947, -0.035396144, -0.116875045, 0.12805398, -0.115990005, 0.030997297, -0.04062821, 0.20565729, -0.020349763, 0.052438796, -0.010527525, -0.030598989, 0.11272402, -0.12462115, -0.0407571, 0.037471887, -0.045535702, -0.42676228, -0.15612602, 0.09848708, -0.23028708, 0.03678515, -0.024092449, -0.13013867, -0.23876978, -0.116592914, -0.008528719, 0.1385808, -0.05841626, 0.048242927, -0.1368886, 0.10644148, 0.027102433, 0.055879556, -0.14479494, 0.1553807, -0.06926981, -0.13271001, 0.08440591, -0.23252411, -0.14260639, -0.01745628, 0.028052632, -0.21592133, -0.012955216, -0.037326578, 0.11461659, -0.0434801, 0.1118855, -0.1462456, 0.10187501, -0.13830803, 0.1059626, 0.011469534, 0.13091017, -0.14017203, 0.01069905, 0.11286216, -0.15909037, 0.08132737, -0.07807354, -0.16067824, 0.2530496, 0.27633023, 0.042412333, 0.022082115, 0.16003123, -0.21979144, 0.019341914, 0.15654275, -0.07857584, -0.1483387, -0.17997034, -0.083306484, -0.13780063, -0.062357254, -0.12581569, -0.15396412, -0.14010607, 0.07149201, -0.11855079, 0.047705047, -0.034274995, 0.0012766693, -0.073636904, 0.15991138, -0.11206891, -0.14186253, -0.14487596, -0.1258288, 0.02619297, 0.13350096, -0.019357234, -0.04506147, 0.1285715, 0.1295008, 0.102216154, 0.09530698, -0.060252856, 0.23678248, 0.044033524, 0.22927335, 0.087324314, 0.3037147, 0.0596802, -0.018134456, 0.20758907, -0.12740828, -0.061655723, -0.17224504, -0.08585679, -0.05149976, -0.12938064, 0.005633499, 0.061877936, 0.050988033, -0.05347077, -0.018731434, 0.11358213, 0.067577854, -0.057013962, -0.07514817, 0.08942229, 0.0819184, -0.039407115, 0.06469946, -0.13397376, -0.1443721, -0.2897634, -0.043133765, -0.10413964, 0.046702154, -0.0066067874, 0.18838772, -0.051027313, 0.036660332, -0.09693453, -0.15707305, -0.10838861, 0.12293973, -0.21389818, -0.20453177, 0.04281039, 0.32657784, 0.088728726, -0.081543475, -0.15747258, 0.38023502, -0.31236926, 0.009193296, -0.042601094, 0.029234258, -0.06685435, -0.28198168, 0.16385944, 0.07698546, -0.21988899, 0.10867787, 0.15148975, -0.027013477, 0.30320275, -0.042430885, 0.075307064, -0.081204146, -0.059999358, 0.05513463, 0.0172637, -0.068716064, -0.11806995, -0.004846777, -0.12889278, -0.0778784, -0.02433798, -0.10178128, -0.3246362, 0.042370588, -0.04261448, -0.2848566, -0.14761022, -0.10683082, -0.18856262, -0.07990221, -0.10087692, 0.06489669, -0.13624217, 0.021454642, -0.03279137, -0.069784336, -0.22169338, -0.39144924, -0.17616093, -0.1196821, -0.2024387, 0.00837889, -0.19634776, 0.08913025, 0.15556167, -0.05839823, 0.12167347, -0.03791033, -0.1199432, -0.00027469697, -0.017570801, 0.048539814, 0.061714966, -0.11700069, 0.027560163, 0.10606878, 0.22584088, -0.052826934, 0.107711375, 0.27244344, -0.13150279, 0.15225378, -0.076406114, -0.043586284, -0.31232563, -0.04338328, -0.038734164, -0.20468773, 0.14824134, -0.23908105, 0.28830016, 0.1094604, -0.20576368, -0.37819144, -0.46023434, -0.37913978, -0.35845414, -0.23422661, -0.31174466, -0.2975867, 0.10506866, -0.03800176, 0.108592056, 0.100751005, 0.06684085, 0.07164884, 0.14701265, -0.15305252, -0.005857072, 0.1992634, 0.07796171, 0.036427137, 0.13113627, -0.038004924, 0.08458793, 0.20251027, -0.06855832, 0.13277014, 0.20110087, 0.1884566, -0.08100757, 0.050914068, 0.31102872, 0.38589585, 0.02494128, 0.28275976, 0.36971906, 0.028809583, 0.00903566, 0.046554815, 0.15054797, 0.07911471, 0.098606534, -0.2587007, -0.008499384, -0.10491449, -0.06815388, -0.18180768, -0.29874545, -0.5961086, -0.30089754, -0.33186448, -0.26548225, -0.35905084, -0.17433244, 0.14098807, -0.04935075, -0.27200708, -0.12136707, -0.101100765, -0.09465235, 0.22193064, -0.3235275, 0.056863356, 0.16099785, -0.11337167, -0.14735919, -0.1359596, 0.04139692, 0.04867072, 0.18040147, -0.35475612, 0.027590277, 0.22052945, -0.04448313, -0.034359343, -0.03468288, -0.0195469, -0.13671523, -0.052682865, -0.0065054917, -0.02262446, 0.020492839, -0.36352128, -0.2852309, -0.24941672, -0.1770334, -0.16139759, 0.04206178, -0.1389225, 0.11263135, 0.19774975, 0.090316154, -0.14893948, -0.024180876, -0.10450216, -0.14092436, 0.14469951, -0.21347027, 0.08479997, 0.14247039, 0.030348277, -0.10469404, 0.010969158, -0.04658406, 0.00494835, -0.41712478, 0.065484, -0.085503444, -0.32947335, 0.02317297, -0.14553848, -0.27695096, 0.063299306, -0.34998813, -0.10294039, -0.05059619, -0.15980934, 0.14753805, 0.27920595, 0.085264094, -0.07518469, 0.041047785, 0.025368558, -0.26581234, 0.10525779, -0.0015137035, 0.005967533, 0.024157364, -0.12869112, -0.22133337, -0.10922884, 0.10700026, -0.10997859, -0.1419716, -0.087163635, 0.08462956, 0.0051205754, -0.08388528, 0.12738083, -0.06181558, -0.08907575, 0.24581759, -0.15743464, 0.025019241, 0.20803066, 0.11418105, -0.1037971, -0.17409854, -0.14252427, -0.10180615, -0.15729482, -0.1878027, -0.15568158, -0.12584662, -0.026619613, 0.016309008, -0.12479227, -0.18878734, 0.13577141, 0.059396688, 0.04138243, 0.013566562, 0.015050132, 0.0076588923, -0.16930473, 0.009109042, -0.091137506, -0.11915061, 0.32711658, -0.24789298, 0.11416667, 0.3130057, -0.2032936, -0.015634123, 0.10911116, -0.2721083, -0.08763639, -0.048686486, -0.3490642, -0.3423299, -0.25737554, -0.19622372, -0.20756605, -0.24807397, -0.15881787, -0.27176422, -0.2288233, -0.13250524, -0.23335548, -0.12573327, -0.15625447, -0.21913694, -0.097001605, 0.037050847, -0.07853331, -0.17479338, -0.21680734, -0.23779987, 0.03489323, -0.13154429, -0.16081692, -0.12142068, -0.069928065, 0.019225506, 0.120967224, 0.07801735, -0.11382294, -0.020514272, -0.096758686, -0.23808135, -0.30700365, -0.10166617, -0.3926486, 0.13755386, -0.35604343, -0.120460354, 0.26697358, -0.06344213, 0.04562324, 0.03962171, 0.16973819, 0.23360516, -0.36543876, -0.054306176, 0.042243082, -0.33035257, 0.026048834, -0.17273687, -0.116767876, -0.09762494, 0.007885419, 0.013080647, 0.08691839, -0.06284862, -0.22006524, -0.24526398, -0.17387757, -0.13713162, -0.08955996, -0.12325913, -0.17314026, -0.12457278, -0.079858445, 0.09785302, 0.11064833, 0.04033936, -0.011078096, 0.26374593, -0.12722278, -0.22335635, 0.054876342, -0.01879092, 0.0019620573, -0.1241065, 0.09094039, -0.024631303, -0.022617178, -0.030503375, 0.16993304, -0.06777709, -0.13828227, 0.24956287, -0.08256007, -0.014182392, -0.114782885, 0.035080757, 0.08689662, -0.009366902, 0.11195839, 0.14865522, 0.24089007, 0.009437646, -0.08044292, -0.078441456, 0.004954183, -0.16350687, -0.23686269, 0.05322383, 0.0023490677, -0.31298685, -0.18782729, -0.14827888, 0.09703223, -0.017961457, -0.009966863, 0.25744087, -0.17117761, -0.14447673, 0.40414083, 0.12136503, 0.015247847, -0.22500205, 0.13503799, -0.10113535, -0.15184972, -0.025805796, -0.05839225, -0.07709448, -0.018515397, -0.325632, -0.03175881, -0.053548787, -0.3882891, -0.15317675, 0.22987391, 0.033724792, -0.12630472, 0.019185245, -0.061672676, -0.0867777, 0.06304473, -0.09088125, 0.048041582, 0.1895421, -0.037923478, 0.07982583, 0.15744077, -0.014585945, 0.12541132, 0.104161404, 0.043834712, -0.1094153, 0.07959634, 0.12215931, 0.0673988, -0.107835814, -0.27308252, -0.09540674, -0.07649923, -0.32907915, -0.37543696, 0.1520381, 0.092610896, 0.26207098, 0.18579239, 0.17402524, -0.27287304, 0.1109363, 0.050796065, -0.1808562, -0.09846139, -0.21755764, 0.011253555, -0.2771282, -0.040342584, 0.15742606, -0.18201554, -0.03822492, 0.110421166, 0.058830984, -0.053497534, 0.10213153, -0.13531394, -0.35265976, 0.028606132, -0.21687588, -0.291619, -0.031610817, 0.20136835, -0.059000786, -0.017445507, -0.008955827, 0.010175898, 0.0129520735, -0.17710957, -0.09271332, -0.109438315, -0.105381064, -0.00015767272, -0.04848087, 0.17621405, 0.25961652, -0.21756382, -0.021982457, -0.07429704, -0.6021494, -0.28974202, -0.58895785, -0.42881265, 0.09631896, 0.17177844, -0.021068752, 0.104157746, -0.05762171, -0.013675124, -0.04901173, 0.00023599752, -0.089337744, -0.10872489, 0.120996825, 0.005271932, -0.43054458, -0.0075646336, 0.22006473, -0.28597936, -0.020604966, 0.2173583, -0.0022028415, -0.27048683, -0.33945867, -0.09524117, -0.21919367, -0.20519693, -0.22011444, -0.17300616, 0.17133518, -0.01640009, -0.33856156, -0.5577109, 0.07947598, -0.28109056, -0.20463023, 0.26758373, 0.07497468, 0.17968147, -0.067463204, -0.031497918, 0.22397894, -0.11960751, -0.06632085, 0.3045513, -0.23080546, -0.17434664, 0.026415091, -0.005871262, -0.002081554, 0.07079372, -0.06471485, -0.05449809, 0.14633389, 0.13050595, -0.027967205, 0.086491935, -0.1761076, -0.43505588, -0.28402948, -0.032545, -0.067122385, -0.06482231, 0.18798728, 0.19135976, 0.3413799, 0.09321005, 0.10470195, -0.33860868, 0.06902579, -0.075550854, -0.23826703, -0.079777636, -0.056167115, -0.14889227, -0.07173665, 0.15251899, 0.53852564, -0.09031558, -0.094128296, -0.102216795, -0.39372474, -0.15058815, -0.39249146, 0.08074135, -0.18557335, -0.43158212, 0.062011022, -0.04184081, -0.5152457, 0.27758563, 0.40627262, -0.18726373, -0.03512797, -0.16637397, -0.32330176, -0.030284218, -0.17027818, -0.23811647, -0.15331338, -0.042799048, -0.022505954, 0.24523146, -0.20696865, -0.21933673, 0.11129916, 0.00028433194, -0.17939919, 0.08571754, -0.049673017, 0.024548162, 0.034913067, -0.15255475, -0.2598836, 0.1938789, -0.029004473, -0.48120877, -0.1132299, 0.12189672, -0.19396743, -0.44285792, 0.04489829, 0.20264427, -0.25838736, -0.10944712, 0.19620752, -0.21644267, -0.31600663, 0.24808452, 0.12814051, 0.0373087, -0.17306288, 0.10818233, -0.027004318, -0.043660562, -0.18153955, -0.035924543, 0.08962425, -0.10364452, -0.1826672, -0.46310422, 0.15048864, 0.05616262, -0.549189, -0.04822198, 0.19395362, -0.079466045, 0.22045632, -0.011231073, -0.15889643, 0.11940593, -0.07132654, -0.109659344, 0.019888172, -0.027735, 0.08064996, 0.03663931, -0.0043332335, -0.2345054, 0.081986345, -0.0497628, -0.033477023, -0.11265474, -0.072714925, -0.05596049, 0.20696233, 0.049673915, 0.16285476, -0.04513089, -0.0035759734, 0.003259322, -0.2040983, -0.12977609, -0.08484217, 0.29616755, 0.018858865, 0.12365628, 0.19893159, 0.11737486, 0.06737626, -0.034202356, -0.10921078, -0.13074584, -0.13409217, -0.05200896, -0.09806276, 0.06308184, 0.092405915, 0.10892026, 0.14265306, 0.015483991, 0.053133324, 0.24126637, 0.29896456, 0.17668876, -0.25731134, -0.1558199, 0.0032024342, -0.5483447, -0.60956645, -0.34015384, -0.038334705, -0.2028873, -0.21532175, 0.13000397, 0.06354992, 0.033379775, 0.20759082, 0.07366386, 0.030794669, -0.105695456, -0.050124805, 0.07541424, 0.03659869, 0.16493884, 0.28109318, -0.038079377, -6.1658793e-06, 0.20109658, -0.038913235, -0.23215967, -0.07615544, 0.05398864, 0.06581645, 0.086446665, 0.033787705, -0.003766874, 0.0934324, -0.047514323, 0.021153124, 0.041271757, 0.011676374, 0.104379565, 0.11591036, 0.049788292, 0.04003143, 0.04698333, 0.29657593, 0.10016639, 0.15772551, 0.079870015, -0.004011782, -0.027200943, -0.7877206, -0.6807807, -0.31957874, -0.20601082, -0.3981458, -0.47704652, 0.011853894, -0.09163361, -0.23888622, 0.19756998, 0.06994175, 0.12865402, -0.08831417, -0.07060572, 0.0063536, 0.105319045, 0.04664719, 0.01987575, 0.17834264, 0.2313877, 0.11719731, -0.14437793, -0.11875384, 0.020253, 0.03217085, 0.19414528, 0.16656929, 0.095141955, 0.17280824, 0.21975319, 0.044959668, 0.00415242, 0.023146855, -0.06476208, -0.0013140565, -0.07479052, -0.09832681, -0.081751496, -0.00021882112, -0.36303446, -0.290793, -0.4908908, -0.110436454, -0.07752066, -0.030930076, 0.20328489, 0.2196131, 0.24834375, 0.18983366, 0.21210857, 0.15362008, 0.070861176, 0.043706656, -0.08745936, 0.23111598, 0.065947354, 0.16074882, 0.17415057, 0.17327161, 0.025049482, 0.016575124, 0.08851243, 0.0044678613, -0.3249812, -0.2548099, -0.19891916, -0.184371, -0.015058278, -0.26010478, -0.15946846, -0.016118037, -0.106226, -0.11716967, -0.014246174, 0.21045594, 0.039732657, -0.25064892, -0.19137025, 0.020244943, -0.17048194, -0.037493657, -0.24443159, -0.060647953, 0.02959718, 0.1553228, -0.013689301, 0.03357807, -0.0547044, -0.20002426, -0.23121251, -0.052480932, -0.13574618, -0.048818253, 0.060921248, -0.09052875, 0.08737069, 0.059994437, -0.012000555, 0.058226053, -0.039609864, 0.06815344, 0.08008973, 0.15524593, -0.068827175, -0.2837879, 0.050083753, -0.17415597, -0.10140501, -0.105095826, -0.10716028, 0.053757522, -0.056852493, -0.19775322, -0.29475683, -0.045600526, -0.16242088, -0.12535802, 0.032259703, 0.10232644, 0.1769776, 0.01877121, 0.25029796, 0.031923722, -0.09655674, 0.12520258, 0.15834248, -0.5161463, -0.47762987, -0.31939107, -0.0836147, -0.22065614, -0.079404116, 0.06700491, -0.007030258, 0.12957743, -0.28268814, -0.21273866, -0.24834022, -0.1185538, -0.09120264, -0.07454291, -0.048459258, -0.09738654, -0.0250135, 0.008557328, -0.06583284, 0.045681335, 0.1430297, 0.0067924787, 0.098745875, -0.011785196, -0.10812661, -0.009497845, -0.20981885, -0.3749056, -0.2528983, -0.11001972, -0.07875671, -0.25903988, 0.05943933, -0.1350116, -0.19927579, -0.16162847, -0.14968182, 0.16364795, 0.17467937, 0.17155577, 0.3381109, -0.2070124, -0.06977666, 0.022940801, -0.29525533, -0.4473207, -0.36284432, -0.35575786, -0.29142347, -0.14863384, -0.04912328, -0.08482699, -0.04430383, 0.20157321, 0.15825018, 0.087136306, -0.0019659563, -0.06490608, -0.2171187, 0.2166849, -0.09498871, -0.12641878, -0.1865719, -0.1356547, 0.026934203, -0.012365562, 0.01245742, -0.10308678, 0.019786548, -0.08818929, -0.06574204, -0.09913849, 0.08566213, 0.15557507, -0.51698875, -0.5432746, -0.09964417, -0.29008174, -0.6037411, -0.14786957, -0.12576076, -0.44482756, -0.025355142, 0.1691114, 0.11104093, 0.061845258, 0.11209242, -0.103678636, 0.08999177, 0.013483479, -0.08813225, -0.01049073, 0.119699545, -0.11863236, 0.13063903, 0.10566464, -0.16237865, 0.01389536, 0.25865212, -0.2088078, 0.14119615, -0.39454144, -0.23269095, -0.25245863, -0.37413692, -0.011681942, 0.05196971, -0.11140537, 0.09624235, 0.28799796, 0.04400143, -0.1599555, 0.02753837, 0.018847425, -0.21286684, 0.111092694, 0.2910811, -0.21693555, 0.030459546, 0.064388625, -0.004094873, 0.023803432, 0.0012510741, 0.035590302, 0.063591905, -0.0063022585, 0.02147085, -0.074436635, -0.30323222, -0.2062346, -0.20751604, -0.34110144, -0.2042547, -0.026690548, -0.4438886, -0.13207804, 0.08718375, 0.20846319, 0.20284104, 0.07731132, 0.085607454, 0.0027161706, 0.15174016, 0.090425774, -0.1026296, 0.062721424, 0.10798694, 0.18382679, 0.06646523, -0.2206295, -0.09953636, 0.1235361, -0.1051406, -0.15081036, 0.0024921468, -0.0654272, 0.15702902, 0.049721025, -0.14516813, 0.16734084, 0.05941827, -0.26895338, 0.016922131, 0.20469256, 0.19314505, 0.07181404, -0.008136721, 0.011172646, 0.08656719, 0.008111, 0.0016961253, -0.05076807, -0.058002274, 0.022128921, -0.19112475, -0.22311571, -0.06889154, -0.23503964, -0.022347951, -0.06248901, -0.05297778, 0.047382813, -0.1645895, -0.14646372, -0.106839366, -0.12067431, -0.1503814, 0.017519007, -0.20312284, -0.059819326, 0.0016099873, -0.038828194, 0.022065824, 0.05623801, -0.042798743, 0.109392755, 0.057505038, 0.1066898, 0.14909275, 0.0766991, 0.19827794, 0.16619612, 0.1180411, 0.041391008, 0.21729578, 0.21920492, 0.05066267, 0.12017581, 0.23903422, -0.085463434, -0.09082471, 0.0060581686, 0.009772974, -0.09621716, -0.10428398, -0.0339623, -0.0799224, 0.0657849, 0.04092144, 0.0761048, 0.017873447, -0.013412302, 0.06393455, 0.23387232, -0.25942084, 0.14642651, 0.16703889, 0.11807072, -0.011526455, -0.028605055, 0.052082557, -0.11061415, 0.11357559, 0.2034419, -0.1452761, 0.0071689156, 0.0026154434, -0.043388225, -0.07477966, -0.06171779, -0.049869288, -0.18872847, -0.09465328, -0.10057009, 0.12393542, -0.03500986, 0.14043318, 0.04279528, 0.0214791, 0.11297495, 0.28918776, -0.008939609, -0.045597956, 0.09635388, 0.02084148, 0.04886663, 0.006903715, 0.06534703, 0.00809326, 0.05900527, 0.001782329, -0.070740744, 0.092666455, -0.013396064, 0.10072062, 0.056839786, -0.06057178, -0.10112825, -0.0751311, 0.2222044, -0.13583465, -0.005678547, 0.1345425, 0.12631299, 0.11287151, 0.017240424, -0.05942612, 0.02126137, -0.038421474, -0.016764343, 0.033305716, 0.0010414848, -0.1981741, -0.22869408, -0.11609659, -0.08577384, -0.12359403, -0.17009233, -0.19640766, 0.02528784, -0.12858728, 0.11323139, 0.339416, -0.1650594, -0.05391438, 0.43957376, -0.18792498, -0.16573232, 0.58923614, -0.048398856, 0.027427042, -0.029302595, 0.08326057, 0.052973926, 0.046195585, 0.14361338, 0.1484004, 0.17306638, -0.2878921, -0.34383118, -0.06546505, -0.2286336, -0.2865556, -0.031766817, 0.07122015, -0.06837944, 0.0862187, -0.5578265, -0.65843946, -0.28128886, -0.59599215, -0.8106304, -0.21250798, -0.3739409, -0.41672003, 0.058291085, 0.14306197, -0.13063708, -0.024773382, 0.19563401, -0.15647002, 0.037420377, 0.07873933, -0.09096333, 0.09481794, -0.2588958, -0.04385789, -0.1835721, -0.4761051, 0.0070022875, 0.071166016, -0.4047457, -0.33140513, 0.20739824, -0.2989873, -0.44507754, -0.13452137, -0.23401389, -0.4720623, -0.3130063, 0.006319192, -0.14293846, 0.16639471, 0.11945755, -0.0384078, 0.002296018, 0.077408604, -0.014988402, 0.0056731105, 0.10178524, -0.04646392, -0.01417441, -0.00910466, -0.023957087, -0.035960317, -0.13850178, 0.030963121, -0.063430615, 0.014760659, -0.008839652, -0.0049312077, -0.013005994, -0.050003745, -0.010809894, -0.13184944, -0.049735073, -0.045821447, -0.13682868, -0.15987866, -0.005226489, 0.009361751, -0.012530161, -0.022299645, -0.032677397, -0.02737745, -0.06271027, -0.068732075, -0.049889993, -0.042102262, 0.035234064, 0.07339746, -0.019404784, 0.038409017, -0.06585608, -0.03266146, -0.051322073, -0.060223676, -0.027934333, -0.01740852, 0.034013364, -0.08494454, -0.1120142, -0.093101844, -0.0066836113, -0.11505265, -0.046184942, 0.017960303, -0.061784517, -0.091116905, -0.018701535, -0.11073351, 0.017967883, 0.018903904, -0.059700035, -0.12604612, -0.13855511, -0.062833756, 0.052608967, -0.045741405, -0.07219423, -0.020272661, -0.040024348, -0.045170628, -0.014881328, 0.057473667, -0.032763466, -0.043041904, -0.030260568, -0.057890013, -0.13992973, 0.021483116, 0.010246815, 0.01219702, -0.015915463, -0.0054992638, 0.011287595, -0.08065572, 0.011401383, 0.060322568, 0.01948996, 0.0019052118, -0.06515461, 0.00074935413, -0.02604037, -0.1172211, -0.096954584, -0.08457178, -0.07065152, -0.088091, -0.013404215, -0.07716921, -0.06544422, -0.04293906, -0.05553769, -0.017684782, -0.07309513, -0.03592571, -0.12990828, -0.07268684, -0.042899337, -0.036704857, -0.120785564, -0.00471111, 0.04576038, -0.06923003, -0.13297816, -0.11080896, -0.058497794, -0.094733864, -0.07982739, -0.012903108, -0.07106429, -0.027312567, -0.062949054, 0.010270955, -0.089972705, -0.0009623416, 0.0077730007, -0.10627978, -0.06699433, 0.014012081, -0.082507625, 0.03142835, -0.008068426, 0.045235474, -0.01259586, -0.08359236, -0.034640048, 0.0540794, -0.1052588, -0.06809734, -0.054023024, -0.028173355, -0.027228042, 0.028221564, 0.0048429123, -0.013313441, -0.045210388, 0.008045212, -0.13545386, -0.015407526, -0.109542474, -0.1099294, -0.030085426, -0.08107287, -0.06948451, 0.007610501, -0.008056045, -0.059423737, 0.027532373, -0.09368077, -0.042841136, -0.055702977, -0.0017885579, -0.012193377, -0.048962783, -0.09001953, -0.0021902258, -0.041023217, 0.034870032, 0.0061946954, -0.05777064, 0.003016712, -0.07717272, -0.015666576, -0.09039224, -0.16151583, -0.1414773, -0.16750483, -0.03902124, -0.06340149, -0.17998075, -0.040126134, 0.03604623, -0.10968929, 0.03507432, -0.04267296, 0.0012829042, -0.06166122, 0.026813036, -0.110886075, -0.06892177, -0.006629541, -0.06813698, -0.01964967, 0.024737736, -0.09733783, 0.014128734, -0.041873835, -0.1265821, -0.10473471, -0.08507855, -0.11822191, 0.019536318, -0.060704984, -0.13470063, -0.12808694, -0.06515772, 0.0093304375, 0.025168976, -0.025469713, 0.023205183, 0.028824368, 0.04293352, -0.055761, -0.062875964, -0.066014886, -0.03447698, -0.013914394, 0.002827558, -0.16565968, -0.08064071, -0.06744209, 0.0045390814, -0.0836502, -0.110194564, 0.006439672, -0.06453642, 0.14814799, 0.013350238, 0.10967851, 0.13014461, 0.12313596, 0.08857529, 0.038754508, 0.1084396, 0.14356744, -0.11460522, -0.030618686, -0.0061761346, -0.12449697, -0.09111528, -0.06463403, 0.013965249, -0.009674735, -0.058943987, -0.039021898, -0.08265828, 0.023120293, -0.063471414, -0.013288851, 0.039873272, 0.0016939804, 0.09424928, -0.023910834, -0.14682916, -0.0023430442, 0.0040642307, -0.052937116, -0.03641068, -0.1123688, 0.03557913, 0.007753967, 0.014450169, -0.011398107, -0.030083098, 0.008287139, -0.112728246, -0.102286994, -0.064488076, -0.010032595, -0.04774873, -0.031281542, 0.042142063, -0.011974912, -0.063892856, -0.072605945, 0.010082685, -0.010273753, -0.028957967, -0.078026615, -0.057607096, -0.08099033, -0.042688705, 0.033729404, 0.0018576306, -0.035332084, -0.07711168, -0.09171272, -0.019695517, 0.062970534, -0.110612586, -0.0487422, -0.067672804, -0.0404008, -0.029720426, -0.052508205, -0.11290309, -0.10524507, -0.0498149, -0.11606794, -0.09867719, 0.097847365, -0.061227337, -0.10976971, 0.0838508, 0.033923946, -0.042895436, -0.12494114, -0.030167714, 0.13581076, -0.06459741, -0.1402446, -0.05792112, -0.22738715, -0.26101992, -0.18523411, 0.0635999, 0.08722587, -0.09943767, 0.014523144, -0.17040989, -0.14547947, 0.13537276, -0.08400469, 0.075290315, 0.11470032, 0.3442568, -0.00638616, -0.09119119, 0.3419972, 0.10718464, 0.037476152, 0.30750448, 0.057139788, 0.19019063, 0.035376966, 0.0025600917, -0.15188877, -0.11298236, -0.15446965, 0.012766043, -0.09716525, -0.14140719, -0.046994857, -0.06576711, -0.06254431, 0.04144312, -0.2170181, 0.006677254, 0.03908353, -0.18225929, 0.11095728, 0.18569702, 0.14962496, 0.15929288, -0.35188487, 0.3272277, -0.25683033, -0.29225662, 0.063328594, -0.08376235, 0.0042827446, 0.0022685335, 0.02315311, 0.0006405242, 0.019367618, -0.10668638, -0.13495126, -0.0056268233, -0.029707681, 0.026388211, 0.009837703, 0.10048619, 0.06707841, 0.004265431, -0.25255418, -0.05982036, 0.08407168, 0.03247184, 0.039265137, -0.16236305, -0.46226227, -0.5566624, -0.40782428, -0.54939145, -0.3462412, -0.5147752, -0.42985252, -0.116948426, -0.09323878, -0.071750894, 0.20494665, -0.22005914, -0.0080315685, 0.189178, -0.121254876, 0.117108695, 0.036510017, 0.13897274, 0.28495786, -0.26421443, 0.15005983, 0.16724646, -0.0023617977, -0.1911338, -0.043074068, 0.13069859, 0.15825918, 0.18975462, -0.3149791, 0.10952648, 0.011938666, -0.0917431, -0.10632148, -0.1171152, 0.10027472, 0.12679543, 0.07149442, -0.070781395, 0.20034869, 0.11642809, -0.101161405, 0.1416613, 0.06797328, -0.19703493, 0.2060042, 0.1844966, 0.29366195, 0.0840409, 0.1712277, 0.2138225, 0.110559896, 0.0166351, -0.24331243, 0.021584129, -0.23936333, -0.03774209, -0.053195056, 0.036866024, 0.29317617, -0.13261835, 0.02653725, 0.17703126, -0.23749058, -0.40245304, -0.18148126, -0.3666203, -0.13173676, -0.07234573, -0.12971775, 0.06458973, -0.043886676, -0.098964185, 0.07896599, 0.082130864, -0.020140948, 0.0488093, -0.11461473, 0.074736916, 0.033326015, -0.07220712, -0.025405722, -0.21097054, -0.14149055, 0.026823374, -0.07700699, 0.18671553, 0.115810715, -0.09521466, -0.027664863, -0.15022007, -0.2460846, -0.35208118, -0.044087123, -0.063549206, -0.097227894, 0.03517516, -0.08444353, 0.078458965, 0.056529637, 0.053890157, -0.10938633, 0.21863832, -0.0978974, -0.25234073, 0.057551365, -0.1210513, -0.12955697, -0.014079098, -0.13358773, -0.10715063, -0.15570654, -0.45252088, -0.09729814, -0.12637952, -0.23760636, -0.1279904, 0.024791429, 0.033346783, -0.07332488, -0.023856837, 0.02188206, -0.13044909, 0.049580183, -0.11506967, -0.1134777, 0.2260292, 0.2431887, 0.3680397, 0.24147612, 0.7776263, 0.4015698, 0.15297072, 0.33617008, 0.18160655, 0.0055832476, -0.085961446, -0.023125527, 0.052117467, 0.10016413, -0.0110297715, 0.008227464, -0.025204305, -0.047870316, -0.006638973, 0.040188517, 0.029563617, -0.007322905, 0.04838522, -0.047440913, 0.10588929, 0.03300018, -0.1394134, 0.00013499154, 0.12830539, 0.043535378, 0.2229538, -0.026488973, -0.30173764, 0.018681366, -0.20744663, -0.1865891, -0.1666289, -0.16145341, 0.2346403, 0.007857363, 0.05075975, 0.06353295, 0.07238931, -0.12682685, -0.13812925, 0.13629802, 0.33790016, 0.08165029, 0.11585714, 0.06536826, -0.12725104, -0.12831025, -0.011783679, 0.075112976, 0.34809703, 0.07922435, -0.14289646, 0.086046, -0.12328891, -0.31140152, 0.113016196, -0.2762312, -0.21678603, -0.10710478, -0.15790674, -0.057297934, 0.040065564, -0.15646152, -0.03066232, 0.07416633, -0.18396994, -0.20106395, -0.06687149, -0.06759471, 0.005956622, 0.033316877, 0.030718043, -0.02392513, 0.12392598, -0.010815038, -0.15435089, 0.0022536367, -0.044575565, 0.0053642304, 0.073099755, 0.14194351, 0.104812875, 0.11528936, -0.07412887, -0.05399078, 0.0971362, 0.0024168207, 0.06068427, -0.07409924, -0.2624132, -0.181559, 0.07340964, 0.005952556, -0.0016018255, 0.04112779, -0.023257652, -0.078064814, -0.10692036, -0.040186897, -0.05560819, 0.11757878, 0.2785927, 0.12285941, -0.10657078, -0.085094705, 0.05326147, -0.23521395, -0.27553102, -0.11901976, 0.14142047, 0.13285561, 0.27155498, 0.13393258, 0.09089024, 0.08201843, -0.13180545, -0.2614272, -0.103868246, -0.02273937, -0.17563616, -0.07145448, -0.24256504, -0.11673802, -0.17978227, -0.15551794, -0.017549166, -0.017174568, 0.17491184, 0.29628882, 0.30282915, -0.26459578, -0.12690388, -0.15667193, -0.12353565, -0.26339826, -0.0919131, 0.17308407, 0.21415985, 0.1564288, 0.035458434, 0.04004481, 0.0056044073, -0.12264711, -0.1367798, -0.19768067, -0.0010253252, -0.06606804, 0.09545822, 0.1657705, 0.07212331, -0.18500784, 0.029724553, -0.027941652, -0.20255718, -0.11240416, -0.09712521, -0.15675169, -0.03981566, -0.040093254, 0.18862042, -0.20820954, -0.376671, -0.21368876, -0.053801212, -0.056702856, 0.02066175, -0.35776037, -0.33352587, -0.19307551, -0.2949663, -0.26705244, -0.20991747, 0.21578647, 0.26343387, 0.250457, -0.02978851, -0.14125721, 0.007512857, -0.11554102, -0.18852799, -0.09157896, 0.19449058, 0.20499891, 0.17084804, -0.36033714, -0.44779083, -0.36781374, 0.009576179, -0.0703481, 0.082472906, 0.3530643, 0.26289642, 0.22018585, 0.048207875, 0.043562494, 0.09599256, 0.045784067, 0.058334924, 0.104578845, -0.07392834, -0.17396037, -0.10319089, -0.14146101, -0.059786245, -0.064356744, -0.052449174, -0.11041124, -0.02119651, 0.27011776, 0.026313124, 0.026510326, 0.16686694, 0.19129197, 0.09575245, -0.1653039, -0.052336793, -0.047137465, 0.06739052, -0.09411101, 0.013888687, -0.24719837, -0.14227794, -0.030848732, -0.19498189, -0.31786785, -0.21716684, -0.00091897784, -0.00086465466, 0.06339772, 0.10492107, 0.035249982, 0.053944044, -0.16621351, -0.16350412, -0.1023577, 0.003641745, -0.09929107, 0.050913062, -0.034339517, -0.0015522145, 0.04638817, -0.30491883, -0.11858494, -0.0015092139, 0.1191565, 0.04080492, -0.040304586, -0.09949602, -0.06841431, -0.009238576, -0.11776184, -0.1448788, -0.17501357, -0.007460916, -0.08396965, -0.078558125, 0.054235052, 0.11847078, 0.119535655, 0.068233855, -0.015173975, 0.029755969, -0.25207552, -0.22857723, -0.086253434, -0.2012905, -0.25831872, -0.2647959, -0.22705135, -0.12623121, -0.1447796, -0.040367372, -0.03193584, 0.020143943, -0.039497785, 0.08670541, 0.043916658, 0.027109377, -0.09021288, -0.06455456, -0.03614175, 0.01956306, -0.09516903, 0.13299966, 0.11476233, 0.23504373, 0.035216656, -0.035080396, 0.02624191, 0.3405311, 0.1434545, -0.025016021, 0.02427739, -0.052156504, 0.13142292, -0.13106306, -0.0027971969, -0.0075215753, -0.07857679, -0.0052751964, 0.098086365, -0.0647336, 0.031052127, -0.01430137, -0.023824224, -0.0923929, 0.003807072, -0.017593479, -0.040491134, 0.083768696, -0.09301642, -0.16637538, -0.2664563, 0.11885219, 0.1484471, 0.07423253, 0.18263909, 0.24846512, 0.11642373, -0.0076862546, -0.03267951, 0.007888305, 0.18518764, 0.0058762995, 0.03752446, 0.15688778, -0.004788285, 0.10706378, 0.17525375, 0.05108576, 0.055639982, -0.017911745, -0.28424874, -0.099508755, -0.07537106, -0.27271745, -0.2457848, -0.09906682, -0.09995197, -0.033601724, -0.31323537, -0.33331677, -0.18855864, 0.20771837, 0.13156518, 0.059177365, 0.11970038, 0.06160639, 0.08747514, 0.0695923, 0.0013439619, -0.014490334, 0.0117611475, -0.09904372, -0.048801962, 0.00023605731, 0.08788007, 0.06212613, 0.106326, 0.19269882, 0.107494116, -0.07164691, -0.1324253, -0.18616818, 0.006330145, -0.09511268, -0.09391678, -0.113998175, -0.10049153, 0.01545373, 0.002684559, -0.05816568, -0.003978944, -0.062234107, -0.11745005, -0.09656176, -0.012255184, -0.10969384, -0.1032938, -0.056919113, 0.016951354, -0.086234495, -0.04453003, -0.05151949, -0.03190379, -0.064137414, -0.087741666, -0.12191051, -0.050821867, 0.044381537, 0.0023334876, -0.0711288, 0.0011967283, -0.03889827, -0.07800986, -0.022693133, -0.0024152466, -0.03476203, -0.077676274, -0.04354119, -0.071915634, -0.10595388, -0.118493766, -0.063952036, -0.12946443, -0.122167654, -0.0517285, -0.030499212, -0.032490045, -0.015124206, 0.09553127, -0.04398942, 0.08225885, 0.01440326, -0.01975584, 0.050828185, -0.095981754, -0.069299646, -0.07572257, -0.019276544, -0.026138417, -0.12705746, -0.12476642, 0.031877864, -0.04346293, -0.08213104, -0.08769041, -0.08966129, 0.014603575, -0.06806574, -0.08485656, -0.065055996, -0.092629746, -0.07664002, -0.121567495, -0.07998767, 0.031903487, 0.024471305, 0.074252225, -0.004054725, 0.058137976, -0.07391177, -0.064965665, -0.03592193, -0.051038604, 0.003982215, 0.015857784, 0.042330597, -0.06503195, -0.097269155, -0.111511685, -0.07869049, -0.12860514, -0.10502817, 0.059078846, -0.061974913, -0.057818737, -0.0020658402, -0.045744352, -0.050092347, -0.0073454594, -0.05800602, -0.066367626, -0.00042871377, -0.09896403, -0.11500544, 0.040668014, -0.072883755, 0.06954174, -0.029448247, -0.069293305, -0.059832614, -0.031443786, -0.0379579, -0.040763896, -0.12871836, -0.07097414, -0.08056776, 0.0022180446, -0.07880189, -0.08350066, -0.112329505, -0.06335778, -0.095745966, 0.047844723, -0.09335657, -0.019845786, -0.075820856, -0.039300688, -0.058794625, -0.080582276, -0.10197464, -0.13519174, -0.08250338, -0.08132408, -0.007411286, 0.00041843977, -0.10207477, -0.039480742, -0.10114328, -0.07071672, -0.09931999, 0.039595854, -0.10447531, -0.08517867, -0.039396446, -0.08938551, -0.13348772, -0.08974337, -0.09455065, -0.13586313, -0.07317624, -0.08754367, -0.0830143, -0.069714, -0.07339584, -0.08368229, -0.046340033, -0.016492896, -0.03190122, -0.095682055, -0.015407514, -0.06813254, -0.020308279, -0.030271178, -0.032168075, -0.04800553, -0.020565856, -0.04562284, -0.00082013616, -0.0140955625, -0.021414062, -0.12686136, -0.019442594, -0.059555013, -0.10757655, -0.12203347, -0.055280834, -0.058064148, 0.0072544347, -0.011787289, -0.12521029, -0.15067112, -0.056823976, -0.012420727, -0.079231985, -0.073692635, -0.019408397, 0.006273508, -0.025500568, -0.09105083, 0.027836116, -0.062307175, -0.120549865, -0.004618277, -0.15198994, -0.10709233, 0.024870887, 0.0034389943, -0.03164346, -0.048154496, -0.057724573, -0.05959696, 0.055806775, 0.018647375, -0.010173347, 0.046137653, 0.044848822, -0.008638619, -0.077511586, -0.09616341, -0.002440873, 0.032122374, -0.13453479, 0.012544975, -0.10936958, 0.056814227, -0.15370744, -0.14598268, -0.09693682, -0.08615975, -0.07722563, -0.026123997, -0.048964474, -0.10719942, -0.043132745, -0.036626577, 0.042228043, 0.00027025669, -0.029418418, -0.025228905, 0.037433352, 0.062840275, 0.053826135, 0.03728376, -0.07245964, 0.08364582, 0.038923714, -0.014340822, 0.013253766, -0.09257215, -0.10888317, -0.058572832, -0.07593447, -0.048080254, 0.03229265, -0.048435714, -0.12398999, -0.070130266, -0.11573829, -0.15319736, -0.021104263, -0.089082845, -0.07269198, -0.087910056, -0.05199438, -0.09816575, 0.0010749134, -0.07896513, -0.13766755, 0.048363235, -0.10468425, -0.010338061, -0.1381098, -0.028236924, -0.04354179, -0.11360317, -0.12431352, -0.009216229, -0.10749157, -0.0132245645, -0.020801198, 0.060907323, -0.08655579, -0.045429125, -0.07416749, -0.058304526, -0.096214406, -0.03198104, -0.0907092, -0.030609543, -0.034618925, 0.05328187, 0.005839324, -0.029109458, 0.016231842, -0.14193173, 0.0093376255, -0.11386003, -0.053921077, -0.023398278, 0.02762807, 0.17498757, 0.17791457, 0.10970407, -0.08910053, -0.06367225, 0.10461718, -0.11544958, -0.044843692, 0.07515444, -0.0023940462, -0.076858096, -0.109150775, -0.019257408, 0.09710557, 0.08413663, 0.17329279, -0.07317546, 0.13102414, -0.0454031, 0.07045026, -0.0019148289, 0.026798435, -0.056555104, 0.060103286, 0.2355828, 0.19214001, 0.1206775, -0.13428435, -0.51097775, -0.4467196, 0.07468674, -0.106079474, -0.15440555, -0.01627628, 0.034168158, -0.07206669, 0.040748376, -0.13123505, -0.044189405, 0.21205913, 0.09264118, 0.11469476, 0.21919465, -0.068959214, 0.19271421, 0.18027908, 0.18280329, 0.26127902, -0.13957515, -0.09617692, 0.13665438, -0.13570474, -0.2561553, -0.17145048, 0.04762076, 0.09930817, 0.024044229, -0.36103776, -0.07457813, -0.32551664, -0.098323, 0.053701963, -0.15852886, 0.030895624, -0.01205123, 0.08930497, 0.086629614, 0.0818625, 0.11669091, 0.10534436, 0.15890007, 0.12422042, 0.038396683, -0.002786065, -0.07805263, -0.112056844, 0.038495496, -0.3118853, -0.21591015, 0.008723654, 0.050585452, -0.2727982, -0.123460844, -0.06569659, -0.061828632, 0.1720306, 0.068055674, 0.09373485, 0.13560955, 0.04787617, 0.032177377, 0.14548415, 0.055773556, -0.16742119, 0.0010814309, 0.18938972, -0.2547254, -0.24573815, 0.04240459, 0.11790312, -0.09162193, -0.16397937, 0.046554264, -0.022919971, -0.037813004, -0.19889736, -0.12346132, -0.09051079, 0.08301494, 0.12759747, -0.07107308, -0.14792615, -0.2655838, -0.24890909, -0.12338539, -0.13064916, -0.072163686, 0.04862971, 0.008858377, -0.068503216, -0.018410817, -0.085071124, -0.11932882, -0.18726729, -0.098492175, -0.13254337, 0.17133412, 0.32801682, 0.1994578, -0.21711616, -0.05816923, 0.05830869, -0.15705784, -0.0063205063, 0.0053672846, -0.094864614, 0.060828492, 0.078699365, 0.08374916, -0.12552595, 0.08941856, -0.12553838, -0.17357484, 0.006585954, -0.2498661, -0.15409197, -0.061890915, 0.08702257, -0.0015742737, 0.22716251, 0.069748074, 0.1123292, 0.060947187, -0.023691326, -0.018226279, -0.055870812, 0.0014476326, 0.056156736, 0.09933785, -0.25137338, -0.23356953, -0.14020173, -0.26331994, 0.076330945, 0.010383128, -0.25565603, 0.014724001, 0.0027660378, -0.25050062, -0.27149075, -0.29516682, -0.170471, -0.1348781, -0.029143848, 0.14127289, -0.08614205, 0.14462617, -0.12536407, -0.104792036, -0.12519522, 0.02637214, -0.0058656805, 0.04436264, 0.022395013, 0.14596465, -0.0019201087, 0.03057669, 0.14953041, -0.061339784, -0.017786345, 0.17824996, 0.1359052, -0.17540906, -0.12025013, -0.016660497, 0.024998445, -0.019072026, 0.0075587123, 0.05721806, 0.12871279, 0.064931594, -0.1778641, -0.11320141, -0.094705865, -0.056113627, 0.027277078, 0.03533442, 0.06552504, -0.04890017, -0.2797726, 0.20301388, 0.049825963, -0.1771299, 0.06597031, 0.14056075, 0.05049053, -0.31282938, -0.44242203, -0.5570115, -0.013155492, -0.015633686, -0.32920372, -0.24809936, -0.18207861, -0.06875675, 0.05027927, 0.107418224, 0.08274642, -0.11663367, -0.13868089, 0.047150373, -0.26393715, -0.22821006, -0.28765297, 0.09892213, 0.07737253, 0.074248746, -0.059816536, -0.24797106, -0.11120695, -0.0018911975, 0.055449467, -0.026374651, 0.219057, 0.1817153, 0.20144503, -0.18137139, 0.0063193343, -0.065099835, 0.006182761, 0.1681577, 0.15783635, 0.032659456, -0.22460274, -0.42069757, 0.222153, 0.050997756, 0.18673538, 0.15733854, 0.06781839, 0.22573929, -0.28113022, -0.43695837, -0.27371863, -0.032629207, 0.06347207, 0.11875005, -0.34111363, -0.21787083, -0.18421268, -0.017054986, 0.14818095, 0.0028083266, -0.19636714, 0.015264541, 0.037918143, 0.08183455, 0.1093972, 0.18364891, 0.086264856, 0.09946356, 0.04649728, -0.161456, -0.047043055, -0.0335731, -0.032339394, -0.048181873, -0.0571605, 0.014706146, -0.018985497, 0.09475818, 0.10443492, -0.2083172, 0.0029511556, 0.1317504, -0.08708259, 0.06943757, -0.047913536, -0.09403395, 0.17663324, 0.045913678, -0.26509562, 0.1658896, -0.022637352, -0.19942963, 0.22629839, -0.018202277, -0.070809744, 0.046683766, -0.03450256, -0.26670408, 0.1922648, 0.07979169, -0.10979075, 0.13535644, 0.4678145, -0.032806706, 0.120155625, 0.18209746, -0.1572808, -0.19969173, -0.19199188, 0.17850378, -0.03143984, 0.12502354, -0.2162438, 0.2333973, 0.04995621, -0.1434168, 0.34010115, -0.035036117, -0.2506064, 0.29190034, 0.20042191, -0.07616762, 0.037284408, 0.117217176, -0.1757025, -0.12924275, 0.09720644, -0.16837238, -0.10928226, -0.10084737, -0.11641445, -0.033275332, 0.15274686, -0.12985085, -0.2882691, 0.18886346, -0.15016583, -0.18568517, -0.04319257, 0.02113216, 0.23653698, -0.061789542, -0.24999073, 0.05426152, 0.002850228, 0.0372035, 0.0067077037, -0.17465506, -0.10133576, 0.11232753, 0.067055866, 0.05402752, -0.2404111, 0.14164187, 0.15793698, 0.08333629, -0.07032489, -0.010181024, -0.06492535, 0.1488502, -0.05249892, 0.018344596, 0.16251981, -0.13522187, 0.19824007, 0.15897906, 0.025145032, 0.07177076, 0.089383416, -0.07824908, 0.054854613, -0.0117353555, -0.018971281, -0.08682859, -0.026176872, -0.21285568, -0.097016335, 0.06443082, -0.16059983, -0.055700142, -0.018877748, 0.030005334, -0.006684613, -0.035662614, -0.20673311, -0.10125993, -0.016419025, -0.1852463, -0.04592165, 0.071724094, -0.10556656, -0.054424647, -0.040871453, 0.106703684, 0.12004556, 0.01506411, -0.0043728286, -0.045977406, -0.047292173, 0.071349904, -0.12350928, 0.11731663, 0.016270068, -0.054923665, -0.030214507, 0.0035243528, -0.03927577, -0.10905339, 0.0685867, 0.016211629, 0.024378756, -0.034988288, -0.046657827, -0.019279795, -0.11592164, -0.15700763, 0.01626774, 0.016807428, -0.12427823, 0.093960136, 0.24922848, -0.052650817, -0.06140911, 0.24862008, -0.08638758, -0.04171536, 0.2651818, -0.14444779, 0.055572294, -0.04051139, -0.05044573, 0.020350823, -0.0069148494, 0.004512211, -0.00039794465, -0.33711937, 0.14819099, -0.2367319, -0.06338588, -0.10018048, -0.14935735, -0.09831417, 0.008841418, -0.18705948, 0.023604278, -0.026642269, -0.013181199, 0.1100481, 0.17704771, -0.086928196, 0.10576404, 0.09320128, -0.020638341, 0.038699206, -0.054886192, 0.10598708, -0.010301592, 0.047852308, 0.1902297, -0.13092762, -0.004359796, -0.00325236, -0.031278323, 0.053047728, 0.08256721, -0.10781322, -0.043241307, 0.07748067, -0.1258635, 0.05734585, 0.13593753, -0.13019961, 0.22136553, 0.12467807, 0.050160192, 0.017300531, -0.08058966, -0.0911895, -0.13624342, -0.018462542, -0.013074258, -0.00916056, 0.28938216, -0.11259052, 0.1018388, -0.09241068, 0.04854252, -0.2544021, 0.05041172, 0.33056453, 0.018714264, 0.13808595, 0.020721601, 0.011758697, -0.0135230655, -0.12547477, -0.025904914, 0.108393505, 0.102489516, 0.037786964, 0.11071358, 0.09329848, -0.12262967, 0.034053676, 0.04785173, -0.037301727, -0.016764536, -0.043396622, -0.124864444, -0.1259663, -0.13685837, 0.01792044, 0.123408854, -0.12527952, -0.020940086, 0.11954317, 0.020403106, -0.011413354, 0.061206236, 0.037411135, -0.0297535, -0.02984707, -0.14185017, -0.29730523, 0.0045418143, 0.112458296, -0.22503924, -0.029201528, -0.14316809, 0.10752144, 0.05834647, -0.04833341, 0.20901428, -0.038562153, -0.086384915, 0.19864136, -0.05590175, -0.019122975, 0.0065885503, -0.08102446, -0.135277, -0.27789804, -0.105844356, 0.006949978, -0.16872127, 0.010810478, -0.010166129, 0.07652054, 0.03753693, -0.09312332, -0.17558739, 0.09211694, 0.015704514, -0.21370932, 0.18157446, 0.00017596182, 0.13804615, 0.08462339, -0.10824585, 0.02749963, -0.020762777, -0.0844692, 0.016095394, -0.06432797, -0.098851435, -0.05670092, -0.035898186, 0.041453507, -0.11470464, -0.08366594, 0.028630592, -0.07164515, 0.027676791, 0.0055173235, 0.02095141, 0.039818145, 0.0014813413, 0.034693323, -0.0018317444, 0.014036358, -0.043001205, -0.0768372, -0.0396806, -0.05410859, -0.055458456, -0.00020217641, 0.053723633, -0.06581289, -0.05872653, 0.027367143, 0.0025997602, 0.016633071, -0.0765329, -0.047393043, -0.047559172, 0.00967896, -0.059316944, 0.023251357, -0.07405938, -0.07208399, -0.0070841713, -0.084156126, -0.0069907573, -0.0564074, 0.011587671, -0.08452494, -0.085891195, -0.08268008, -0.0333236, 0.031525515, -0.075990535, -0.03347834, 0.028423384, 0.012192663, 0.0163583, -0.028306603, 0.05135891, -0.08487885, 0.016105367, -0.034327377, -0.07633277, -0.052799866, 0.07386703, 0.084750235, -0.025083771, 0.06905476, -0.014017566, -0.011861537, -0.06630175, 0.071021326, -0.04727751, -0.032988213, -0.03570282, 0.02619479, 0.025657548, 0.01201916, 0.03854023, 0.0624262, -0.056363646, 0.04252809, -0.013785265, -0.05419639, 0.07675262, 0.046765804, 0.03804228, 0.010433535, -0.0750731, 0.000990295, -0.007049093, 0.06722792, 0.020320985, -0.040427882, -0.010964569, -0.01263697, -0.06613496, 0.01667156, -0.07053314, 0.022272786, 0.06492418, 0.04082273, -0.002300632, 0.01741615, -0.00432215, -0.0095681185, 0.052941673, -0.1042456, -0.023917295, -0.08782613, -0.076014385, -0.03676618, -0.02112813, -0.009859153, -0.067481674, -0.0883734, -0.03185958, -0.04712821, 0.023557836, 0.0147341145, -0.052327704, -0.051491942, 0.027713556, 0.035343386, 0.008264198, 0.013306033, -0.05619548, 0.05336676, -0.041901268, 0.004207287, -0.057550732, -0.07254402, -0.032718148, -0.08198472, -0.06350333, -0.084706016, -0.06330788, -0.019110564, -0.048094433, -0.029564336, -0.011429397, -0.033502672, -0.027797977, -0.11838328, -0.08993842, -0.03090602, -0.04403146, -0.0067770067, -0.08719631, -0.074451484, -0.017782565, -0.06316752, 0.026446775, -0.04976755, -0.03625564, -0.06672011, -0.013876543, -0.08842047, 0.02539728, 0.02492566, 0.0566938, -0.0522629, -0.06799861, -0.064131185, -0.004730454, -0.080484234, -0.045433722, -0.08085993, 0.0077189724, -0.04646164, 0.06892032, -0.033457294, -0.030492777, -0.03203869, -0.028286219, 0.011247906, 0.019558199, 0.008451357, 0.025157569, -0.08654135, 0.014592387, 0.056156117, 0.035926487, 0.048962392, -0.092914745, -0.07284506, -0.0010401413, 0.0072344453, -0.042388838, -0.021169037, -0.08766722, 0.0013658751, -0.05110742, 0.022057503, 0.0195116, 0.0191309, -0.071082756, -0.0032212597, -0.00024538016, -0.042634893, 0.00426922, 0.051773984, -0.02940474, -0.0056489934, -0.048261434, -0.042263158, -0.0067995884, -0.09713053, -0.07543825, -0.031546965, 0.06992094, 0.070852585, 0.056353964, -0.07121927, 0.054173063, -0.005177275, -0.06777202, -0.0014210211, -0.088622384, -0.06020997, -0.03569852, -0.07058884, 0.024620235, 0.0032217503, -0.062235236, -0.013901018, 0.04242138, -0.066600844, 0.041372985, -0.06407988, 0.015047014, -0.026069313, 0.05018226, -0.09766963, -0.05066477, 0.047694646, -0.063894205, -0.04243245, 0.016027473, -0.06986766, -0.04052051, 0.053450808, -0.07962421, 0.051898777, -0.052739125, 0.012741606, -0.04754832, 0.07225905, 0.049321126, 0.029794361, -0.09188592, -0.05014754, -0.008374079, 0.03143706, -0.0053529036, -0.003917446, 0.043384656, 0.034991227, -0.078358255, -0.019385494, -0.09401299, -0.09012614, -0.0033771626, 0.010435472, -0.042644028, -0.09774846, 0.0641958, -0.060082138, -0.061371684, 0.02349535, 0.0029249196, 0.02359339, -0.0022725586, 0.00046943815, -0.055620957, 0.025218923, 0.028356941, 0.034703452, -0.029734883, -0.041905306, 0.05806058, -0.0014871052, 0.02882783, -0.04719742, -0.024081176, -0.08077714, 0.060517382, -0.04779073, -0.0942042, -0.02451999, -0.0025006037, -0.00092296896, -0.016605292, -0.062022977, -0.03246987, -0.016536305, 0.12832846, 0.008269607, -0.051757753, 0.21931876, 0.04380992, -0.029199036, -0.22001863, -0.17203605, -0.14583836, -0.25221384, -0.31091818, -0.3363483, 0.08513228, -0.10257287, -0.43468753, 0.005527827, 0.06059939, 0.038257334, 0.21742432, 0.17254482, 0.14771266, 0.21411213, -0.02359153, -0.21391557, 0.1650398, 0.08444017, 0.2222211, 0.02423886, 0.15140498, 0.031033864, 0.5269729, 0.30623773, 0.17651796, -0.22676113, -0.34001365, -0.09657762, 0.02537446, -0.32425037, -0.42942858, 0.2314965, 0.185521, -0.19046481, 0.0680822, 0.048093103, -0.18383446, 0.007817163, 0.08500598, -0.010928145, 0.11059141, -0.053320143, -0.061487973, 0.12998596, -0.051059164, 0.11946201, 0.18362935, 0.1113132, -0.00084416126, -0.02808604, 0.10836721, 0.071332105, -0.095655136, -0.026282454, 0.01593448, -0.047389124, -0.025982793, 0.025406055, -0.18847959, -0.100498326, -0.018022902, 0.18922368, 0.08369185, -0.22263408, -0.012675583, -0.084809676, -0.018831795, -0.2315411, -0.10005422, -0.044177026, 0.2681462, 0.15572196, -0.055332273, 0.39050287, 0.21845397, 0.09392856, 0.48447666, 0.20327841, 0.19306888, -0.069775075, -0.06460828, -0.06709639, 0.12377281, -0.013556069, 0.04661327, 0.14133321, 0.19173917, 0.12765469, 0.053860966, -0.04432392, 0.033206422, -0.0304106, -0.047749408, 0.051509175, 0.03977937, -0.09771425, -0.04127208, 0.022752164, -0.0731847, 0.041576374, 0.06371481, 0.074680746, -0.057264686, -0.09190415, 0.045862906, -0.002928868, 0.05608917, 0.005927755, -0.1504011, 0.13054045, 0.04594514, 0.030805988, 0.011913399, -0.028216964, 0.1115205, -0.03994519, -0.39614207, -0.5652002, 0.015335566, -0.39883667, -0.48960006, 0.09449793, -0.30204293, -0.60378927, 0.028842557, -0.12199272, -0.02870203, 0.17183119, 0.13007668, -0.091037236, 0.25587747, 0.2974662, 0.22453713, 0.16749965, -0.15997562, -0.2664376, 0.16217567, -0.0076202, -0.15841877, -0.034352947, -0.12960787, -0.08908175, -0.21845649, -0.028425258, -0.11247662, -0.07527418, 0.0032083238, 0.006087812, 0.19368683, 0.11995754, -0.01861988, 0.108136445, -0.12039697, -0.03561129, 0.18913376, 0.06352769, 0.092395335, 0.0653331, -0.15591832, -0.03345788, 0.1345826, -0.17820232, -0.039663807, 0.27321184, 0.116203904, -0.11287419, 0.12399981, 0.19849618, 0.17748351, 0.0060439357, 0.04356757, -0.03167156, 0.13685445, 0.08434059, 0.037081096, 0.09111776, 0.035044402, 0.15222795, -0.2003134, -0.041410945, -0.08537673, 0.06199512, 0.09346033, 0.011411928, 0.10924553, -0.045412853, -0.1713261, -0.034830675, -0.08686298, -0.06117167, -0.009155561, -0.06575922, -0.08438365, 0.1269178, -0.019154027, -0.08355098, 0.15927798, -0.045659248, 0.057600018, 0.10176228, -0.26100388, -0.08581525, 0.13171571, -0.2702514, -0.2233841, -0.24532992, -0.21221623, -0.031935923, -0.010313178, -0.1780518, 0.07557997, -0.06277505, -0.15073343, -0.028134681, 0.00020848343, -0.032090884, -0.058555007, 0.06565368, 0.06293638, 0.085654646, 0.031449713, 0.09035913, 0.035955787, 0.07633161, -0.093936495, -0.010926776, 0.19720803, 0.047136102, 0.12142722, 0.06752931, 0.021393891, -0.034903973, -0.0014115581, -0.026930055, -0.15627454, 0.08922667, -0.045284707, -0.32539886, 0.11609921, -0.057255384, -0.24251226, -0.29460734, -0.19327082, 0.042812563, -0.2876857, -0.54054517, -0.2237107, 0.10547809, -0.15634006, -0.35300842, -0.07689389, 0.07580641, 0.13515025, -0.23688604, -0.0380515, 0.16248982, 0.008804873, -0.19992018, -0.09685703, 0.006285124, -0.03885807, -0.21843025, 0.21011299, 0.0832396, -0.34017888, 0.25164023, 0.08498155, -0.12392946, -0.106551886, -0.12424193, -0.15019788, 0.14329259, 0.02493004, -0.0160606, 0.12674128, -0.0017988172, -0.0065030223, -0.117781915, -0.0052753924, 0.093144216, -0.07807437, -0.114346854, -0.12547083, 0.007171027, 0.09454022, 0.05410307, -0.019280711, 0.16292164, 0.19499336, 0.02630622, 0.02473701, 0.029168516, -0.1954122, -0.32824254, -0.2614533, 0.11304722, 0.21136782, 0.15403646, 0.07136764, 0.03260058, -0.10348951, -0.03672166, -0.080626786, -0.06442002, 0.17285219, 0.22501741, 0.15544577, 0.06266829, -0.047177546, -0.06118094, 0.006435017, -0.038313538, -0.027031355, 0.052204713, 0.12412385, 0.06572631, 0.004083824, -0.20428273, -0.047869794, -0.22625415, -0.21053377, -0.087013125, 0.23357564, 0.20794953, 0.19715784, 0.06778662, -0.014820546, -0.022064136, -0.15541571, -0.40365022, -0.35972035, -0.014495061, -0.12617148, -0.027007349, 0.089064345, 0.044093873, 0.044061814, 0.18345958, 0.17956075, 0.27730855, -0.06515358, -0.0014375703, 0.029485242, -0.016266597, -0.0010305034, 0.13506734, 0.08858215, 0.043318715, 0.11449781, -0.15170848, -0.12783056, -0.15877557, -0.20781144, -0.20582499, -0.27884427, -0.07388639, -0.080296576, -0.14119203, 0.12006582, 0.114917904, -0.058941312, -0.073020294, -0.035135705, 0.00081676967, 0.0020127743, 0.009044488, -0.116523035, 0.16260684, 0.347707, 0.21521075, -0.020254692, 0.08166102, -0.19490758, -0.36427706, -0.53482246, -0.5979733, -3.760092e-05, 0.0058375443, -0.03376609, -0.10700371, -0.096421, 0.09199039, 0.046420608, 0.00230806, 0.024061173, -0.055469077, 0.006880558, 0.014135772, 0.050568685, -0.08463121, -0.01669863, -0.007964393, -0.08365014, 0.12634844, -0.13366143, -0.08151457, -0.14002486, -0.086386114, -0.10515535, -0.067245446, 0.0614232, 0.1445664, 0.21473876, 0.17533626, 0.47346613, 0.274878, 0.13981582, 0.17937177, -0.17330454, -0.64149356, -0.82866424, -0.6984698, 0.008658073, 0.13577507, 0.068612106, 0.20400614, 0.026890319, 0.006556013, -0.21051906, -0.39941567, -0.3524578, 0.15462711, 0.08652261, 0.055161897, 0.041199055, -0.10133081, -0.14028053, -0.25301477, -0.23339976, -0.16525877, 0.020713618, 0.16766053, 0.065509096, -0.0003116501, 0.074245, -0.013060051, -0.25295138, -0.2505244, -0.10810361, -0.3200278, -0.14498958, -0.073964275, 0.0334158, 0.13573785, -0.05983778, -0.04602604, -0.08414039, 0.05093712, 0.111306414, -0.06212265, 0.085362025, -0.18497747, -0.206887, -0.13093112, -0.41121712, -0.5053022, -0.28240037, -0.087526016, -0.068707086, -0.105950974, -0.1570172, -0.06747024, -0.09182237, 0.12812972, 0.08468323, 0.06157396, -0.15401925, -0.028315376, 0.08503467, 0.14587545, 0.070714496, -0.17045183, -0.036866102, -0.16900949, -0.14092132, -0.14914896, -0.007457105, -0.1298591, 0.011153209, 0.017615749, -0.00027520373, 0.006346313, 0.0041701864, 0.14521001, -0.0398007, 0.013477688, 0.14156757, 0.08693626, -0.046827585, 0.0029827189, -0.10628046, 0.050222278, 0.13708478, 0.22726397, 0.17609446, 0.098063104, -0.08696019, 0.048789907, -0.110818416, -0.30067492, -0.39032, -0.28964984, 0.00382416, 0.02198982, 0.124153785, -0.039325777, 0.022412473, 0.031379607, -0.11529573, -0.05371626, -0.18959208, 0.09022138, 0.1355199, -0.06169867, 0.11809151, -0.11059174, -0.069341764, 0.019458048, 0.09755626, 0.22747925, -0.043999735, 0.002454143, 0.03343062, 0.016624335, -0.12728031, -0.016782472, 0.09628654, 0.11765766, 0.29542762, -0.06546601, 0.03330144, 0.1194729, -0.08786718, -0.052759647, 0.0058752024, -0.076182194, -0.04701821, -0.06301471, 0.18834916, 0.26571387, 0.19247192, 0.07245897, 0.046038337, -0.01772531, 0.002680722, -0.16823941, -0.21076308, -0.26433396, -0.20564108, -0.15973032, 0.1995707, 0.061488003, -0.068330295, 0.041903853, 0.15152022, 0.13727035, -0.1799757, -0.099132225, 0.046010617, -0.089464314, -0.14690962, -0.11876408, 0.03904705, 0.09415931, 0.24081418, 0.019632664, 0.0992264, 0.18983576, -0.021015922, 0.12782848, 0.13494329, 0.09115082, 0.11063218, -0.039428264, 0.031640418, -0.05948735, -0.06428315, -0.117714606, 0.017136874, -0.0040519414, 0.14282446, 0.129117, 0.08834885, -0.051041108, -0.03276896, -0.08727108, -0.031153167, -0.17528027, -0.10748632, 0.42282665, 0.26263738, -0.0027751923, 0.087795615, 0.09592183, 0.075008556, -0.014198637, 0.11434995, 0.03498833, 0.024468958, -0.12068837, -0.0068404856, -0.055260997, -0.11692312, 0.021931423, 0.040517658, -0.069342665, -0.10450012, 0.27275673, 0.1956516, 0.14928336, 0.11979256, 0.059183124, -0.100234605, 0.10018322, 0.10413041, 0.14416967, -0.16460085, -0.03793316, 0.08174988, -0.04240403, -0.01752978, 0.13223228, 0.045793235, -0.019898301, 0.029199574, -0.00633758, 0.03372585, 0.005972957, 0.01671815, -0.051398825, 0.00039631352, 0.14875285, 0.020542955, 0.057495743, 0.30400667, 0.06312072, 0.04020019, -0.08138928, -0.079008624, -0.14831842, -0.17412429, -0.0829981, 0.08393156, -0.18303423, -0.21387362, -0.09357112, 0.2415544, -0.104331024, 0.13831544, 0.1922867, -0.0012307694, -0.06409156, 0.3464053, 0.24585761, 0.048566405, 0.037482202, 0.011375528, -0.12931682, 0.15232351, 0.23091792, -4.851116e-05, -0.0019073477, -0.019653764, 0.074060105, -0.10078836, -0.09392602, -0.08112567, -0.063300885, -0.05396422, -0.014506465, 0.109396175, 0.06817943, -0.0010007813, 0.12894042, 0.11234319, 0.2517947, -0.07758854, 0.07073542, 0.1179979, -0.14650929, -0.11656053, -0.11803153, -0.0033689686, 0.118580446, 0.15267071, -0.19230397, -0.16407344, -0.07240942, -0.08361439, -0.08762259, -0.09570069, 0.30326757, 0.22473225, 0.24600355, -0.053925242, -0.0063634715, 0.113165274, 0.009510401, -0.12957898, -0.0591341, -0.02372827, -0.08031386, -0.219562, 0.16852103, -0.02698874, -0.03685413, 0.06764189, 0.078162916, 0.022445247, 0.093318045, 0.09597283, -0.000802434, -0.013419211, -0.041421704, 0.0373312, 0.17893898, -0.04270311, -0.21562439, -0.057302162, -0.021858606, 0.05940064, -0.24973829, -0.17512088, -0.046173953, -0.20505348, -0.12009509, 0.023332464, -0.21665312, -0.13328125, -0.04277906, -0.14254504, -0.3635406, -0.037837435, 0.035938356, -0.051097516, -0.22895199, 0.006864788, -0.02171676, 0.047279887, 0.0074820444, -0.008598456, 0.07402382, 0.010787734, -0.14251857, 0.025470167, -0.049414523, -0.039016232, 0.12855607, 0.0397616, -0.04839566, 0.03752371, 0.033921048, 0.018844452, -0.09590333, 0.0057296553, 0.004859357, 0.08559729, -0.0720594, 0.010376938, 0.015005478, 0.013458182, 0.14944883, -0.034956533, -0.11121759, -0.055194527, 0.023518546, -0.09935974, -0.09026385, -0.14585836, -0.0659604, -0.039711464, -0.04002399, -0.14369369, -0.24806704, -0.3118498, -0.25937122, -0.41098782, -0.28688774, -0.18912034, -0.44458115, -0.580432, 0.03210086, -0.01489824, -0.05940336, -0.060192093, -0.22503898, -0.19803204, 0.039049454, -0.0046531726, -0.122018844, -0.0062365043, 0.054271992, 0.076649494, -0.21704292, -0.15219851, -0.1007435, -0.1588662, -0.10118845, -0.13272513, 0.02344253, 0.123011604, 0.27543524, -0.1198071, -0.14624834, -0.1858893, -0.18472156, 0.016598323, 0.1659911, 0.108582616, 0.039364923, 0.101353325, 0.03436805, 0.027059317, -0.056209058, -0.033657413, 0.12307928, 0.0027094733, -0.18874311, -0.22447379, -0.12896594, -0.17139548, -0.20293178, -0.08261597, 0.31042725, 0.016313573, -0.1614684, 0.10908112, 0.05232377, -0.0020977827, -0.16170624, -0.068931185, 0.0828182, 0.042849805, -0.09543144, -0.2954156, -0.037589677, 0.11682617, -0.042278122, 0.0627608, -0.08866274, -0.044267945, 0.08854039, 0.10069883, 0.10112756, 0.008127282, -0.05823235, 0.13862161, -0.13800322, -0.10076722, -0.11227629, 0.030366862, -0.002221351, -0.09878817, 0.09454683, 0.11524244, 0.20449758, 0.10616399, 0.03044258, 0.10058245, -0.15146899, -0.23443462, -0.06853421, -0.057307612, -0.08645936, -0.14491539, -0.009893278, 0.007855652, -0.11534811, -0.07690631, 0.087245844, -0.1303338, 0.04769183, -0.11031367, 0.038775567, 0.018421123, -0.2505851, -0.03332928, -0.07967386, -0.21938317, 0.08089467, -0.19273433, -0.07416688, 0.13041164, -0.08268741, -0.20915385, 0.2168979, -0.2140414, -0.31951886, 0.0690592, 0.09439732, 0.11244346, 0.022542475, 0.15428525, 0.2713071, 0.04638112, 0.05428956, 0.09853304, 0.061625246, -0.16070263, -0.26471353, -0.16394748, -0.15474814, -0.18058269, -0.044080347, 0.03495461, -0.035503443, 0.06022279, -0.035985045, 0.037253052, 0.022097064, -0.028153632, -0.11372845, 0.009363285, 0.03050731, 0.0040627616, 0.07262562, -0.1855755, -0.20409921, -0.06709854, 0.09967175, -0.071443684, 0.18289997, 0.063021235, 0.00031011636, 0.2173191, 0.10703724, 0.2736528, 0.15877672, 0.13860014, 0.014382206, -0.042261302, -0.29416323, -0.19022803, -0.21829817, -0.1295416, -0.05010518, 0.03947483, -0.15144189, -0.03568364, -0.008960284, 0.041794747, 0.102089085, 0.09396762, -0.16402975, -0.6245121, -0.22883081, -0.10786473, -0.33852717, -0.041786868, 0.218293, 0.13124062, 0.26102144, -0.060670596, -0.22015971, -0.16705264, -0.008340572, -0.071880504, 0.02718754, -0.031362034, -0.017040627, 0.01117438, -0.066398144, -0.19203104, -0.03654705, -0.10031533, -0.17148405, -0.03379291, 0.016484965, 0.07942278, 0.011755072, -0.024454106, 0.098985404, -0.028150678, -0.019066386, -0.037346344, -0.10171178, -0.1280885, 0.12944074, 0.046918906, -0.33768925, -0.6634739, -0.26731372, -0.12710245, -0.12928158, 0.10861997, 0.29872462, 0.377446, 0.50311846, -0.12434428, -0.017440746, 0.12374876, -0.40815938, -0.23259665, -0.15250245, -0.1676317, -0.090610884, 0.061088968, -0.17845307, 0.33304095, -0.16398747, -0.030183509, 0.31317466, -0.08767002, -0.14844836, 0.3283249, -0.07999598, -0.14221859, 0.024079831, -0.019753322, -0.10286259, 0.09289785, -0.06113593, 0.074377894, 0.13750717, -0.093035676, -0.093174115, -0.06627823, -0.19217235, -0.08862557, -0.025529478, -0.019570574, -0.031082459, -0.30264002, 0.0052854065, 0.044279005, 0.3713456, -0.11440913, -0.01680774, 0.45746803, -0.16937071, -0.092286065, 0.3293321, -0.13125764, -0.1212587, -0.22346175, -0.07052265, 0.07943871, 0.018298354, 0.13785848, 0.12779284, -0.0072882078, 0.06556233, -0.019261207, -0.047891933, 0.0026619579, -0.043323006, -0.16128342, -0.10656099, 0.18749198, 0.08096187, 0.16709468, -0.053229608, -0.02820015, 0.017111877, -0.12586376, -0.17288549, -0.21954149, -0.05742268, 0.013217895, 0.039394606, -0.18063742, -0.06548938, -0.20810062, -0.06317394, -0.0968741, -0.04125416, -0.2998638, 0.12807465, 0.0529204, -0.21864042, -0.58438724, 0.0023477732, -0.20822947, -0.3705682, 0.14544451, -0.01217409, -0.0029181812, 0.55531967, -0.12296682, 0.062949754, 0.07393702, -0.047442514, 0.05307209, -0.033218104, -0.103903085, 0.04962212, -0.069455504, -0.023223322, 0.06348328, 0.031703915, -0.23280984, -0.234172, -0.11236207, 0.11956202, 0.06510284, 0.03940422, 0.07603286, 0.022939762, 0.14498262, -0.027638067, -0.27781904, -0.2070449, -0.00081508444, -0.10418902, -0.07697977, -0.038190752, 0.23720102, -0.17156337, 0.0690129, 0.30470455, 0.003753012, 0.036996808, 0.15717056, -0.14958513, -0.21008188, 0.09331113, -0.25068608, -0.50293493, -0.29529026, -0.17871684, -0.42053074, -0.10181593, 0.19235136, 0.07299442, 0.18047053, 0.24529569, -0.06997123, -0.092116065, -0.084550835, -0.23632824, -0.15497507, -0.0681239, 0.07382532, 0.07430309, 0.10405094, 0.05013675, -0.17645684, -0.14206144, 0.07004467, -0.06993377, 0.05147034, -0.12753054, -0.2303504, -0.16900845, 0.27776563, 0.19620438, 0.23508956, 0.08433691, 0.016903065, 0.028679784, -0.04913291, 0.07686732, 0.039596092, -0.05745486, -0.02538002, -0.022166112, 0.002776534, -0.025234003, 0.028142266, -0.09883524, -0.15734586, -0.14471182, 0.050815746, -0.0121084545, -0.093820654, -0.09324552, -0.14777546, -0.16413948, 0.24519241, 0.09959858, 0.20261638, -0.22794135, -0.016573021, -0.021058628, 0.18217792, 0.014934059, -0.049225923, -0.03472432, 0.024468157, -0.08395474, -0.14036661, -0.30533862, -0.15594368, -0.054774564, -0.4252164, -0.16751115, 0.025608383, 0.0050584176, 0.014049938, 0.0113950465, 0.03904293, 0.03225895, -0.03025695, 0.06871248, -0.017929487, 0.044780634, -0.11069702, 0.01908417, 0.08147867, 0.20747642, 0.18233271, 0.026024677, 0.010382398, 0.123321615, -0.141492, -0.21186276, -0.46860853, -0.026697854, -0.065940104, 0.05999506, 0.051322293, -0.052742507, -0.11518088, 0.06533053, 0.079644576, -0.003764705, -0.00024285377, -0.22012149, -0.25773418, -0.2063776, -0.19460906, -0.052805576, -0.21037945, 0.008229486, -0.1544265, 0.0489323, 0.024574766, -0.04540477, -0.12657563, -0.23382437, -0.259171, -0.039801426, -0.10679146, -0.069086604, 0.07602038, -0.018635679, -0.0034224195, 0.08972359, -0.035934847, 0.061898228, 0.0030776032, 0.029903205, 0.057725564, -0.04224919, 0.017068317, -0.0586609, 0.12102225, -0.08035774, -0.019079873, 0.042246696, 0.014764953, -0.064263955, -0.07121168, 0.10319049, 0.036516707, 0.14865416, 0.03835732, 0.17255378, 0.003635708, 0.041746918, -0.047492817, 0.025373453, -0.18477504, -0.036267832, 0.13060035, -0.060753312, -0.06432078, -0.35188594, -0.31327957, -0.26822397, 0.0012741566, 0.06610061, 0.15998894, -0.026551228, 0.039434098, -0.012911091, -0.059265442, 0.085943356, 0.013652824, 0.07467595, -0.10980588, -0.13065092, -0.16208014, -0.08809363, -0.10491451, -0.04530304, -0.14938241, -0.049752057, 0.026176656, -0.17373864, -0.19188696, 0.08610374, -0.10779837, 0.010132307, -0.0033546232, 0.09853747, 0.041421507, -0.13753906, -0.15586938, 0.023834895, -0.012682124, -0.16905978, -0.058331955, 0.04114002, -0.07706669, -0.07198596, -0.018132973, 0.074520916, -0.042713884, -0.13261902, -0.14005636, 0.051520284, -0.11077012, -0.0029518707, 0.07638107, -0.049227636, -0.20964532, -0.21895598, -0.018711321, -0.24724387, -0.2568042, -0.14974692, -0.2315741, -0.1607321, 0.10621928, 0.098699555, -0.029191473, 0.048083257, -0.041235164, 0.09602236, -0.11200267, 0.012976354, 0.060367685, 0.1704124, 0.13412736, 0.23913138, -0.16187304, -0.0242601, -0.08124656, -0.060638234, -0.092041075, 0.078722104, 0.079650484, 0.10480376, 0.075738646, -0.2346596, -0.26469016, -0.21445794, -0.04867781, 0.21907133, 0.08323481, 0.17904006, 0.06528112, 0.108618796, 0.18341514, -0.108199224, -0.2322097, -0.2543088, -0.010851035, -0.06106222, 0.09534346, 0.28809118, 0.19975078, 0.10717972, 0.33002007, 0.23692894, -0.033161502, 0.13394564, 0.1261862, 0.039291035, 0.090976395, 0.09976264, -0.1891383, -0.24609946, -0.096826114, 0.07303717, 4.299012e-05, 0.16526173, 0.24848658, 0.35075802, 0.33303288, -0.39313495, -0.5412613, -0.63390267, 0.0010913566, 0.05923102, -0.07580265, 0.23078713, 0.1836632, 0.35259792, -0.06784411, -0.1162088, 0.033783995, -0.08710354, 0.09585236, -0.070079565, -0.16268791, -0.22922455, -0.21469434, 0.016127147, -0.31704178, -0.3151961, 0.19835107, 0.11906526, 0.18987225, -0.045255754, -0.19216779, -0.12593903, 0.2081052, 0.033762183, 0.24139985, 0.07364209, -0.13157421, -0.06375612, 0.13030848, 0.14061682, 0.15781067, -0.1858074, -0.21240875, -0.11250449, -0.09533114, -0.08616586, 0.014645035, 0.109141976, 0.13080232, 0.04142818, -0.21933867, -0.21089332, -0.18517806, -0.010144836, 0.029118514, 0.024598803, 0.050200757, -0.060788203, -0.027580274, 0.03576078, -0.059399545, -0.06448231, -0.06922509, 0.012261613, 0.014160327, -0.1126633, -0.003152376, 0.03220168, 0.055936757, -0.0033456103, 0.021253727, -0.067686155, -0.05499082, 0.021729544, -0.081950754, -0.07931215, -0.07393548, -0.011102784, -0.01069418, -0.092593946, -0.087256335, -0.02665811, -0.059284978, -0.027482713, -0.12398146, -0.06451153, -0.070672534, -0.070079185, 0.029001588, 0.029084569, -0.06747545, -0.02839701, 0.009003795, -0.012290502, -0.03926643, -0.043807324, 0.0148785375, 0.013383814, -0.058613785, 0.053339858, 0.04146374, -0.026850492, -0.06118708, -0.0021435558, 0.053841896, 0.0013956715, 0.06852416, -0.013845579, 0.050031137, -0.056647956, -0.07970719, 0.022131162, 0.067573935, -0.03648261, 0.060571615, -0.03706573, -0.038148504, 0.009236473, -0.07625958, -0.021321677, -0.009111405, -0.068726584, -0.07933052, 0.036046427, 0.0045969076, 0.07258973, -0.020385297, 0.07355607, 0.038446896, 0.07706187, -0.07553645, -0.0060563856, -0.06613166, 0.04345373, -0.07484699, -0.0196154, -0.027630528, -0.04284182, 0.038103756, -0.14832762, -0.07233738, -0.054793123, -0.08049508, 0.06213948, 0.020617332, 0.00789491, -0.049202926, -0.081435144, -0.057205398, 0.014154467, -0.0048077465, -0.04550208, -0.09152429, 0.026500177, -0.07067252, -0.021032471, 0.036703233, -0.005348413, 0.05893842, 0.02259362, -0.0216387, 0.06865652, -0.024585105, -0.07665915, -0.06726272, 0.07670937, -0.0284363, -0.056982256, -0.08356416, 0.056039076, -0.024722815, -0.0034735166, 0.039058425, 0.024419695, -0.0046805176, 0.009104838, -0.0559159, 0.011414721, -0.05222732, 0.055333506, 0.012575147, -0.028125785, -0.025622979, -0.073123835, -0.05151621, 0.01407871, 0.06682509, -0.07030352, -0.058282163, -0.02836711, -0.05874033, 0.019954799, -0.022054175, -0.05977368, 0.055519007, -0.0653669, 0.026829194, -0.0468205, 0.057165887, 0.030857585, -0.040858954, -0.019718783, 0.011921171, 0.037298746, -0.067580394, -0.07203372, -0.06337009, 0.03675419, -0.007290259, -0.06950364, -0.065646045, -0.048434872, 0.017786276, -0.024033971, 0.07238807, -0.0695247, 0.019222768, -0.020303998, 0.0012297429, -0.029335603, -0.05345283, -0.10067432, -0.013858857, -0.037639927, 0.039060153, -0.035363197, 0.05067536, -0.0038539183, 0.0075304406, -0.0032141462, -0.029369622, -0.06067142, -0.0110639995, -0.09712102, -0.04769215, 0.035870034, -0.10134298, 0.04703493, -0.099296086, 0.01477398, 0.02721286, 0.011235907, -0.09040986, -0.08541676, -0.00090744393, 0.045536973, -0.011917567, -0.016485015, -0.048064485, -0.034508567, -0.08421693, 0.016326284, 0.03244952, 0.05322965, -0.0549459, -0.091779515, -0.073729225, -0.09587221, 0.023784466, -0.06682929, 0.003152332, -0.11004967, -0.054582123, -0.028197361, 0.027957672, -0.03266528, -0.09489803, -0.06491393, -0.0701568, -0.085412756, -0.05150248, -0.02272387, -0.09347835, -0.052924912, 0.01056887, -0.0234257, -0.04431324, 0.012168436, -0.09185639, -0.05632707, -0.054978766, -0.011921652, -0.09259167, 0.029288506, -0.056002893, 0.01977619, -0.08967505, -0.08504345, 0.035652436, -0.011003766, -0.04491321, -0.050282795, -0.01621765, -0.050011344, -0.028880252, 0.037424907, -0.06833929, -0.027358841, 0.009374089, -0.050643202, 0.047175918, -0.011844898, 0.020498062, -0.07944926, -0.0502339, -0.09302758, -0.096493974, -0.0023907542, 0.004812967, 0.031714566, 0.04999213, 0.011558722, -0.09238549, -0.08587265, 0.039218742, 0.03945145, 0.027141739, -0.0715246, -0.0626801, -0.037016835, 0.022645747, 0.048984285, 0.055265103, -0.043090437, -0.003227218, -0.08989419, 0.049931582, -0.1379113, 0.02256499, 0.03641864, -0.0022637292, -0.012029206, 0.011248929, -0.05366141, 0.05890901, 0.036055386, -0.044405892, -0.09679488, 0.049264774, -0.07620143, -0.0408621, 0.15783876, 0.054397892, 0.13337427, -0.02414874, 0.00019256322, -0.083083294, 0.122138694, 0.030799083, -0.022517892, 0.034851767, -0.017325787, 0.01958529, -0.029785754, -0.23782621, -0.07110011, 0.060777422, -0.050071064, -0.08270369, 0.034240734, 0.0954207, -0.04229711, 0.07872382, -0.09558915, -0.21864472, 0.16135876, 0.10519443, 0.20775485, -0.001785781, -0.09471672, -0.09536516, 0.18701522, 0.18123627, 0.14975366, 0.06192617, 0.10127252, 0.08339251, 0.010789203, 0.041296642, -0.019576358, -0.036515478, -0.222383, -0.28258032, 0.08972729, -0.22340503, -0.06854247, -0.03121409, -0.12800072, -0.11183088, 0.0884818, 0.06524202, 0.12515013, 0.060358834, 0.0026542484, 0.032084692, -0.16017212, -0.13147931, -0.13780731, 0.315249, 0.31162396, 0.3865354, -0.105320536, -0.12063697, -0.18098477, -0.06992444, -0.18056564, -0.18266816, 0.13750106, 0.21935263, 0.038516033, 0.12209663, -0.11559649, -0.09470902, 0.11476319, 0.051446, -0.054985058, 0.144821, 0.16106525, -0.056546517, -0.023390327, 0.133646, 0.07389679, -0.102002904, 0.021167558, -0.09014662, 0.032737855, 0.0983415, -0.030425856, -0.17485952, -0.18322931, -0.088829495, -0.18150751, -0.29064342, -0.34139228, 0.1568965, 0.09484994, 0.1327924, 0.073136695, 0.08343728, 0.06393365, -0.11027229, -0.17651196, 0.016460022, 0.14380625, 0.022108093, 0.15804993, -0.02618051, 0.021458147, -0.11096001, -0.24310362, -0.14282265, -0.1690361, 0.29048774, 0.21618678, 0.34376055, -0.09139912, -0.18945745, -0.18805, 0.09127795, 0.044641513, 0.034284063, 0.0028535451, -0.0019558826, 0.08615206, -0.2058506, -0.18428603, -0.10301188, -0.048488785, -0.2214179, -0.09523839, -0.07950627, -0.1554348, 0.08888541, -0.06660501, -0.030227363, 0.07159342, 0.01203279, 0.022871893, 0.071719125, -0.020032648, 0.02548715, 0.035191298, -0.019954408, 0.028244631, -0.16133119, -0.12718955, -0.107820265, 0.09108403, 0.10761988, -0.098127805, 0.085148536, -0.20818485, -0.4092128, -0.067427725, -0.15956908, -0.0013042087, -0.058615156, -0.06428081, -0.12822272, -0.12297809, 0.113277555, -0.032740712, -0.03749869, 0.0041210833, -0.009932511, -0.08610184, 0.055639002, -0.061813943, 0.10723897, 0.02460885, 0.08601363, 0.028407492, -0.056115657, -0.05153415, -0.017645959, -0.02320766, -0.16370209, -0.069473594, -0.10268284, -0.19008006, -0.14607167, -0.018443873, 0.1327939, 0.038408667, 0.1880015, 0.09275326, 0.025340665, -0.16134185, -0.10351983, -0.1414643, -0.13927132, -0.01873186, -0.24367632, -0.08034442, -0.16790012, 0.09331704, -0.06310291, 0.0077120108, -0.0074557844, -0.11225711, 0.018694572, -0.02506389, 0.022371659, -0.06543681, -0.04206024, -0.06971426, -0.033886712, -0.09250467, -0.025421923, -0.0035450242, 0.1138827, -0.13650249, -0.30837467, 0.03527118, 0.067740425, -0.20396684, -0.14575882, -0.051293842, -0.004338438, -0.013818084, -0.029879756, 0.1275489, 0.072374664, 0.15503049, 0.13725789, 0.0080457255, -0.05179567, -0.089104876, 0.010987543, -0.01273098, 0.024897857, 0.013423003, -0.19919959, -0.06741389, -0.045956448, 0.041097462, 0.18189195, -0.019079061, 0.14447969, 0.007820136, 0.105569534, 0.009481827, -0.118290335, 0.04242681, 0.11755508, 0.15795642, 0.12703389, -0.1351157, -0.137757, -0.11569435, 0.099939875, -0.079417795, 0.06252937, 0.12132257, 0.112829104, 0.071990095, 0.117763065, -0.16925062, -0.07264909, 0.08248098, -0.25365922, -0.35215217, -0.23013988, -0.15877132, -0.15062359, -0.092791274, -0.2643671, -0.23311761, 0.09539762, 0.09447324, 0.23598725, 0.093446694, 0.20434421, 0.0036380636, -0.14990713, -0.15950361, -0.11921688, -0.039659426, -0.09737504, -0.06582899, 0.0011824629, 0.13333547, 0.07666843, -0.03198047, -0.0713227, -0.1941666, -0.008946269, 0.10572605, -0.022758683, -0.02119511, -0.13015856, -0.03231436, -0.067570776, -0.1124405, -0.26864514, -0.09684891, -0.082350865, 0.09407908, -0.14747655, -0.27125278, 0.06927163, -0.22689626, -0.039597664, 0.06477652, 0.006669021, 0.035070512, 0.010483335, -0.091283254, -0.2768217, -0.09957433, -0.32850432, -0.38512903, -0.31594574, -0.13524033, -0.015757516, 0.037878007, -0.081025764, -0.2025887, 0.0009660221, 0.03327111, -0.0064767487, 0.030274032, 0.1689949, 0.046039235, 0.08810732, -0.113656886, -0.42499092, 0.027304819, -0.18389812, 0.079699054, 0.043491412, 0.12527217, 0.12669861, -0.041989326, 0.14326781, 0.11535661, -0.0030933502, 0.14327347, 0.05188794, -0.06849492, -0.072643876, -0.06748364, -0.1425879, -0.27875477, -0.45904884, 0.07297081, -0.10019514, 0.11495244, 0.2748115, 0.151805, 0.14033803, 0.20361017, 0.06352728, -0.17278819, -0.06544403, -0.1627372, -0.12247351, -0.04084314, 0.1462734, 0.14707018, 0.02478148, 0.065657705, -0.11250886, -0.16349012, -0.030148137, 0.11730489, 0.049001552, 0.233698, -0.013359649, 0.12681273, -0.42698744, -0.6308991, -0.24967812, -0.4219693, -0.37203866, -0.020220136, -0.025619555, -0.036016602, 0.2522321, -0.005617444, 0.031962246, -0.07429719, 0.093164645, -0.051052004, -0.1335991, 0.076456815, -0.019500235, -0.009879147, -0.13080168, -0.15315287, 0.041597918, 0.07578685, 0.13522138, 0.14163294, 0.13566782, -0.0058080177, -0.008405012, -0.30059624, -0.24886005, 0.16472289, -0.27238253, -0.033773612, 0.16494569, 0.14022183, 0.093037896, 0.07946723, -0.031116633, -0.07164339, -0.11104718, -0.059376504, -0.07974614, 0.08633098, 0.12706855, 0.20097588, 0.07451047, -0.00568496, 0.094106935, -0.08733365, -0.05787034, -0.19401838, 0.060721755, 0.1437952, 0.1404607, 0.41543058, 0.062000804, 0.24525464, 0.17624345, 0.21940438, 0.12982468, -0.06908511, -0.020603282, -0.160586, -0.10505351, -0.49011654, -0.40675095, -0.36580595, -0.3164778, -0.32902586, -0.014184967, 0.09511802, -0.05071853, 0.12574553, -0.114497475, -0.11008039, -0.14405754, -0.22168314, -0.06461159, 0.011069678, 0.10633347, 0.045024477, 0.16626678, 0.24567023, -0.31717786, -0.18227509, -0.060643706, -0.26116654, 0.00097125507, -0.11785076, -0.004142004, 0.0064487513, -0.03546983, -0.06089314, -0.22904633, -0.046737026, -0.049495023, -0.0099625345, -0.07591637, -0.13729763, -0.026871912, -0.059832804, -0.016261542, 0.17896543, -0.08579085, 0.100706026, 0.12399126, 0.147961, 0.02308315, 0.029449401, 0.10769804, -0.28255412, 0.034396403, -0.3093763, -0.24044229, 0.0025360177, -0.3147589, -0.11507708, 0.07760533, 0.08167067, -0.0569902, -0.049059916, -0.1717104, -0.07915704, 0.06921109, 0.06800087, -0.016020592, 0.2345642, -0.27812213, -0.07685308, 0.05310805, 0.01792265, 0.3590985, 0.2584691, 0.44291076, 0.18223745, 0.1102709, 0.11077578, -0.0032252083, -0.020634243, 0.011712641, -0.043036133, -0.007098753, 0.0037660752, 0.042177744, -0.14174412, -0.059454624, -0.15242532, -0.1336782, -0.11035915, 0.08665876, 0.10886605, 0.033786137, 0.105141126, 0.16742828, -0.12045407, -0.14058134, 0.026197141, -0.17490551, -0.01460804, 0.20720437, 0.005369684, 0.15549183, 0.07467223, -0.04345192, -0.03569019, 0.015606349, 0.046092626, -0.07793675, 0.16373421, 0.0317606, 0.028340848, 0.048941966, -0.5172161, -0.5889073, -0.006926587, -0.15292338, 0.12599023, 0.17679265, 0.373258, 0.20258746, -0.010957474, 0.1486482, -0.043987054, -0.033252172, -0.02795857, -0.030096047, 0.01844456, 0.34256575, -0.08299951, -0.14736368, -0.07920096, -0.1768579, -0.21850365, -0.086660914, -0.28956744, 0.003037184, -0.09452118, -0.2585457, 0.044428736, 0.0034887705, -0.016438108, -0.0770948, -0.04095277, -0.020824382, -0.0925378, -0.055338632, -0.008226901, -0.06226986, -0.16612911, -0.0038115722, 0.03305488, -0.27156326, -0.15004657, 0.20801294, -0.09201553, -0.10976973, 0.1354876, 0.026262144, -0.019001385, 0.0665005, -0.122218296, -0.08365114, -0.09890309, -0.15769231, -0.17300926, -0.068687744, -0.16990452, 0.06449911, 0.0959566, -0.16809334, 0.16052009, 0.29359606, -0.59775156, 0.07598755, 0.29037553, -0.3386627, -0.15903027, 0.046067845, -0.1775774, 0.104347, 0.084256835, -0.35162905, 0.08639495, 0.3689307, 0.05224439, -0.1355402, -0.05299794, -0.121563, -0.050303172, -0.16627607, -0.108661264, -0.298588, -0.19497445, -0.07574473, 0.15061952, 0.14722484, -0.12883613, -0.008073492, 0.20745008, -0.06926071, -0.17227052, 0.019970609, 0.10353256, -0.015860848, -0.073778816, 0.21379131, 0.04890124, -0.074647106, 0.056416698, 0.118217066, -0.005514298, -0.08053875, -0.08314115, -0.01791977, 0.0991822, 0.15579455, 0.21326451, -0.0220159, 0.19549848, 0.14646862, 0.14934382, 0.018943435, -0.054138154, 0.01024535, -0.09984814, -0.16270141, -0.09037179, -0.04169157, -0.19673762, 0.43673554, 0.127213, 0.022370536, 0.29109278, 0.32438922, 0.014452596, 0.03011917, 0.30083948, 0.08169436, 0.004543967, 0.13438687, 0.18160729, -0.29909062, -0.012238927, 0.22634737, -0.21942213, -0.26130506, -0.103432454, -0.03176108, -0.018654132, 0.10772344, -0.12322049, -0.116368264, 0.075389914, -0.33011207, -0.15257885, 0.085696325, -0.054309838, -0.044239305, 0.13015081, -0.07111008, -0.113496244, 0.05845446, -0.16261183, -0.054932598, 0.09767808, 0.10908852, -0.2430841, -0.1035901, 0.3011219, -0.19857079, -0.31377625, 0.32349804, 0.08017537, -0.43011406, 0.038789205, -0.13712764, -0.1799309, 0.07319168, -0.32611534, -0.23213126, -0.051635556, -0.27794605, -0.30184305, 0.054513976, -0.008055521, 0.053296912, -0.08085294, 0.020758856, 0.052073676, 0.030006072, -0.0303755, 0.013025167, 0.3025624, 0.05071302, -0.18099909, 0.3006544, 0.18746513, -0.028679932, 0.15859245, 0.10893407, 0.07768161, -0.13385443, -0.0026513943, -0.044378303, 0.017572064, 0.09462279, 0.055374496, 0.001242999, -0.17881294, 0.027931264, -0.11650058, -0.11715566, 0.008761365, -0.2433391, 0.13784741, 0.14477421, 0.050710782, 0.026162691, 0.26654094, 0.024612999, 0.009367713, 0.019235464, 0.023335759, -0.030769663, -0.038162135, -0.12123663, -0.0894096, -0.1065249, 0.02091444, -0.12389096, 0.13279869, -0.009104511, -0.32696232, -0.15260747, 0.101536475, -0.23481941, -0.2069154, -0.11746552, 0.022096744, 0.06888499, -0.24747007, -0.039613504, 0.16939545, -0.25708792, 0.025695967, -0.013446301, 0.2100782, 0.07249505, -0.13026628, 0.1436448, -0.16758719, -0.086444624, 0.019774465, 0.03143215, -0.15567757, -0.08417634, -0.26093662, -0.24408993, -0.15329519, -0.38502106, -0.283016, -0.114485845, -0.25007012, -0.25387284, -0.16036227, 0.0804848, 0.122424774, -0.37517276, -0.07198982, 0.20065592, -0.3919518, -0.065564066, 0.17930569, -0.09995502, -0.16491607, -0.0045834375, 0.10516092, -0.11058236, -0.058228564, -0.010529413, -0.06045623, -0.029757468, -0.23051211, 0.024034917, 0.18712658, 0.028118374, -0.06332108, 0.055616222, -0.03807073, -0.30247346, -0.030385533, 0.009940319, -0.03379123, -0.015528335, -0.11274596, -0.09540052, 0.056115404, -0.13661301, -0.06863866, 0.0023626457, -0.08023321, -0.14691222, -0.18847474, -0.14197785, -0.32497376, -0.2997787, -0.20101765, -0.48800766, -0.23564975, -0.14200686, -0.031261563, -0.17827545, -0.008012585, 0.24726197, 0.04323645, -0.091944516, -0.0017815896, 0.24020639, 0.0075292606, 0.13364913, -0.053493097, -0.1331453, 0.10517781, -0.020936536, -0.13893092, 0.07489656, 0.20555934, 0.08585585, -0.12662387, -0.02711274, 0.16629526, -0.05063342, 0.016327742, 0.27989107, -0.14944088, -0.12792993, -0.19849622, -0.14062636, -0.05891186, 0.07621699, 0.018240474, 0.0038870785, -0.09459905, 0.02596454, -0.12999539, -0.2005641, -0.12835073, -0.30224228, -0.12914793, 0.13417126, -0.12893192, -0.17773998, 0.1973443, 0.101873234, -0.123163536, 0.13158119, -0.14776891, -0.0750053, 0.033339664, -0.21285902, -0.027038267, -0.086653925, -0.13096812, -0.41875407, -0.15836109, -0.19911863, 0.18469843, -0.07640154, 0.009192214, 0.011519652, -0.10026973, -0.20367022, -0.07889664, 0.037914015, -0.020755906, -0.03944964, 0.13914102, -0.09839314, -0.02993441, 0.1406016, 0.061559927, -0.076766066, -0.11050989, -0.108400814, -0.25065026, -0.06650243, -0.1595655, -0.091251776, -0.14794184, -0.1248434, 0.17045571, -0.099170804, 0.06476302, 0.026489332, -0.077952, 0.10799536, 0.10438461, 0.074562766, 0.16808687, -0.20415875, 0.06359092, 0.049927644, 0.0062745623, 0.2913356, -0.025700793, 0.002453832, 0.10659208, -0.10909052, -0.05967412, -0.06101803, -0.2273527, -0.022166422, -0.07833465, -0.04920821, 0.022704033, -0.20116003, -0.2069258, -0.060549222, -0.06265548, 0.041972805, -0.21034399, -0.20015793, 0.084782206, 0.0931415, 0.07755443, 0.13110621, -0.32907072, -0.32358488, -0.55102074, -0.2640639, -0.2384134, -0.34629056, -0.17744304, -0.16862229, -0.24093091, -0.084439285, 0.049416717, 0.040080126, -0.20048556, 0.09202847, -0.05151903, -0.0058732852, 0.11158214, 0.035294328, 0.059072178, -0.08299004, -0.01834918, -0.10857566, 0.10891991, -0.09141969, 0.109658755, 0.14202234, 0.13030478, -0.04571827, 0.015323663, 0.07537486, 0.057232097, 0.0075711887, -0.04935278, 0.0808112, -0.06839596, 0.020976344, -0.2808311, -0.8594473, -0.78742623, -0.43741488, -0.35653257, -0.32236284, -0.317398, -0.20543854, -0.35662988, 0.08057121, -0.057745896, -0.017782362, -0.2730178, -0.07493231, -0.1303105, -0.16932768, 0.069371864, 0.0813674, 0.14561881, -0.020659659, 0.01454029, 0.2034826, -0.076406926, -0.039401777, 0.33382428, -0.17136422, 0.28164604, -0.15952307, -0.12704729, -0.12160095, -0.15747574, -0.048488196, -0.0791815, -0.12748718, 0.07711831, -0.023772765, -0.45885834, -0.016487455, -0.06679048, -0.09946507, 0.122855544, 0.018408312, 0.03682026, -0.09170183, -0.09839542, 0.02935039, 0.058434386, 0.0029921827, 0.0885602, -0.04616608, 0.04759152, 0.23738743, 0.21053855, 0.18180144, -0.03727947, 0.01386929, -0.04849982, -0.21655707, -0.0110179465, -0.12253231, -0.08401494, 0.0417733, 0.05727551, -0.40218773, -0.29404882, -0.3100919, -0.17802817, -0.22431315, 0.0028732829, -0.29869568, -0.37376374, -0.18688793, -0.21134268, -0.15764922, -0.23057951, -0.05120284, 0.05244084, 0.04581472, -0.08723902, -0.11047566, -0.11404454, -0.004775651, 0.17021, -0.00741917, -0.21201575, 0.015982455, -0.23620881, -0.27312785, -0.049488895, -0.23556612, -0.036413852, -0.0042643854, -0.09648755, -0.11087796, -0.15490696, -0.15234418, 0.036556154, 0.021678967, -0.11893933, -0.00054147514, -0.04558075, -0.019953048, 0.057849642, 0.015651952, -0.16677654, 0.04886612, 0.013346797, 0.0838045, -0.17951715, -0.10914469, -0.19842695, 0.1404959, -0.0033582877, 0.04781747, -0.23147829, -0.05222756, -0.048098475, -0.29022118, -0.33270004, -0.16248873, 0.06809082, 0.04187591, -0.051797196, -0.33779055, -0.310352, -0.44384542, 0.17237093, 0.06663122, -0.071960874, 0.19488312, 0.12876715, -0.13622238, 0.003703709, 0.15675026, 0.10726004, -0.048085835, -0.23545259, -0.111576356, 0.06267621, -0.1712747, -0.10511593, -0.20233016, -0.28741002, -0.13801, -0.13272217, -0.17212218, -0.0370789, 0.095315285, -0.030087799, 0.072887905, -0.2604817, -0.264758, -0.25803337, -0.17196988, -0.17877766, -0.10162788, 0.03147116, 0.044627078, 0.05820782, -0.34417388, -0.06719068, -0.06979042, -0.3214403, -0.079059765, 0.14675055, -0.27857992, -0.009256657, -0.03466463, 0.09532338, 0.036778234, 0.12845676, -0.030200822, -0.05330716, -0.18298687, -0.068092376, -0.035268553, -0.17952566, -0.014104088, -0.07506539, -0.09969516, -0.27111933, -0.041622188, -0.013704753, -0.15129112, 0.10291875, 0.15616351, -0.1801659, 0.07259122, 0.43766445, -0.4313072, -0.23156375, -0.13945995, -0.17608716, -0.164513, -0.08708995, -0.13252431, 0.19302419, 0.3781247, -0.24150215, -0.074110046, -0.3971262, -0.14629634, 0.022053408, -0.37734935, -0.2163403, -0.25834855, -0.42734787, -0.1188559, -0.06753138, 0.08566056, -0.1568534, -0.080166884, 0.12601961, -0.012807818, 0.07053195, 0.12875059, -0.21531521, -0.19536571, -0.30920807, -0.17595848, -0.14748392, -0.06827972, -0.22662663, -0.010309329, 0.117062315, -0.009646151, -0.1347271, 0.032343246, -0.094680645, -0.013527823, 0.14371416, 0.017541196, 0.13990135, 0.21765795, 0.1950332, 0.07840094, 0.09162012, -0.048663173, 0.1725222, -0.107190415, -0.11142455, -0.11857734, -0.36995882, -0.41686293, -0.4562294, -0.24438149, -0.118888386, -0.078901805, -0.28834286, -0.10047694, 0.15964743, -0.014017431, -0.10642554, -0.078850195, -0.022351785, -0.13731307, -0.033004057, 0.16087383, 0.066077076, 0.10559358, 0.22166227, -0.1413617, -0.017946957, -0.066054545, -0.1724822, -0.23400337, -0.21226758, -0.14828137, -0.07201437, 0.05505526, -0.15526068, -0.08372045, -0.25348443, 0.0027277996, -0.10029432, -0.0283734, -0.1222594, 0.03542273, 0.024596343, 0.060971014, 0.01579523, -0.09911939, 0.10814238, 0.12641415, -0.050292924, 0.151472, -0.016046984, -0.11732657, 0.35660616, 0.11824878, 0.11231477, 0.24824718, 0.13362193, 0.2514776, 0.30661982, 0.16447149, 0.3771694, -0.2498254, -0.119073495, 0.014800931, -0.18837634, -0.08023391, 0.062418953, -0.019523347, 0.06480634, 0.05288034, -0.09915444, 0.08426121, 0.10977292, 0.07642694, 0.15839797, 0.20925851, 0.095682845, 0.32671186, 0.08678795, -0.059214484, -0.029683145, -0.13860843, 0.07558762, -0.10537236, -0.24243216, 0.051431697, -0.15256956, -0.14800414, -0.23789, 0.10037295, 0.1645011, -0.3317258, 0.019840455, -0.046595406, 0.01106388, -0.0015229492, 0.052538622, 0.065484844, 0.09867706, 0.014306459, 0.18633825, 0.018602476, 0.05768761, 0.10235547, 0.21435273, -0.044148307, -0.029380275, -0.052774563, -0.25339255, -0.13640442, -0.08177047, -0.09258046, -0.039081227, -0.08896996, 0.001033393, -0.22355789, -0.106149, 0.051180344, -0.3536918, -0.115663946, -0.088436686, -0.18231423, -0.1451417, 0.064352125, 0.09952564, 0.069650255, -0.012416221, -0.030512635, -0.088628374, -0.2371478, -0.07492521, -0.20214179, -0.18499132, -0.38107982, -0.06677685, 0.3287678, -0.18945375, 0.22065486, 0.27733392, 0.11226165, 0.33083302, 0.08511714, -0.1090988, -0.13305728, 0.10864133, -0.14034726, 0.05482289, 0.22700962, -0.3615248, -0.28763646, 0.31398448, -0.012550264, 0.0007637362, -0.19966243, 0.12668394, -0.040164452, -0.10246979, 0.021980284, 0.058224745, -0.13311853, -0.08001478, -0.06713919, -0.01476518, -0.011000413, -0.10889643, -0.06553391, 0.015803926, -0.044756442, -0.103645705, -0.29104957, 0.057315756, 0.21719518, -0.0686811, 0.12313423, -0.017024672, -0.014150791, -0.03179161, -0.07116895, -0.33817375, -0.14631115, -0.31073847, -0.08228164, -0.097364925, -0.24362132, -0.092955455, -0.12872615, -0.34094167, -0.024585519, -0.18020737, 0.014614816, 0.041790172, 0.08751297, 0.013092374, 0.030813267, 0.21864021, 0.24826203, -0.20660596, 0.020033585, 0.059328314, -0.032892082, 0.10779651, 0.016052082, -0.16506313, -0.10068342, -0.097192794, -0.001376599, -0.0950714, -0.05889421, -0.07968999, -0.13802701, -0.08651748, 0.15290225, -0.007322504, -0.045279466, 0.04439362, 0.137603, -0.029875217, -0.12690945, 0.1467237, 0.08661452, 0.02572017, 0.014235686, 0.19217215, 0.25821564, 0.22911647, -0.16524154, -0.23698953, 0.17565092, 0.22257237, -0.27111408, -0.07344094, 0.16972607, 0.07985807, 0.1299791, -0.06264971, 0.010482315, -0.041816123, 0.13247742, 0.050026275, -0.015760656, 0.0448223, 0.090775855, -0.18623644, -0.03925592, -0.0286034, 0.10952224, 0.27332523, 0.09340475, -0.018790932, -0.11144396, 0.23085584, 0.14262678, 0.12570088, -0.15606123, 0.089979954, 0.1938394, -0.16796958, -0.0056869197, 0.15883936, 0.025079783, -0.11621493, -0.059614137, 0.17247549, -0.005789308, -0.101714596, 0.13063806, 0.087812535, -0.06892821, -0.30538732, -0.094892435, 0.23667388, 0.058649875, -0.15589915, -0.10472867, -0.02957257, 0.022041302, -0.016232876, 0.04153661, -0.070416726, 0.033608727, 0.061762355, -0.00010220503, -0.011125277, 0.033515546, 0.047849827, 0.09357096, 0.10277953, 0.021290684, -0.10175961, 0.09520147, 0.10745027, 0.1284899, 0.2676042, 0.097380556, 0.20571682, 0.37066936, 0.3022169, 0.21624465, -0.027323358, 0.25015557, 0.3349026, -0.19021139, -0.06250718, 0.32085267, 0.025092108, -0.1710201, -0.08251458, 0.13971737, 0.009874582, -0.2665845, 0.039489876, 0.0068313405, -0.27603602, -0.007829153, -0.14837569, -0.14247233, -0.0916227, -0.113130376, -0.2899284, -0.030478137, 0.08255301, -0.018134722, -0.3694678, -0.044333123, 0.042855844, -0.028578166, -0.24079713, -0.14924988, 0.040920336, 0.08233328, 0.004733207, -0.19115986, 0.037704095, 0.110142335, -0.12987408, 0.009757141, 0.09611776, -0.13569567, -0.09805861, 0.049837716, -0.10062427, -0.029530805, 0.09761527, 0.15830866, 0.2653014, 0.030364456, 0.12871666, 0.015094883, 0.10993436, 0.09518773, 0.016896924, 0.04573126, 0.15168644, -0.11587753, -0.033514045, 0.12387906, 0.036863558, 0.06546175, -0.27153072, -0.14552747, 0.2888406, -0.30347782, -0.16398844, -0.1479261, -0.26352987, -0.21636872, 0.0005450017, 0.049465217, 0.14005996, -0.15318064, -0.3249356, -0.013362512, 0.15440686, -0.34340158, 0.10217671, 0.15925036, -0.39744315, -0.231713, -0.18797876, -0.15644485, -0.37376466, -0.20838796, 0.009965745, 0.20260845, 0.16391912, 0.02546773, -0.028306942, 0.14065492, -0.0484539, -0.0024585687, 0.06179621, -0.046641953, -0.105386935, -0.059983816, -0.1152798, 0.008684193, -0.066174045, -0.074435726, 0.029614061, 0.060279205, -0.07735921, 0.03166368, 0.08383238, 0.07803307, 0.07666481, -0.26106143, -0.096990585, 0.06109261, 0.14798579, -0.2690361, 0.0149150705, 0.11374952, -0.112309806, 0.018383184, -0.024553386, -0.078854814, -0.05765069, 0.11127161, -0.2615304, -0.1526703, 0.17917295, -0.32600284, -0.5681882, -0.53195214, -0.44191134, -0.8787856, -0.68265724, -0.33299676, -0.41496474, -0.6185049, -0.1235902, -0.37106454, -0.44200242, -0.025024386, -0.32207018, -0.35347262, 0.26429722, -0.24953175, -0.24527444, -0.073719226, 0.1412682, 0.13962395, -0.25739935, 0.07085064, 0.07484732, -0.12226712, 0.016505476, 0.056632306, -0.26378676, 0.04377983, 0.07648662, -0.109450996, -0.12985444, 0.013351143, -0.13447809, 0.05066963, 0.19100381, -0.056689393, 0.02344242, -0.027023792, -0.1459271, 0.004561981, 0.09581684, -0.22211178, -0.18391724, 0.043433238, 0.039273962, 0.073049985, -0.25743625, -0.2763338, 0.02887886, -0.022805346, -0.0973981, 0.09262407, 0.047271796, -0.048687086, -0.27576223, 0.20163658, -0.081903435, -0.1408825, 0.08558984, 0.16829726, -0.16119878, 0.02119537, -0.0112989005, 0.123432316, 0.20584197, -0.20865296, -0.15411276, 0.1247182, -0.1512763, -0.33433154, 0.044577803, 0.002368333, -0.040630322, -0.030372104, -0.1695746, -0.033376213, 0.1313774, -0.0723349, -0.06290106, 0.22220278, 0.18889172, -0.0049947375, -0.077165835, -0.02502333, 0.025758047, 0.067578875, 0.021235783, 0.153405, 0.1465105, -0.045343146, 0.051360518, -0.052003726, -0.1126992, -0.07302657, 0.06788298, 0.0293541, -0.060740273, -0.031295244, -0.18294531, -0.14818455, -0.12525728, 0.031261664, -0.04900453, 0.000833561, 0.014115737, 0.24983583, 0.24555628, -0.36326337, -0.24799764, -0.090481125, -0.16185248, -0.040238027, 0.042335697, 0.20087284, -0.0027888962, 0.18966492, -0.04603338, 0.014330282, 0.08868386, -0.05532681, -0.17014948, 0.011516191, -0.050026383, -0.1300633, -0.0765018, -0.07932466, 0.096266195, 0.12184555, 0.08152878, 0.094495684, 0.13604955, -0.009038575, -0.10686645, -0.11551148, 0.03895453, -0.08700344, -0.01313301, 0.033193123, 0.016368687, 0.10183304, 0.18270947, 0.025570234, 0.04552596, -0.012794801, -0.10543209, -0.17499001, -0.12749311, -0.058269445, -0.12694909, 0.22982723, 0.049051803, 0.054038562, 0.0280058, 0.1019954, -0.06727089, 0.087730266, 0.20391382, 0.33104593, -0.058236193, -0.16794959, -0.17191711, 0.115495756, 0.010898521, 0.19141687, -0.03682566, 0.16105878, 0.09614774, 0.11907794, -0.0026256773, 0.15861343, -0.13582624, 0.11461955, 0.014314314, 0.13714552, 0.068657294, 0.05629035, -0.039202932, 0.027270462, -0.057165086, -0.18250358, -0.047162272, 0.06598795, 0.0041447068, -0.11178317, 0.0025460029, 0.05204406, -0.045651395, -0.035123825, 0.07150261, -0.04544918, 0.08055387, 0.1220421, 0.095526196, 0.09254129, 0.04182887, 0.0019069922, 0.035284553, 0.0761638, 0.19721769, 0.08689359, -0.0133906845, -0.095649764, -0.0457459, -0.09590299, -0.0003636831, -0.053925335, -0.124746256, 0.11662585, -0.01278482, 0.09371944, 0.05448757, 0.15419954, -0.087755635, -0.107214525, -0.15079662, -0.19965595, -0.0029192637, 0.14067641, 0.07084817, 0.026618153, 0.023342058, -0.07268733, -0.054706562, 0.03774822, -0.20881368, 0.087809145, -0.1208783, -0.03033276, -0.013267854, -0.0024437888, -0.0016256917, 0.018187275, -0.0922094, 0.0328799, 0.06989318, 0.09524348, -0.021765605, 0.028116388, -0.031255748, -0.017451225, 0.07425961, -0.061994996, 0.011054223, -0.083838426, 0.05902859, -0.2841647, -0.075385146, -0.046478324, -0.18046089, 0.0024067936, -0.081293195, -0.025347782, -0.0369333, -0.050521765, 0.00039139934, -0.0779519, 0.0305279, -0.16562027, -0.17611863, -0.04696742, 0.066295214, 0.07916591, 0.03542292, -0.17179732, -0.08642239, -0.15475391, -0.09894468, -0.1534298, 0.10346385, 0.14366415, 0.06029388, 0.13972934, 0.006956143, -0.08128215, 0.011215517, -0.037112243, 0.028945638, -0.10963081, -0.080933854, -0.045450915, -0.0082267, -0.03853489, -0.06734474, -0.009324365, 0.01656909, 0.1176926, 0.1289263, -0.018635416, 0.07892756, 0.09098253, -0.114940956, -0.04673467, 0.07407087, 0.0032932314, 0.07180879, 0.1462008, 0.24836445, 0.15479396, 0.13064572, 0.1453293, 0.11234758, 0.17716594, 0.08136341, -0.067298524, 0.12385767, 0.08188767, 0.14080326, 0.12811296, -0.016375776, -0.020213543, -0.049218323, -0.010656392, -0.053087067, -0.11179923, 0.13926362, 0.32107598, 0.16509071, 0.06635585, 0.06347114, 0.082420036, -0.044477835, 0.091408536, 0.010603755, 0.1265023, 0.13969512, 0.10556266, -0.13744645, -0.14393155, 0.025943514, 0.23165284, 0.2823147, 0.19596942, -0.025308179, 0.03700579, -0.044458833, -0.121289186, -0.011747621, -0.031416744, -0.053551137, -0.06133625, 0.044363964, -0.42802066, -0.37524247, -0.08106262, -0.120401174, 0.06858653, 0.1295169, -0.0005323809, -0.25452763, -0.03872315, 0.040829036, 0.1679988, -0.06772282, -0.0018220034, -0.14317638, -0.08386902, 0.11343587, 0.17184974, 0.29818854, 0.1492312, 0.18394372, 0.09491071, -0.12710063, -0.1170485, -0.033845704, -0.066991806, 0.0733477, 0.07688214, -0.045105226, 0.06255971, -0.081891, -0.012157466, 0.0010594921, 0.034287628, -0.09826989, 0.0068565295, 0.113352425, 0.07280242, 0.12897177, 0.094870485, 0.11092651, 0.08420295, 0.008891493, -0.023499979, 0.049853057, -0.03452096, 0.062150285, -0.01475489, -0.15565135, 0.21989965, 0.09755463, -0.33431855, -0.0354882, 0.0051221685, -0.08203635, 0.21112798, 0.12976499, -0.12655845, 0.15469545, -0.077627115, 0.072989576, 0.13843176, -0.09200016, -0.03277845, 0.060918033, 0.13104397, 0.08459241, 0.029845439, 0.07079921, 0.08061981, 0.018619556, 0.10158229, 0.03128698, 0.24099934, 0.093138866, -0.23353721, 0.21677777, -0.030965844, -0.28732002, 0.100072406, 0.043415558, -0.16236639, 0.054501295, 0.08898515, 0.0274359, 0.079508275, 0.0030460192, -0.07490376, 0.020012472, 0.15103808, -0.15849595, -0.31254548, -0.2770422, -0.0012658534, -0.32825252, -0.13943098, 0.19195327, -0.11207126, -0.17571852, 0.09611356, 0.04408104, -0.01480669, 0.023861298, 0.081267774, -0.14614132, 0.009710745, -0.21198386, -0.12907575, 0.2371995, -0.044965863, -0.07375996, -0.17358106, -0.024322959, -0.123395346, -0.4118133, -0.09676347, 0.055158995, -0.04597856, 0.29173028, -0.048942108, -0.2737409, 0.2535169, -0.10986441, -0.17796767, 0.21462351, -0.048727892, -0.32437646, 0.20172606, 0.053796988, 0.10148308, 0.09885241, 0.13130265, -0.07257696, 0.11447302, 0.044328745, -0.17104827, 0.08114441, -0.0059731463, 0.025741253, 0.21310219, 0.02251284, -0.13774483, 0.080978595, 0.02377915, -0.20212165, -0.418479, -0.19922704, 0.24424347, -0.34764382, -0.13880517, 0.23307344, -0.24014373, 0.060398825, 0.30904078, -0.04225734, -0.09874079, -0.18813711, -0.16599652, -0.24797928, -0.33378085, 0.003662506, -0.15808466, -0.33978355, 0.091332585, 0.009558435, -0.30461153, 0.10084559, -0.060252268, -0.3221774, 0.20031688, -0.12810536, -0.3264685, -0.28969017, -0.33244035, -0.11773649, -0.21309154, -0.22487622, -0.07844015, -0.017105239, -0.06401658, -0.03690564, -0.11114006, 0.06883888, 0.14298618, -0.19133888, -0.079504125, 0.09740884, -0.08923611, -0.12545438, 0.13003702, -0.2299695, -0.28676423, -0.16529658, -0.21020909, -0.10190847, 0.03350673, -0.29180533, 0.009439672, 0.06716017, -0.25667983, -0.15584382, -0.14396119, -0.20112152, -0.2570494, -0.08881586, -0.15106486, 0.054704506, 0.05556373, -0.039526735, -0.09378375, 0.111977786, -0.2347631, -0.043079983, 0.21652064, -0.25247467, -0.057089195, 0.17340893, 0.089617684, 0.053370908, -0.07357747, -0.0356027, 0.13379753, -0.10003756, -0.09199657, 0.05943569, 0.028668335, -0.14011934, -0.029071642, -0.028371988, -0.07771586, -0.06931328, 0.08754228, -0.01988211, 0.011036247, 0.10121558, -0.20584172, -0.3075124, -0.32543257, -0.0823419, -0.15409242, -0.19033706, -0.062121008, 0.0672557, -0.13483919, -0.17627774, -0.39274096, -0.10947744, -0.018316189, -0.2975491, -0.008661511, 0.008178239, -0.075397424, -0.32917216, -0.27974817, 0.013331963, -0.003889903, -0.18781942, -0.048950784, 0.042636648, -0.05443613, 0.012306546, 0.11955916, -0.039758634, 0.017850596, -0.14520201, -0.11629193, -0.00024988264, -0.021971641, 0.027301015, 0.050129913, 0.03583115, 0.0059697414, 0.04960687, -0.14107728, -0.05531341, 0.03063907, 0.054825325, -0.09504886, -0.013209138, -0.027232977, 0.037549544, 0.0007866503, 0.009236327, 0.0008532863, 0.09683343, 0.08364462, -0.05296622, 0.07195612, 0.15359223, 0.1853927, 0.2953135, -0.012175195, 0.2177005, 0.06278764, -0.023952574, 0.18840538, -0.14978276, -0.2943222, -0.11512587, -0.00075110816, -0.10168015, -0.03311979, 0.0104313055, -0.076611556, 0.08582666, -0.006049079, -0.072399765, -0.24254179, -0.116627656, 0.02583343, -0.2910939, -0.06528269, 0.13445738, -0.36719707, -0.13629839, 0.23221488, 0.19184522, -0.06797775, -0.17929842, 0.17389353, -0.26442358, -0.14200541, -0.015737083, -0.1701939, 0.011199643, 0.03196531, 0.14585309, -0.24753582, 0.16214421, 0.0010983641, -0.18592978, 0.13867825, 0.0920365, -0.1829756, 0.24614376, 0.12909977, -0.16399035, 0.06069891, -0.072581, 0.13876198, -0.08800326, -0.09011732, 0.051735807, -0.26491734, -0.40278727, -0.18830553, 0.08036557, -0.27586028, -0.118374854, 0.08559283, 0.052897993, -0.041854843, 0.12038664, 0.16217406, -0.20193888, 0.20660336, 0.0916942, -0.07853638, 0.23916802, 0.09379477, -0.06278371, 0.024989186, -0.09747573, 0.1339851, 0.017869823, 0.03757085, -0.0670865, 0.10086309, 0.05138578, -0.10382972, -0.18626821, -0.36580923, -0.23465043, -0.02399596, -0.3598707, -0.544, -0.023055803, -0.17921112, -0.2759136, 0.2556848, 0.18358609, -0.0070443186, 0.31679028, -0.024696045, -0.10420471, 0.2487708, -0.03064355, -0.10235001, 0.04747377, -0.07924624, -0.11822879, 0.035393942, 0.15490215, -0.150246, -0.18590538, -0.014964475, 0.12202434, -0.27652386, -0.24089809, -0.38729978, -0.3377464, -0.32580578, -0.124776505, -0.29790944, -0.35947216, 0.13849996, 0.0055352906, 0.000998646, 0.055425376, 0.08304727, -0.05307072, 0.10157211, 0.079279445, 0.060913976, 0.021786848, 0.022408623, -0.036681972, -0.11092363, 0.13541466, 0.054054603, -0.30069742, 0.1420377, 0.04606697, -0.18727383, 0.058171503, 0.0041428013, -0.08930895, 0.1807139, 0.06444636, -0.2626816, 0.17424494, 0.009656432, -0.33371234, 0.010570828, -0.04831303, -0.08156819, -0.09442158, -0.1422933, 0.044863164, 0.012185436, -0.0071127443, 0.08398629, 0.15737279, 0.11653165, -0.2692235, 0.26805848, -0.09834136, -0.3475907, 0.35424638, -0.16267376, -0.29237965, -0.0039265016, -0.12649095, 0.08944367, 0.15100163, -0.0076646823, 0.0071058385, -0.061292004, 0.041087694, 0.07265733, -0.15071537, -0.37386677, -0.08703119, -0.39360276, -0.2179178, -0.015351894, -0.56032157, -0.0459173, 0.13087204, -0.14386906, 0.08767083, 0.026147498, 0.0027583581, 0.02675949, -0.10654049, 0.0077246483, 0.025602613, -0.038681068, -0.14250794, -0.044374403, -0.19323452, -0.16256326, -0.20837463, -0.08231161, -0.06213329, -0.07778569, -0.1450998, -0.30452985, -0.11002467, 0.03298419, -0.08094267, 0.020837959, -0.08752474, -0.20987965, 0.07182885, 0.08108186, -0.045268692, -0.0473048, -0.0026746409, 0.15561996, 0.025801454, -0.18595326, 0.16465777, -0.023378137, -0.023123102, 0.1053268, 0.08120694, -0.21731924, 0.0004470989, -0.24099909, -0.1569534, -0.006053734, -0.017242603, -0.14787193, 0.09255165, -0.0285577, -0.030463552, 0.13903216, -0.14705499, -0.052849993, 0.09215496, 0.067452736, 0.05516461, 0.2904185, -0.04725905, -0.14467238, 0.24998145, -0.21109429, -0.20367575, 0.15831211, -0.14659816, -0.31567213, 0.09507305, -0.21541148, -0.21141179, 0.1800384, -0.045953404, -0.21026632, 0.31855905, 0.14594129, 0.110264584, -0.03357623, 0.017947076, 0.09133006, -0.07187961, -0.05957197, 0.033447213, -0.08873246, -0.032978296, 0.0770028, -0.10387615, -0.2021422, -0.26065597, 0.0082521, -0.09600564, -0.1777147, 0.30757225, 0.013993592, -0.0720567, 0.30596244, 0.02228453, -0.16493979, 0.2288783, -0.45377532, -0.17517991, 0.09724004, -0.22593334, -0.09794381, 0.05858984, 0.090710975, -0.12741742, 0.1104617, 0.15286408, -0.07475238, 0.2287256, 0.08232742, -0.11229568, -0.40418205, -0.5242314, -0.4019779, -0.24508356, -0.06738236, -0.22687586, 0.124145076, -0.3644397, 0.067024305, 0.2204517, -0.011040228, -0.3067917, 0.11034867, -0.39917216, -0.3675831, 0.16330983, -0.2621812, -0.109438054, 0.059738085, 0.06901671, -0.0070945076, -0.0019099909, -0.15257323, 0.030178221, 0.113595776, -0.03525234, -0.06374049, -0.21895868, -0.2715367, 0.04401389, 0.033324428, 0.13716017, 0.07673025, 0.12063889, 0.098959774, 0.07567135, 0.07563581, 0.1377454, 0.23499809, -0.12027351, -0.08679653, -0.09440297, -0.17265585, -0.2762203, -0.1660669, 0.06160389, -0.072200306, 0.07689735, 0.25062817, 0.0706604, 0.09244875, 0.11964268, 0.13413042, 0.14279497, 0.25915483, 0.11334013, -0.053915035, 0.17469642, -0.0033135172, -0.14964038, 0.147542, 0.088727236, 0.21477391, -0.015880328, -0.086668655, 0.1803372, -0.25349435, -0.3944814, -0.15203907, -0.4310748, -0.2628352, -0.035128314, 0.109043166, 0.2137107, 0.03453961, 0.107816234, 0.15462741, 0.080200374, -0.16905971, -0.19254774, -0.10426994, 0.14478089, 0.11597906, 0.050512522, 0.12356931, -0.07294696, -0.02867724, 0.17663978, 0.12075716, 0.119559266, 0.08640046, 0.0040451274, -0.08024803, 0.15865324, 0.027640855, -0.0016110989, 0.24706009, 0.20086676, 0.042674135, -0.22296576, -0.06882716, -0.10941616, -0.10101333, -0.015692357, -0.027568474, -0.057077285, -0.044391442, -0.14221177, 0.13023542, -0.11761509, 0.022709876, 0.014799772, -0.0445036, -0.21738763, -0.05744891, 0.09579685, 0.15043856, 0.11859408, 0.19030842, 0.10486413, 0.16693816, 0.14995606, 0.19220288, -0.109757535, -0.14389339, -0.061082087, 0.070971236, 0.14581224, 0.04052308, 0.07341442, -0.014220381, 0.1482963, 0.06419774, -0.12441745, -0.09745409, 0.06590315, 0.083141476, 0.13808534, -0.1353541, -0.005191462, 0.02187058, 0.061862294, -0.08620554, -0.006167029, -0.14192268, -0.071936764, -0.11688629, -0.11428476, -0.094817586, -0.09732794, -0.029800791, 0.030536532, -0.005389424, 0.20535846, 0.16312493, -0.037622042, -0.032302286, 0.1178937, 0.02746488, -0.19216104, -0.19548418, -0.16672805, 0.028891113, -0.09346442, 0.03419069, 0.14182624, 0.16425046, 0.020532584, -0.08137972, -0.07411419, 0.034198854, 0.086517826, 0.06663909, -0.093149915, -0.42050517, -0.28253675, -0.34023595, -0.36282483, -0.29152694, -0.071413316, -0.110491075, 0.06903105, 0.052580126, -0.3756794, -0.2771449, -0.23137756, -0.3815284, -0.34282497, -0.1449904, -0.13531671, -0.15213373, -0.2546255, 0.12495166, 0.19539462, 0.028688304, 0.0935151, -0.0059567047, 0.11505494, 0.015840828, -0.019891439, -0.112618685, -0.053742222, -0.08146025, -0.120791905, -0.21417315, -0.1004909, -0.03619767, 0.053935457, -0.049202938, 0.05540974, 0.14532515, 0.037898537, 0.12033962, 0.07349611, 0.121229835, 0.1368216, 0.0107413195, -0.03653052, 0.08844511, -0.1384071, -0.15835899, -0.22140822, 0.06783892, -0.069197476, 0.0038195776, -0.019064702, 0.030127542, -0.013626313, -0.029320937, -0.15823464, 0.0073495475, -0.11054719, -0.17524152, -0.06372013, -0.016028918, -0.09851113, -0.05508898, -0.07574739, 0.00604891, 0.1599597, 0.006898202, 0.03761175, -0.0026271087, 0.029437015, -0.02425173, -0.06228165, 0.14021121, 0.013909468, -0.020875938, 0.042410556, -0.10069579, -0.08216653, 0.015565348, 0.023700513, 0.10914286, -0.020238115, -0.070214115, -0.08435342, -0.11036874, -0.10676349, -0.2114589, -0.030684562, 0.0027477304, 0.0826432, -0.0043739527, -0.057611514, -0.025486628, -0.0336955, 0.2928156, 0.21510252, 0.11371434, 0.0011716136, 0.22348014, 0.035059575, -0.044090115, 0.011116059, 0.07396822, 0.109780006, 0.14048031, -0.009487015, -0.032663982, 0.21980353, -0.18356214, -0.26612085, -0.13054392, -0.12781742, -0.22381607, -0.008622275, -0.019451242, -0.057397477, -0.18901874, -0.0653047, 0.0024408181, -0.068743296, 0.08932761, 0.039841868, 0.19438447, 0.065808885, -0.05786745, -0.03866046, 0.050684854, 0.06400528, 0.1022054, 0.00038242765, 0.058217812, 0.040523898, 0.01689844, 0.020211449, 0.11358725, -0.011774961, -0.0018474672, -0.118000425, 0.03923079, 0.03127904, 0.05257062, -0.047520906, -0.026151203, -0.034680706, 0.09643167, 0.1313654, 0.14990284, -0.19765405, -0.11875003, -0.047227137, 0.03691495, -0.022435961, 0.06142504, 0.09776103, -0.017286263, -0.029523833, -0.004958558, -0.065443866, 0.08578755, -0.12895261, -0.17638654, -0.093547575, -0.07960825, -0.01978423, 0.11958608, 0.026826566, 0.08240285, 0.15819642, 0.024107337, -0.19471411, -0.2494827, 0.13041115, 0.079961896, -0.040151007, 0.032008953, -0.074486054, -0.1024202, -0.07009471, -0.03273522, -0.032790754, -0.015758617, -0.15626667, -0.025603315, 0.17419116, 0.08685197, 0.11827932, 0.32347462, 0.2900647, 0.19188643, 0.10892363, 0.12279518, 0.05511792, -0.35967612, -0.46004963, -0.3996656, -0.054075927, -0.13307728, -0.2352962, 0.10430564, 0.19337006, 0.14822863, -0.14138882, -0.10830768, -0.04174438, 0.08089706, 0.048588064, 0.037651774, -0.12854609, -0.078843914, -0.15749282, 0.031725906, 0.08671013, 0.08374402, -0.0693799, -0.18717152, -0.007994421, 0.041936625, 0.104978345, 0.02944868, 0.023656426, 0.06920595, -0.023273284, -0.03145631, -0.119230926, 0.008455275, 0.059706967, -0.026795287, -0.04491315, 0.11815535, 0.038122084, 0.12505706, 0.1696897, 0.2510708, 0.17199758, 0.12391937, 0.060462438, -0.054868564, -0.16125846, -0.29095054, -0.48239657, -0.02974735, 0.00060865114, 0.0018889838, 0.112251855, -0.0059574535, 0.07332194, -0.15485612, -0.21980512, -0.17263362, 0.120663024, 0.018609647, -0.063094124, -0.012026938, -0.011986605, -0.049460053, -0.23247914, -0.2505067, -0.19942681, -0.0027712204, -0.0037563927, -0.06849695, 0.0417418, -0.068639964, 0.0023477469, 0.058802884, 0.04411217, 0.121445864, 0.22971094, 0.26207864, 0.22938308, 0.19882171, 0.17418289, 0.047646996, -0.26002204, -0.30238912, -0.38739252, 0.2014363, 0.21999994, 0.07512178, 0.21362235, 0.13648555, 0.13308997, -0.19506142, -0.3544071, -0.15767553, -0.11163057, -0.022895923, 0.05536561, 0.04050998, -0.12810245, 0.015825404, 0.100995764, -0.062342405, -0.029316109, 0.06329432, 0.09134405, 0.16552562, 0.037460424, -0.017394843, -0.07413938, -0.21640113, -0.2422733, -0.15994263, -0.11637778, 0.14264585, 0.25685877, -0.15844788, -0.093078546, 0.11130663, -0.16350982, 0.019788139, -0.0946385, -0.012175719, 0.113999166, 0.043851428, -0.08736835, -0.17020658, 0.1453916, -0.0076379525, -0.12744506, -0.0569061, -0.18717135, -0.055905677, -0.11283941, -0.1735476, 0.00010589576, 0.018372085, 0.01931815, 0.0025953518, 0.038774803, -0.113457195, 0.0706967, 0.09005777, 0.08663812, -0.0055378936, 0.07714827, -0.13854404, -0.17572604, -0.09958695, -0.016832296, -0.00490258, 0.035410613, 0.006506196, 0.06837529, 0.06938462, -0.17390944, -0.19439517, -0.072811075, 0.001831373, -0.24251993, -0.07712058, 0.16347893, 0.08657358, 0.111164264, 0.05609459, -0.047170166, -0.029525567, 0.20521374, 0.22130182, 0.19845963, 0.087394156, 0.103488915, 0.13460982, -0.26552126, -0.17819399, -0.11504178, 0.20048633, 0.1624963, 0.073602356, 0.0040519633, 0.08520707, -0.015008398, -0.19679414, -0.29493815, -0.22523582, -0.028814264, 0.017004287, -0.12568955, -0.04327123, -0.027850462, 0.10845126, -0.1269798, -0.10344198, 0.022434017, 0.095412806, 0.0858956, 0.025378454, 0.13355945, 0.13855684, 0.17227377, 0.021602707, -0.14514281, 0.030452073, -0.20202206, -0.15551433, 0.006485612, 0.06034995, -0.039082084, -0.14661855, 0.15158841, 0.100421906, -0.035074834, -0.0695899, -0.06735217, -0.039187606, 0.26278475, 0.3003991, 0.36824384, 0.028953513, 0.009445606, -0.14845945, -0.020246407, -0.06250368, -0.034251925, 0.1169664, 0.18425915, 0.17314869, -0.028963413, -0.08147605, 0.018623857, -0.09627836, 0.057753995, 0.11041294, 0.08705606, 0.0701843, 0.13964406, 0.055524383, -0.03946432, -0.024921643, -0.09552975, 0.010228609, -0.08868643, 0.12403539, -0.015620247, -0.09432185, 0.09262399, 0.11912038, 0.13542508, 0.039929334, 0.15476844, 0.07485327, 0.011166769, 0.048229273, 0.10197064, -0.023903016, -0.16383772, -0.063351, -0.085481405, 0.06783696, -0.08153024, 0.057008967, -0.09882082, -0.055280235, 0.12436304, 0.16215776, 0.09777947, 0.10075369, 0.060448106, 0.07128018, 0.13013849, 0.11530739, 0.10093398, 0.12125297, 0.046347246, 0.12980968, 0.1295768, 0.19853225, 0.17452095, -0.07791124, -0.047141105, -0.18911248, -0.34427407, -0.29620907, -0.30307534, -0.11405434, 0.04613514, -0.1761348, -0.030049043, 0.08422706, 0.041170456, -0.14680313, -0.13268611, -0.021749286, -0.064456135, -0.114403084, -0.1312323, 0.019237673, 0.15814546, 0.07908803, -0.00073932443, -0.14233446, -0.07965102, -0.10876035, -0.11340248, -0.032538913, -0.05190372, 0.092091896, 0.06400945, 0.03561242, -0.041209895, -0.13774817, 0.09494021, 0.124128714, 0.048309423, 0.08232419, 0.024438392, 0.04547594, 0.043267522, -0.18227273, 0.044390444, 0.109725714, 0.015939107, 0.15243801, 0.2705573, 0.1820234, -0.10830116, 0.1377596, -0.06993714, -0.20553061, -0.0673407, 0.06711905, -0.14653197, 0.19424006, 0.2533057, 0.23605052, 0.010248278, 0.08063662, 0.15465246, -0.10601785, 0.064859755, -0.12200816, -0.1455901, -0.031359375, 0.0020304688, -0.26679137, -0.44942573, -0.24776599, -0.026600039, 0.007983395, -0.1951797, -0.027404493, 0.023221346, 0.11063057, -0.33444658, -0.469658, -0.2973284, 0.049312882, 0.015375997, 0.13895369, 0.08681516, -0.0043930504, -0.054733105, 0.10304173, 0.04860287, -0.048747767, 0.048574362, 0.04681211, 0.027742023, 0.21815339, 0.30923283, 0.14064239, -0.07849992, 0.06485398, -0.06287772, -0.12445886, -0.13899875, -0.14467469, -0.098099254, -0.13763887, -0.06255261, -0.00011292117, -0.16109493, -0.12627187, 0.24405101, 0.046870477, 0.16537653, 0.10350753, 0.10582799, 0.042021308, -0.25737953, -0.65576017, -0.57185376, -0.042036176, 0.049758554, 0.036438186, -0.057587568, -0.044823848, 0.022419391, -0.30062908, -0.17019506, -0.12060267, -0.048947815, 0.014137084, -0.06822567, -0.19982994, -0.032119703, -0.29801556, -0.04182605, -0.015429595, -0.19404328, 0.063561805, 0.15999632, 0.29423028, -0.1397897, -0.15001176, -0.14263988, 0.08053266, -0.32409236, -0.13891341, -0.03622223, 0.020215392, 0.0034783445, -0.0420359, 0.0688156, 0.09913595, -0.09732845, -0.16891447, -0.10378212, 0.06404655, 0.13452187, -0.029170863, 0.023594929, -0.054328967, 0.019138178, 0.040359233, -0.13763, -0.056004267, 0.06514742, -0.018324941, 0.008774128, 0.014310671, -0.002766774, -0.04301337, -0.015529061, -0.0024339706, 0.069492586, -0.03979591, -0.085490525, 0.0025740685, 0.036541007, -0.1449619, 0.18100806, -0.12201579, -0.28208703, -0.19246052, -0.20214799, -0.20377277, -0.37120566, -0.21288624, -0.32128045, -0.25043067, 0.28035414, 0.117908, -0.0014222683, 0.0074597965, -0.019751024, 0.07506958, -0.14010829, -0.017896576, -0.00539259, -0.16991618, -0.17848429, -0.20670976, -0.10739231, -0.1377079, 0.022511644, 0.14976615, 0.091279715, 0.14573991, -0.09020327, -0.03012322, -0.05950437, 0.06354259, -0.016623119, -0.027387127, 0.14423333, -0.0007529325, 0.04360113, 0.10960753, -0.031494882, 0.029916955, -0.039884727, 0.3082775, 0.21890019, -0.20666686, -0.022743534, 0.095986865, -0.52246916, -0.5662186, -0.40039963, -0.04867527, 0.014864467, 0.018263226, 0.030571425, 0.21533841, 0.045418985, 0.12255705, 0.21431585, 0.1411653, -0.023128117, -0.14556447, -0.018348832, 0.15418902, -0.030242093, -0.06497809, 0.053621184, 0.050361246, 0.02521708, -0.0073750764, -0.049616266, 0.025906552, -0.035384778, -0.028367424, -0.022277754, 0.07124458, -0.019152192, 0.12971303, 0.26604, 0.20112264, 0.027470632, 0.1322359, 0.055390116, 0.030151164, -0.014126741, -0.011546258, 0.16135065, -0.17476065, -0.24192981, 0.07496839, -0.34577674, -0.17911567, 0.075840816, -0.08771185, 0.11006167, -0.044007644, -0.20542213, -0.11734917, 0.06009927, -0.28777325, -0.43738225, -0.036039658, -0.14930184, -0.49633998, -0.33408406, 0.006276653, -0.0923507, -0.1112209, 0.07940416, -0.11606461, 0.02487656, 0.104080066, -0.093024075, -0.050721083, 0.10277905, -0.17580527, 0.14835835, -0.132792, 0.112817265, 0.010659155, -0.0151604265, -0.0870256, 0.002775403, -0.20388477, -0.052692108, -0.08568464, -0.05082361, 0.06660542, 0.12080064, 0.08515961, 0.12843475, -0.006162332, 0.0605511, -0.07541488, -0.010605196, -0.039053723, 0.012135511, 0.14406501, 0.144545, 0.037930336, -0.076326534, 0.17709328, 0.01325589, 0.09765011, -0.020626249, -0.009946719, 0.017188206, -0.055706844, -0.18130709, 0.03274162, 0.19766435, 0.073450856, 0.2740565, 0.046817437, 0.18998648, 0.05402664, 0.050443653, -0.11302241, -0.16869876, -0.22581293, -0.16133411, -0.096349105, -0.24940671, -0.6412913, -0.15225345, -0.036847472, -0.014225085, -0.2576892, -0.22396946, -0.23028904, -0.05664794, -0.26256064, -0.19823071, 0.01028943, -0.16767436, -0.15090792, -0.09209858, 0.04739117, -0.1039827, 0.020456295, -0.030425398, 0.12322722, 0.17782296, 0.06545009, -0.020267488, 0.04094011, -0.060849838, -0.17907833, 0.006184114, -0.15089113, 0.027050972, 0.11630716, 0.14966124, 0.034193497, -0.0043288157, -0.043949146, -0.035738163, 0.006390713, -0.055996746, -0.1404673, 0.01832299, 0.026061555, -0.043977488, -0.06977995, -0.28916064, -0.344991, -0.15700155, -0.45150086, -0.4499593, 0.123353265, -0.34937748, -0.29487982, 0.027598055, -0.06820637, 0.09859767, 0.1509561, 0.09027746, 0.19764523, 0.04183606, 0.10387711, -0.020948403, 0.052365135, -0.20020168, -0.16295806, -0.12756611, -0.15316392, -0.23115595, 0.045612864, -0.13627495, -0.11965131, 0.08438743, -0.22644486, -0.24268752, -0.14786696, -0.2529053, -0.020040274, -0.29977474, -0.029954629, -0.011985386, -0.029066568, 0.11093475, -0.020174034, 0.07778386, 0.13446957, -0.055985246, 0.29048604, -0.14863548, 0.021451164, -0.07147963, 0.20113619, 0.07188907, 0.25038123, 0.1324125, 0.15823951, 0.14934984, -0.0290818, 0.13627236, 0.0309606, 0.11544885, -0.24376641, 0.017836181, -0.26240662, -0.12630169, -0.10968082, -0.1862977, -0.1833168, -0.113513984, -0.07888483, -0.018612944, 0.14505474, -0.16257788, -0.30963418, 0.011054573, -0.09974849, -0.19209462, 0.043472767, -0.17826456, -0.22339298, -0.18644714, -0.29869297, -0.30242938, -0.1286233, -0.16432922, -0.07369478, -0.033306584, -0.0023568126, -0.013143488, 0.14922513, 0.14543378, 0.16627136, 0.008828146, 0.34472907, 0.2684869, 0.25975743, 0.0837405, 0.058973946, -0.14063874, 0.16460317, 0.059446163, -0.007020452, -0.06804065, -0.11615896, 0.027281424, -0.09806775, 0.038223203, -0.09715779, -0.056693807, -0.0047105723, -0.03935263, 0.1027183, 0.07973258, -0.055046897, 0.23481198, 0.0890359, 0.04157901, 0.042141184, -0.104276195, 0.25165233, 0.06435559, 0.28352612, 0.10159913, -0.15883902, -0.14284171, -0.10926623, -0.11607408, -0.12491791, -0.2545699, -0.09225658, -0.05468037, 0.15929064, 0.0632841, -0.24780414, 0.055943627, -0.14889073, 0.027667874, 0.16264385, 0.021684078, 0.20797613, -0.057101097, 0.1423838, -0.14831857, -0.047371175, 0.2371284, -0.3061356, 0.030605162, 0.092327245, -0.36480415, -0.029245535, -0.0090142675, -0.061758533, -0.18732278, -0.06350494, -0.1698594, -0.18647854, -0.102292605, -0.2269265, 0.06427651, -0.012134717, -0.07704115, -0.057299707, -0.18912888, -0.1888531, -0.05867614, -0.2797057, -0.21739574, -0.09683204, -0.12892032, 0.10516828, 0.13448589, -0.003823702, 0.10779711, 0.14652383, -0.12120685, 0.034845643, 0.169691, 0.23867081, 0.0837814, -0.08630675, 0.121481635, -0.21522729, -0.29106134, 0.14174262, -0.11296857, -0.18715206, 0.107173465, 0.1471103, 0.09785961, 0.11684867, 0.017341724, 0.04824432, 0.089330986, 0.06408828, 0.1715309, 0.05312204, -0.055604964, 0.062169593, 0.11517036, -0.047462, 0.018045282, -0.008457491, 0.1073072, 0.023822743, 0.16265786, 0.08217271, -0.33340803, 0.056017857, -0.3588082, -0.60512024, -0.05625241, -0.38989738, -0.43069342, -0.013259416, 0.012065056, -0.10049956, 0.0051666517, 0.06460826, 0.0050213714, 0.005608579, -0.04689602, 0.1328348, 0.04589344, 0.034755737, 0.08624658, -0.034460198, 0.1148702, 0.039886285, 0.12751429, 0.1367288, 0.14748706, 0.08342764, -0.05902802, 0.06228742, 0.04715877, 0.025217244, 0.1651077, 0.01096715, 0.050611842, 0.08583917, -0.022952916, 0.0035122195, -0.013643164, -0.15283872, -0.011559401, -0.104108796, -0.06727028, 0.035754148, 0.09872044, -0.061175242, -0.072205506, 0.12834325, -0.26537064, -0.5018068, -0.42266858, -0.13787942, -0.102521315, -0.2917204, -0.074157566, 0.00091942423, -0.08194622, -0.05516891, -0.0772232, 0.019582234, -0.024437832, -0.1026074, 0.065360405, -0.008587103, 0.11033007, -0.08882924, 0.07949656, -0.0043003177, 0.020369193, 0.09703399, 0.022366699, 0.1493011, 0.07193372, 0.066865385, 0.032608602, 0.08786091, 0.009954479, 0.055379983, 0.16702962, 0.12679611, -0.0026285388, 0.01130922, 0.018686738, -0.09630237, -0.10598697, -0.19357803, -0.15707317, -0.09520926, -0.19538021, -0.08410275, 0.24932086, 0.32934922, 0.011670237, -0.038483404, -0.3870823, -0.47148135, -0.4524241, -0.39635727, -0.39179137, 0.041470803, -0.0441112, 0.031766623, -0.11171527, 0.051098682, 0.041232016, -0.005903566, -0.09220212, 0.032752056, -0.11885763, -0.16176812, -0.008338092, -0.122800425, -0.25960842, -0.05078014, -0.073011205, -0.14643319, -0.20885518, 0.035692587, -0.07364029, -0.08816372, -0.022923062, -0.2165459, -0.10999699, 0.11338158, 0.04657934, 0.025703019, -0.041755114, 0.056006007, 0.009886125, -0.07123945, 0.047360685, 0.13808802, -0.025700994, 0.0405269, 0.18074948, 0.040723637, 0.018084463, 0.0469754, -0.0067917863, -0.11645269, 0.06470185, -0.12622812, -0.08198935, -0.054777168, -0.09207864, -0.1532755, -0.18433903, -0.33073032, -0.18229577, -0.18168026, -0.19899243, 0.006546087, -0.21238607, -0.099293396, -0.015608282, -0.025765853, -0.26588494, -0.32612306, -0.010311529, -0.15780412, -0.030832855, 0.13019894, -0.083264165, -0.054160126, -0.072436124, -0.045274276, 0.02654655, 0.005242378, 0.092961065, 0.049901415, -0.0007916267, 0.14013608, -0.012300254, -0.33304393, -0.103652656, -0.34904072, -0.3947796, -0.31218955, -0.05316192, -0.23224685, -0.13136774, -0.07525167, -0.0882118, -0.2813993, -0.33803514, -0.07859715, -0.36059707, -0.32980222, -0.1668898, -0.10158947, -0.064562544, 0.018708322, -0.16377261, 0.013493932, -0.0077932905, 0.09225914, 0.09770074, 0.13791575, 0.059631094, 0.039251857, 0.1416977, 0.015635842, 0.06186696, 0.23092423, -0.13389394, -0.02215243, 0.14681911, -0.23780012, 0.059184033, -0.076475225, -0.14605907, -0.012231008, -0.11022292, 0.0749124, 0.13648723, 0.04813042, 0.270313, 0.1787192, -0.44054928, 0.115308344, -0.17680453, -0.5374878, 0.011086446, -0.26867184, -0.5998262, -0.2767827, -0.04942427, 0.18444087, -0.15773883, -0.054417364, -0.046370674, -0.31870744, -0.057743523, 0.06290626, -0.20126122, 0.048394382, -0.13290386, -0.013331772, -0.024851048, -0.005377948, 0.03794907, 0.07499689, 0.03454342, 0.0029202322, -0.0010950147, -0.16300884, -0.22353509, -0.119384244, -0.14044909, -0.24493562, -0.19056784, -0.22513667, 0.119961984, 0.07134653, 0.15685746, -0.022114385, 0.044473775, 0.101153485, -0.24051319, -0.33032513, -0.07585673, 0.054704048, -0.123256564, 0.079791896, 0.073678434, -0.18148391, -0.0006298852, 0.2320846, -0.24689102, 0.059441887, 0.046851207, -0.18953283, -0.26536545, 0.11649366, -0.041365784, -0.23762599, -0.17220584, -0.19858307, -0.15651967, 0.09839994, 0.13441086, 0.0655704, -0.3609529, 0.038523898, -0.24917626, -0.31133214, 0.027307019, -0.19427821, 0.13321285, -0.11380839, -0.0425426, 0.31699753, -0.19630416, 0.18356216, 0.34604728, -0.35849246, 0.08689576, 0.023675367, 0.085767776, 0.012481189, -0.07456421, -0.11428474, -0.017168501, -0.042376794, -0.0005896316, 0.01333787, -0.027692677, 0.118266925, -0.135467, -0.28039086, -0.27334514, -0.22666886, -0.2475842, -0.14619273, -0.19969007, -0.16780888, -0.07374108, 0.074772984, -0.06985448, 0.043489993, 0.15383315, 0.013249025, 0.17664634, 0.16193126, 0.07832275, 0.26648387, -0.11118335, -0.072069794, 0.104675665, 0.056651745, -0.07424617, -0.05226826, -0.07491486, 0.15267245, 0.17635977, -0.1253248, 0.09714157, -0.0501496, -0.18325831, -0.035244778, -0.07321397, -0.30970645, -0.11036046, 0.03159674, 0.1694647, -0.06520437, -0.019639127, 0.072335124, -0.098649204, -0.084093794, 0.059746873, 0.036181122, -0.049066704, -0.08663427, -0.17578466, -0.22284989, -0.12904532, 0.035437558, -0.045107715, -0.09953091, 0.03161573, 0.014937038, -0.17531866, -0.0961368, -0.3446236, -0.14273554, 0.052352883, -0.10534296, 0.022238893, -0.028069356, 0.08830021, -0.004772102, -0.07306485, 0.0724812, 0.015747663, 0.048083764, 0.083080485, -0.0064952057, -0.23566575, -0.0032333, 0.01880574, -0.16364995, 0.12461403, 0.08205886, -0.06365216, 0.027670374, 0.16202141, 0.1779837, 0.0212456, -0.034941144, -0.1904011, -0.06504137, -0.09496797, -0.0025438135, 0.020372605, -0.0007934157, 0.056882583, 0.14982179, 0.01371902, 0.022185322, 0.1697014, 0.05744286, -0.013496487, 0.18925366, 0.01079827, 0.07121682, 0.06463271, 0.121248715, 0.06965587, -0.07385477, -0.007826465, 0.0023870466, -0.38874874, -0.124374814, -0.1719989, -0.14590004, -0.0970121, -0.21077365, -0.15879427, -0.12971841, -0.3545198, -0.21004947, -0.16329087, 0.06574761, -0.024187334, -0.0303258, 0.11384215, 0.029169932, 0.07785289, 0.009788964, -0.015869716, 0.120463565, -0.070366904, -0.0132516185, -0.13137566, -0.047446396, -0.16316801, -0.014839784, -0.05673537, 0.058794897, 0.014272746, 0.056073356, 0.031867906, 0.035023425, -0.018185962, 0.09624198, -0.16441981, -0.11079595, -0.3497032, -0.10651229, 0.060409117, -0.10979148, -0.02189559, -0.029835472, -0.112624206, -0.086503744, -0.11078906, -0.02941624, 0.05610979, 0.07199491, -0.007345647, -0.14908426, -0.03189193, -0.116113015, -0.065913275, -0.03867475, -0.0688691, -0.166951, -0.08547724, -0.13283718, 0.04613942, -0.2059331, 0.003273487, 0.048723407, -0.10150138, 0.104614265, 0.22421716, 0.12488248, 0.10235884, 0.033515267, -0.04652471, -0.10643238, -0.08912624, -0.0063982145, -0.1381376, -0.06452274, 0.01566719, 0.022969209, 0.072571404, -0.2278883, -0.24091764, -0.013733325, 0.010280955, -0.036335118, 0.23170798, 0.12903494, 0.020590391, 0.20639959, -0.12339186, -0.2921309, -0.0070518344, -0.32028386, -0.2681209, -0.15475376, 0.19939817, -0.106824346, 0.097410485, 0.19221878, -0.15482935, 0.10970717, 0.24986467, 0.05664807, 0.13984255, -0.11530948, -0.29506475, -0.3221782, -0.11902518, -0.22420259, -0.40156353, -0.29180893, -0.202424, -0.24983315, 0.18457511, 0.1569463, 0.069939695, -0.095031075, -0.06938802, 0.028733466, -0.3445843, -0.2314166, -0.079775624, -0.00039739558, 0.03208504, 0.004729001, -0.06807236, -0.18935576, -0.115135, -0.08663693, -0.016869659, -0.06467328, 0.07008424, 0.036331672, 0.022017341, 0.11697165, 0.06330882, 0.028960608, 0.08353934, -0.045309752, 0.03212022, -0.13625956, 0.06935855, 0.030615885, -0.09270425, -0.17479983, 0.04197472, -0.10317181, -0.17862059, -0.15872562, 0.14856128, 0.11530686, -0.052178483, 0.091930635, -0.06086104, -0.17413445, 0.090709254, -0.1420893, -0.1519083, 0.22305685, -0.022753522, -0.09057828, 0.19438715, 0.0069913603, -0.077835485, 0.06458982, -0.011042116, -0.15196565, 0.11013095, -0.032969978, 0.036501788, 0.10239236, -0.12097801, 0.15321006, -0.10868883, -0.12690693, 0.03372995, -0.0026121964, 0.08598975, 1.48962135e-05, -0.171066, -0.049547333, -0.0015068608, -0.36102065, -0.27013442, -0.23685874, 0.048756953, -0.11997865, -0.10056179, 0.09458733, 0.044071354, 0.082066305, 0.0035213858, -0.004016182, -0.07710379, 0.002416973, -0.2104988, -0.36257184, 0.14982614, -0.07685542, -0.2402066, 0.23486042, 0.096333556, -0.0112830475, -0.03668394, -0.0782209, -0.18279739, 0.17438437, -0.022579102, 0.03501659, -0.06541527, -0.0795689, -0.13045736, -0.124211736, -0.08911815, 0.16150028, -0.09440776, -0.012194285, 0.15998264, -0.1547267, -0.053212866, 0.10184053, -0.009743102, 0.06472774, 0.1847815, -0.20539303, -0.1347933, -0.07389324, -0.20246796, -0.20768672, -0.12321326, 0.005049965, -0.023234231, -0.09908093, 0.14016291, -0.027026935, -0.091858424, 0.007119594, -0.14973857, -0.13539624, -0.011806634, -0.21040715, -0.143684, -0.058541752, -0.07895517, 0.035311878, -0.21190587, -0.1573992, -0.12549119, 0.028295398, -0.08014285, -0.10158495, 0.15504077, 0.046210967, -0.087294094, 0.21008335, 0.28833166, 0.16383332, 0.14437881, -0.036455087, -0.24661003, 0.118939556, -0.06969029, 0.16665217, 0.16569552, 0.089518204, 0.029937409, 0.18569072, 0.043740325, 0.08657914, 0.06246091, 0.2309271, 0.036497224, 0.24461459, 0.07697191, 0.0519091, -0.23804623, -0.17700893, -0.030801727, -0.11106111, -0.22724484, -0.085699596, -0.27500355, -0.22907163, -0.06424545, -0.01357199, -0.08323984, -0.10136568, -0.09108647, 0.005117686, -0.0010586204, -0.12169856, -0.12069307, -0.055539094, 0.03713341, 0.07024078, 0.017080722, 0.18999736, 0.18232666, 0.060065135, 0.21566537, 0.13401346, -0.10921098, 0.03954678, -0.09645438, 0.024053749, 0.12172129, 0.13767186, 0.005527464, 0.23451348, 0.015666513, 0.0007054985, -0.0049765883, -0.086281076, -0.21204068, 0.15994056, 0.049602866, 0.07394619, 0.3827901, 0.24875402, 0.26518232, -0.023498062, -0.13136613, -0.008215549, 0.157148, -0.048898477, -0.21339956, -0.079790786, -0.21077234, -0.32958966, -0.22866681, -0.13929199, -0.2144625, -0.06451052, 0.013592097, 0.03026524, -0.023991996, -0.0035608243, 0.03896773, -0.0015867137, -0.09374454, -0.18188682, 0.17083381, 0.09747489, -0.056300793, 0.033571754, -0.20749609, 0.20130607, -0.051271062, -0.19334145, -0.1763243, -0.009974927, -0.06430568, -0.18916707, 0.11304577, -0.082189895, -0.08041549, -0.08269183, -0.018363636, -0.016153127, -0.12675524, -0.12233802, -0.12922119, -0.13133894, -0.15135477, -0.15100949, -0.013202024, 0.0008888568, 0.0725776, 0.13515389, -0.0011600184, 0.033267662, -0.074890725, -0.04298999, -0.09149582, -0.13596806, -0.21721603, -0.18393452, 0.011434652, -0.112021334, -0.060903016, -0.09231486, -0.04447156, -0.031070061, 0.11215833, 0.038759645, -0.05491345, 0.20520668, 0.08660948, 0.08679671, 0.10991893, -0.019941507, 0.06075499, 0.25920248, 0.051828433, -0.10307463, 0.09532696, -0.104610674, -0.25764984, -0.1569957, -0.2500291, -0.31733257, -0.048923522, -0.096838504, -0.03573261, -0.015368588, -0.04721914, 0.024000851, 0.08069687, -0.09277392, -0.042776905, -0.11065977, -0.028640784, -0.18320388, -0.060886912, -0.14568992, -0.05999489, 0.08689715, 0.10288795, -0.014679333, 0.008525588, 0.06904541, 0.027599072, 0.0013956334, 0.08534719, 0.07798735, -0.04887716, 0.07078239, -0.0032428203, 0.11344736, 0.36057824, 0.2063192, -0.007409388, 0.007614786, -0.16672267, -0.055514935, -0.22247984, -0.2295429, 0.19524519, 0.06394703, -0.16502623, 0.114262335, -0.18791357, -0.17010386, 0.029004274, -0.28963926, -0.28087646, -0.18573886, -0.2877273, -0.046787266, -0.057300232, -0.09763594, -0.14438826, 0.029423632, -0.12297436, -0.12679696, 0.07558719, 0.050112296, -0.2959367, -0.28273842, -0.24258988, -0.4008628, -0.55670863, -0.57709515, -0.32352194, 0.089956544, 0.08345719, 0.15352231, 0.079590194, 0.008416029, 0.07186185, 0.0059081484, 0.055827506, 0.07113735, -0.1564279, -0.15932326, -0.07188332, 0.016872013, 0.08793162, 0.06137574, 0.058057673, 0.08821051, 0.10397458, 0.04132603, 0.0097869625, -0.091648795, -0.21209781, -0.12617038, 0.017752405, -0.07973892, -0.084999956, -0.10668055, -0.09940525, 0.06813992, 0.18113703, 0.19059159, 0.13288893, -0.04327589, 0.0075214542, 0.12810518, 0.051373575, -0.0732342, 0.063577205, -0.16319379, -0.33703318, -0.18102755, -0.43967575, -0.29497585, -0.31625742, -0.58374053, 0.17819083, 0.19615172, 0.19977419, -0.04928957, 0.023941068, 0.057410885, -0.098311506, -0.15049869, -0.08780729, -0.013798555, -0.19851698, 0.040422868, -0.048709515, 0.028087828, 0.0033799256, 0.0029172963, 0.037046477, 0.21121907, -0.015205978, -0.15458384, 0.011819224, 0.102511175, 0.11701273, 0.035608914, -0.052634943, 0.037260126, 0.19210532, 0.1057382, 0.038963012, 0.039024882, -0.114073604, 0.05564937, 0.003763528, 0.02342815, 0.031509563, 0.11618039, 0.2861745, 0.24043886, 0.17519668, 0.22609894, 0.12049978, 0.054989275, 0.02614471, -0.17751554, -0.15494204, 0.07387923, 0.09310205, 0.0460296, 0.0727793, 0.06082444, 0.11608216, -0.12578279, -0.039708048, 0.018542115, 0.03697955, 0.02812249, -0.23078927, -0.3771737, -0.31731087, -0.4054924, -0.60609215, -0.49009535, -0.2798926, 0.062364873, 0.15485013, 0.06426006, -0.07562225, 0.015992401, 0.056117486, -0.17152208, -0.06888454, 0.07025881, 0.08642223, -0.0027977745, 0.0046424973, 0.089283094, -0.15593682, 0.020705357, 0.011815374, -0.23125246, -0.0030365607, -0.03486017, -0.046670098, -0.17559503, -0.012569993, -0.07212353, 0.0122626275, -0.0046101827, -0.10280537, -0.051743425, 0.05963142, -0.051355194, -0.08531499, -0.041435443, -0.041378297, -0.044514894, 0.16656002, 0.1388781, 0.09444919, 0.21432863, 0.03220784, -0.09990391, -0.06650894, -0.1013547, -0.041332044, -0.24587166, -0.28618768, -0.3267776, 0.10073876, 0.05835361, 0.0788822, 0.03482512, -0.10636496, -0.02642936, -0.16113, -0.07271236, -0.12358571, 0.15567921, 0.26293957, 0.18133418, 0.30639794, -0.10844342, -0.23111504, 0.07441754, 0.14032678, 0.115811996, 0.04199494, -0.012375978, 0.028935205, 0.19065832, -0.025940238, 0.09432412, -0.021290733, -0.01580463, 0.022577154, 0.08917679, 0.13614191, -0.03644826, 0.051122185, -0.071375154, 0.062367085, -0.07891218, 0.008341817, 0.074676156, -0.04006593, 0.008155385, -0.021335414, 0.10222712, 0.12209352, 0.13680041, -0.27767134, -0.27717555, -0.31758252, 0.1502173, 0.21573545, -0.005614162, 0.19093792, 0.06704948, 0.17752361, -0.0598488, -0.07453103, -0.03043014, 0.025350481, 0.055576667, -0.049759883, -0.23826754, -0.1245475, -0.38897702, -0.32681617, -0.46788138, -0.2298711, -0.11065953, 0.036243748, 0.18273635, 0.32186714, 0.33067915, 0.075822316, -0.32072902, -0.10338065, -0.26630035, 0.17750019, 0.13381982, 0.015248479, 0.11529982, 0.07242472, 0.076892346, -0.13683082, -0.29697067, -0.22634898, 0.1514153, 0.14430626, 0.09583279, 0.0707207, 0.077486105, 0.065914385, 0.037261117, -0.06994889, 0.024294604, -0.24093588, -0.17538892, -0.15056053, -0.18294466, -0.090583935, -0.062187627, 0.11485321, 0.2517987, 0.12888063, 0.17133777, 0.107461885, -0.028090665, 0.06622554, 0.0061770612, -0.124897696, -0.116508715, -0.06664276, -0.12867716, -0.108803086, 0.06321446, -0.12671481, 0.026639134, 0.15593916, 0.069395915, 0.08222571, 0.30964485, 0.3005404, -0.03167709, -0.19857126, -0.29822433, 0.18032655, -0.12872551, -0.2430096, 0.014972341, 0.14932008, 0.14793006, 0.01714997, -0.05141461, 0.1007305, 0.015737902, -0.027988825, -0.051652633, -0.03261033, -0.09600221, 0.16074178, 0.030041747, -0.07330171, 0.008620695, -0.02152347, -0.07507073, 0.00802522, -0.16567004, -0.06752667, -0.13674325, -0.3113768, -0.29824919, -0.3627115, -0.20216817, -0.3875227, -0.20207138, -0.106986135, -0.32801956, -0.44232595, 0.011155124, -0.13688153, -0.034680005, 0.07149228, -0.047381967, -0.050937284, -0.05018765, 0.14047116, 0.06326591, -0.049257163, -0.15919684, -0.013982166, -0.19040592, 0.059207615, 0.06366768, -0.18922359, -0.10720038, 0.05986822, -0.24606608, -0.41387704, -0.17399995, -0.045969333, -0.1654052, -0.073997244, 0.08275743, 0.33104086, 0.2266499, 0.09341959, 0.13501589, 0.03916701, 0.072034724, 0.14860988, -0.03766647, -0.089930095, -0.076403886, -0.03412094, -0.0307453, -0.0200982, 0.010281529, -0.041238554, -0.048248142, -0.113995254, -0.15660855, -0.3757452, -0.10947825, -0.054950554, -0.06787355, -0.22533044, -0.1085291, -0.21703453, -0.069095396, -0.08210975, -0.25908083, -0.31462127, -0.031057086, 0.061818574, -0.07002338, -0.07031686, 0.006342407, 0.07805354, -0.11684111, -0.070529155, -0.21194094, 0.1780417, 0.07826242, 0.00094151055, -0.07019553, -0.11749415, -0.05278563, -0.27218243, -0.18628123, -0.16255449, -0.18280917, -0.22471227, -0.13295999, 0.006220897, 0.08571603, -0.01648685, 0.0073193735, 0.22654535, 0.09990403, -0.03827962, 0.13016927, -0.005047091, -0.051291663, 0.045182277, 0.09523911, 0.06733121, 0.057346802, 0.07270489, 0.10853112, -0.038097907, -0.045852914, -0.003760266, -0.08465377, -0.15887609, -0.04883256, -0.20421302, -0.1302245, 0.011537448, 0.08347501, 0.09910441, 0.11906167, 0.2328977, -0.031089535, -0.031680122, -0.016403843, -0.06721607, -0.045084212, 0.13058405, -0.043835353, -0.11745705, 0.11764225, 0.094887055, 0.0373035, 0.08882851, -0.055225298, -0.1900531, -0.12536867, -0.025635475, -0.21392326, -0.18884297, -0.07299874, -0.23959625, -0.25784397, -0.12947448, -0.033345483, -0.20589042, 0.22927426, -0.16972697, -0.027364157, 0.05396724, 0.07695527, 0.11780531, 0.111297786, -0.118661545, -0.27294898, -0.18128446, -0.06290064, -0.04375092, -0.18186465, 0.13949394, 0.06833471, -0.057556488, -0.34470132, -0.31015608, -0.16714895, -0.06348758, -0.15396465, -0.37292638, 0.20399526, 0.14193064, 0.16108343, 0.060885284, 0.114320315, -0.0533613, 0.2377699, 0.13390464, -0.036931712, 0.061247535, 0.14349857, 0.109713465, -0.006595487, 0.01589565, -0.03667958, -0.052076604, -0.012999167, -0.091279216, -0.09090372, -0.14044529, -0.11401731, -0.21247272, -0.1781747, -0.12210526, -0.14712673, -0.049899235, 0.08188133, 0.21513063, 0.19804998, 0.11316383, -0.42708066, -0.45840925, -0.35265613, -0.15244958, -0.036424197, -0.047642592, 0.3041645, 0.26856953, 0.27174678, 0.1037176, 0.085929774, 0.11133991, -0.012310891, 0.06794062, 0.099526554, 0.15174231, -0.060302198, 0.10599006, -0.1181252, -0.24202485, -0.29505315, 0.10144948, -0.11328005, -0.032330718, 0.094391935, 0.13170125, -0.03424279, -0.40812945, -0.39142728, -0.25866514, -0.17658974, -0.03577975, -0.010512224, 0.18682927, 0.298788, 0.28153592, -0.1682285, -0.26501998, -0.12163274, -0.12355201, 0.020861039, 0.0076241093, 0.07405376, -0.022355352, 0.100809656, -0.021018602, 0.034811348, 0.052500043, -0.12701273, 0.14349082, 0.034497183, -0.23151992, -0.106153496, -0.04342984, -0.0046838927, -0.19844875, -0.13384868, -0.022366127, -0.11534092, 0.023071375, -0.41584218, 0.13761653, 0.123240024, 0.11232311, -0.09303381, 0.1594726, 0.12752214, 0.24384941, 0.095381334, -0.15380047, 0.27691817, 0.13850628, 0.02991445, 0.15227589, 0.09231428, -0.020076023, -0.0015308096, 0.10281897, 0.0046511493, 0.1418338, 0.05573209, -0.020764444, -0.27188337, -0.2087775, -0.10771447, 0.04797712, 0.017675497, -0.20568529, 0.19549444, 0.17307147, 0.03522271, 0.045530844, -0.009246482, -0.07647456, -0.11159704, -0.0015276147, -0.06886213, -0.17625856, 0.009161476, 0.102244705, -0.13416141, -0.067410596, -0.015931778, -0.23598948, -0.12909843, -0.13511574, 0.06259875, 0.002397925, 0.36751178, 0.30195865, 0.35202995, 0.1254689, -0.009899001, 0.063652106, -0.330062, -0.29305467, -0.31311005, -0.020672865, -0.10757932, 0.048037466, -0.18814252, 0.0834098, -0.07883098, -0.11585084, -0.10122454, -0.022377009, 0.110692255, 0.046565637, 0.108710036, 0.06378749, 0.041111775, 0.18996514, -0.020050159, 0.33488983, 0.23230514, 0.036376923, 0.063917466, 0.26287866, -0.024067186, -0.28155056, 0.015037411, -0.13623005, -0.16234943, 0.13934417, 0.21963385, 0.07129097, 0.062100638, 0.0548517, 0.026933068, -0.2224751, -0.21336332, 0.033228196, -0.0017500864, 0.09075247, -0.085834935, -0.062978335, -0.055671144, -0.08564105, -0.102212034, -0.025744027, 0.044394124, 0.13808115, -0.12528335, 0.100227326, -0.08025072, 0.091857485, 0.12843859, -0.081725806, -0.03385521, -0.2553572, -0.29306054, 0.18800257, 0.2913661, 0.4327417, -0.3019385, -0.53051895, -0.14958106, -0.66572917, -0.61092776, -0.1135953, 0.122900635, 0.21191832, 0.09273692, 0.006088483, 0.26076803, 0.06934339, 0.0805316, -0.14592838, -0.0014409714, -0.1419098, -0.13356824, 0.043421034, 0.08274939, 0.049237035, 0.021136824, 0.19154412, -0.08968304, -0.108788185, -0.0341846, -0.12693849, -0.18648823, 0.16074547, -0.15803878, -0.10159925, -0.009384643, -0.04023359, -0.0070622363, 0.15436375, -0.08706814, 0.09208256, 0.055096634, -0.030616028, 0.050787233, -0.1527627, -0.0063164034, 0.018380925, 0.27124587, 0.25277832, 0.14096154, 0.038285706, 0.08693707, 0.11288247, -0.19932733, -0.28336746, -0.35059035, 0.050297186, 0.0030383859, -0.0014920196, 0.104856454, 0.018662209, -0.21621285, -0.17475745, -0.21217526, -0.2710549, -0.064992554, -0.1544639, 0.06476303, -0.10832025, 0.015656715, -0.1141367, -0.14761572, -0.037200343, -0.024605384, -0.04247912, -0.15169153, 0.038498465, -0.09730017, 0.14347665, -0.019589048, -0.010716417, -0.04177658, 0.012638438, 0.06675297, -0.048613746, 0.33459303, 0.059463687, 0.37274614, 0.07582908, 0.2571004, 0.22625925, 0.210535, 0.13522126, -0.007958941, -0.0019477058, 0.19912958, 0.030961737, 0.04237833, 0.0047865026, 0.11524125, 0.023582388, -0.05243795, -0.031639654, 0.010130002, 0.023515187, -0.09679118, -0.080867976, -0.022067675, -0.12813908, -0.13189583, -0.04805083, 0.04016576, 0.071526624, -0.11135736, 0.16762675, -0.096060224, -0.27390888, -0.16395408, -0.030716438, -0.027569901, -0.048917335, 0.17095718, -0.123041674, 0.083394185, -0.08191447, 0.037473716, 0.043448877, 0.15518911, 0.18705136, -0.08931122, -0.09310834, 0.11354218, 0.06639789, -0.11649039, -0.37571678, 0.19001593, 0.043220684, -0.13986692, 0.01591073, -0.051627155, -0.11941664, -0.15253359, -0.048646845, 0.08201991, -0.14698374, 0.020327969, 0.02279195, 0.009038146, 0.08261217, -0.15993783, 0.08822148, -0.031048812, -0.17232282, 0.15937987, 0.062054012, -0.052255828, -0.013759462, 0.11445786, -0.053522687, 0.030986914, -0.053357746, 0.08723172, -0.09095337, -0.11416925, -0.030366337, 0.055114325, -0.18764742, 0.2342316, -0.18823755, -0.19722769, -0.14862208, -0.17955372, -0.059780546, -0.25273678, -0.029164502, 0.18521419, -0.11463691, 0.13269387, 0.035710588, -0.017799832, 0.078874774, 0.036203068, -0.10164345, 0.120966986, 0.025988089, 0.12689665, 0.07556299, -0.2059052, 0.09907289, -0.0008851915, -0.010850206, -0.16499013, -0.0119139105, 0.1305361, 0.115463905, 0.15078533, -0.08712592, 0.25895265, 0.11478672, -0.18903688, -0.17731549, 0.06401467, 0.21609615, -0.049280737, 0.09613626, 0.012538106, 0.09146798, 0.1800451, 0.06061294, 0.17707288, 0.070241846, 0.030828452, 0.110442184, 0.093774565, -0.069107704, 0.021650512, 0.066442005, -0.12121762, -0.20615003, -0.098270096, 0.1744842, -0.046388876, -0.04918646, -0.051665224, -0.0047063143, -0.08379785, -0.15096106, -0.4421944, -0.109646216, 0.19784053, -0.2121158, 0.08777848, 0.12519716, -0.09013635, 0.02755323, 0.05012925, 0.13662414, 0.086510435, 0.18972847, -0.0052928035, -0.15499845, 0.108223155, 0.009994007, -0.13473764, -0.029564364, -0.15734664, -0.19431019, 0.0043946425, -0.20371732, -0.26185668, -0.19296661, 0.051652867, -0.14030765, -0.13679534, 0.073066816, -0.0025149588, -0.025411192, 0.08394, 0.1583354, -0.108692676, 0.12878019, 0.0067877877, -0.12974247, -0.21123117, 0.026124049, 0.15834267, -0.16002311, 0.11161697, 0.10876728, 0.013801385, 0.045280937, -0.0023573455, -0.20280899, 0.031797346, 0.15842472, 0.021252431, 0.038640346, 0.037042033, -0.045894325, 0.036403395, -0.004058864, -0.21063189, -0.17998916, 0.15389973, -0.1637742, -0.0013696684, 0.23090337, -0.06848862, 0.022581425, 0.1941812, -0.12576853, -0.06375246, -0.1076186, -0.05357636, 0.07819894, -0.09616337, 0.12029276, 0.0025205598, -0.12771365, 0.24343747, 0.036094572, -0.11989124, 0.020210007, 0.08444769, -0.1787801, 0.18238032, -0.054774106, -0.15388578, 0.0057996796, -0.19189243, 0.10171749, 0.062029652, -0.2772261, -0.24221371, -0.019621128, -0.27950215, -0.13368794, -0.15435761, -0.06633119, 0.10800295, -0.20615736, -0.006000894, 0.07289349, -0.11608629, -0.055020962, 0.03510433, -0.06500412, -0.049526725, 0.25411007, -0.14563885, -0.08938699, 0.20568602, 0.041852, -0.018263701, 0.15681385, -0.037556652, -0.10178051, -0.12524517, -0.0891804, -0.2569177, -0.27466458, -0.04648119, -0.024311095, -0.092670746, -0.3763194, -0.055307534, 0.19185613, -0.2414309, -0.020219054, 0.21226195, -0.08676898, 0.033050165, 0.18568029, 0.09022457, -0.056660827, -0.07854301, -0.10685412, -0.17233787, -0.19458236, -0.024362752, 0.033567462, -0.07455592, 0.0050982195, -0.02602053, 0.036782224, -0.123992294, -0.1369092, 0.08475638, 0.010411139, 0.039990965, 0.09019341, 0.13293876, 0.28215995, 0.106706984, 0.29014447, 0.041799597, -0.15873311, 0.08933373, -0.40951556, -0.23154269, -0.04268413, -0.02287013, -0.07574557, 0.03940214, 0.1265885, -0.09434876, 0.116528966, 0.094487, -0.15028237, -0.0940884, -0.03219113, -0.010316939, -0.014381275, -0.06575685, 0.03218674, -0.05993884, -0.0689462, 0.07084978, -0.023197558, -0.12331499, -0.107093774, -0.19382428, -0.18837, 0.0036078931, -0.054151077, -0.01169147, -0.07334699, 0.2028449, 0.1260466, -0.14511637, 0.15214351, -0.40292558, -0.29955006, -0.2034167, -0.46096852, -0.18054971, -0.14821516, 0.08335032, 0.13007228, -0.11572143, 0.16277575, 0.12637228, -0.0026050613, 0.100412786, -0.086896546, -0.06268699, 0.18938315, 0.16904357, 0.22623682, 0.07466217, -0.13285525, 0.19438222, 0.026918057, -0.37760037, 0.044912823, 0.15085605, -0.12730987, -0.07413477, -0.15375286, -0.17004664, -0.120468475, -0.10710552, -0.06526592, -0.17026258, -0.18780151, 0.10527046, -0.006971206, -0.0011386184, 0.22256441, -0.019958675, 0.15731515, 0.19112228, 0.015086414, 0.09336275, 0.03368264, -0.16557789, -0.36335215, 0.03909949, -0.033451762, -0.026384853, 0.021779314, 0.08513783, 0.15779234, -0.011379864, 0.11842023, 0.05308364, -0.14990121, -0.058665577, -0.22005041, 0.024857359, 0.21427204, -0.13626218, -0.33786806, -0.13356626, -0.5137182, 0.03306611, -0.22984745, 0.12818363, 0.13394943, -0.017990382, -0.17525776, -0.3836421, 0.30787697, -0.019826878, -0.30367613, -0.15672748, -0.21675548, -0.25740793, 0.118634105, 0.21527313, -0.0479688, 0.07150665, -0.2028484, -0.27812928, -0.124100424, -0.17294656, 0.14661314, -0.05699863, 0.05243919, 0.024268499, -0.06071266, 0.06543408, 0.016026154, -0.029535707, 0.016413651, -0.020436127, 0.057081807, 0.06386268, -0.062573105, 0.2736807, 0.13630752, -0.014303278, 0.07277213, -0.33251908, 0.02885911, -0.16685846, -0.020433273, 0.035730463, 0.07139452, -0.07354001, -0.012221097, -0.04829199, 0.011242084, 0.21478525, 0.024226462, 0.088386536, 0.027868684, 0.09628949, 0.0025063914, 0.18719803, -0.18874532, -0.01754302, 0.033707924, 0.14144355, -0.15543076, 0.11045021, 0.011593131, -0.33450058, 0.052598502, -0.033535957, 0.013108713, 0.28203258, -0.062178828, -0.11315728, -0.034811135, -0.08087388, 0.0019540184, -0.053975508, 0.11341305, -0.043062948, -0.034456637, -0.0901622, 0.15795548, 0.083047085, 0.2554693, 0.09121439, -0.14149018, 0.056677464, -0.2561061, -0.003659892, 0.04121077, 0.081189275, 0.082668096, 0.23044421, 0.09816703, -0.16091865, 0.025931345, -0.14250101, -0.06555259, -0.067725405, -0.12905295, -0.06013915, -0.008215342, 0.035288967, -0.018266456, 0.053581975, 0.024844734, -0.098542556, 0.07865632, 0.0599529, 0.1850152, 0.33104107, 0.29418588, 0.08400667, 0.04581726, 0.04457993, -0.13903353, 0.115179665, -0.07955969, 0.027108446, -0.020157851, -0.07773391, 0.0910328, 0.020239288, 0.09459861, 0.043361567, 0.14175077, -0.08819162, -0.022266772, -0.027579805, -0.25792304, 0.0060784374, -0.16383368, 0.03562177, -0.035131875, -0.083886154, -0.08630765, -0.15434864, -0.019851321, -0.0012415233, 0.0014732725, -0.079842106, 0.065318696, 0.13808343, 0.0104354825, 0.14319687, 0.14234753, -0.21559142, -0.15133965, -0.18886739, -0.004525684, 0.2079778, 0.098736815, -0.14992417, 0.054834515, 0.08840766, -0.22259614, -0.14142033, 0.012902204, -0.07367352, 0.13684456, 0.15503094, -0.20653406, -0.0062548826, 0.013708397, 0.13745657, 0.039372355, -0.16426395, 0.09821089, 0.032335524, 0.14346224, 0.0631469, -0.010619439, -0.115064986, -0.32815206, -0.34396788, -0.010788754, -0.07266925, -0.064557485, -0.050533403, -0.1985142, -0.34898835, -0.06543805, -0.18325529, -0.019595968, 0.068610474, 0.037156828, 0.18140626, 0.051634796, 0.14752288, 0.04476846, -0.096998036, 0.4676317, -0.077228904, -0.06573672, -0.1266993, 0.12190469, -0.19767135, 0.01570506, 0.12923962, 0.14963093, -0.00797279, 0.11343945, 0.19512713, 0.0034555562, 0.099831864, 0.21866205, 0.014401569, -0.043391533, 0.037325174, -0.029668175, 0.04856719, 0.022627367, -0.057283655, -0.03614976, 0.056767423, -0.07010316, 0.04965104, -0.019526131, -0.06358125, 0.022006772, 0.1260305, 0.09362998, 0.032909516, 0.0306098, 0.1692866, -0.070764065, -0.07367422, -0.14505142, -0.04387033, 0.05695335, -0.013175671, 0.19149946, -0.12222386, -0.025772806, 0.3049312, 0.18914436, 0.31604335, 0.10098252, -0.3781839, 0.0405889, -0.33184353, 0.083612055, 0.21842714, -0.1965558, -0.27288678, 0.2881036, 0.011517502, -0.20190187, -0.32678294, -0.4838745, -0.23258819, 0.13694546, 0.03020278, -0.0009708634, -0.15168329, -0.20086211, 0.10395096, 0.077296935, 0.069177285, 0.059220992, -0.01787136, -0.18857187, -0.048836347, 0.008860445, 0.009526722, 0.05071445, 0.1935796, 0.19614288, 0.1279812, -0.3162294, -0.27444026, -0.25091404, -0.13916153, -0.34791082, 0.005712555, -0.13568671, -0.24337375, -0.058600828, -0.023554018, 0.02445165, 0.039100822, -0.096575856, 0.09861822, 0.12209196, -0.14013143, 0.04753685, 0.13828118, 0.015416278, -0.0002380852, -0.057272036, 0.06455124, 0.110219136, 0.112693414, 0.27584487, 0.20502286, 0.0042289807, 0.03594809, -0.094391294, -0.08793422, 0.03143267, 0.040371038, -0.007551183, -0.12227821, 0.041415833, -0.07251592, -0.15204926, -0.039809953, 0.048582062, 0.009548065, -0.03568381, 0.06889465, -0.11369406, 0.31761432, 0.2868974, 0.022463525, -0.004088487, 0.11063704, -0.05082554, -0.06585822, 0.034265827, -0.039566614, -0.137102, 0.01686436, -0.09836129, -0.6529167, -0.3822206, 0.23724651, -0.0448477, 0.071657754, -0.0018796053, -0.09749918, -0.19953172, 0.107739925, 0.029548623, 0.054345272, 0.11260449, 0.04131039, -0.069363505, 0.08735386, -0.055913877, -0.19549042, 0.073670074, -0.113897435, -0.08352895, 0.049833804, -0.021786798, -0.075492576, 0.03891129, 0.09805958, 0.015005455, 0.17396866, 0.041280687, 0.00409203, 0.35725155, 0.27294493, -0.039705016, -0.012392204, 0.12671782, -0.20230441, 0.021502597, -0.006411357, 0.040091373, -0.0221234, 0.0042626983, 0.17603827, -0.19115138, -0.18764886, 0.08793482, -0.29619744, -0.12245423, -0.030499516, 0.14817634, -0.026859328, 0.0050452603, 0.10196698, -0.14984097, -0.034615096, -0.2976075, -0.39487758, -0.2317721, 0.17519172, 0.015497672, 0.035827234, -0.11290778, -0.08277362, -0.090251744, -0.13993216, -0.39607617, -0.39955962, 0.0032905636, 0.16973943, -0.14897415, 0.028648844, 0.04098811, -0.04418469, 0.031068614, -0.1217324, -0.10958687, -0.06644198, 0.05947128, 0.03775463, -0.105239846, 0.07283482, 0.1296615, -0.062158782, -0.07727352, -0.00084953714, 0.065926954, 0.13995089, 0.055183664, 0.060098737, 0.012982563, 0.10535258, 0.028984454, -0.31379288, -0.20010194, 0.12975304, 0.1420649, -0.046315692, 0.23247567, 0.22138473, -0.16935323, -0.35490048, -0.3454693, -0.03554944, -0.134432, -0.27561685, -0.04216464, -0.121118896, 0.038213953, 0.041091826, -0.15697141, 0.009131176, -0.015202578, 0.28434786, -0.0504982, -0.0050633247, 0.37214085, 0.01678269, 0.011697071, -0.13459523, -0.5006032, -0.25982964, 0.17075606, 0.2390241, 0.18084337, 0.15655847, 0.16986685, 0.20261833, -0.04008353, -0.0732568, -0.02663808, 0.33597583, 0.07632477, -0.03677341, 0.068735816, -0.1389097, -0.060525034, -0.13884664, -0.21800305, 0.0144207515, -0.19751856, -0.29528385, 0.012116586, -0.21017861, -0.21120751, -0.24224192, 0.05161889, -0.15513904, -0.05209767, 0.043458227, -0.1533661, -0.25242692, 0.12180899, -0.16882001, -0.2246883, -0.11533843, -0.23458175, -0.17274383, 0.20283376, -0.055268466, 0.29818407, -0.0121284835, -0.016966501, -0.0113742715, 0.1402686, 0.06603505, -0.059011474, 0.12092883, 0.061187614, 0.052180696, 0.3004983, 0.22978143, 0.06977349, -0.10031537, -0.43109185, -0.30165297, 0.016870247, -0.14607476, -0.21497685, 0.1503199, -0.07627822, -0.16492619, -0.35214508, -0.6481939, -0.4048178, 0.06821049, -0.16056602, 0.0013120631, 0.073356286, 0.059594367, 0.051989496, 0.06575655, -0.08775222, 0.014975439, -0.17197315, -0.3731508, -0.020771995, -0.42497155, -0.74746305, -0.31509972, -0.21701857, -0.097955175, -0.10355833, 0.21102789, -0.00059010775, 0.033871543, 0.18004161, 0.18317492, 0.288749, 0.27654806, -0.046070457, -0.32459742, 0.14774925, 0.14519963, -0.19334169, 0.33101666, 0.24776235, -0.022628874, -0.06643955, -0.24425705, -0.0436447, -0.04566918, -0.42760217, -0.32149708, 0.012271672, -0.22407013, -0.45169285, -0.121591486, -0.056135844, -0.043351527, -0.16782585, -0.123668306, 0.031637378, 0.20421478, 0.124534965, 0.054960784, 0.16130596, -0.20320332, -0.09425263, -0.13386574, -0.18981273, -0.0839982, -0.052317943, -0.011409656, -0.23686655, -0.05787124, 0.15073553, -0.04754129, 0.16150412, -0.026727356, -0.11194839, -0.055435695, -0.23126693, 0.13930976, -0.053010736, -0.010336843, 0.016624073, -0.013370986, -0.011137376, 0.2115545, 0.23398133, 0.07936083, -0.017195087, -0.10429699, -0.1958933, -0.14460196, -0.2305159, -0.067796424, 0.114967346, 0.060415145, 0.04372637, 0.27491236, 0.0962137, 0.016806345, -0.21314166, 0.1932073, -0.23712364, -0.06541284, -0.19556613, -0.15102184, 0.13031538, -0.07047675, 0.19047081, 0.09726812, 0.17698663, 0.08286897, -0.18428987, 0.0487857, -0.06904227, -0.14020635, -0.06788262, -0.08350888, -0.099028096, 0.08534979, -0.24342844, -0.089165375, -0.054269724, 0.04413702, 0.1682489, 0.114218846, 0.0511993, 0.16969042, -0.014743896, -0.124669775, 0.29859364, -0.10192013, -0.037904218, 0.19281173, -0.053939745, 0.076350905, -0.23442487, -0.04315756, -0.12899135, 0.025217444, 0.13772982, 0.21395451, -0.06600881, 0.0494907, -0.20545094, -0.27234882, -0.1321682, -0.37140882, -0.17949235, 0.042103775, -0.15632406, -0.32760397, -0.036499765, 0.08288467, 0.14793488, 0.10090534, 0.16187677, -0.09115523, 0.0010088186, -0.14106578, -0.1030472, 0.04722794, 0.10353635, -0.19193013, 0.038473256, -0.23943137, -0.017287327, -0.2937201, 0.092776254, 0.17788683, 0.0604415, 0.04367326, -0.19552542, 0.122197025, -0.1923108, -0.10132118, -0.13307308, -0.018113876, 0.21834585, -0.020914743, -0.061214443, -0.060734186, 0.07057222, -0.12752378, 0.0064546685, -0.037951995, -0.24399377, 0.263893, 0.0019078886, 0.112170056, 0.22705516, 0.057073604, 0.040172487, -0.23861864, -0.021568988, -0.39748773, -0.12802634, 0.1075686, -0.076844506, 0.005457585, -0.14494184, 0.12754077, 0.15949528, -0.008035875, 0.13236721, -0.05927165, 0.022084795, 0.018224219, 0.033691827, -0.042899784, 0.039675765, 0.1204459, 0.051316395, -0.15269488, -0.12748739, -0.0056812307, 0.05555998, 0.020972585, 0.17842753, 0.003105711, -0.19317904, -0.12319519, -0.014875639, -0.083482735, -0.17252204, -0.019482357, -0.28431875, 0.16000871, -0.058645237, 0.18540847, -0.08938391, -0.015338931, -0.17437768, 0.064238526, 0.05270218, -0.3500608, -0.10488711, -0.24802266, -0.37801227, -0.24336158, -0.39789584, -0.28121784, 0.101425305, -0.12607996, -0.17418663, 0.08106912, -0.20912637, 0.20744748, -0.37746972, -0.22773273, 0.22219609, -0.038044393, -0.15352844, 0.012757404, 0.12360954, -0.053665597, -0.05772948, 0.19198003, 0.019374998, -0.4223925, -0.04024747, 0.054256845, 0.004910411, -0.047745246, 0.06335641, -0.028403481, 0.06243961, 0.03444591, -0.14761055, 0.09902348, -0.05874517, 0.20594166, 0.07099374, 0.26114124, 0.797851, 0.18026653, 0.67346674, 0.49245596, 0.1314828, -0.009587558, -0.018606255, 0.066641435, -0.052813236, 0.28093472, 0.17284916, 0.15657866, 0.33330387, 0.06948726, 0.060562305, -0.042453118, 0.08309115, 0.0029789081, -0.11577993, 0.02025805, -0.023468707, -0.19114682, 0.021177448, 0.10185195, -0.22309767, 0.19549218, 0.19847445, -0.45922402, 0.18905486, -0.23458587, -0.3517817, 0.05753295, -0.16194354, 0.23974845, -0.2675879, 0.236965, 0.21526544, 0.15793675, 0.29466015, -0.076820314, 0.003806981, 0.19632831, -0.008184754, 0.10134476, 0.021810466, 0.090614535, -0.081224374, 0.12239007, 0.48289356, 0.03621722, 0.0172792, -0.22958198, -0.13679029, -0.021793365, 0.13586463, -0.08006039, 0.2511234, 0.2533909, -0.11440478, -0.10420055, -0.05347667, -0.16443203, 0.09959659, -0.05319381, 0.07203424, 0.15088625, -0.2647286, 0.25126898, 0.11336874, -0.010250393, 0.02996536, -0.05903853, -0.044848166, -0.14142391, -0.051306657, -0.15281165};

const float conv2d_4_b[64] = {0.117934495, 0.030509152, 0.036909588, -0.097191386, 0.097860165, 0.086271845, 0.06696301, -0.04572985, -0.02648833, 0.05492519, 0.037093066, -0.06836945, 0.35554692, -0.03780788, 0.035952058, -0.038396213, -0.062431425, -0.18639758, 0.07889983, -0.0626061, -0.105723016, 0.17429163, -0.034639813, -0.0057628136, -0.097162716, 0.025481325, 0.00567508, 0.0057106013, -0.037280504, 0.06883661, 0.04904437, -0.04390567, -0.113206774, -0.12049582, -0.025392437, -0.16271195, 0.06744265, -0.07120983, -0.14975213, 0.00037593508, -0.025015991, 0.0330951, -0.0075088413, 0.04026638, 0.005419474, 0.118507326, 0.08055141, -0.12576967, 0.055205513, 0.032538224, -0.025457462, -0.030918228, 0.0016409637, 0.119333066, 0.24360019, 0.018135678, 0.14261934, 0.19221981, 0.008155623, -0.13659212, 0.0061141592, -0.16628474, -0.108692646, 0.025354724};

const float conv2d_5_w[36864] = {-0.028760891, -0.019949112, -0.015708739, -0.081629105, 0.008602142, -0.003468353, -0.058588576, 0.050375205, -0.04847707, 0.003445214, 0.01776699, -0.023498671, -0.060629684, -0.05626965, -0.0648921, -0.018683389, -0.030344082, -0.022490766, 0.061795842, -0.036628507, -0.02016086, -0.06524659, -0.07373402, -0.058337398, 0.0054040113, -0.009106508, 0.033704393, -0.0961924, -0.099818766, -0.074030936, -0.08314008, 0.025964344, 0.024291104, 0.011229319, -0.08755717, -0.10537082, 0.0045752805, -0.032348514, -0.07425891, -0.028832622, 0.015357306, -0.0503716, 0.005765177, 0.040826134, 0.021666793, 0.045560226, -0.012687558, -0.011600267, -0.03468145, -0.03622316, 0.012179059, -0.09116659, -0.036526967, -0.01754304, -0.054606993, -0.015294658, -0.048706055, 0.0019650888, -0.040578414, -0.051206756, -0.008390111, -0.09345846, 0.032871477, 0.0063232724, -0.06458798, -0.030997565, 0.021456936, -0.05723834, 0.06592637, 0.03357179, -0.019871749, 0.0135367215, -0.08943804, -0.080827504, -0.030505577, -0.06807192, -0.09312523, 0.043024626, -0.05114246, -0.08185083, -0.018163074, -0.0061952947, -0.0023978555, 0.030588452, 0.017157372, 0.029995894, 0.018835967, -0.0122845825, -0.018587923, -0.02580465, -0.012222239, -0.07611553, -0.09757624, -0.011465034, -0.07435927, -0.10288566, -0.03539052, -0.061910536, -0.0033159999, 0.0093385335, -0.035730347, -0.032121614, 0.0025065427, -0.02929381, -0.07855262, -0.06269168, 0.028487554, -0.067985915, -0.041277453, -0.021388937, -0.05624549, -0.021421501, 0.006530653, -0.053859517, -0.090280004, -0.08001209, -0.050664, 0.047348406, -0.0030922678, -0.03687103, 0.049282566, -0.036592204, -0.03518824, -0.020312166, 0.05100739, -0.079208195, -0.08072186, -0.032288425, 0.013097364, -0.049328934, 0.0341994, 0.051866803, -0.005899321, -0.06551459, -0.06507842, -0.049433567, -0.024399746, 0.03252271, -0.03223345, -0.058364585, -0.032441266, 0.061651245, 0.033004, 0.036754325, 0.058021273, -0.027200256, -0.04017798, 0.019670779, -0.09163471, -0.08357614, -0.026276581, 0.030926134, -0.051658686, -0.027779384, -0.024968663, 0.0020276776, 0.012109172, 0.035367705, -0.0115547385, -0.024532199, -0.10907132, -0.076113835, 0.02768639, -0.096580245, -0.06163377, -0.01386396, -0.06628178, -0.002713598, -0.046178333, -0.010587946, -0.050248682, -0.023109078, -0.03514647, 0.020923607, 0.0248091, -0.02611328, 0.06636953, -0.062141765, 0.0019189939, 0.02428393, -0.09045115, 0.0076886765, -0.0723983, -0.051534854, -0.10828929, 0.0024914932, -0.008030855, -0.07945747, 0.057239544, -0.11335791, -0.0038594732, -0.13309115, -0.074046485, -0.040092673, -0.112730704, 0.029331172, -0.025184192, 0.034698967, 0.060923427, -0.029817741, 0.014100455, 0.033958785, 0.024698876, -0.057503182, -0.024396528, -0.058059826, 0.030902348, 0.042290695, -0.061422173, 0.008009275, 0.019257624, -0.013062752, -0.052413914, -0.07517145, -0.022790233, -0.020520328, -0.06219469, -0.068612345, -0.011663955, 0.056700144, 0.00784222, 0.04420001, 0.032064073, -0.024840951, 0.06497124, 0.042549882, 0.05209062, -0.022254875, -0.020144418, -0.049835514, 0.013676661, 0.027386442, -0.075318635, -0.056375977, -0.030281303, 0.017016705, 0.029903362, -0.07802466, 0.009100159, -0.10647451, -0.030565977, -0.08769817, -0.009898839, 0.0050221314, -0.041127436, -0.041832328, -0.053026855, -0.08430145, -0.034163695, -0.094714835, -0.11047499, 0.012721888, -0.04529968, -0.054418854, -0.06783558, -0.06518077, -0.04981527, -0.063925, -0.0079403445, -0.07199751, -0.040626824, -0.0049934443, -0.041397687, -0.038560998, -0.029313207, 0.022938468, 0.04485248, -0.012013929, 0.06001826, -0.078407094, -0.09833036, -0.11124327, -0.10868722, -0.0116712665, 0.01154686, 0.048591487, 0.0081555, 0.042783495, -0.05342411, -0.00054241717, 0.013903581, 0.046086267, -0.0042771474, -0.07211597, -0.029334571, -0.026661731, -0.040063657, -0.06109992, 0.0051402496, 0.07740319, 0.025228174, 0.013741411, -0.059699178, 0.075863555, 0.004425421, -0.0787505, -0.0008982903, 0.04245934, -0.0032480531, -0.009006958, -0.014225488, -0.11026121, -0.039191093, -0.029077481, -0.05647174, -0.08360646, 0.032187477, 0.045458406, 0.013413608, 0.06715296, -0.028933026, -0.052554905, 0.06228289, -0.008945681, -0.004142903, -0.019201066, -0.06138183, -0.03906669, 0.01592328, -0.0134833045, -0.0015663673, -0.059606574, -0.03624727, 0.02586668, -0.014795074, 0.0020176696, -0.0009743256, 0.014388118, 0.015011344, 0.016553624, -0.07583436, 0.049343355, -0.09928172, -0.041367866, -0.0045713233, 0.056892995, -0.024622284, -0.06905065, -0.021214066, -0.011882578, -0.063505515, -0.047801398, 0.010005646, 0.020977281, 0.07620938, -0.028395656, -0.07588162, -0.012592264, -0.06810715, -0.007562647, 0.023213848, -0.038396552, -0.05290459, -0.059867203, -0.042188235, -0.026983902, -0.06784509, 0.06294778, 0.0688021, 0.029757984, -0.045225985, -0.031448856, 0.060210407, -0.061813846, 0.062067837, 0.040275007, 0.047046594, -0.03973882, 0.031300347, 0.012043822, 0.0063819215, 0.023490917, -0.03974993, 0.03849205, -0.012613291, -0.005356352, 0.009901959, -0.027780173, 0.023788495, 0.016282784, 0.020042295, 0.060811754, -0.0591298, -0.119613945, -0.052887887, -0.06937136, -0.010534511, -0.011830762, -0.025676314, -0.025959732, 0.0424219, -0.023664638, 0.03742734, 0.04113286, -0.031582914, -0.04332113, 0.023682661, 0.04089217, 0.042742744, 0.036436453, -0.009418441, 0.0006288518, 0.010628127, 0.013073501, 0.016119925, -0.06412485, 0.06061648, -0.0909888, -0.09436329, -0.10199704, -0.06252966, -0.0014021288, -0.04981425, 0.04963693, -0.022818685, -0.08763383, -0.08667318, -0.13421673, -0.027743526, -0.04562996, -0.051897362, -0.012083745, 0.0012520005, -0.000698074, -0.07514389, 0.029857738, -0.052158594, -0.046204068, -0.009936011, -0.023204729, -0.041635342, 0.01437522, -0.06668006, -0.08079402, -0.08191244, -0.00958092, 0.013559487, -0.06275513, 0.016216438, -0.0038974409, -0.08407015, 0.047282647, 0.045123134, -0.04682868, 0.030317027, 0.06314582, 0.020212747, -0.07711863, 0.02052758, -0.014192226, -0.09621041, -0.0055988473, -0.04776386, -0.06493815, -0.09129573, 0.0040214895, -0.042502556, -0.03807081, 0.041578133, -0.070610486, -0.077129014, -0.08123299, -0.008772342, -0.021405743, -0.06332219, -0.050668802, -0.07022897, -0.010898215, 0.058616947, 0.02414991, -0.037939314, 0.00026964134, 0.065895334, -0.013427202, 0.006211542, 0.0025787405, -0.004962843, -0.048091494, -0.06269281, -0.10892252, 0.05055702, -0.07710562, -0.019696329, -0.032476615, 0.022394324, 0.056127634, 0.056306016, -0.08316156, -0.032942593, -0.05366047, -0.058009524, -0.018302878, -0.07906484, -0.071887635, -0.07765817, -0.037984733, -0.016104333, 0.012389539, -0.09565419, -0.03682695, -0.027569698, -0.04370408, 0.017637808, -0.08325217, -0.0006412733, -0.014736483, 0.031799726, 0.0030249532, 0.003325467, 0.024644477, 0.03387115, -0.048946306, -0.052872937, -0.0866777, 0.024492046, 0.013225082, -0.029419018, -0.00648317, 0.036620248, -0.027002828, -0.092872865, -0.05389816, -0.013400012, 0.014278746, -0.040511284, -0.0030328827, 0.0044778595, 0.02723112, -0.0225597, 0.045142204, -0.060309224, -0.01475557, 0.017978316, 0.029036395, 0.027067393, 0.008074625, -0.06113607, -0.03383075, 0.063059255, 0.052126914, -0.10162641, 0.013400484, 0.024010181, 0.03036162, -0.030161401, 0.015665874, 0.024198946, -0.093793415, -0.07216334, -0.077783346, -0.07193756, -0.05449871, -0.04172818, -0.02730208, 0.029288778, -0.030531038, -0.07059053, 0.029954305, -0.0798952, -0.03355362, -0.029292662, -0.029198818, -0.09816114, 0.029973285, -0.08146083, 0.03400447, -0.034435973, -0.084274754, 0.011832065, 0.0014784628, 0.06710546, -0.07560196, -0.0061704535, 0.04264851, 0.028925974, -0.074617185, 0.03351139, 0.049507763, -0.043504074, -0.07553489, -0.0026926007, -0.06800879, -0.088220045, 0.036118392, -0.0049108234, -0.032950487, -0.084369175, -0.29655373, 0.066502504, -0.0022275012, -0.23442835, 0.12586181, 0.09485422, 0.030034292, 0.071733266, 0.03214253, 0.16012093, 0.0045969207, 0.107041635, 0.1019165, -0.09154797, 0.020365035, 0.09544085, -0.10448514, 0.058891375, 0.15055965, -0.07616732, 0.028674733, -0.029928109, -0.15568252, -0.15028217, 0.0155945765, -0.034209777, 0.08943451, 0.048872206, -0.08153816, 0.09404836, 0.039719712, -0.22273543, 0.14020836, 0.03966838, -0.09038347, -0.16095696, -0.0980391, 0.118551165, -0.049316518, -0.014227567, -0.14979011, -0.035844278, 0.29405114, -0.046758436, 0.09842133, 0.20152473, -0.0899934, 0.09622099, 0.09180263, 0.023335826, -0.013654922, 0.04929164, 0.041095898, -0.031959806, 0.04730301, -0.0421532, 0.08130809, 0.06100029, -0.023962822, -0.03815581, -0.023073472, -0.070498906, -0.00013222286, -0.18433301, 0.03917325, 0.12951727, -0.050213836, -0.11734691, 0.06570379, -0.10874536, 0.101610586, 0.013544152, -0.003951793, 0.11368619, 0.05753441, -0.080794245, 0.27486932, 0.13932419, -0.1632749, 0.040418938, -0.0014245294, 0.0808803, -0.027854433, -0.04724171, 0.11194389, 0.014207521, -0.062799156, -0.060986426, -0.035610404, -0.01592716, -0.09974572, -0.18675561, -0.18162936, -0.04620075, -0.24187824, -0.2706122, -0.045103557, -0.26239634, -0.2716631, 0.10234012, -0.024936859, -0.084729426, 0.17545837, 0.10009365, -0.08037336, 0.10349718, 0.0361057, 0.09412164, -0.06456963, -0.060237594, -0.08154228, -0.06328546, -0.054039516, -0.0147854565, 0.10745326, 0.06711583, 0.091852576, -0.06591573, 0.14603439, 0.11379072, -0.016420543, -0.00014326327, 0.1680421, -0.12078894, -0.04244969, -0.04023976, -0.003950947, 0.062175244, -0.0191075, 0.0136315385, 0.029587235, 0.06019553, -0.014865782, 0.1030938, -0.018741295, -0.2281961, 0.10639802, 0.09926234, -0.51006085, 0.12131262, 0.1464095, -0.38326994, 0.05907143, -0.00941846, 0.107166305, 0.10344337, -0.08776061, 0.15307349, 0.05577021, -0.030384794, -0.005498399, -0.18849409, 0.12206821, -0.14610621, -0.07980486, 0.11537406, 0.14828686, 0.035328284, 0.1631246, 0.19102865, -0.019988274, 0.03935417, 0.055484176, 0.04115271, 0.15443665, 0.039304405, 0.079443365, 0.0069882013, 0.0013813507, -0.20590661, 0.021581722, -0.09965983, -0.18817878, -0.1168122, 0.044698462, -0.45322236, -0.13635433, 0.22599474, -0.08799286, -0.0163779, 0.039577924, 0.024454864, 0.04416764, -0.12798049, -0.032438245, 0.0800751, 0.12130215, 0.05690364, 0.011633532, -0.055347554, 0.031281173, 0.023573587, -0.030454462, 0.0082456255, -0.05335231, 0.0066722645, -0.06157049, -0.03704579, 0.02805695, -0.09782875, 0.09366448, -0.0024852902, -0.17723325, 0.0026074161, 0.10122579, -0.27629098, -0.045474887, 0.20836575, 0.10218569, -0.07352333, 0.07480171, -0.13429862, -0.09759985, -0.15606624, -0.07130153, 0.035981994, 0.27138203, 0.07633614, -0.019159919, 0.18351427, 0.12168434, 0.2734141, 0.08141565, -0.16338843, -0.046712387, -0.08182589, -0.23046602, -0.2490228, 0.04578708, -0.20742634, -0.11365253, 0.22348331, -0.028613292, -0.071274355, -0.12473364, 0.15255044, 0.045660194, -0.15430237, 0.09844226, 0.045927357, -0.14007664, 0.03955394, -0.0490966, -0.0632382, -0.021648005, -0.029278968, 0.09758494, -0.060108647, 0.060631238, 0.039522722, 0.12672256, 0.1041944, -0.018055873, 0.14069556, -0.16904415, -0.0835628, 0.1675889, 0.09653095, 0.010396344, -0.11353799, -0.033799376, 0.14479123, -0.40411362, -0.2639185, 0.19306841, -0.20117944, -0.0073935073, 0.46889314, 0.039639715, 0.10242309, 0.11140014, -0.01455378, 0.02330678, 0.064398006, -0.017827263, 0.008709697, -0.030887526, 0.030912155, 0.054310534, 0.04915577, 0.09495532, -0.07123958, -0.02789731, 0.009156159, 0.14188448, -0.030833913, 0.11968218, -0.060157515, -0.04955669, 0.08801162, 0.06287028, 0.0647323, 0.113042966, -0.13425846, -0.14698312, 0.011050233, 0.07844359, 0.02646232, -0.04546109, 0.05318402, 0.03147686, -0.032640584, 0.014854738, -0.029776718, -0.062190354, -0.082294196, -0.12807733, -0.10420961, -0.19444329, 0.12138307, -0.022678815, -0.10457501, 0.08014153, -0.04735895, 0.05591549, 0.24456981, -0.18108131, -0.13059871, 0.31052336, -0.12401432, -0.06680015, 0.17998049, -0.051376767, -0.06740808, 0.14668496, -0.11741664, -0.10763427, 0.084591836, 0.02759339, -0.047373366, 0.049651068, 0.32339153, -0.16516697, 0.20004475, 0.2075283, 0.03143977, 0.18310238, 0.18411313, 0.1677136, 0.15447229, -0.07539773, -0.08727587, 0.19127187, 0.10617505, 0.11979198, 0.1984561, 0.08041077, -0.13093974, 0.18813482, -0.036970433, 0.050293386, -0.06587682, -0.059015866, 0.049452353, 0.10198944, -0.019256853, -0.0648893, -0.015044167, -0.12224039, 0.045319214, 0.15662009, -0.321298, -0.19799653, 0.3252601, -0.14636172, -0.11637755, 0.1656963, 0.08323623, 0.077450365, 0.026123062, 0.053805053, 0.046596065, 0.19661202, -0.16991632, -0.18219651, 0.14143053, 0.1665716, 0.26303008, 0.10093618, 0.3083509, 0.11705107, -0.07077741, 0.1504182, 0.05654724, -0.10154348, 0.04333587, 0.007097372, -0.16912557, -0.027941227, 0.088776216, 0.06157487, 0.072990976, 0.24835974, 0.12672035, 0.07396622, -0.052868493, 0.023786936, 0.055973403, -0.03162612, 0.14391509, 0.053985786, 0.011176016, -0.12663202, -0.013934302, -0.06406806, -0.039972536, 0.070706844, -0.1231959, -0.059598457, 0.19816983, -0.08185592, -0.13136365, -0.018987106, 0.06847349, 0.08416569, -0.04653813, -0.26985714, 0.08680082, -0.16869292, -0.12768668, 0.06590657, 0.17309947, -0.00051672244, -0.026547967, 0.096713684, -0.028491048, -0.043765448, 0.27973294, -0.062278867, -0.026766364, 0.1718503, 0.045595113, 0.17630441, 0.15472557, -0.13678552, -0.005762524, 0.3274873, -0.15597121, -0.073930494, -0.07861512, -0.060163733, 0.122298226, -0.29193866, -0.07352186, 0.2863383, 0.011225947, -0.1888663, 0.10508534, -0.031310536, -0.030385423, 0.06313827, -0.041617993, -0.031648763, 0.039491475, -0.011065177, -0.054082267, 0.07211119, 0.015114371, -0.0021236944, 0.081873365, -0.23222266, -0.018602086, 0.18439223, 0.014884175, -0.10919691, 0.098641254, 0.0624365, -0.048065145, -0.10542533, -0.021040922, -0.0076647983, -0.080788285, -0.01158466, -0.21475439, 0.06797123, -0.007310178, 0.1984498, 0.29219142, -0.0035080032, 0.052463878, 0.08615062, -0.06839623, 0.10588466, 0.19101462, 0.057933826, 0.04115828, -0.004211088, 0.005016379, 0.06257896, 0.03305076, 0.16758884, 0.1715568, 0.16659522, 0.052283626, -0.061413735, -0.12662776, 0.006434245, -0.16208288, -0.19135644, 0.11184742, 0.00012691216, -0.07621465, -0.361699, -0.037039086, 0.25295952, -0.29005873, -0.081536904, 0.2828843, -0.19639787, -0.3273267, 0.06254883, 0.18343973, -0.15916726, 0.022231601, 0.17767102, -0.11696216, 0.0051989453, 0.22000219, -0.055797383, -0.110758126, -0.24807061, -0.018101376, 0.05449065, -0.08884864, -0.03864389, -0.029828217, -0.016328579, 0.013708162, 0.13734432, 0.19125065, 0.050645597, 0.025531698, 0.2216197, -0.04760765, -0.032317583, 0.33736283, 0.1242013, -0.10160401, 0.05872355, -0.12908463, -0.14519833, -0.21919723, -0.13763887, 0.07054405, -0.12976572, 0.03421899, 0.052300982, -0.17924377, -0.1375869, 0.066918045, -0.09254502, 0.045578364, -0.029318422, 0.21294132, 0.17592588, -0.2767581, 0.071069345, 0.019109715, -0.15741375, 0.064577386, 0.04688593, -0.08984001, -0.22086997, 0.017243488, -0.20534664, -0.05125922, -0.04594403, -0.053088292, 0.04345237, -0.043242615, -0.09671319, -0.01641414, 0.0021560732, -0.06763667, -0.074531235, 0.054094892, 0.0134924995, -0.09448181, -0.046105985, -0.042427614, -0.050674077, 0.038652852, -0.035656992, -0.009219351, -0.08352045, -0.03206517, -0.031084422, 0.02301112, -0.06465098, -0.0905936, 0.07713626, 0.057931416, -0.009339958, -0.0015406808, -0.042720057, -0.06755443, 0.013622028, -0.051091243, -0.05675293, -0.067046404, 0.049464934, -0.03396278, 0.025693484, -0.0021049979, 0.012762424, 0.038845018, -0.06513025, 0.037593268, -0.05076989, 0.021046486, -0.04558702, -0.04120604, 0.028684655, -0.018781044, 0.0585871, -0.039637197, -0.015180344, -0.02039405, -0.004515046, -0.031440753, 0.05481182, -0.06367184, -0.018459354, 0.028568324, 0.051065657, 0.05541078, -0.027247969, 0.0029142788, -0.014423869, -0.007567605, 0.04674509, 0.0503737, -0.069702804, 0.049893018, 0.032731093, -0.029150164, -0.012756677, -0.06201025, -0.05334437, 0.028254572, 0.009181767, 0.026401913, -0.041639853, 0.018118089, -0.11285238, 0.010106751, -0.10228099, -0.10214894, 0.0126212165, -0.05982098, -0.001094742, -0.0828746, -0.066404365, 0.0059690545, 0.028678186, -0.050270904, -0.04884947, -0.041163463, 0.019617599, 0.04127924, 0.028538246, -0.070072316, -0.03544661, -0.006665601, 0.019972408, -0.024014045, -0.00051400985, -0.08636426, -0.00056707585, -0.102454565, -0.019343756, -0.009715329, -0.04753978, 0.042515434, 0.024524948, -0.035649568, -0.014182528, -0.013523925, 0.011328715, -0.08095748, -0.03386963, 0.02474529, -0.057866987, 0.0139041785, -0.013076634, -0.07666376, -0.07100804, -0.0242659, -0.013547178, -0.030171212, 0.051339902, 0.008306099, 0.025089772, -0.041888002, -0.033096097, -0.061929755, 0.0325874, 0.013761879, -0.012337942, -0.042120796, 0.05062116, -0.013339011, 0.0023032331, 0.031904254, -0.05545142, 0.038886175, -0.02909913, 0.05016008, -0.025249012, -0.03692104, -0.03147077, -0.014310695, -0.020618748, -0.034453906, -0.04000179, 0.013538756, -0.03542962, -0.020312808, -0.011370492, 0.0067050727, -0.0118270535, -0.07188895, 0.03820627, 0.036327302, 0.007899594, -0.09109372, -0.003778219, -0.082716145, 0.0042506433, 0.023409672, -0.05626501, 0.041403297, -0.029550597, -0.067285016, 0.028374836, -0.06817422, 0.006231145, 0.039305, 0.037034903, 0.032128073, 0.073050976, -0.055250466, -0.005998752, -0.046402067, -0.005596745, -0.03434029, -0.09111665, 0.002098723, 0.027204042, 0.018457223, -0.08745804, -0.00054505176, 0.00033524045, -0.021399718, -0.06945883, -0.033713784, 0.021882068, 0.0053430493, -0.0878068, -0.009088784, -0.018400135, -0.09226306, -0.014601495, -0.06638775, 0.013840362, 0.025005877, -0.0020532012, 0.017278388, -0.060679343, -0.036385845, 0.04644485, 0.0046576113, -0.024650589, -0.004827604, 0.01568347, 0.040030938, -0.06062259, -0.09470834, -0.005085977, 0.04595809, -0.043720603, -0.03521399, -0.007538113, -0.035819143, -0.06600582, -0.009168007, 0.04780761, -0.052727245, -0.047668878, 0.015602573, -0.0057261423, -0.021943895, 0.010595937, 0.0027478652, 0.042057894, -0.069581896, -0.058520354, -0.049120877, 0.00716379, 0.011187191, -0.0017299952, -0.020495297, -0.08317824, -0.067734934, -0.046049513, -0.028802395, -0.0048564174, -0.09126332, -0.06287367, 0.021995764, -0.030269878, -0.085242175, -0.029725863, 0.020895734, -0.05579132, 0.051929645, -0.063556105, 0.072930284, -0.04805107, -0.05347522, 0.028097622, -0.04767558, -0.024087384, -0.048981912, -0.06556956, 0.018641777, -0.0019490708, -0.03301822, 0.031020008, 0.06478093, -0.020267185, -0.08173247, -0.08852033, -0.06369799, -0.09581474, 0.037706517, 0.010516362, -0.033491597, -0.056822203, -0.012270967, 0.043669865, -0.077376686, -0.026601773, -0.04083692, 0.0064044, 0.06832634, -0.002888985, -0.025305387, 0.033077642, 0.042530656, -0.03600681, 0.065849185, -0.0054394677, -0.103640415, -0.025407586, 0.019933922, -0.007228225, -0.00870969, -0.010462099, 0.028364224, 0.024527207, -0.09300623, -0.07290255, -0.06522261, -0.034700766, -0.053530555, -0.090105884, -0.079466976, -0.08595948, -0.07378994, 0.041609574, -0.00067766407, 0.030093886, -0.04291066, 0.006028192, -0.03091584, 0.016045608, 0.018493991, 0.063271604, -0.020370532, 0.03070368, -0.06375381, -0.059155602, 0.011479843, -0.10991195, -0.08559605, -0.10416856, -0.0037727354, 0.032789137, -0.09223165, -0.07477002, 0.0038022418, -0.05993657, -0.07745714, -0.032373913, 0.023869332, -0.02752341, -0.106316715, -0.09787507, 0.018075977, -0.07977769, -0.042222288, -0.017839164, -0.0049300645, -0.009263137, -0.0114514865, -0.040698655, -0.057915267, 0.0333066, 0.04255757, -0.041026697, -0.08949062, -0.080545284, -0.03175854, -0.06888121, -0.034285557, -0.10355565, -0.020796858, -0.03561615, 0.051094703, -0.008172693, 0.06669516, 0.022749618, 0.0129970545, -0.05713277, -0.023558412, 0.04781902, -0.0008967945, -0.024942722, -0.020971967, 0.01720427, -0.03903322, 0.012667085, 0.053334035, -0.039872188, 0.08288627, -0.050405167, 0.04832249, 0.093148515, 0.06244387, -0.04571026, -0.07769997, -0.060924537, 0.0009980584, -0.03448645, 0.041304126, 0.038710445, 0.025165902, -0.006794418, 0.049596928, -0.017843522, -0.027573917, 0.038076144, 0.012536607, -0.010591104, 0.005489297, -0.008280807, -0.018757114, -0.077171564, -0.110660605, 0.027016109, -0.06610151, 0.03776309, 0.035302594, -0.021823317, 0.028109012, -0.063187934, -0.027288796, 0.054283448, -0.06934277, 0.02505145, -0.07100627, -0.048417546, -0.096599706, 0.012484351, 0.044637237, 0.033470776, -0.061483406, -0.088342294, -0.04997373, -0.077097945, 0.04354473, -0.056345068, -0.07799075, -0.0052657137, -0.021675548, -0.040476352, -0.07325238, 0.02586677, -0.049775124, -0.02363295, -0.025388777, 0.0424327, 0.0053130286, -0.06299993, 0.008958717, 0.0051604058, 0.030496785, -0.07825051, -0.054259125, 0.023741696, 0.036295757, -0.009775179, -0.08175765, 0.05326298, -0.055750962, -0.0745233, -0.0813436, 0.051131852, 0.011064527, 0.02580939, -0.078528166, 0.02673604, -0.054800116, 0.046304174, 0.02347354, -0.039137866, -0.031853292, -0.059583094, -0.08312058, -0.065967, -0.09906065, -0.051, -0.006272192, 0.01592711, -0.058003247, 0.06276271, -0.06738929, -0.06361804, -0.029043866, -0.073253274, 0.011604061, -0.07294386, 0.04341683, -0.052077953, -0.012904873, -0.078511395, 0.006958355, -0.09418731, -0.04824505, 0.0075483914, -0.040775552, 0.018847028, -0.080794, -0.016940746, -0.08694637, 0.0020226513, -0.038263686, -0.059776537, -0.038235478, -0.008300785, -0.079946436, -0.068679355, -0.061249074, 0.021309013, -0.038036752, -0.046532407, 0.012527213, -0.040111054, -0.042881455, 0.012680739, -0.066924006, -0.041671224, -0.08460488, 0.02153377, -0.032490492, -0.014159483, -0.03723267, -0.06588529, -0.01655764, -0.06265273, -0.034875948, 0.043604728, 0.016487995, -0.05588101, -0.050122395, 0.042086374, 0.01139863, -0.07377495, 0.03795295, 0.014332958, -0.034792133, 0.0381307, -0.07446559, -0.060828246, -0.060385875, 0.015147808, -0.028366098, -0.040602457, -0.014275966, 0.011879832, 0.050771046, 0.005140942, 0.024446882, 0.014615822, -0.07356201, 0.0025300903, -0.08896651, -0.042524725, -0.037674077, -0.07474745, -0.0384278, -0.07031707, -0.007840142, 0.0198636, -0.03352993, -0.018954944, -0.027255999, -0.06949756, -0.024713274, 0.009353169, 0.014982079, 0.010526157, 0.031056048, 0.0442283, -0.03481897, 0.040996283, -0.00013344621, -0.033385046, -0.070044205, -0.042357173, -0.05440177, 0.016721299, -0.06791901, -0.024469718, 0.02397071, 0.04165364, 0.02533129, 0.024488164, -0.076387964, -0.06285294, -0.075751886, 0.027360886, -0.03902131, 0.028874308, -0.042677395, 0.0166314, 0.04114639, 0.027680874, 0.021364966, -0.018389303, 0.023411687, -0.019617248, -0.016003855, 0.007743982, 0.025592268, -0.014085068, -0.087504625, 0.056630854, 0.034114767, -0.021294415, -0.030372784, 0.028197922, -0.0381321, 0.02364636, 0.021905808, -0.09064376, -0.06357779, -0.055496078, -0.009030982, -0.029127209, 0.023245864, -0.03926683, -0.051265344, -0.050624825, -0.009924054, -0.014311078, 0.070019424, -0.101234265, -0.051525846, -0.048489377, -0.03750262, -0.107597664, -0.05512127, -0.01080748, -0.008819226, -0.030662935, 0.0017534231, -0.04843936, 0.00013411722, -0.008324745, -0.04254926, -0.009725511, -0.120908745, -0.09821571, -0.08743952, -0.085728355, 0.023546215, -0.02606883, -0.086652994, -0.08019947, -0.0866185, 0.053477127, -0.04682334, -0.07817519, 0.016346488, 0.028368669, 0.073270015, 0.064047515, -0.010741735, -0.046905376, -0.070727274, -0.03530469, 0.005541436, -0.023603443, -0.017053641, 0.045082886, -0.046943005, 0.017857391, -0.037199505, 0.019139165, 0.030116212, -0.058510173, -0.125994, 0.011540539, -0.084671214, -0.035836384, -0.12504633, -0.04179014, -0.10702639, -0.12481903, 0.015540902, 0.065142944, -0.031623896, 0.000647286, -0.05297201, -0.030975597, -0.029222049, -0.016427906, -0.09322877, -0.037445318, -0.02710778, -0.08769086, -0.10592116, -0.04213147, -0.005902952, -0.08618582, -0.008880439, -0.057711687, -0.07562669, -0.004571415, 0.07406391, 0.05750066, -0.010611462, -0.078127906, -0.06496906, -0.01336715, -0.07461975, -0.004363779, -0.096834466, -0.0553106, -0.045705177, 0.07555432, -0.043707076, 0.026726749, -0.015127143, -0.02207398, -0.018538492, 0.012705678, -0.039215308, -0.06543745, 0.007617024, 0.026480714, 0.018434968, 0.024334535, -0.040434897, 0.017841281, -0.045765173, -0.0009023449, -0.0944289, -0.10769138, -0.02819639, -0.023994837, -0.15806587, -0.07030475, -0.10449748, -0.018922526, -0.058229968, 0.036574777, 0.040747, 0.0681474, 0.051501807, -0.016214281, 0.027290944, 0.03990208, -0.03189671, 0.05732432, -0.0061383783, -0.006238007, -0.03364775, -0.00461799, -0.0026468718, -0.053526115, -0.055387773, 0.040284626, 0.06694603, -0.067224845, -0.1318356, -0.0566706, -0.03981991, -0.015671082, 0.0014659634, -0.12051541, -0.10766865, -0.077725105, -0.072458655, 0.025131846, 0.031575616, -0.057541378, -0.06695145, 0.009233398, -0.07412061, -0.07416876, 0.048840232, 0.038956627, -0.008901353, 0.032176707, -0.0625477, -0.03558762, -0.051896118, -0.0035603174, -0.038515087, -0.02391512, -0.102176905, -0.0020377436, -0.030801315, -0.0154615315, -0.046391204, -0.089483485, -0.03422231, -0.027268143, -0.05114992, -0.046834107, -0.020181237, -0.0049443035, 0.016512405, -0.038926236, -0.06570241, -0.10198831, 0.017598704, 0.044505775, 0.0058262297, -0.012283754, -0.023827825, 0.00121288, -0.024889715, 0.06144069, 0.037559547, 0.008346189, 0.0067093903, -0.018996127, -0.11897933, -0.10510568, -0.045501463, -0.03156595, -0.0053625107, -0.10087428, 0.006327662, -0.011528806, 0.044165857, -0.011507808, -0.010925245, 0.05306781, -0.04332515, 0.02089627, 0.055153597, -0.06483191, -0.042455286, -0.077085935, -0.1116137, -0.012810301, -0.03691011, -0.0010886259, 0.051761426, -0.09718679, 0.03817219, 0.08565681, -0.05999138, -0.0052905134, -0.035349626, -0.08804875, -0.10213038, -0.043646213, -0.019016579, -0.015705721, 0.033274855, -0.11178517, 0.0063113044, -0.02400804, -0.07895549, -0.036525402, -0.038486987, 0.0006085385, 0.048346758, -0.050193656, 0.03323303, 0.042759318, -0.051177517, 0.009026337, 0.012178129, 0.023334796, -0.007736953, -0.10453508, -0.074681655, -0.027624615, -0.084839866, -0.10489565, -0.059495177, -0.11859348, -0.07240836, -0.059188057, -0.009562983, 0.0018299834, -0.00042564693, -0.09636775, -0.11402072, -0.080496825, 0.054900087, 0.026720025, -0.044322725, -0.01190678, -0.0071361735, -0.011228744, 0.021321923, -0.011979423, 0.06850037, 0.019165412, 0.020307913, 0.052876204, -0.04390737, -0.017518688, -0.1352997, -0.106672205, -0.0069798566, 0.0025035443, -0.039021928, 0.0049912254, 0.024727942, 0.0025794434, -0.0704927, -0.02748839, -0.044014916, -0.062243566, -0.094218306, -0.029777845, -0.039162107, 0.039795835, 0.033971053, -0.04798857, 0.061715793, 0.052027993, -0.054953042, 0.032600302, 0.052546356, 0.07131649, -0.035009425, 0.023200672, -0.041611172, -0.0059551923, -0.0132030165, -0.010326201, -0.12633401, 0.06685243, -0.0536071, 0.027880028, 0.00046895197, -0.035301033, -0.06565442, -0.07266037, 0.012797031, -0.029072348, -0.052122016, -0.070616655, -0.10875126, -0.052043594, -0.10058228, -0.055905305, -0.112740405, -0.0041728034, -0.09329224, -0.09112512, -0.010018018, 0.0059121726, -0.0287333, -0.012138882, -0.0077427835, 0.014825185, -0.067354575, 0.04601385, -0.010230982, -0.07328295, -0.055272445, -0.04387309, -0.112918556, -0.037842978, -0.048644636, -0.034309145, -0.031537697, -0.030985225, -0.068527274, -0.11761555, -0.006151412, -0.054484528, -0.04900453, 0.0019413566, -0.05787683, -0.04122365, 0.03526132, -0.023882983, 0.071569145, 0.052480064, -0.07830801, 0.044390783, -0.048822746, -0.042917185, -0.013116818, -0.06430242, -0.04916534, -0.075693555, -0.05507845, -0.015976539, -0.06254575, 0.0066049336, -0.039899282, -0.019890066, 0.021363577, -0.0763082, -0.02887245, -0.012128539, -0.042535912, 0.01993787, 0.05635692, -0.057294916, 0.048477504, -0.13509072, 0.0016349752, 0.042562723, -0.04892199, -0.08836949, -0.0082421405, -0.067079, -0.104313016, -0.015951538, -0.060103875, -0.11011798, -0.083357885, -0.026716394, -0.0073466464, -0.08856889, -0.09767296, -0.0991758, -0.098634936, 0.051464032, 0.02112794, 0.02854149, -0.008389686, -0.027054531, -0.009647961, -0.05404523, 0.05567969, 0.0690754, -0.09965202, 0.035634317, 0.046533067, -0.026556943, -0.08643121, -0.07675523, -0.02154525, -0.091916256, -0.081004806, 0.035240583, 0.015132897, -0.010752521, -0.030446235, -0.013310319, -0.10546146, -0.09169367, -0.0714515, 0.02544697, -0.08840525, -0.10876163, -0.01976847, -0.046469375, 0.021249667, -0.026388552, 0.0069358135, -0.108977, -0.050225083, -0.064430594, -0.088944465, -0.051756516, -0.09424999, 0.03688688, -0.0020889512, 0.048076697, 0.062178966, -0.06294324, 0.050484177, 0.030288847, -0.027510105, -0.05133238, -0.0605018, -0.011515051, -0.007738961, 0.049950905, -0.052479047, -0.009915741, 0.018760685, 0.00647719, -0.07476899, -0.124572426, -0.07413208, 0.0047940463, 0.048712328, -0.04547538, -0.09536836, -0.055715047, -0.08020966, 0.0052910005, 0.058630984, 0.014914815, -0.015833765, -0.07585478, -0.09887246, 0.023228308, -0.033336036, -0.033840206, 0.08694756, -0.031723026, -0.06813213, 0.052700892, -0.07783067, 0.038842592, -0.0024091203, -0.105416656, 0.013797163, -0.06729751, -0.026780957, -0.08445855, -0.07272496, -0.16256689, -0.10921743, -0.039883547, -0.06629366, 0.0036026968, -0.11506939, -0.0115115475, -0.008102071, -0.070397824, -0.058389843, 0.026901618, 0.0594285, -0.049227934, -0.061650373, 0.008548363, 0.030833244, -0.02072846, 0.041060578, -0.043442152, -0.09722411, 0.052742153, -0.050228275, 0.019386781, -0.050296728, -0.037400156, -0.11155953, -0.03849689, -0.034652844, -0.001033591, 0.046896387, -0.04624028, -0.080919445, -0.053232636, -0.00074759393, -0.06111366, -0.17136826, -0.10902913, -0.1009426, -0.013840954, 0.009469198, -0.045005985, -0.0276048, -0.08936017, -0.078749016, -0.032677375, -0.025347676, -0.016381998, -0.085833155, -0.16255859, -0.08404108, -0.054209273, -0.047468685, -0.04680447, -0.078565605, -0.089330815, -0.05219794, 0.0055519836, -0.08451096, 0.0017765369, 0.0010924863, -0.11127336, 0.044573832, -0.11791641, 0.048319995, -0.042807482, -0.11471062, -0.058001418, -0.017727932, 0.020929173, -0.070009455, -0.045022316, -0.07512284, -0.10889478, 0.011562548, -0.05783652, -0.0666677, 0.048150774, 0.16519582, -0.13592531, -0.06886805, 0.0029454296, -0.1992013, -0.17311472, 0.04251751, -0.11446029, -0.12838416, -0.22414938, -0.13166887, -0.12444593, 0.04320044, 0.005154163, -0.18507193, 0.1864004, -0.06155152, -0.11049212, -0.12348685, -0.03154741, -0.014946421, 0.013214773, 0.13807474, -0.06161798, 0.2805511, 0.15159495, 0.00720084, -0.11889998, -0.07766076, -0.18165955, -0.04167798, 0.028938027, -0.0017320951, 0.061111428, 0.0057200477, -0.05265222, 0.034870524, -0.08925601, 0.03510825, -0.048489917, -0.33092555, -0.12420438, 0.013783248, -0.24991436, 0.013401568, 0.1295768, 0.04756973, -0.0006810423, -0.053416897, -0.113386065, -0.0014109729, 0.02987308, -0.1972718, -0.32674998, 0.002582887, -0.052474763, -0.14869642, 0.049342733, 0.0050284714, 0.06257686, 0.05155985, 0.13672957, 0.29515004, 0.06331264, 0.0019117645, -0.025337247, -0.068035804, 0.00032793448, -0.042770144, 0.048080698, 0.052675966, -0.048502214, -0.17556626, -0.045226526, 0.009942139, 0.027485486, -0.00667242, 0.081665054, 0.059091795, 0.06348574, 0.10242658, -0.12255203, -0.13757174, -0.1562152, -0.18072952, -0.20322321, -0.059619546, -0.09806205, -0.22477856, -0.22382064, 0.013566734, 0.05988225, 0.07457246, 0.055173256, -0.021011358, -0.113415346, 0.0016934671, -0.025611117, -0.14089458, -0.28416926, 0.016784225, 0.23456165, -0.28670782, 0.03404802, 0.16932227, 0.004555272, -0.11342285, -0.09115949, -0.05157169, -0.35073775, -0.30416867, 0.1258447, -0.16309553, -0.27916652, 0.359119, 0.18571123, 0.109854475, -0.16904245, -0.16782449, -0.18761094, -0.073478565, -0.12998354, -0.24926433, -0.065249175, -0.12917829, -0.2169993, 0.018586868, -0.0650147, -0.018315801, 0.17912714, -0.05034525, -0.047473915, 0.07886377, 0.061049823, -0.12836583, -0.05512724, 0.0011061002, 0.0419222, -0.06324535, 0.08179544, 0.005150819, 0.039824594, -0.051646568, 0.028832333, -0.08856064, -0.13125816, 0.24554615, -0.23264953, 0.017568264, 0.222265, -0.22825372, -0.068862215, 0.07540129, 0.22582802, 0.021589985, 0.0033938573, 0.25647983, 0.18576856, 0.093707174, -0.016087784, 0.051648155, -0.09644772, -0.25920838, -0.078009225, -0.09129047, -0.094459005, -0.2654803, -0.32041156, -0.14042588, -0.046091285, -0.18549865, -0.02097632, 0.084895775, 0.03277896, -0.0051687732, 0.014087038, -0.047220316, 0.031036085, 0.115331076, -0.004630522, 0.06865999, -0.0048185885, 0.120548084, 0.022280334, 0.011962162, 0.12764536, 0.040615175, -0.0016441213, 0.058505196, 0.024106096, -0.07448765, 0.06914963, -0.26583615, -0.25908136, -0.33180684, -0.043132287, -0.023025503, -0.0826989, 0.020120906, 0.01145767, 0.062481146, -0.042013723, -0.03533533, 0.053647216, 0.076079756, 0.04696615, 0.07414373, 0.051530972, -0.13849081, -0.15539645, 0.082449496, -0.053045064, 0.012691225, -0.014552747, -0.052600767, 0.042427853, -0.15935808, -0.16209123, -0.08032983, 0.094872996, -0.08366406, -0.011150417, -0.12325918, -0.19683656, -0.18105371, -0.00859958, -0.19811884, -0.25567815, 0.17593603, 0.09216265, 0.16695182, 0.21597604, 0.40625694, 0.11688549, -0.3206492, -0.15466651, -0.06682011, 0.17566402, 0.08762201, 0.1469977, 0.40978044, 0.4142186, 0.5153068, -0.12885378, -0.20583864, -0.14685744, 0.04138703, -0.26330176, -0.2250125, 0.13263373, 0.1416024, 0.11518907, -0.057400998, -0.008358077, 0.029005108, -0.05293491, 0.04490226, 0.10423789, 0.075974345, 0.004148785, -0.008203508, 0.11722764, -0.08684453, 0.09834901, -0.14646785, -0.018231928, 0.14501846, -0.04339418, 0.14339252, 0.22610013, 0.049899936, 0.052256867, -0.06283091, -0.059993666, -0.04259151, 0.055850893, -0.010377675, -0.032453123, 0.07347257, 0.038201194, 0.054139998, 0.061763637, 0.0014752113, -0.00037984873, 0.058057092, -0.01016878, 0.050799422, -0.067015536, 0.03276244, 0.14881279, 0.2681575, 0.028156606, 0.022154288, 0.15461977, 0.07145419, 0.11776493, 0.2017616, 0.030506413, -0.05477152, -0.113011785, -0.045718916, 0.04654754, -0.08297135, -0.019922238, 0.03868304, 0.19048211, 0.062122174, 0.041949414, 0.058569886, -0.053665813, -0.038261056, -0.026120815, 0.06141204, 0.0425663, 0.014962585, -0.14009511, 0.07901657, 0.07422849, -0.0011442495, 0.049055595, 0.12831156, -0.19202338, 0.03989864, 0.023692898, 0.0364254, 0.17879516, 0.24810071, 0.009696287, 0.08586926, 0.2043967, 0.03284358, -0.020096408, 0.09506904, -0.012824135, 0.182087, -0.020973755, 0.0045319092, 0.07290141, -0.026052164, -0.048700675, 0.07938235, 0.02286462, 0.040864214, 0.14084996, 0.15762654, -0.027130341, 0.014201341, 0.17446867, -0.19155505, 0.018379169, 0.17803325, 0.041690215, 0.073044, 0.0012435265, -0.0013501011, -0.10171687, 0.007097289, 0.10216875, -0.062099133, -0.09272898, -0.04067312, 0.04246273, -0.066458195, 0.0065153204, 0.015125148, 0.030232001, 0.0005405828, 0.05634439, 0.06809458, 0.109136775, 0.17601009, 0.06338645, 0.09780873, 0.08923588, -0.033650536, 0.053146366, -0.12239111, 0.013431082, 0.23120424, 0.04893843, 0.04733333, 0.12599912, -0.0513386, 0.036440097, 0.008623808, 0.022635344, 0.032564644, -0.12161624, -0.15886748, -0.026718238, -0.039715614, -0.075777784, -0.16673875, 0.13569798, -0.0326493, -0.14492993, 0.07561599, 0.0795453, 0.013727299, -0.018228855, 0.12632377, -0.047722567, -0.1040909, -0.110014394, -0.14061776, 0.124238744, 0.05916314, -0.18502265, -0.109865695, 0.0954749, -0.16608796, 0.103731334, 0.07186355, -0.05229952, 0.009732788, 0.080977224, 0.3061396, -0.115713865, 0.1333084, 0.036979407, -0.053390127, 0.15550275, -0.18168034, 0.019332219, 0.13754497, 0.07725158, -0.008517047, 0.03743511, 0.09133772, -0.029519172, -0.052689917, -0.016072646, 0.19239038, 0.17191888, -0.0014733975, 0.049117915, -0.024754543, -0.10156768, 0.06039768, -0.10148222, -0.09699153, -0.18548407, -0.2783368, 0.1688175, -0.24270877, -0.4158448, -0.069947764, -0.018227933, -0.364722, -0.032226183, -0.0334256, -0.030977206, 0.07356367, -0.06163094, 0.082723975, 0.005375808, 0.116475694, -0.03766459, 0.09125182, -0.009088317, 0.09333367, 0.20645297, 0.017565114, 0.097969055, 0.23894165, 0.020549074, -0.01841302, 0.10593938, 0.0028310888, 0.021752268, 0.09739613, 0.09663444, 0.02436635, 0.29011276, 0.039044797, 0.040478356, 0.19770412, -0.033520766, -0.09132722, -0.104550585, 0.09152775, -0.17536557, -0.007766632, 0.048366513, -0.12938699, 0.03610456, -0.1317801, -0.22073226, -0.44400722, 0.016743226, -0.23728357, -0.16458413, 0.3996993, 0.15253809, 0.16306254, 0.2819502, 0.08777238, 0.11838505, 0.19633509, -0.0809215, -0.053595874, -0.06818384, 0.011921321, -0.09889349, -0.17742075, -0.017794387, -0.06096641, -0.049077235, 0.07673451, 0.12492357, -0.14629443, 0.008657659, -0.010466551, -0.040610485, -0.14034346, -0.0015254014, 0.07557529, -0.09117966, -0.053287633, 0.32456598, 0.1458361, 0.05654274, -0.086265266, -0.08468928, -0.098213114, -0.043350622, -0.24689263, -0.11519344, 0.11941875, 0.014528166, -0.1371883, -0.011346379, -0.26662254, -0.06901821, -0.12369554, 0.0002364886, 0.07367205, 0.16596532, 0.12141781, 0.15760942, -0.02791803, 0.086971626, -0.14453313, -0.054451305, -0.022377979, 0.0053985678, -0.025455562, -0.12372946, 0.06305378, 0.020643992, -0.119114734, -0.11391551, 0.10050379, -0.10197334, 0.08155256, -0.06738022, -0.18254331, 0.065716885, -0.06415589, -0.33245945, -0.036990102, -0.08458498, -0.18498194, -0.07014377, -0.25604862, -0.48759648, -0.39020175, 0.08864465, -0.08538131, -0.011556232, 0.07163865, -0.14319178, 0.09012135, -0.039748196, 0.022934852, 0.20056513, -0.016112868, 0.15368101, 0.105569795, 0.0036877622, 0.06008151, 0.08932782, -0.03540777, 0.080703504, 0.23507927, -0.101303026, -0.20424612, 0.046558492, -0.034881108, -0.008221472, 0.16694821, 0.111258075, -0.031482548, 0.045602594, -0.07462375, 0.01470404, 0.31973475, -0.18162455, 0.043410506, 0.20134288, -0.20078963, -0.032356262, 0.05780029, 0.00906454, -0.12247289, -0.08548504, -0.06317677, -0.10895987, -0.26133326, 0.13637221, -0.029260758, -0.2755384, -0.07620231, -0.027558973, -0.052080467, 0.014954855, 0.020801865, 0.029238176, -0.10025383, 0.03864031, 0.14513238, -0.13203725, 0.091982655, 0.19498771, -0.080484785, 0.09581775, -0.015258317, -0.14103127, -0.08500504, 0.0754606, -0.1412591, 0.03711648, -0.0004223326, 0.2611131, 0.07913367, -0.06985431, 0.06466846, -0.15015215, -0.12211605, 0.019007487, 0.03607819, 0.07516491, -0.0054591736, 0.036373835, 0.040167313, -0.013799713, -0.07416031, 0.07410501, 0.044331145, 0.06496096, -0.007562122, -0.033140767, -0.11168074, 0.047962572, 0.07001411, -0.001565954, 0.058024757, -0.07658081, -0.009878567, -0.037927777, -0.22837593, 0.03648905, -0.07715856, -0.04758676, 0.06297713, 0.056440476, -0.20489916, -0.16906497, -0.114660986, 0.058185466, -0.019966202, -0.14119658, 0.24765004, 0.26725537, 0.14825046, -0.16172047, -0.013670028, -0.025432514, 0.04449437, 0.06809846, -0.10601535, -0.09527553, -0.08545304, 0.00836322, -0.14667039, -0.17225009, -0.055507842, -0.10871794, 0.039650682, -0.071746685, 0.04788233, -0.073011704, -0.009763697, 0.19893198, -0.055852022, -0.14608775, 0.10100984, -0.12159447, 0.046778284, 0.09919122, 0.017974358, 0.075182036, 0.13276812, 0.12972918, 0.18311292, -0.11946914, -0.16753899, 0.17967346, -0.06304759, -0.08958806, -0.13125148, 0.010193134, 0.0052984958, -0.06526417, 0.011682843, -0.059832316, -0.035350066, 0.056874238, 0.0012879778, 0.05423643, 0.28657517, -0.25971547, 0.07196137, 0.27772257, -0.04939465, -0.30112034, 0.1532843, -0.049495675, -0.010677365, -0.069302715, -0.06469345, 0.1168789, -0.15975966, -0.1901973, -0.15202035, 0.14326696, -0.10690771, -0.25010973, 0.16284674, -0.026966969, -0.068368405, -0.04461207, 0.07722959, 0.055206705, 0.19971998, 0.009287153, 0.13566168, 0.012373233, 0.07631033, -0.050857354, -0.02994142, 0.0050075203, -0.019757686, -0.02705518, -0.058111005, 4.6342237e-05, -0.19078061, -0.1557071, 0.06398878, 0.078981176, 0.12617722, 0.23688976, -0.07046911, 0.06633262, 0.11805998, 0.029919349, 0.050248414, 0.03458287, -0.1657485, -0.018126562, 0.007204083, 0.024309345, 0.059489604, -0.08130858, 0.07974092, 0.019187905, 0.050704256, 0.019902634, -0.026287148, 0.02204413, -0.05598785, -0.021347864, -0.022545181, -0.026393918, -0.0964648, 0.01964675, -0.06995474, -0.0023949288, 0.026442891, 0.03872852, 0.10176622, 0.08683604, -0.040260132, 0.017738242, 0.110901505, -0.25457498, -0.16423723, -0.14548004, 0.029217469, 0.053176213, -0.116512015, 0.25188598, -0.2928144, 0.0037714804, 0.13885745, -0.12555325, 0.096839495, -0.10201082, 0.34316182, 0.016357724, -0.25173506, -0.064512014, 0.063260056, 0.026192855, -0.175763, -0.00045105928, -0.39120272, -0.24098429, -0.16809419, 0.053586353, 0.017727628, 0.052878, 0.09919768, -0.036318433, 0.086933695, 0.10492598, -0.030958945, -0.023637993, 0.035050295, -0.011952999, 0.006524939, -0.020697583, 0.026911374, -0.00961908, -0.027095485, -0.06847113, -0.09934928, 0.04480356, -0.27739173, 0.01258946, 0.35213092, 0.017008847, 0.06759324, 0.25245735, 0.0616602, 0.092452005, -0.19742814, -0.27256325, -0.12637326, -0.19324017, 0.16949448, 0.0021416298, -0.06541661, -0.29621202, -0.34782776, 0.032945428, -0.051139534, -0.0726791, -0.046236027, 0.008285304, 0.061311133, 0.0019822854, -0.009029947, 0.039311443, -0.20912917, -0.0118202735, -0.076914094, -0.08565431, 0.05554283, 0.021886725, -0.11874822, 0.05669634, -0.004106226, -0.087253205, -0.17540097, -0.17997384, -0.42396167, -0.044706944, -0.18599674, -0.16534832, 0.07650382, -0.11708895, 0.06363968, -0.026144711, -0.048959713, -0.04345688, 0.03940471, -0.05787848, 0.05936503, 0.038682446, -0.02491297, -0.0061416375, -0.110911906, 0.0028408952, -0.13612646, -0.1511183, 0.033494733, -0.1306833, 0.07470904, 0.15502499, 0.029362805, 0.073020734, 0.06817286, 0.014866618, 0.004948883, -0.10860884, -0.28143045, 0.009105883, 0.02675194, -0.031458594, 0.019266121, 0.14856222, 0.089705326, 0.05415078, 0.11236659, 0.1011836, 0.16602449, 0.08330311, -0.05434925, 0.058983415, -0.3090961, -0.11646009, -0.10197984, -0.20824479, -0.13265045, -0.3263306, -0.16410232, -0.1443325, -0.056377694, -0.08733562, -0.109730855, 0.13385358, 0.05076802, -0.069161355, -0.06312508, -0.08060974, 0.025397839, -0.0333997, 0.06561414, 0.07465832, 0.05839881, -0.05314604, -0.06247576, 0.049486365, 0.017094897, -0.5702583, -0.2591958, -0.2017174, -0.2640131, -0.23332976, -0.34343627, -0.09549952, -0.021911435, -0.080298066, 0.07697122, -0.04021695, -0.112758264, -0.2512439, -0.11027468, -0.22742368, -0.12586042, -0.17873864, -0.1300046, 0.0967515, 0.09855881, 0.12782143, 0.12811713, 0.19484949, 0.047112666, 0.05251082, 0.12509705, -0.06887923, 0.009276103, 0.11939727, -0.019957298, -0.0035718835, 0.257737, 0.24251671, -0.16924001, 0.14111198, -0.0142717175, 0.16559556, -0.0061888597, 0.20810047, 0.0713595, 0.022279058, 0.0019703829, 0.20061934, -0.07538274, 0.06393736, 0.21151808, -0.10433929, -0.03436072, 0.013076032, 0.03968078, 0.18489745, 0.051236857, -0.048124444, -0.06433263, -0.3143722, -0.17528465, 0.031413782, -0.1390905, -0.049411878, 0.026089497, 0.035682555, 0.15231311, 0.12736884, 0.26762608, -0.0023806228, 0.107441336, 0.0903014, -0.084285915, -0.15858945, 0.20630588, -0.124094814, -0.18447177, 0.28140935, 0.12341196, -0.27034727, 0.016905995, -0.17864114, -0.23628028, -0.091336735, -0.2551079, -0.19844662, -0.1307635, 0.009211721, 0.023630451, 0.07879332, 0.18403868, 0.22643606, -0.14212452, -0.0693676, 0.030543502, 0.03002125, 0.11205269, 0.17408247, -0.07881634, 0.17398584, 0.04559192, -0.096399784, 0.05461032, -0.060114354, 0.080629356, 0.15927088, 0.031299047, 0.092398494, 0.14014314, 0.21470472, -0.0049582357, -0.027802108, -0.060199067, 0.015060641, -0.1007897, -0.030695157, -0.12836504, -0.07452404, 0.03430859, 0.047626212, 0.09343397, 0.15236798, -0.08450871, 0.08777078, 0.060417924, -0.08106172, -0.04157364, 0.08015653, -0.13111256, -0.020803766, 0.1499118, -0.040538467, -0.019044414, 0.045574144, -0.07082517, -0.070366666, -0.02035833, -0.10825723, -0.17315383, -0.07372701, 0.09619559, -0.12733713, -0.18489413, 0.22359823, -0.12634435, -0.52919, 0.106540754, -0.039704304, -0.2564532, -0.14721417, -0.10668519, -0.17091766, 0.102260984, 0.15039557, 0.021417577, 0.27216315, 0.057599433, 0.036237307, 0.043234244, 0.12916195, 0.26489756, -0.002906826, 0.17324644, 0.06831309, 0.09255583, 0.17446682, 0.098860145, 0.0064592087, -0.014362692, 0.22052932, -0.0064436407, -0.016791843, 0.07279961, -0.057253215, -0.06057491, 0.07980619, 0.16875634, 0.08302154, -0.15637179, -0.023385571, -0.26656145, -0.3445603, -0.09576466, -0.19362248, -0.15760095, 0.12661488, 0.10268337, -0.0036318921, 0.07081443, -0.025749436, -0.18877041, -0.022495013, -0.023800293, -0.031701095, 0.13039032, -0.0876063, -0.14097652, -0.2422013, -0.14455599, -0.32759583, -0.22209881, -0.2847797, -0.14813004, -0.024417741, -0.054598752, 0.2680974, -0.026386417, 0.08902876, 0.13534623, -0.07866676, -0.04599088, 0.123331174, -0.085049756, -0.0629377, -0.080352806, -0.06994143, 0.012428266, -0.06586092, -0.08353139, -0.034337126, 0.003727802, -0.0111762695, 0.00041832935, -0.07045465, -0.097117975, -0.060595386, -0.0295518, -0.01039468, -0.040938057, -0.05629786, -0.08426663, -0.035410944, -0.11910632, 0.023907192, -0.037329804, -0.099465996, -0.056581885, 0.00354877, -0.042972054, -0.08833861, -0.061124634, -0.029689591, 0.021712333, -0.080286406, -0.086102895, 0.053395778, 0.009000648, -0.07732994, -0.06422313, -0.050766766, -0.010291419, -0.10158005, -0.024749685, -0.031958442, -0.06682436, 0.009518401, 0.01945699, -0.055860702, -0.058138117, -0.055414487, -0.07244036, -0.012606763, -0.080248006, 0.019101145, -0.07738365, -0.014549413, -0.04704413, -0.088297114, -0.06379953, 0.000944094, 0.017504456, -0.006359654, 0.019241527, -0.001825631, 0.0314383, 0.045439657, 0.020940391, 0.030687463, 0.043953348, -0.07687163, 0.008278175, 0.06637826, 0.022983188, 0.06316895, -0.025930993, -0.121832184, -0.056273896, -0.0036390717, -0.03131484, -0.122390606, -0.104994476, -0.08966828, -0.07267452, -0.07755918, -0.010913638, -0.083030894, -0.006825265, 0.012792095, -0.037393574, 0.007244804, -0.101738244, 0.004432282, -0.008095765, 0.008990474, -0.07867193, -0.08363809, 0.050927974, 0.043340113, -0.042436864, -0.048560634, -0.052986227, -0.047748424, -0.008909558, -0.02905788, -0.07133357, -0.034701165, -0.14278561, -0.033283036, 0.0037788916, -0.035371903, 0.049801428, -0.0046668565, 0.012170022, -0.006040954, 0.008785338, 0.062324394, 0.00940901, -0.007585578, 0.0285712, -0.011515809, -0.08512337, 0.040877122, -0.041743748, -0.08131088, -0.039519005, -0.08263839, -0.06483832, -0.081237555, -0.0956855, -0.03482354, -0.078331195, 0.023224952, -0.029622741, -0.033832777, -0.04262706, -0.06833559, -0.097380295, -0.057291772, -0.0057075047, 0.037541285, -0.010549808, -0.02016405, -0.05420325, 0.0029872872, -0.045373365, -0.039726395, -0.11073475, 0.027908431, 0.007732373, 0.035288565, -0.063133836, -0.06819467, 0.007883575, 0.03515032, -0.03687046, 0.019101476, -0.076209456, -0.0692828, -0.04393113, -0.04569742, 0.019355005, -0.035746366, -0.028761497, 0.043781783, 0.08117172, 0.046685856, -0.037542894, 0.111751564, -0.06317845, 0.018788472, -0.01777681, -0.04817754, 0.05688628, 0.056265723, -0.021955172, 0.057389226, 0.040731035, -0.043178074, 0.077749096, -0.004215135, 0.046593394, -0.038559966, -0.010980553, -0.060476888, -0.082839444, 0.008417551, -0.053504, -0.07660759, -0.052508965, -0.020433363, 0.011622542, -0.0055732033, -0.010367433, -0.07208203, -0.06761662, -0.10497105, -0.05639732, -0.0396352, 0.046873085, -0.038755156, 0.054197386, -0.047183882, -0.03647503, -0.0270131, 0.05526267, 0.033698693, -0.01601575, 0.03591895, -0.040566344, -0.081356645, -0.09079524, -0.075014, -0.10651565, -0.01870535, -0.02944512, -0.0035302928, -0.086717874, -0.013554802, -0.049740955, 0.050446123, 0.0018115054, 0.052506637, -0.0020441832, 0.0018718035, -0.06308059, -0.035249088, 0.048636034, 0.11817343, 0.05758946, -0.075423725, 0.056541976, -0.019916616, -0.08971017, 0.042400766, 0.028232833, -0.03273314, -0.07770075, -0.07119627, 0.017631862, -0.009232539, -0.04052678, -0.013543943, 0.03705074, 0.06597841, -0.064738, -0.004519051, 0.018260408, 0.0300693, -0.07811955, -0.065584734, -0.019102355, -0.084233135, 0.0019079526, 0.007496997, -0.025097793, -0.05306127, -0.0053592515, 0.010308789, 0.06749389, 0.047667857, -0.04924423, -0.0026696895, -0.030273115, 0.028204575, -0.060814604, -0.101952165, -0.0064525474, -0.0049794517, 0.05118741, -0.013143456, -0.02159668, 0.045624457, -0.029819401, 0.02400969, 0.047181517, -0.021964626, 0.018825784, 0.04005532, 0.019305317, -0.028575966, -0.08226324, 0.043174334, -0.009500809, -0.021270406, 0.0135184005, -0.03602169, 0.058824703, 0.06989929, 0.05876994, 0.069316, 0.052811563, -0.09173785, 0.0039468487, -0.024661962, -0.017900089, 0.050718125, -0.040734664, -0.055796605, 0.0018975162, 0.0032573156, -0.04131965, 0.023889486, -0.013908115, 0.024919242, -0.10832115, -0.042492468, -0.03817898, -0.05376383, -0.05754078, 0.00020075003, 0.024520796, -0.02395519, 0.06527091, -0.012704091, -0.051071152, 0.049599823, 0.014207036, -0.01081996, -0.04753412, -0.100660436, -0.07989405, 0.027833078, -0.018488225, -0.035737757, -0.04139118, 0.06937732, -0.058585815, -0.12773845, -0.016320093, -0.13132767, -0.080515884, -0.09050137, 0.033946693, -0.03929803, 0.018322505, -0.00052850955, -0.0392278, -0.016514476, -0.03938354, -0.06580292, 0.011137774, 0.019781029, -0.0062750597, 0.017105473, 0.00011898694, -0.001270875, 0.03255179, 0.019943705, -0.08780608, -0.07395859, 0.036453307, 0.053942975, -0.028553454, -0.0024168037, -0.007869887, -0.007496045, -0.0077573797, -0.085954994, -0.07819721, -0.06411165, -0.03836557, -0.072170064, -0.05574335, -0.0067217224, 0.050595827, -0.029165855, 0.06568664, 0.050685596, 0.013912556, 0.03960215, 0.0027095724, -0.027439414, -0.021329237, -0.07110479, 0.025174154, -0.12267534, 0.03461363, -0.083154425, -0.0010549892, 0.033515494, -0.004586963, 0.008049012, -0.080153205, -0.0030024021, -0.022606293, -0.042775128, 0.08655839, 0.031592697, -0.034721565, -0.026752949, 0.0028195223, -0.04572039, 0.0032716012, 0.026712406, -0.077019915, -0.10789149, -0.13877955, -0.05331115, -0.015823068, -0.028321574, -0.013242602, -0.025262441, 0.040137913, 0.039624747, 0.016917232, 0.010907161, -0.051731814, 0.0034605372, -0.071571894, -0.0046342146, 0.0004593748, -0.091685854, 0.053259254, -0.041523032, 0.023165986, 0.0060511003, -0.027438119, 0.021268196, 0.004526201, 0.0097176125, 0.061409257, -0.011350927, 0.07450843, -0.08678707, -0.0600709, -0.039570592, 0.01521814, -0.12649266, -0.122644715, -0.08088802, -0.05454883, -0.11683975, -0.121645585, -0.00913327, -0.08758257, 0.023377914, 0.020871943, -0.03523243, 0.024319654, 0.005023206, 0.014756437, -0.06543988, -0.010952558, -0.010949698, -0.07618793, 0.070445865, -0.023466764, 0.03423316, -0.015234756, -0.058900215, -0.039361387, -0.04047819, 0.01910489, -0.09662728, -0.0523712, -0.03776743, 0.002716765, 0.0057504997, 0.029210335, -0.046774223, -0.13272047, -0.05150032, 0.016456904, 0.00457238, 0.0054143267, -0.04300586, -0.031597354, 0.044528916, -0.012075661, -0.062778816, -0.07408958, -0.033272687, -0.077972606, 0.019624867, -0.032346144, 0.028584568, -0.011058563, -0.06973162, 0.034463815, -0.06459624, 0.0016682644, -0.005708567, -0.046093732, -0.012846921, 0.0098652225, -0.028375018, 0.042875167, -0.050594926, 0.0014090524, -0.07480486, -0.054621834, -0.06607837, -0.123219304, -0.0034673451, -0.08739007, -0.020107975, 0.0174555, 0.011728066, -0.050224453, 0.069188654, -0.014732254, 0.010540408, 0.04872358, 0.015429319, -0.06336561, -0.022069544, -0.0118358135, -0.07644875, -0.1106507, -0.04734586, -0.055518463, -0.027235156, -0.09697014, -0.16002844, -0.11348134, 0.011250133, -0.1052875, -0.04702572, 0.011486484, 0.010618219, 0.06340622, -0.062524386, -0.06681285, -0.0141318, 0.023018692, -0.067788005, -0.09277375, 0.01131251, 0.06371283, -0.031305723, 0.006572661, 0.02713735, 0.0105466405, 0.0009615406, -0.03563759, -0.019709323, -0.060105804, -0.032046065, -0.04165728, -0.01812388, -0.06885374, -0.07143768, -0.014723072, 1.3187191e-05, -0.062310755, 0.00356598, -0.0052312487, 0.047470048, 0.06647266, 0.02700039, 0.043219823, -0.025957966, -0.015872084, 0.022878738, -0.06816827, -0.012821264, -0.0070576672, -0.03144887, -0.050413907, 0.018659005, -0.06797554, -0.09742778, -0.083422065, 0.0012875777, -0.016398856, 0.03368751, 0.06223932, -0.034923416, -0.05676595, 0.003283522, -0.09770382, -0.025380427, -0.07606385, -0.11795029, 0.024138724, -0.11188475, -0.085597254, -0.022228073, 0.11836198, -0.007854348, -0.007516828, 0.026660182, -0.040857084, 0.034927018, -0.012527845, -0.053903025, 0.019278245, 0.1919738, -0.0022492127, -0.03785364, 0.06583807, 0.14681588, 0.14844914, 0.016136542, 0.08205956, -0.028531691, -0.2268884, -0.27864408, -0.35773966, -0.13401113, 0.023683337, 0.029822893, -0.04732439, 0.25287175, 0.20011158, 0.046413608, -0.052650474, -0.077657126, 0.022120923, 0.13714018, -0.025524247, 0.072786584, 0.10272277, 0.18557791, 0.17957902, 0.00362518, 0.10903474, 0.014495286, -0.009500303, 0.13214804, 0.035094455, 0.03535012, 0.17125076, 0.12112968, 0.09386048, 0.24165535, -0.07866073, 0.01508201, 0.024888981, 0.09729329, -0.11603539, -0.2669262, 0.075510025, 0.09523564, 0.12166035, -0.02812676, -0.083454475, -0.20737372, -0.031592406, 0.026411835, -0.035997886, 0.0052874763, -0.053579982, 0.052539174, -0.040763926, -0.02330847, 0.059634924, 0.024193898, -0.07753906, -0.009941142, 0.22716816, 0.05630225, 0.066686705, 0.2559696, 0.13817252, 0.093534835, 0.06679911, -0.026493797, -0.06021334, -0.2527143, -0.33692458, -0.5121592, -0.041627962, -0.094072565, -0.17942664, 0.17314465, 0.26871082, 0.10875989, 0.08104689, -0.03664828, 0.026608858, 0.13169774, 0.020016773, -0.16735764, 0.06985818, 0.0464215, -0.12560648, -0.08380982, -0.043416582, 0.12921454, -0.026548035, -0.02321797, 0.013066651, -0.1688227, 0.08651415, 0.06697112, -0.1669007, -0.13585986, -0.0058049047, -0.09913273, 0.07346592, -0.046254426, 0.014677141, -0.08672147, -0.26099682, 0.28790668, 0.05695758, -0.0007216054, 0.056339763, 0.06643611, -0.10218847, -0.09523423, -0.14503612, 0.008202756, 0.020683192, -0.37435958, -0.21434553, 0.108837985, -0.009835067, -0.088368766, 0.1611441, -0.007988441, 0.11334126, 0.01946489, 0.038920254, 0.04755219, 0.08527865, -0.011868589, 0.025601346, 0.02031022, 0.0764191, 0.009947495, -0.22930385, -0.3071502, -0.12249094, -0.15956022, -0.15940697, -0.05708454, 0.1308357, 0.068809986, -0.05186607, -0.11926694, 0.016745584, -0.082361735, 0.06383025, 0.11199484, -0.0911275, -0.0034336294, 0.1769254, -0.12861484, -0.028443435, -0.1447773, -0.20705764, -0.08051343, -0.10885021, -0.20894241, -0.0811363, -0.27877465, -0.1972194, -0.018213974, 0.04102628, 0.0407812, 0.06340898, 0.03271744, 0.001420751, 0.020440513, -0.039825592, 0.012762384, -0.06937893, 0.009945356, 0.10672807, 0.0050075846, -0.0105683785, -0.076283924, -0.15662925, -0.03636011, -0.11391243, 0.10478744, 0.10057767, 0.02012079, 0.10429011, -0.011515881, -0.08873917, -0.14587991, -0.034285337, -0.022888947, 0.013357916, -0.07441072, -0.0664557, -0.03933197, 0.051644716, -0.021155527, -0.011244499, 0.030898904, 0.052015174, 0.01718907, -0.044727933, -0.04136914, 0.15007463, -0.09440078, 0.028080828, 0.017997583, -0.19875902, -0.08141284, -0.13685697, -0.030441266, -0.08107786, -0.12483539, -0.012021711, -0.31095472, 0.047645077, -0.09641021, -0.42079562, -0.30998537, -0.02766696, -0.34103325, -0.13969767, 0.15030722, -0.06762168, 0.16266336, 0.5061667, 0.08628835, 0.05596342, 0.053555503, 0.08681777, -0.1300728, -0.09921972, -0.2892203, -0.07597287, 0.01814031, 0.33055472, -0.041346677, -0.10312071, -0.045638766, -0.04953555, -0.24859948, -0.11389109, 0.17730682, -0.0064604725, -0.058358204, -0.07579481, -0.07589692, -0.0026569173, 0.02488437, -0.048923656, -0.07627872, 0.018950842, 0.004486977, -0.035228554, -0.05468945, -0.01817694, 0.07106242, -0.15691318, 0.0729876, -0.04188349, -0.33557072, -0.26623017, -0.4110763, -0.17483506, -0.16095994, -0.031329885, -0.08947575, 0.09648476, 0.06995814, -0.048372712, 0.2682535, -0.03598509, -0.012979639, 0.066867635, -0.02270523, -0.021917434, -0.028448245, -0.055284016, -0.030030308, -0.054654796, -0.025918566, 0.04687896, -0.02487515, 0.09303428, -0.08696432, -0.16399062, 0.18775192, 0.23530947, 0.027723297, 0.1201078, -0.08106007, 0.12373902, -0.20975879, -0.222314, 0.08026057, -0.120436095, 0.17690565, 0.29239863, 0.27321175, -0.024036895, 0.07144658, -0.059564423, -0.017920446, 0.046734184, 0.024355572, -0.05786733, -0.023254478, 0.004703737, -0.010888477, 0.020451413, 0.09050361, -0.15821148, 0.16541423, -0.14175993, -0.060587164, 0.037747853, -0.11319872, 0.019522835, -0.0316016, -0.04443235, -0.24284115, -0.098335214, -0.04005126, -0.13514912, 0.008046289, 0.08784804, 0.13155575, -0.08787037, -0.09443809, 0.17417905, 0.12334492, -0.034360934, 0.31259087, 0.14384706, -0.012873021, -0.13709216, -0.06211515, 0.05973864, 0.052249078, 0.048081875, 0.047702387, 0.06825053, 0.093873404, -0.035005957, 0.049102675, -0.12388482, -0.17228408, -0.09439106, 0.03413826, 0.004613155, -0.09007728, -0.016806735, -0.030646736, -0.027237818, 0.077852875, 0.0009439812, 0.018518837, -0.052994967, -0.004335085, 0.004109512, -0.040686365, 0.0027632855, -0.0847823, 0.093523, 0.030894596, 0.00035694166, 0.0040840176, -0.07744995, -0.05382398, 0.21029535, -0.09981968, -0.009508556, 0.124011256, -0.015515833, -0.112787664, -0.2481862, -0.18890727, -0.001699282, 0.08895048, -0.21327218, -0.12854448, -0.12859735, -0.07559167, 0.123995535, -0.008522049, -0.13460758, 0.37167433, 0.13406327, 0.09373857, 0.030415034, 0.28272888, 0.2697355, 0.09605418, 0.21307747, 0.08111507, -0.18419582, -0.2312859, -0.18069369, -0.011817072, -0.106020994, -0.2110312, 0.0415484, -0.06869279, -0.41410893, 0.13482155, 0.25961354, -0.12877375, 0.23484258, 0.1371471, 0.16276333, -0.06327096, -0.034536775, 0.16003455, 0.019587956, -0.0033882023, -0.21442446, 0.06258311, -0.0511701, 0.034122817, -0.12669511, -0.009580523, -0.0071847965, 0.01575005, 0.145267, 0.11649263, -0.053347338, -0.014682987, -0.0789592, -0.19665535, -0.1949118, -0.061189722, -0.089988634, -0.30169198, -0.16250473, -0.0783782, -0.01732308, 0.0915291, 0.05742509, 0.01669095, 0.10222032, -0.05474582, -0.24321748, -0.186541, -0.25121954, 0.023616016, -0.05516856, 0.04868231, 0.15573578, 0.08001204, -0.08394062, 0.17116518, 0.13896035, 0.13373405, -0.006114557, 0.20057482, 0.08039644, 0.011913201, 0.005380786, 0.07305198, -0.099796705, -0.11885166, -0.017016998, 0.2240406, 0.0046719704, 0.12701298, 0.35545865, 0.29839674, -0.09294097, 0.04217905, 0.053190876, -0.13826035, 0.046329122, 0.16980247, -0.3491258, -0.08727662, 0.12629893, -0.21467544, -0.08949028, -0.07509509, -0.051911004, -0.09536391, -0.0031653717, -0.028593786, -0.2720311, -0.20801517, 0.11342352, -0.09056532, -0.5378961, 0.09386569, 0.08420311, 0.026361806, 0.079158045, 0.029697336, 0.17724705, 0.22847766, -0.048245348, 0.07467441, -0.010383032, 0.0049220743, -0.030741911, 0.029582439, -0.08097685, -0.17341779, 0.12286286, 0.05503538, -0.025835335, 0.053016223, 0.06451412, -0.08304772, -0.0042935894, -0.0481219, -0.00036530188, -0.046427254, -0.09461621, -0.14255701, -0.14609395, -0.17510538, 0.054347005, -0.12399439, -0.05244555, -0.0841192, 0.036099307, -0.06833545, 0.06840465, -0.018562052, -0.085219905, -0.30034518, -0.070957765, -0.21045756, -0.12659448, 0.14895463, -0.047408238, -0.022701371, -0.46371558, -0.13000306, -0.31408483, -0.28471905, -0.1171115, -0.15221038, -0.15570197, -0.26537588, -0.12847084, -0.04728814, 0.14193808, 0.060291313, 0.0047637103, -0.038747203, 0.016863057, -0.1754043, -0.21143591, -0.43937024, -0.011196684, -0.19398996, -0.27684718, 0.046495672, -0.20242548, -0.14663601, -0.17649795, -0.6000354, -0.35341153, -0.15467986, -0.05424833, -0.02575604, -0.16846952, -0.07458148, 0.036011778, 0.07297464, -0.132765, 0.15671061, -0.019784033, -0.073634334, -0.08592914, 0.067854226, 0.0816194, 0.02552276, 0.08734556, 0.07399938, 0.046754878, 0.0133551415, -0.06860359, -0.27187702, -0.263925, -0.21682286, 0.033354662, -0.082198426, -0.1436377, 0.2242565, 0.016992837, 0.19952078, -0.007861049, 0.029339567, 0.008958312, -0.15919545, 0.07691196, -0.035102744, -0.004088046, 0.13118923, 0.10290101, 0.07545258, -0.2757999, -0.09196058, 0.08022058, -0.16253524, -0.082891844, -0.1323611, -0.0825328, -0.18713304, -0.16462259, -0.028266868, 0.01846316, 0.13587189, -0.07802399, 0.11701108, -0.004433204, 0.20220515, 0.0029539238, -0.08144679, -0.024967376, 0.016822258, -0.038474977, 0.096367225, -0.009369748, 0.16605602, -0.08660931, 0.057022803, 0.1267084, -0.0001312691, -0.049844854, 0.20408028, 0.28580073, 0.011376129, 0.027989322, 0.047771003, -0.012490857, -0.0006059303, 0.010251504, 0.049730808, 0.0054083993, 0.037194524, -0.010700765, 0.008632683, 0.046533268, 0.0903, 0.13283546, -0.08432029, 0.06664525, 0.19396423, -0.18164922, -0.023746386, 0.16148615, 0.20022869, 0.04397225, 0.017415633, 0.16966867, -0.04727107, -0.06832406, 0.1141237, 0.12253768, 0.028625501, 0.16787368, 0.15588465, 0.1798737, 0.030097583, -0.10621667, -0.052731153, -0.055274703, -0.14966281, -0.1234324, 0.071110725, 0.088611856, 0.17381307, -0.05651275, -0.08045768, 0.19723113, -0.2634152, -0.11003607, 0.10762916, 0.09982953, -0.06295965, -0.12000535, 0.11058574, -0.12877941, -0.031974725, 0.22931615, 0.10898412, 0.31764004, 0.18380705, 0.21903835, 0.20797308, -0.08556884, -0.046115033, 0.13556005, -0.010137877, -0.008448978, 0.12099837, -0.07042479, -0.033537313, -0.18700677, 0.10530715, 0.21067092, -0.17281215, -0.08346317, -0.1320085, -0.092285946, 0.005591484, -0.080385976, -0.0038224813, 0.0027713527, -0.06416744, -0.041132364, -0.0057004374, -0.09187713, 0.01371567, 0.3367481, 0.119607486, 0.33837464, -0.07371148, -0.15311094, -0.07263055, 0.04073947, -0.02460966, -0.13970874, 0.0153555805, 0.13762777, -0.035030525, -0.096511446, -0.18948145, -0.17759041, -0.07140273, 0.009137308, 0.0020585437, -0.22319008, -0.08216477, -0.18757044, -0.017632334, 0.22736183, 0.43501917, 0.20340739, 0.14190148, 0.14435883, -0.019266577, -0.067047134, -0.056602918, -0.13672678, 0.0036715728, -0.06743384, 0.0067317393, 0.081008434, -0.011353421, 0.15018043, 0.1841193, 0.20718211, -0.07474731, -0.07329471, 0.007886643, -0.00783118, 0.025323393, 0.05288154, 0.041358456, -0.11889474, 0.007803675, -0.040855363, -0.19984585, -0.06330485, 0.05460732, -0.1363396, -0.043469418, -0.06090435, -0.013632752, -0.050705753, -0.08454709, -0.082769774, -0.0005279499, -0.054615844, -0.10437939, -0.0627766, -0.000934677, -0.10917844, -0.0019682343, 0.0996743, 0.012787363, -0.14361277, 0.18991156, 0.015578675, -0.19950464, 0.09558059, 0.09819268, 0.33366358, -0.03857932, 0.18680115, 0.23650141, 0.19163977, 0.027646404, 0.21746124, -0.09975288, -0.03886676, 0.059041314, -0.39447543, -0.1514293, -0.1522631, -0.07627065, -0.0180862, -0.05086209, -0.2545181, -0.036453575, 0.02531076, -0.13000791, -0.15475202, -0.16589679, -0.022111038, -0.1655507, 0.013313556, -0.043245923, -0.37451488, -0.1398466, 0.15760025, -0.03556545, 0.17725135, 0.08707333, -0.023895778, 0.06639135, -0.0014295359, 0.04052974, -0.058101892, 0.050821006, -0.06059853, -0.022533732, 0.0028631964, -0.017070888, 0.0056231343, -0.013894704, 0.090730146, 0.09142068, 0.27265328, -0.13411357, -0.103405416, 0.12550354, 0.07915958, -0.1453437, 0.23790255, 0.15908858, 0.15656663, -0.0114529785, -0.2253752, -0.17761071, -0.0046573454, -0.17812781, -0.14545241, 0.043041952, 0.02366923, 0.08930354, 0.083987005, -0.08906334, 0.037986003, 0.06942636, -0.036663502, 0.047589324, -0.045072347, 0.07030452, -0.044297483, -0.18099798, -0.13105772, -0.061758228, -0.11542034, -0.23000963, -0.11803992, 0.13355672, 0.13380182, 0.13587724, -0.092796735, 0.040357903, 0.034532037, -0.13134284, -0.18996987, -0.013320447, -0.015467606, -0.057910755, -0.064760976, -0.03377067, -0.039297633, 0.017312137, 0.013500831, -0.06463687, 0.036552154, -0.11470798, -0.02386482, -0.0058657937, -0.19647282, -0.3184406, 0.0062292046, -0.2581669, -0.2792882, 0.036228936, 0.06116817, 0.099109426, 0.28151116, -0.093713604, -0.2396262, -0.013537807, -0.120683126, -0.20675541, -0.19547097, 0.041196875, 0.18554099, 0.16095655, -0.12415493, -0.018579502, 0.19658233, -0.19549571, -0.016594334, 0.24164534, 0.014057775, -0.15452491, -0.0573526, -0.0025375616, -0.16169016, 0.010613266, 0.17642306, -0.028213838, 0.26229426, 0.014427404, -0.02098346, -0.063911036, -0.065835156, -0.31489277, -0.026864141, 0.012419004, 0.08107939, -0.025949726, 0.02571008, 0.086675644, 0.029844413, -0.06343419, 0.041760746, -0.025805848, 0.036907453, 0.075055644, 0.04859361, 0.22107197, 0.15955424, 0.014988486, 0.14518659, -0.1537288, 0.038033325, 0.28845453, -0.04020321, -0.014987255, 0.091884315, -0.056116898, 0.03127419, -0.018291727, 0.078976296, -0.012167636, -0.012124105, -0.09833507, -0.27730224, 0.17770192, -0.055481296, 0.10149232, -0.14217125, -0.07279571, -0.022789195, -0.24147764, -0.2225554, 0.048130177, 0.099138334, -0.1375073, 0.030015696, 0.24894647, 0.29177055, 0.23700382, 0.17604104, 0.08681253, 0.024538929, -0.10103047, -0.089965306, 0.0638692, -0.1139258, -0.15708998, -0.20278263, -0.034585055, 0.063171, 0.012921268, 0.017030817, -0.13171425, 0.08897338, -0.26335797, -0.0070432425, 0.065025695, -0.14263117, 0.08024035, 0.0077445977, 0.26629394, 0.21934615, 0.22070557, -0.0205098, -0.10332478, 0.07355843, -0.25169376, -0.15971431, -0.046940695, 0.09941132, 0.08711972, 0.21253403, -0.1960072, -0.10734795, -0.04781515, -0.26808628, -0.07792854, -0.20022961, -0.094375156, 0.0958408, 0.15309525, 0.028776884, -0.055155024, -0.0064536952, 0.17001626, 0.053918827, 0.25461674, -0.02574015, 0.08923266, 0.25822735, -0.15961727, -0.2908904, 0.039039552, -0.09586438, -0.10187142, -0.03980221, -0.15549782, 0.17015061, 0.057387944, -0.29565027, -0.21581082, 0.02281274, -0.2973138, -0.17008655, -0.08006894, -0.033956204, -0.092567146, 0.10837942, -0.17168267, -0.18490246, -0.020166954, -0.2693292, 0.087207995, 0.12092294, 0.28303862, -0.007770274, -0.029740041, 0.13752171, -0.0558903, -0.17831177, 0.003499966, -0.16943471, -0.39456284, -0.041942984, -0.04478384, 0.059639346, 0.08824423, 0.073663354, 0.009863514, 0.186527, 0.116829276, 0.049743682, 0.024209699, -0.07557832, -0.16672367, 0.12581763, 0.073707126, 0.008875585, 0.18361185, -0.10227879, 0.111731015, -0.075914696, -0.13117301, 0.030628884, 0.051033814, -0.027027518, -0.06674429, -0.00069002504, -0.011276318, 0.0031472072, 0.008711255, -0.1455277, -0.05212746, 0.12172044, -0.082620986, -0.047970023, 0.040574115, -0.08873667, -0.012394244, 0.009232923, -0.07742841, -0.002254265, -0.154577, -0.2593887, 0.10714252, 0.10193236, -0.00443928, 0.0069235372, -0.15931037, -0.15495932, -0.048128814, -0.07816756, -0.12356467, -0.06989337, 0.059947837, -0.04840281, -0.08305039, 0.10468049, 0.15074186, 0.3495932, -0.011903853, -0.07922646, -0.07415123, -0.0036381218, -0.04139959, -0.13377625, -0.083733924, 0.09308297, 0.09067559, 0.13761976, -0.009100676, 0.041820653, -0.090787314, 0.09483528, 0.07437407, -0.049010813, 0.028430637, -0.10069001, 0.2604103, 0.28770104, -0.0067440704, -0.07329825, -0.057270322, 0.124137364, 0.15896493, 0.08791992, 0.03509387, 0.22479361, 0.10805739, -0.24551606, 0.0596609, -0.011178509, -0.13127731, 0.019797774, -0.050524455, 0.018275924, -0.08811179, 0.0038544838, -0.010158108, -0.04746113, -0.016152931, -0.028967826, -0.063624784, -0.0076727513, 0.040398967, -0.038993523, -0.01993052, -0.025349582, -0.03766819, -0.02863957, -0.04204729, -0.01954055, -0.0070968494, -0.02605932, 0.03976617, -0.059095245, -0.055629916, -0.03408012, 0.048590362, -0.010117662, -0.07066288, 0.049773823, -0.06801649, 0.026107151, -0.04655349, 0.021140078, 0.021169627, 0.010315011, 0.029628856, -0.05961134, 0.02614916, 0.04129401, 0.03303327, -0.038281802, 0.04877761, -0.021320699, -0.0048455247, 0.049669646, -0.030867238, -0.050547775, -0.009786162, -0.033416834, -0.051860448, 0.021066103, -0.0587153, 0.043462694, -0.06572772, -0.04360819, -0.08724967, 0.017058428, 0.05344779, -0.05246525, 0.037924476, 0.016735021, -0.07675331, -0.05499465, -0.067258, 0.010168042, -0.006942915, -0.006533931, -0.07218374, 0.03471269, 0.039557677, 0.0579201, -0.0566805, -0.02576735, -0.1348427, -0.03847357, -0.017368283, -0.124050096, -0.0718646, -0.0968324, -0.024173744, -0.036056753, 0.02122912, 0.024223406, 0.042812623, 0.042473365, 0.027162945, 0.05539588, -0.06347599, 0.038936205, -0.0016790979, 0.042250164, -0.018867252, -0.035318088, 0.015306583, 0.02459335, -0.07412006, -0.054956656, 0.026668755, -0.008936233, -0.043807905, 0.0054620397, -0.054428224, -0.06366009, -0.002257977, -0.028283905, -0.02211461, -0.060737114, -0.0017693561, 0.054611925, 0.061830495, 0.021145308, -0.063898966, -0.03696267, -0.031240936, -0.01363845, 0.015262843, 0.053588245, 0.016945142, 0.016262228, -0.08990986, 0.016870702, -0.01563354, -0.05415382, -0.042569447, 0.039503742, -0.05113011, 0.00034364063, -0.025309853, -0.07958897, -0.07501537, -0.06154452, 0.030838158, -0.07918422, -0.083046086, -0.025269832, -0.047033533, -0.05964613, -0.025381435, -0.046277106, -0.06338296, 7.6684184e-05, 0.03665308, -0.05101478, -0.021450454, -0.047299936, -0.03159497, -0.0038537558, -0.009546144, -0.05633677, -0.06112158, -0.061332047, -0.031311214, 0.052909356, -0.020889325, -0.025041096, 0.044003833, 0.012293602, -0.07556307, -0.02282512, -0.06467422, -0.07474478, 0.015881224, 0.037272368, 0.01841364, 0.00986426, 0.071848705, -0.017512953, -0.03619983, 0.04432682, 0.018755862, -0.011543584, -0.04989868, 0.041276965, 0.018858122, -0.003188941, 0.014578288, 0.05593961, 0.045542452, -0.020045111, 0.07084936, -0.0030326175, -0.03977041, 0.00765709, -0.08719537, -0.12041279, -0.002773745, -0.07110877, -0.003998353, -0.03961898, -0.03167354, -0.034696784, -0.02114104, 0.009537765, -0.06707617, -0.06668465, -0.05717613, -0.06422857, 0.00029261442, -0.016137347, 0.018237405, -0.024881456, 0.015574835, 0.036642306, 0.060226366, 0.008101143, -0.017503634, 0.0441712, -0.04207565, -0.026550408, 0.043725114, 0.009329124, 0.03121477, -0.0580884, -0.05746135, -0.017528538, -0.069313034, 0.07195154, 0.042829186, 0.007132554, 0.03197061, 0.062049232, 0.015195719, -0.0057403855, -0.047452148, -0.017424846, -0.027242929, 0.0025163216, -0.026803441, 0.010948763, 0.06581366, -0.061422233, -0.027076196, 0.042774137, 0.020457722, 0.012256644, -0.011485612, -0.09180223, -0.06641875, 0.019398658, 0.009290533, -0.015791852, 0.0042736973, 0.032164484, 0.06222127, 0.021944465, -0.026629016, -0.01756613, 0.0042661643, 0.0021716077, -0.073290266, -0.063207865, 0.035256725, -0.04078165, -0.071289785, 0.044518255, -0.07604206, -0.03168239, 0.01925653, -0.06314127, 0.052916765, -0.022018021, 0.009846882, -0.056238007, -0.007831377, -0.09777648, -0.05132475, -0.09550082, 0.025117792, -0.07675531, -0.06781895, -0.01993329, -0.055416454, -0.06607991, -0.047375187, 0.008832241, -0.07480796, -0.0071147443, -0.030614454, 0.0074281394, -0.03670967, -0.006534755, 0.042884625, 0.05925715, -0.042421535, -0.024610609, 0.04322698, -0.01639004, -0.036474854, 0.008639139, 0.009332045, 0.040324964, -0.0850841, 0.06225436, -0.074085064, 0.0151689, 0.0038978688, 0.0249185, -0.023332441, 0.034441587, 0.010774554, -0.0105082365, -0.055258613, -0.07337165, -0.068447456, -0.06540619, -0.06948025, 0.05251125, -0.06600197, 0.04127715, -0.071167365, -0.038154997, -0.007817441, -0.008286687, -0.03344267, 0.050850555, -0.061379127, -0.042006243, 0.03088673, -0.04720964, -0.06513373, -0.01514556, 0.005336212, -0.0032766694, -0.0003560088, -0.080895595, -0.11911516, -0.08165981, -0.057189405, -0.060462542, -0.07155765, -0.09955142, -0.097168766, -0.11393483, 0.029813819, 0.004580208, -0.04830742, -0.04428128, -0.0712943, -0.024378572, 0.005919358, -0.089044, -0.006231142, -0.047686517, -0.024310399, 0.01094872, 0.004985559, 0.029938094, -0.08126382, -0.08389553, 0.006523619, -0.04423697, -0.10439429, 0.030080654, -0.08756986, 0.028770834, 0.038708035, -0.06817514, -0.02463073, -0.01272309, -0.009527762, -0.041946635, -0.04317161, 0.015416297, 0.029691521, -0.014350034, 0.057660382, -0.029866025, 0.049158853, 0.033241317, -0.02911692, 0.01957251, 0.018314457, -0.052630424, -0.038637854, -0.0038777033, -0.05731854, -0.0046913675, 0.015958099, 0.013153593, -0.0651074, 0.010540078, -0.032139022, -0.015017077, 0.047008295, -0.0611094, -0.025813729, -0.039238766, -0.049397267, -0.028227031, 0.017185133, -0.06084208, -0.06444168, -0.061610296, -0.056372058, -0.08501996, -0.0105772205, -0.015851332, -0.018460315, -0.025015773, -0.0408285, -0.0020004513, -0.08206982, -0.0011806131, -0.033702064, -0.071328424, -0.07704855, -0.0495859, -0.05733172, 0.0011307318, 0.048482653, -0.005446722, -0.03419024, 0.035737243, -0.06297361, 0.015894778, 0.05840448, -0.008285781, -0.07554703, -0.027503239, -0.02274126, -0.0038143827, -0.0066620014, -0.057090808, -0.024251977, -0.096983366, -0.07515455, -0.05141817, -0.018121902, 0.016888142, -0.053783525, 0.018205538, -0.047283918, -0.05319468, -0.059710268, -0.049525373, -0.00118866, -0.0626947, -0.030112004, -0.07463439, -0.0055287667, 0.025340168, 0.035879917, -0.03695971, -0.048330918, -0.09346047, -0.06221821, -0.072364666, -0.015111635, -0.045297127, 0.054050706, -0.06941446, 0.030852553, 0.030633522, -0.013562054, -0.04029177, 0.01817842, -0.019409247, 0.037397012, -0.08999501, -0.06405726, -0.01261572, -0.022401894, 0.009630369, -0.033085987, -0.03218053, -0.038811393, -0.051743627, -0.02456741, -0.021340815, -0.07097238, -0.06894997, -0.032555994, -0.0073637273, 0.038522594, 0.03809165, -0.077945165, -0.011723143, 0.03265195, -0.08137147, -0.07918274, -0.07103373, 0.047867075, -0.04257461, -0.012281511, 0.044297207, -0.045165516, 0.005577281, -0.028151916, -0.031303205, 0.05137355, 0.020045122, 0.007602949, 0.023697449, -0.034797218, 0.04253968, 0.0031257179, 0.015332342, -0.0427547, -0.057560354, -0.056789577, -0.018481536, -0.056597188, 0.0043956367, -0.06486277, 0.020727694, -0.008939196, -0.079080224, -0.079961136, -0.022950128, -0.015509215, 0.010998865, -0.010360466, -0.017302297, 0.058828622, -0.063138396, 0.05055463, -0.0029130576, 0.021375779, 0.019114325, 0.00056551, 0.008373819, 0.01990897, -2.04473e-05, 0.0006689394, 0.04781178, -0.038130883, -0.057414316, 0.013557568, -0.023830568, -0.04574588, 0.040794346, -0.00017930294, -0.007229691, -0.079573385, -0.09738488, -0.03678091, -0.036888797, 0.033932243, 0.022058535, 0.040715422, -0.06292649, -0.007021169, -0.052746017, -0.008451375, -0.07857821, -0.046576664, -0.06532385, -0.060285144, 0.027752053, -0.014536156, -0.06427245, -0.025855327, 0.02863276, -0.0048130187, 0.019313436, -0.040408712, -0.017159868, -0.06127487, 0.030503415, -0.0589723, -0.062075682, 0.007540054, -0.073183075, 0.015440927, -0.085850716, 0.022926105, 0.0001205811, 0.011704965, 0.0058276677, -0.01996901, -0.04121963, 0.04810177, 0.019331004, -0.027781922, -0.079952575, -0.06548123, 0.10845938, 0.06138757, 0.046814203, 0.114757165, 0.06785399, -0.090468414, 0.19564685, 0.1453012, 0.021829817, 0.02728527, 0.14258704, -0.056806467, 0.019892728, -0.046441298, -0.00207377, 0.01563763, 0.08411931, -0.22031353, 0.092314474, -0.008392839, -0.13883902, 0.397838, -0.06282817, -0.31846586, 0.22211215, 0.14511533, -0.046610627, 0.026705751, 0.17099291, 0.15675041, -0.2563152, -0.03916116, -0.10321647, -0.24925192, -0.043510955, -0.38628742, -0.07062121, -0.066871695, 0.020764655, -0.003468249, -0.21301179, -0.09208779, 0.19051242, -0.0004015544, 0.010109202, -0.040397607, -0.0043351096, -0.08901611, -0.0420611, -0.16533022, -0.05872277, 0.29272473, 0.16233437, 0.23592477, -0.08390918, -0.037854757, -0.045232143, 0.13421734, -0.057058986, -0.07832134, 0.14198796, -0.07019576, -0.22970301, -0.0047318684, -0.02576877, -0.021792218, -0.022523886, 0.065118946, 0.09282931, 0.0469915, 0.03727941, 0.06769288, 0.11322896, 0.2030571, 0.040865716, 0.07708867, 0.063476674, 0.07089391, -0.109178856, -0.09179895, -0.23665702, 0.29596025, 0.11077301, 0.082873575, 0.20002772, -0.15251043, 0.137368, -0.08010055, 0.007878245, -0.098889865, 0.08326231, 0.0913282, 0.14220664, -0.064389765, 0.06774031, 0.081240945, -0.01863258, 0.10076206, 0.15814699, 0.08765801, -0.122003235, -0.29213527, 0.035808206, 0.0328343, -0.033270825, -0.021137457, -0.061586063, -0.37423512, -0.25625736, 0.010867746, 0.17790462, -0.08538251, -0.008268542, 0.16410625, -0.025515309, 0.1250159, 0.14417991, 0.20776089, 0.12728752, -0.12950295, 0.18335365, 0.05092283, -0.33362466, -0.057679873, -0.0438905, -0.22360396, -0.16166869, -0.018259326, 0.09785857, 0.03556413, 0.016233638, 0.01322756, 0.32770884, 0.041466966, 0.0027575495, 0.06477642, -0.0036222492, -0.042820144, -0.040799107, -0.0042489334, -0.016840152, 0.016419308, -0.06840979, 0.038328826, -0.028863315, -0.010137878, -0.10998471, -0.058888033, 0.04535385, 0.11669317, -0.065546826, 0.10210911, 0.0429192, 0.063451536, 0.06911017, -0.0043622702, -0.09541507, 0.08733516, -0.017205141, -0.15965286, 0.23393904, 0.08899451, -0.17894952, -0.030913386, -0.16761617, 0.18467528, 0.19449376, -0.040845837, 0.15786344, 0.17815246, -0.03094775, -0.04909753, -0.09132721, -0.02983648, -0.043981124, -0.016329646, 0.03718291, 0.018312005, 0.044618092, -0.009406067, 0.17716469, 0.13020147, -0.02719241, 0.14545242, -0.100740954, -0.249334, -0.060507424, -0.12265953, -0.15100437, -0.077869296, 0.03763192, 0.16469237, 0.029032987, 0.12877238, 0.14073528, 0.020538082, 0.05611965, 0.08384706, -0.03660778, 0.057399515, 0.06576253, 0.019776333, -0.022586882, -0.05073563, 0.07381098, 0.0057811188, 0.049761757, -0.01981327, 0.034348875, 0.030770948, 0.045110244, 0.1339867, 0.024084026, -0.08728265, -0.0061525735, -0.09947157, -0.19511105, 0.024482721, -0.07535318, 0.053664807, 0.10579992, 0.07018612, 0.15206014, 0.098031454, -0.19119751, -0.13716264, -0.22081916, 0.037662514, 0.2323168, -0.023861695, -0.054059956, 0.013538055, -0.00657804, 0.06409697, 0.052685037, -0.08355586, -0.035417583, 0.09284848, 0.1190711, 0.11064037, -0.032487474, 0.15092422, 0.21883847, -0.09489493, -0.16250777, -0.19860736, 0.00814557, 0.053457797, 0.18791811, 0.06270971, 0.11040775, 0.14169422, 0.06775103, 0.05856383, -0.023799894, 0.030612951, 0.12087141, 0.11157045, -0.037908692, -0.008813368, 0.057993926, 0.12243296, 0.014041927, -0.0035126677, 0.110079356, -0.01388893, 0.012152982, -0.2007805, -0.014637534, -0.069721214, 0.08137161, 0.024393203, -0.081183724, -0.01364728, -0.33115128, -0.2819651, 0.0230933, 0.081104, 0.03979857, 0.095731206, 0.0046194573, -0.005368378, 0.038746838, -0.023505, 0.12670533, 0.07554303, 0.061905816, 0.019592624, -0.082430646, 0.05259754, -0.3194349, -0.11849447, 0.024149548, -0.052130774, 0.09531724, -0.23211998, -0.24432369, -0.060191546, 0.29037908, -0.006815954, 0.09384913, 0.15837435, 0.06929928, -0.046497095, -0.005981537, -0.013103205, -0.02877174, -0.052203886, 0.05599314, 0.05647715, 0.008580867, -0.023010768, 0.030506799, 0.027335655, -0.06339336, 0.2235295, 0.10338453, 0.17155442, -0.11983028, -0.062211007, -0.0149366055, -0.2200112, -0.13363893, -0.045574125, -0.030568553, -0.09167723, 0.029041542, -0.075457424, -0.066330075, -0.115691625, -0.21367754, -0.392271, -0.49696857, -0.12730655, 0.09766351, 0.099166304, -0.031464584, 0.15565693, -0.099036746, -0.19850986, -0.20160486, -0.31481797, 0.103136584, -0.058781225, 0.20695475, 0.003581251, 0.04246822, 0.13143441, 0.06088207, -0.13098945, 0.028696476, -0.024058811, -0.07166264, -0.059116326, -0.008677172, -0.031738274, 0.0051398748, -0.29843923, -0.07246249, -0.06349521, 0.08445514, 0.109679736, 0.04453807, -0.05671945, 0.04704325, -0.038509857, 0.06365218, 0.05116628, -0.059310716, -0.051484242, 0.2154143, 0.3345466, 0.056257688, 0.18862166, 0.18737227, -0.12905364, -0.10365878, -0.06753178, 0.116237216, -0.19468708, -0.16420256, 0.12578665, 0.051813487, -0.19086273, 0.1973591, -0.025392694, -0.33302087, 0.039899312, -0.14124538, 0.1036567, -0.12567464, -0.31977102, 0.1834467, -0.2938783, 0.12580873, 0.03842792, -0.24195139, -0.07493007, -0.10689917, 0.21343347, 0.11469213, -0.07807006, 0.35376602, 0.21804033, -0.00086426456, 0.21923184, -0.2818686, -0.305941, -0.06860463, -0.18218431, 0.14016911, -0.10973726, -0.090512075, -0.00733486, -0.106083736, -0.27337596, -0.23065615, 0.021842739, -0.14865829, -0.270379, -0.056399465, -0.12451317, -0.61029863, 0.051820267, 0.2639212, -0.06447878, 0.07396285, 0.15938383, -0.15875821, -0.23753037, -0.40480688, -0.5236544, 0.13648728, 0.013241726, 0.062140297, 0.09598469, -0.029478285, -0.13888021, 0.047202986, 0.15820734, -0.22612734, -0.025632821, -0.085287005, -0.086162634, -0.08242914, -0.051993966, -0.008512813, 0.015954811, 0.066304974, 0.019651514, -0.09959895, -0.109457895, -0.03952363, -0.03941755, -0.0030132795, -0.1453325, -0.13864096, 0.100706026, 0.032847274, -0.06768698, -0.007911911, -0.0072211646, 0.086073525, -0.06873807, -0.25509378, 0.10895118, 0.14765048, -0.26805362, -0.10654999, -0.16561103, -0.15299465, -0.009047245, 0.087558135, 0.08328499, 0.08108018, 0.24508096, 0.1375084, 0.1511386, -0.22277747, -0.11062365, 0.14854516, -0.061886225, -0.059846267, 0.0075914166, 0.08200044, 0.061554942, 0.06001033, 0.004254283, 0.020793496, 0.08105783, 0.048468232, 0.13128144, 0.1325994, 0.11181625, 0.19844922, -0.034206893, 0.15678887, 0.09669278, 0.0878291, 0.096239395, 0.12284981, 0.13748948, -0.0012328676, 0.019973995, -0.1586978, 0.022507414, 0.092228726, -0.14492948, 0.14233188, 0.27122843, -0.23396553, 0.07111606, 0.1394664, -0.0009820672, -0.024629133, 0.20509112, -0.01713033, 0.16152526, 0.29047838, -0.1121695, 0.01805854, 0.14959991, -0.046969872, 0.07087219, 0.1320345, -0.06948891, -0.311576, -0.69643265, 0.05442483, -0.22793823, -0.2895732, -0.02197511, -0.03388228, 0.03923054, -0.24445188, 0.009100058, -0.06929612, -0.36935315, -0.051742148, 0.10939103, 0.034950737, 0.070634134, -0.14863531, 0.13750502, 0.08999402, -0.0563029, 0.16249923, 0.09017481, -0.2632162, 0.25983536, 0.0950602, 0.10876211, 0.15080033, 0.16167116, 0.22175798, -0.1735957, 0.0025349786, -0.058061138, 0.049533073, 0.009716355, 0.13716327, 0.31963432, 0.10511706, -0.17317486, 0.2963001, 0.014240428, -0.38298535, -0.0006294922, 0.024494724, -0.1779752, -0.02688496, -0.17795424, -0.364931, -0.23321812, -0.2674954, -0.3698002, 0.0066764355, 0.063724294, -0.019734913, 0.093136124, 0.1205849, 0.084849976, 0.09003021, 0.13557531, 0.0043323236, -0.4737668, -0.101948924, 0.03760458, -0.19212645, -0.04281513, 0.09879064, -0.014236796, -0.23202598, 0.07505104, -0.05594841, -0.06909051, -0.18616074, -0.012879506, -0.10750272, 0.0071379854, 0.1599881, -0.06715997, 0.18937413, -0.32935992, -0.10615431, -0.049571954, -0.08047991, -0.07603618, -0.07996521, 0.15032542, 0.074312635, 0.05298447, -0.16998124, -0.082083054, -0.07582539, -0.010164538, -0.007829394, -0.012699419, 0.07085176, 0.011506882, -0.03311887, -0.053187143, 0.15048258, 0.13857004, 0.024455221, 0.2335788, 0.21941136, -0.025301887, 0.041799195, 0.033610404, 0.012357347, 0.11227008, 0.12095822, 0.18024552, 0.17013668, -0.0003803277, 0.0048328293, 0.18356682, 0.08138306, 0.02007237, 0.012609389, 0.022073446, -0.029263208, -0.05972287, 0.054401714, 0.0032334847, -0.06027303, 0.043534312, -0.31309062, -0.25494748, 0.007590851, -0.036849927, -0.10165562, 0.17694224, -0.14937957, 0.041816447, -0.001292476, 0.019077286, -0.038769048, 0.034311835, 0.14947492, 0.089025445, 0.0047644787, 0.11923435, 0.12962349, 0.08538948, -0.27825013, -0.044749655, 0.14480987, -0.24421543, -0.0047800997, 0.12969953, -0.09961145, -0.070432894, 0.033709455, -0.017970784, 0.2294941, 0.1766229, 0.021959197, 0.23589212, 0.09474683, -0.064071245, 0.014450749, 0.0043613017, -0.03870686, -0.012049113, 0.03723207, -0.031937487, -0.06988933, 0.101958394, 0.028691348, -0.017457353, -0.07443719, -0.26254907, -0.05098403, 0.2814501, 0.23508494, -0.044727743, 0.17047425, 0.30660382, 0.15025978, 0.017928962, -0.06272567, -0.09599091, -0.0108624725, 0.11605955, 0.05227754, 0.06433292, 0.16887246, 0.20647089, 0.002492351, 0.08190959, -0.00065110356, -0.0076636444, -0.041921034, 0.009675879, -0.047217473, -0.000719629, 0.001391581, 0.010650126, -0.095624276, -0.25648567, 0.16157912, -0.03511324, -0.14610802, 0.039963238, -0.14000498, -0.117856584, 0.13294642, 0.10386302, -0.09473066, 0.021136686, 0.04182803, -0.061442405, 0.06236099, -0.02965946, 0.018136764, -0.0015418909, 0.038922433, 0.039000213, -0.035995346, 0.13895449, 0.027363429, 0.3481292, 0.041004352, -0.013306106, 0.08966472, 0.013885654, -0.017437875, 0.06397555, 0.07422955, 0.09372922, 0.016328188, -0.0030142004, 0.06577123, 0.049576283, -0.08664875, 0.04278263, -0.009026188, -0.15621565, -0.016341189, -0.12132655, -0.08722251, 0.053449385, 0.035097785, -0.023907896, 0.05584143, 0.07229443, 0.028217176, -0.057384577, 0.1304942, -0.09839107, -0.012156455, -0.2133162, 0.07603547, -0.022598559, 0.012228163, -0.007997701, 0.04497108, 0.045044888, 0.031853642, 0.09308847, 0.053467542, 0.26781803, -0.15845868, -0.2288621, 0.031713907, -0.047735166, -0.2565448, 0.11643019, 0.021692093, -0.034478515, -0.02943949, 0.23765804, -0.026089033, 0.28025106, 0.09301951, 0.043456215, 0.14631632, 0.12045818, 0.13907494, 0.018478978, -0.23853588, -0.21596393, -0.14926139, 0.0009832414, -0.1335352, -0.31395674, -0.20938796, 0.11145724, 0.0429726, 0.13299905, -0.017315699, 0.067744695, 0.16038354, 0.035013463, 0.15170301, 0.19137871, -0.15759657, -0.11687415, -0.08635031, -0.04203855, -0.19101617, -0.22026803, 0.06399309, -0.03149998, -0.08188026, -0.017514141, 0.02423294, -0.010250414, 0.033593085, 0.03797018, 0.0641596, 0.036149714, 0.1277209, 0.025639104, 0.1536555, 0.041712265, -0.1336576, -0.15981884, -0.0006363812, -0.08330122, -0.30703983, -0.06353172, -0.18515338, -0.40318337, 0.107724115, 0.2611929, 0.017659336, -0.21970828, -0.018626327, 0.16192336, -0.13873164, 0.07757022, -0.041630972, 0.034340102, 0.024379626, -0.018207587, -0.044324387, 0.04314473, -0.010423561, 0.04082525, 0.02988729, -0.00073384965, 0.2416186, 0.12578589, 0.1051988, 0.22740065, 0.3394706, 0.083131924, 0.042525116, 0.096757025, 0.15885678, -0.17164892, -0.25705478, -0.13353018, -0.1974732, 0.020394832, 0.13313007, -0.06989671, -0.089696236, 0.0054827905, 0.039766543, -0.04045905, 0.017101364, 0.03976734, 0.036682412, 0.06867092, -0.03324782, 0.032391425, -0.0356555, 0.15642934, 0.06769939, 0.004298006, 0.11923466, 0.011054069, 0.009775865, -0.09176157, -0.10539877, -0.13201506, -0.20656325, 0.0004939543, 0.065709874, -0.13848384, -0.05805119, -0.047202535, -0.24737316, -0.22696432, -0.21914965, -0.1628353, 0.046789464, 0.031929288, -0.1646945, 0.13543308, -0.022311708, -0.24113512, 0.009023959, 0.057668693, 0.07332334, -0.28308222, -0.1359602, 0.024596687, -0.19656663, -0.13377158, 0.009783713, -0.093789145, -0.09333393, -0.1679988, 0.10365491, 0.060013738, -0.16826561, 0.084221505, -0.28110906, -0.30905068, -0.1516919, -0.250525, 0.020130508, 0.029635131, -0.048872758, 0.0053216442, -0.016898984, -0.010756831, -0.03231805, -0.011357064, -0.018292176, -0.024417415, 0.09764625, -0.12812124, 0.12513988, -0.01983036, 0.11699677, -0.13117217, -0.01501906, 0.034744263, 0.1023716, 0.12833987, -0.22228765, 0.040675066, 0.21038884, 0.21834025, -0.064738646, 0.02681439, 0.08990991, 0.0089797815, -0.014018769, 0.18190518, -0.12967819, -0.026142204, -0.071140245, 0.09939975, 0.09151796, -0.028639745, 0.16365382, -0.13007928, -0.08170818, -0.13203308, -0.13395953, -0.07265175, -0.03354002, -0.036209367, -0.13977416, 0.047043096, 0.047852427, -0.036433183, 0.06856462, -0.053562023, 0.038056213, 0.08002552, -0.18349904, 0.10069839, -0.2544674, 0.018951591, 0.15608019, 0.010696458, -0.17578973, 0.09067383, -0.15208615, -0.16387004, 0.06955553, -0.1464894, -0.024881195, -0.060833957, 0.06882045, 0.005565795, 0.02082862, -0.23944178, -0.0626214, -0.13519453, 0.20933144, 0.15068072, 0.01677442, -0.056192935, 0.03515311, -0.061355755, -0.115993574, -0.103466675, 0.10850468, 0.058825508, 0.039219614, 0.07662797, -0.050834753, 0.08416108, -0.03922721, -0.19239512, -0.039607737, -0.02064882, -0.118211694, -0.027231032, 0.20459488, -0.22033034, -0.15317245, -0.1826816, -0.17110686, -0.017983211, 0.023548817, -0.08609808, 0.21503524, 0.06462073, -0.049657177, 0.13506912, 0.03270268, -0.16850431, 0.11899892, 0.05138585, -0.11590617, -0.052072834, 0.0025481943, -0.2047047, 0.096077286, 0.12060571, -0.33943775, -0.11850395, 0.017808124, 0.44440466, 0.21515788, 0.10933438, 0.20729093, -0.10410306, -0.19121778, -0.10060017, -0.11322438, -0.20195992, 0.33184195, 0.27942196, 0.3535782, -0.13413137, -0.13937937, 0.006308042, 0.0008689808, 0.10983444, -0.024407335, 0.0024415746, -0.2634697, -0.1391521, -0.0017207672, -0.019633764, -0.029399853, 0.1005666, -0.015389338, 0.023358302, 0.03566325, 0.14166027, 0.24492414, 0.04362869, -0.06722517, 0.1490156, -0.09146124, -0.07338182, 0.08789058, -0.025761062, 0.08310277, -0.031647723, 0.024148637, 0.0660514, 0.12246964, -0.35100663, -0.29815683, -0.29178545, -0.13946272, 0.008352254, 0.08851252, -0.20619594, 0.04577313, 0.12293737, -0.02371073, 0.07885741, 0.13287807, 0.0020231695, -0.15037172, -0.05535425, 0.017228486, -0.032417204, -0.04037008, 0.050689775, -0.0026333337, -0.056120116, 0.19823025, -0.029791158, -0.28594494, 0.17748062, -0.0778655, -0.08924008, 0.13250624, -0.14203744, 0.14482372, -0.05005028, -0.011062955, -0.033693183, 0.03261896, 0.082334116, -0.23830882, -0.09404186, 0.12278146, 0.0521023, -0.047341183, 0.00012267259, 0.09279739, 0.008059639, 0.022166276, 0.03952578, 0.34152406, 0.24050117, 0.060694236, 0.15720873, 0.0035455949, -0.052369665, 0.03789991, 0.06452431, 0.16386743, 0.11247834, 0.025448551, 0.051107824, -0.0040240674, -0.053164404, -0.016315475, -0.059357885, 0.0078701405, -0.12768391, -0.036271833, 0.03933326, -0.063719824, -0.06177148, -0.008517421, 0.06117755, 0.00049739436, -0.015872652, 0.009418455, 0.02304712, -0.020102346, -0.02157392, -0.0322744, -0.027910415, -0.037638374, -0.009616128, -0.077623874, -0.0030462856, -0.11002741, -0.011042466, -0.0037693924, -0.021938356, -0.061052587, -0.057423394, -0.069174714, 0.033823304, -0.10759105, 0.010576627, -0.09902372, -0.00083718204, -0.011971227, 0.018609857, -0.041786555, 0.0039132778, 0.0681928, -0.0036205573, 0.034756705, -0.0055040265, -0.0132059455, -0.05440605, 0.04629054, 0.021996504, -0.04653046, 0.042738143, 0.0072158333, 0.0062064244, -0.02313549, 0.026890488, -0.027762944, -0.05940329, -0.069204204, 0.0010794064, -0.061428327, -0.08332465, 0.05418021, -0.07288767, -0.08774835, -0.03329998, 0.04968621, -0.07416018, 0.04448731, 0.058610067, 0.034494407, -0.013133808, -0.0022335295, -0.0775804, -0.13818644, -0.09420215, -0.014937517, -0.020264884, 0.005850305, -0.11249054, -0.050197594, 0.076403774, -0.052817874, 0.03241615, -0.0016658984, -0.018450076, -0.052324854, -0.037044235, -0.043292336, -0.07772029, -0.07344973, 0.052189674, -0.045251183, 0.056320004, -0.0010621598, -0.0343036, -0.079296954, -0.024372438, 0.023093704, -0.01439841, -0.0850121, 0.0047427723, -0.040187612, -0.123504594, 0.041012365, -0.050126843, -0.031258125, 0.09596232, -0.02662802, 0.064179465, -0.036563993, -0.055855576, -0.056002066, -0.009480542, -0.07510509, -0.06571998, -0.054027602, -0.06008538, 0.03886806, -0.057472106, -0.040743254, -0.07178773, -0.009020715, -5.863686e-05, 0.030995274, -0.030813094, 0.0098853875, -0.0048022512, -0.02160168, 0.05276089, 0.05138976, -0.0170513, -0.047274474, -0.06299045, -0.051843707, -0.02606255, -0.06519185, -0.0768402, 0.054907337, 0.02978567, -0.06187705, 0.041245207, 0.057511605, -0.032304265, -0.0051943995, 0.004365085, -0.042415068, -0.0025723197, -0.051356103, -0.03437251, -0.0043394277, -0.004905588, 0.05281843, 0.052003764, -0.015061997, -0.04731283, -0.032210875, -0.113723725, 0.06589366, -0.06492262, -0.091949515, -0.00500834, -0.031054555, -0.07052759, -0.042006563, -0.0429908, 0.04760634, -0.06075995, 0.034217186, -0.013879276, -0.027427603, -0.05810638, -0.0037832242, 0.06923635, 0.026522923, 0.03250898, -0.044017028, 0.0006751391, -0.0017436809, 0.04538585, 0.054657616, -0.015410116, 0.009011526, -0.01575083, -0.11881439, -0.09660256, 0.022797927, -0.07815079, -0.040875174, -0.10205213, -0.07476789, 0.06744454, -0.022026809, 0.0359891, -0.06922969, -0.038481776, 0.03656789, 0.0066356286, -0.058828417, -0.0048802216, 0.0033561587, 0.058977842, -0.017980907, 0.054895937, -0.0060805306, -0.042776916, -0.0514289, -0.01571739, -0.05120004, -0.022225862, -0.060302954, -0.014381954, -0.036008257, 0.038328305, 0.0056727943, -0.074807785, -0.0061029443, -0.084186316, 0.06257618, 0.074049436, 0.009645246, 0.016280422, -0.05682171, -0.047736265, 0.04761491, 0.043587144, -0.0313335, -0.07884797, 0.035127204, 0.0054299855, 0.01803362, -0.0527168, 0.050779935, -0.016695479, -0.010906852, -0.07487612, 0.031455223, -0.07671831, -0.0669375, -0.008534124, -0.051975913, 0.061118733, -0.050729614, 0.0053721583, 0.042639326, 0.018268947, 0.032435294, 0.022447053, -0.065560155, -0.035251632, 0.058503013, -0.026305487, -0.0053606955, 0.020434182, -0.041616764, -0.027765065, -0.0068582715, 0.06433256, -0.0013449991, 0.033134136, 0.054885846, -0.03060787, 0.030716214, 0.066191114, -0.055936877, -0.046208214, 0.06728301, -0.015181547, 0.05258336, -0.116837904, -0.01639087, -0.017769372, -0.03547688, -0.0032562418, -0.04136309, 0.011999509, 0.018782489, 0.03320892, 0.027548624, -0.011465668, -0.036264822, 0.057869077, 0.023915507, 0.0584746, -0.03771497, 0.048416667, -0.0543799, -0.015542299, 0.04243315, 0.06958671, 0.0049131587, 0.033469874, -0.059196595, -0.08906275, -0.08694121, -0.085053355, -0.008339004, 0.021546694, -0.03757876, -0.070592, -0.09031649, -0.0010994194, -0.046045724, -0.07501744, 0.015950488, 0.023898434, -0.015111199, 0.0056939195, -0.062021364, -0.05482809, 0.05745416, -0.075092964, 0.02816043, -0.048196204, -0.03405801, -0.068644226, -0.050954394, -0.038714018, -0.0604833, -0.003980368, 0.0756879, -0.04595892, -0.02922394, 0.05444336, 0.083123915, -0.03934959, -0.09680023, -0.0028809558, -0.061922196, -0.077923566, -0.108152635, -0.017383805, -0.07353062, 0.025955198, -0.046688396, -0.11896056, 0.0037125542, -0.050307445, 0.0041137272, -0.054518957, 0.0075583206, -0.09224437, -0.03248591, -0.022809085, 0.009825842, 0.02291564, -0.009712477, 0.016392943, 0.044437855, -0.01197791, -0.028195446, 0.0073169474, -0.01352987, -0.078278825, -0.03524715, -0.013984001, 0.083309256, -0.051919963, -0.06532613, -0.01951958, -0.029361073, -0.06257688, 0.011884398, 1.2767675e-05, -0.061424933, -0.01091151, 0.06592983, 0.041364953, 0.008695524, 0.053291667, -0.051989578, -0.012700251, -0.021550674, -0.036066197, 0.013206429, -0.062257223, 0.0011068843, -0.105348736, 0.013508978, -0.02320756, -0.011832253, -0.006358792, -0.070741445, -0.02584895, 0.049818136, 0.03596876, -0.07255625, -0.016296418, -0.06532506, -0.017181072, -0.053293955, -0.0010099321, -0.051957645, -0.00049647974, -0.032918617, 0.0150404135, -0.0073611904, 0.026023107, -0.087262765, -0.077672616, -0.05696037, -0.0155017935, -0.035745844, 0.03448639, 0.03408713, 0.00909111, -0.0344694, -0.05094088, 0.05298351, -0.010557535, 0.02344287, 0.052896734, 0.058599427, 0.06579652, -0.004793833, -0.023038305, -0.032427073, -0.040159974, 0.029720519, -0.006424929, -0.0227205, 0.013691241, 0.033802513, -0.006885911, 0.011409557, -0.020274736, -0.08153631, -0.028422028, 0.036309853, -0.039128233, -0.072902024, 0.06689776, -0.07145001, 0.033402685, -0.049148597, -0.042250372, -0.05713827, -0.03904186, 0.0064590587, -0.002620746, 0.018697845, 0.051642228, -0.032003477, 0.04090452, 0.05104275, 0.07748245, -0.029688464, 0.045560557, -0.062476225, -0.09384057, 0.035694793, 0.016665664, -0.03940903, -0.043069787, -0.021051332, 0.010530903, -0.051665265, -0.028054891, -0.045751326, 0.031772163, 0.015763236, -0.030732604, -0.016998895, 0.028631942, -0.020687167, -0.049945135, -0.0603557, -0.043034516, -0.028268348, -0.008217554, -0.07942991, -0.0253667, 0.01624584, -0.09125253, -0.08248469, -0.050356656, -0.015851114, -0.00015145083, -0.023164265, -0.036346316, 0.021735616, -0.010067895, 0.03635609, -0.008708399, -0.07953717, -0.0048076124, -0.034698818, -0.07222748, -0.04303534, 0.02846125, -0.019669158, 0.01739738, -0.049661417, -0.086663, 0.0066978415, -0.039304808, 0.033296604, 0.00049045705, -0.08271755, -0.10756012, -0.05032605, -0.0046116817, -0.039082672, 0.0030438649, 0.0064351093, -0.053218465, -0.10669968, -0.016406015, -0.08019657, -0.043862365, -0.008007839, -0.060020488, -0.046046972, -0.13753323, -0.101402484, 0.06920927, -0.06133554, 0.043396894, -0.008560571, -0.048918366, 0.024455689, 0.047982194, -0.025663117, 0.009322701, -0.005766311, -0.10588907, -0.058087282, -0.028545087, 0.014988933, -0.07543631, -0.0012585273, -0.016381502, -0.008514249, 0.0240486, 0.055147745, 0.059836496, -0.04002487, 0.049115892, 0.023833591, -0.011948197, -0.022494873, -0.09040295, -0.023297733, -0.03223878, -0.01395585, -0.13981356, -0.07192197, -0.08623754, -0.16426651, -0.13057308, -0.009928283, 0.039856892, -0.035591714, 0.033437308, -0.038787223, -0.02293903, 0.026176646, -0.08365514, -0.056122288, -0.03939464, -0.08656385, -0.0043387646, -0.053584903, 0.0027720444, -0.04589075, 0.053803675, -0.10356253, -0.04459955, 0.057694077, -0.015011888, -0.054554995, -0.0030772726, -0.03310512, -0.025173059, -0.061180804, -0.06438316, -0.10653667, -0.009053461, -0.080747224, -0.035940442, -0.06565721, 0.019072648, -0.046245515, -0.036103312, -0.040588908, 0.027050333, -0.0036994, -0.0072460473, 0.012322849, -0.073954456, -0.075523, 0.039621852, -0.058933884, -0.07936172, -0.031092608, -0.019386746, -0.0020792102, -0.046040047, -0.047771677, -0.0036005112, -0.011925147, -0.04126481, -0.03207461, -0.06898802, -0.05300709, -0.07112656, -0.06541036, -0.0038075708, -0.074058555, 0.030569553, -0.038846854, -0.06310479, -0.0074620615, 0.00046295638, 0.03982948, -0.067248516, -0.06508804, -0.020872122, 0.031908844, 0.049586706, -0.06109919, -0.029814579, 0.057480983, -0.05422181, -0.07098161, -0.06556071, -0.021029672, -0.035547223, -0.06776041, -0.028642021, 0.052707907, -0.0075704786, -0.008380935, -0.02255113, 0.03385824, -0.037263233, -0.0048031257, 0.05798759, 0.024176493, -0.013566394, 0.03317606, -0.06571226, -0.019734465, 0.058642834, 0.042305384, -0.07006975, 0.03724309, -0.07348369, -0.008814639, 0.016209474, -0.08131134, -0.01864708, -0.025456958, -0.085603125, -0.0885986, -0.010918208, -0.048110314, -0.078578524, -0.106926985, 0.031227589, 0.012825593, -0.0018098387, -0.07490191, 0.0015300909, 0.03600424, 0.0072232983, 0.01545412, 0.0056397733, 0.0099092275, 0.044150054, -0.03488129, -0.054187324, -0.03666425, -0.018839749, -0.03758399, 0.00701819, -0.054507364, -0.029668571, 0.042114902, -0.06918178, 0.043289118, -0.049078144, -0.03426715, 0.027403329, -0.039590668, -0.0021691562, 0.03125159, 0.053859815, 0.04623885, -0.010917756, -0.018838406, -0.061407913, -0.029303074, 0.058892373, 0.060074348, -0.013121882, -0.010667093, -0.020709591, -0.009208529, -0.050643865, -0.009461088, -0.030925816, -0.041778546, 0.034022767, -0.022317829, -0.016368728, 0.047409803, -0.09034762, -0.052006774, -0.04760842, -0.062398344, 0.0511437, -0.0532974, -0.0052003902, 0.07033646, -0.008105308, -0.009679554, 0.007343272, 0.010996817, -0.011456627, -0.05147784, 0.068322495, 0.0111600105, 0.019941932, -0.009965315, -0.04990678, -0.07794242, 0.01803616, -0.026269758, 0.0012852801, -0.077989064, 0.026231093, 0.032637253, 0.042309627, 0.05177455, 0.020477276, -0.022164077, -0.015060867, 0.03982, -0.053030226, 0.030821605, -0.035632983, -0.04230793, -0.045550995, 0.0503243, 0.009169753, 0.05215482, -0.021618571, 0.027986076, -0.045704916, -0.05539161, 0.031585887, 0.050111547, -0.047138818, -0.011638435, 0.054633763, -0.035222683, 0.04320251, -0.06008821, -0.042376917, 0.029663896, -0.013992648, 0.002572167, 0.047148384, 0.04745862, -0.014567554, -0.044525895, -0.10788064, 0.024201503, -0.097588874, -0.084565826, -0.043656647, -0.045589194, 0.013999572, 0.00935105, -0.0577104, 0.021702059, 0.008983292, -0.018099733, -0.016209424, 0.06472163, -0.05543966, 0.049452424, -0.06688443, -0.040146478, -0.02033718, 0.001962087, 0.027864028, 0.00731305, 0.011690613, 0.05065102, -0.048523292, 0.053399283, -0.0046805004, 0.02853457, -0.041697826, -0.073587604, -0.024021365, -0.0196404, -0.0113902455, -0.040502004, -0.052070376, -0.042235147, 0.034106795, 0.06437321, -0.0013750892, -0.0118548535, 0.014532116, 0.080740646, -0.047445934, -0.044591952, -0.003965998, -0.000661777, -0.080803245, -0.054923944, 0.04543098, -0.088925876, 0.042119797, -0.009721398, 0.058146898, 0.019811833, 0.033869177, 0.0062054596, 0.052324254, 0.01571114, -0.024575545, 0.049662657, -0.06783318, -0.014534145, -0.067656346, -0.046930313, 0.026316449, -0.03563902, -0.025269978, 0.04883658, -0.06843209, 0.026523797, 0.047041427, 0.010017752, -0.049252797, 0.013137254, -0.07502375, 0.0113255, 0.026480451, 0.028794212, 0.0215587, 0.025247984, 0.020026894, -0.010917251, -0.007816606, -0.07131055, -0.029726898, 0.010351829, -0.034984957, 0.021279117, 0.04417328, -0.031761132, -0.014503859, -0.026398819, 0.049655214, -0.031761512, -0.04850726, -0.052784953, 0.057174727, 0.059084147, -0.017030858, 4.4662946e-05, 0.029451989, -0.08302407, 0.0023908357, -0.026939599, -0.041178722, -0.08462918, -0.019444281, 0.033263013, -0.059240084, -0.0921364, -0.07843703, 0.04998733, 0.024503844, -0.05200297, -0.008425413, -0.1402546, -0.013319192, -0.040946003, 0.026021274, 0.031967863, 0.064329006, 0.017944632, 0.002126256, 0.027859848, -0.07637216, 0.04208207, -0.0826814, 0.0026392275, -0.03863492, -0.029407166, 0.018609883, -0.07719221, -0.07403564, -0.027579868, -0.0031581507, 0.031177757, 0.004542445, -0.08410992, -0.00018398945, -0.086288005, -0.024167784, 0.027220696, -0.125348, 0.0022185121, 0.04425957, -0.029083446, -0.04288032, -0.0672264, -0.05853843, -0.012439704, -0.07884185, -0.033859078, -0.03686008, 0.015625931, -0.073890224, -0.07355463, 0.01798009, -0.058024455, 0.05907746, -0.019926589, 0.007081285, 0.039271526, -0.062119264, 0.03984434, -0.00819473, -0.0133449, -0.036119446, -0.03411987, -0.028462807, 0.020760758, -0.019139767, -0.023991667, 0.055895668, -0.038558707, -0.032078076, -0.007505744, -0.0008005816, 0.047257587, 0.052622758, 0.06863025, -0.031544313, -0.07231524, 0.0050061843, -0.011414993, 0.022451555, 0.048027918, 0.040689588, 0.02835954, -0.057127304, -0.063099876, 0.052011427, -0.06566325, -0.0817207, -0.005635883, -0.07964602, -0.03164827, -0.07932757, -0.07999404, -0.003824792, -0.020668445, 0.014797367, 0.00923777, 0.04058774, 0.039142314, 0.020026937, -0.00012994822, 0.009065685, -0.057530813, -0.07924429, -0.008669462, -0.024353424, -0.02204498, -0.07567586, -0.024600314, 0.051573586, -0.003101683, -0.022851154, 0.0057537155, -0.052624807, -0.02918071, -0.010724743, -0.07049732, -0.07160394, -0.0127599435, -0.06816072, -0.028065106, -0.019276312, 0.020302264, 0.0082476605, -0.07196748, -0.061079204, 0.017699005, 0.0137034645, 0.009403634, 0.051188227, -0.006311664, -0.0011655465, -0.032095063, -0.0067698876, -0.02358384, 0.0028250732, -0.018989628, -0.048476122, -0.040399794, -0.08452957, -0.04278723, -0.07180691, -0.02682993, 0.005899336, 0.02003676, -0.052000403, 0.0026332752, 0.004424846, -0.008395312, 0.04467786, -0.0134798195, 0.025871363, -0.030238153, 0.037547834, -0.038003553, -0.0045240633, -0.025768323, -0.008690981, 0.009131019, 0.02243817, -0.02856391, 0.02091459, 0.03733603, -0.061128184, 0.041704636, -0.051606644, -0.057176832, -0.0798252, 0.030495297, -0.009744672, -0.0812249, 0.012292687, -0.010212598, -0.030736653, 0.06100074, -0.018703349, -0.027406525, 0.03156298, -0.0070412424, 0.00892761, 0.0485329, -0.0348195, 0.05294971, -0.061481882, -0.031349465, 0.044126302, -0.024492193, -0.06930005, -0.0479981, 0.05181732, -0.030699763, -0.030770706, 0.049595285, 0.05421251, 0.02292752, -0.02870302, 0.011954589, 0.01701658, -0.078254275, -0.07959496, 0.0071260217, -0.04455793, -0.04233408, 0.029380856, 0.05123738, -0.031029373, 0.02366238, 0.03459463, -0.009605189, 0.028194545, -0.037911084, -0.08840848, -0.0427649, -0.039233193, -0.0064615738, -0.04789873, -0.0003010598, -0.013048458, -0.06039822, -0.080598384, 0.057281706, 0.029311122, 0.053759534, 0.04376729, 0.06358199, -0.052262157, -0.0734956, -0.02269963, 0.016666993, 0.015465516, -0.039329413, 0.03811257, -0.0062737195, 0.013227072, 0.03283815, 0.04511951, 0.006283341, -0.03331697, 0.0031430102, -0.017924674, -0.042691916, 0.0030522756, -0.036051776, 0.030993367, -0.029050222, 0.0023167792, -0.03126755, -0.01665955, -0.014364831, -0.055624954, -0.014843374, -0.04421383, -0.03733079, -0.073120035, 0.041322332, 0.0032740892, -0.013482244, -0.04918282, 0.03317572, 0.035205103, -0.016827198, -0.017838025, 0.032048926, -0.018670838, -0.044108104, 0.013096681, 0.072239384, 0.031782877, 0.0066397768, 0.0635989, 0.024632681, 0.036507, -0.050864555, -0.06550128, -0.015163663, 0.04251836, -0.029255318, 0.04033862, -0.013241111, -0.026690561, 0.002627193, -0.06629857, 0.06303114, 0.13635539, 0.11379155, 0.026999488, 0.060551316, 0.08238891, -0.060449388, 0.1064073, 0.053573404, 0.0014534866, -0.07076057, -0.031127848, -0.08240353, 0.13558528, -0.02285643, -0.0971519, 0.0026843587, -0.15290704, 0.22804308, -0.08519396, -0.034770258, 0.31199753, 0.33255103, -0.0006923431, 0.27100387, 0.41434014, 0.07571995, 0.09032763, 0.08175908, -0.10194897, -0.04249738, -0.021182159, -0.048551485, -0.19108455, -0.10384659, -0.15970819, 0.026108539, -0.03934329, -0.08681234, -0.06534465, -0.10907781, -0.010955456, -0.13706306, -0.0019224004, 0.008817923, -0.08723744, 0.22193198, 0.026316183, 0.022975119, -0.06948433, 0.015123873, 0.27832055, 0.08574008, 0.047943614, 0.2436606, 0.19833785, 0.14408287, 0.010863491, -0.065432645, -0.1198759, 0.2727689, 0.014215026, 0.01659296, -0.0071880175, 0.037528433, -0.006135125, 0.030239591, -0.030432483, 0.05383283, -0.014723165, 0.062129326, -0.06170716, -0.09153572, -0.14080428, -0.010999313, -0.28409404, -0.102521054, -0.08030396, -0.5715942, -0.17442292, -0.1329927, 0.053037528, -0.03275651, 0.025027568, -0.16105424, -0.030465027, 0.06603241, -0.37795097, 0.2292088, 0.27154452, 0.22086906, 0.21156695, 0.06766971, -0.060318265, 0.065675065, 5.5046745e-05, -0.06758809, -0.11745978, -0.13187835, -0.13280371, 0.01786278, 0.0068576653, -0.04087252, 0.06997822, -0.10871764, 0.07397053, -0.14674123, -0.33622158, -0.046276197, 0.060737524, 0.036493022, -0.015346281, -0.017617444, -0.012040571, 0.315245, 0.13247584, 0.039654966, -0.10149501, -0.12136544, 0.10194629, -0.2758595, -0.043970983, -0.18811636, -0.31810173, -0.07876671, -0.37484446, -0.034486603, 0.07413817, 0.15890065, -0.11571986, -0.12145133, 0.020038798, -0.414329, -0.16339432, -0.012666209, -0.031235782, 0.023471484, 0.052439425, -0.007744369, 0.081568964, 0.02773815, 0.09591686, 0.078568615, 0.05010086, -0.12353883, -0.23806137, 0.095112115, -0.15217055, -0.021249272, 0.18122642, -0.16290925, -0.027396368, 0.10208545, -0.057468504, -0.14844663, 0.12810345, -0.0027163946, 0.072112784, 0.17586449, -0.13020086, 0.006685678, 0.12050659, 0.03814709, -0.041528247, 0.048587855, 0.07647115, 0.057292897, -0.12185556, -0.32435295, -0.17124955, 0.04349588, 0.017691359, 0.011468573, 0.04848316, -0.04639166, 0.026710888, -0.037313115, -0.031152893, 0.014931997, -0.009252701, 0.1355428, 0.11991551, 0.039684605, -0.029047588, -0.18895827, -0.01073073, 0.15080085, -0.22419716, -0.20798062, -0.010061213, 0.06695431, 0.2972926, 0.019086402, -0.1473162, -0.14715019, 0.010214559, -0.09872416, -0.13757312, 0.04745414, 0.021687219, -0.03566393, 0.023700763, 0.022367464, 0.018251717, 0.01549473, -0.03343237, -0.013897353, -0.0375883, -0.102405086, 0.016984874, -0.05821066, 0.08430944, 0.31297767, -0.077946804, 0.054896347, 0.21010546, 0.030335218, -0.14763708, -0.23865269, -0.30511466, -0.26471528, 0.026758311, -0.11189432, -0.19485585, 0.2019897, 0.1914546, -0.09834863, 0.03672907, 0.0041339262, -0.0011770298, -0.055574134, -0.077957, 0.09442363, 0.09416336, 0.24993221, 0.010177006, -0.062334746, -0.036411293, -0.23121348, -0.16734003, 0.320026, -0.19215257, 0.07132586, -0.1714123, -0.058963023, 0.17688037, -0.16226757, -0.016164746, 0.0796901, -0.14567634, -0.045881405, 0.12905169, 0.039483614, -0.014923936, 0.042146955, 0.08006575, -0.04365004, 0.03505289, 0.042985246, -0.015850632, 0.057472426, 0.046500955, -0.00023591467, -0.10561812, -0.24060899, -0.345344, -0.12196287, -0.4031937, -0.43631765, -0.14565463, 0.25394598, -0.090199225, -0.12187195, 0.03294231, -0.08861774, -0.20423156, 0.20685002, -0.046989776, -0.016716192, 0.03758603, 0.017998355, 0.041184086, 0.06754693, 0.025003934, 0.005776432, -0.08338756, 0.013093481, 0.074644, 0.15606616, 0.11425734, 0.11599267, -0.15902077, -0.1493428, 0.0045809774, 0.041681744, 0.030168803, 0.023306405, 0.06652396, 0.019598497, 0.21619335, 0.10013315, 0.13063495, 0.061494984, -0.024244318, 0.10328637, -0.0017454779, -0.050941005, -0.011516199, -0.040709827, 0.0528167, 0.037622787, -0.010279865, -0.04019377, -0.039844397, 0.0013933723, -0.0580183, -0.079564065, -0.25416568, -0.025437538, 0.12275753, -0.16295964, -0.041645776, 0.01835292, -0.18214577, 0.23920555, 0.03444751, -0.11594368, 0.23168798, -0.16815674, -0.19857651, 0.20375644, -0.034217432, -0.038016032, 0.22040342, 0.113421485, 0.009767365, -0.049481925, -0.11885404, -0.06733723, -0.03669691, -0.026766255, -0.05031291, 0.0012203498, 0.08891314, 0.160642, 0.0313856, 0.1487649, 0.13328396, 0.011896356, -0.057367153, -0.082234345, 0.032480575, 0.037131, -0.11556843, 0.1206281, 0.120333016, -0.23878577, 0.42095482, -0.02726773, 0.13862744, -0.0799081, -0.07823288, -0.052184064, 0.03688289, -0.08361304, -0.0069707655, 0.015017385, 0.020451779, -0.070319496, 0.33214498, -0.025180181, -0.17219767, 0.40443414, 0.06458867, -0.14386599, 0.49187037, 0.081224464, -0.08172846, 0.21637312, -0.07963541, -0.11425157, -0.15067011, -0.11605426, 0.067759044, -0.011615959, -0.07462933, -0.09289033, -0.0867251, 0.027662566, -0.21430162, -0.422749, 0.082343645, 0.044873334, -0.45021665, -0.16998225, -0.08740096, -0.03889764, 0.066562794, -0.03728841, -0.05882721, 0.13370182, 0.0449127, 0.16708122, 0.19942808, 0.09544119, -0.39374676, -0.29111993, -0.056521844, -0.19700691, -0.06148037, -0.055281956, -0.15934741, 0.09816696, 0.066353284, -0.06315759, 0.06584378, -0.056087606, -0.05834818, 0.104929075, -0.17000592, -0.5639885, -0.09185944, -0.047832347, 0.2566601, 0.0837414, -0.06103726, 0.04172752, -0.068990916, -0.12929213, 0.23289347, 0.12105358, -0.06841785, -0.19688587, 0.03544178, -0.17913577, -0.45952356, 0.069749, 0.10132701, -0.5562561, -0.1588835, 0.11346431, -0.20329878, -0.045418516, 0.1421331, -0.21567957, 0.18633759, 0.057190336, -0.07174618, 0.01582429, 0.120135054, 0.17240527, 0.030820899, 0.021899221, 0.4403168, -0.15167832, -0.20250532, 0.24270584, -0.1307197, -0.012851487, 0.19548771, 0.11207127, 0.010131237, -0.078389, -0.26488295, -0.088330954, -0.059117638, -0.10172712, -0.047787726, 0.19846617, 0.10393259, 0.106369436, 0.12854847, 0.0715934, 0.023622448, 0.30938584, -0.019493664, -0.0021298805, 0.14500573, -0.10310478, -0.2403886, 0.1927705, -0.024834407, -0.175795, 0.11360058, 0.05970965, 0.021300875, -0.051537797, -0.10848638, -0.1935139, 0.1503945, -0.11946057, -0.04761976, 0.27335402, 0.0131516075, 0.046506703, -0.013149209, 0.092854515, 0.08130296, -0.03332894, 0.18049844, 0.17599005, 0.19848998, 0.11511945, 0.11294086, 0.011655594, -0.1099215, 0.10569709, 0.17396487, 0.11245559, 0.15049215, -0.09032976, 0.040797222, -0.03354576, 0.19118935, 0.055063576, -0.099739455, 0.29489776, 0.011420626, -0.116492964, 0.34323004, -0.08746299, -0.063780785, -0.117205806, 0.12713133, -0.023805983, -0.28721976, -0.19841872, -0.11680758, 0.14960074, 0.10342611, 0.2600446, -0.18668658, 0.00024358861, -0.00045715037, -0.13843976, -0.052240934, 0.13239962, -0.13508417, 0.073127754, -0.0002728157, -0.15670711, -0.055636287, -0.033221524, -0.15307395, -0.02244105, 0.1622255, -0.48517516, -0.17621739, 0.13542955, -0.04351337, -0.16435522, -0.2781177, -0.09775478, -0.32599247, -0.07286227, 0.040044215, -0.19384542, -0.17261563, 0.040022336, 0.11776809, 0.05121753, -0.078060925, 0.15465778, 0.35516194, -0.58290553, -0.25745806, 0.2651471, -0.017355021, 0.18220928, 0.14374499, -0.40314442, -0.25602728, 0.009959831, -0.2223834, 0.0205124, 0.03396038, -0.12316818, -0.021210335, 0.0068593635, 0.037127562, 0.10728557, 0.101438075, 0.061264433, 0.035290983, 0.19504471, -0.09081277, -0.015933922, 0.17057633, -0.20572269, -0.042698536, 0.09621827, 0.050572976, 0.089481354, 0.27856487, 0.09410501, -0.04496085, -0.054708347, -0.02670548, 0.008053119, 0.035985686, 0.052477207, 0.14526685, 0.1215636, 0.17595607, 0.025581107, -0.23610584, -0.13802579, -0.08511112, -0.000150662, 0.05820467, 0.06527448, 0.23373324, 0.007927239, -0.017006306, 0.031305544, -0.14564641, -0.017515456, 0.013219603, -0.07397117, 0.033863325, 0.01712125, 0.010714423, 0.19678657, 0.14792205, -0.024917709, -0.089353375, 0.025646899, -0.063966535, -0.1731019, -0.20451716, -0.09619758, 0.19306816, 0.078645125, -0.03095151, -0.011581881, 0.04290459, 0.07831023, -0.05921788, 0.068548456, -0.01754308, -0.016125819, -0.030228565, -0.057902, 0.014232115, 0.054237574, 0.007241049, 0.038732197, -0.06963304, 0.066803895, 0.07835831, 0.22049427, -0.14681593, -0.009522138, 0.15347403, -0.14724468, 0.06354505, 0.1709292, 0.023958072, 0.18813938, 0.061641306, 0.18680769, 0.15734172, 0.07273166, 0.18147615, -0.10687612, 0.24667037, 0.08203608, 0.11196375, -0.087106206, 0.101671495, -0.12087868, -0.12006302, -0.06827336, -0.12640637, -0.39576623, -0.012549891, -0.1200206, 0.11168383, -0.1298638, -0.2159641, -0.2563462, -0.2332545, -0.18490113, -0.04881266, 0.0064066253, -0.04940511, -0.19757369, -0.039382353, -0.2526838, -0.12258282, -0.021124786, -0.098098665, -0.07512091, 0.0021595156, 0.12532243, 0.21739079, -0.12601405, -0.015076972, 0.15226625, -0.21428862, 0.1455041, -0.23225307, 0.067050725, 0.058921278, 0.23302549, 0.06726241, 0.012648432, 0.18001118, 0.191227, 0.16581659, 0.11940578, 0.06029705, 0.032108862, 0.013664441, 0.084371634, 0.06318382, 0.010893865, 0.07947054, -0.013470422, 0.09952872, -0.12921566, 0.097251564, 0.04279441, -0.29028815, 0.040812954, 0.018261608, -0.257669, -0.20947611, -0.118440956, 0.2549651, 0.1902285, 0.18637176, 0.06524501, 0.049825445, 0.02008849, 0.11810273, -0.20313765, -0.13355702, 0.20305444, 0.12439994, -0.024681345, 0.11536502, 0.07289441, -0.2048899, 0.14390723, -0.1394002, -0.113586724, 0.120318115, 0.10822427, 0.064120576, 0.0072870124, 0.08067583, 0.026115203, 0.027615529, 0.06421105, 0.012524767, 0.06813497, 0.012266504, 0.035545837, 0.06843941, -0.013412723, -0.16084962, -0.09006411, -0.09566016, -0.04762389, 0.049186256, 0.15018068, -0.18716002, -0.21277411, -0.018597156, -0.24760984, 0.010575565, -0.27155498, -0.09159693, 0.031703852, 0.003631373, 0.056154743, -0.06735023, 0.07027922, 0.064402215, 0.034743506, 0.034440905, -0.04601557, 0.0032616947, -0.16578493, -0.023171041, 0.04388831, -0.031887766, 0.042007558, -0.010428511, 0.12082534, 0.10520114, -0.0774626, -0.21312478, -0.41588745, 0.026519222, -0.13269809, -0.14019242, 0.00035889097, -0.10109121, -0.057383813, 0.18892577, 0.20364249, -0.17493355, -0.25693974, -0.02585892, -0.2666754, -0.4091003, -0.19502315, 0.0959439, 0.0015371477, 0.041353427, 0.04261294, -0.12329795, -0.26282027, -0.33363226, 0.1703262, 0.0076554026, 0.082645044, -0.04163431, 0.048761535, -0.13170806, -0.13049981, 0.0321801, 0.03820632, -0.0998371, -0.10227269, -0.117705934, -0.014357863, 0.026663506, -0.027136002, -0.0124830995, 0.025426513, -0.03142172, 0.06879124, 0.004638648, 0.025931751, 0.027403371, 0.057689834, -0.06650642, -0.08252338, 0.04808454, -0.24197927, -0.21542099, -0.25205895, -0.36235535, 0.19281241, -0.04604197, 0.032123905, -0.018950934, -0.21450819, -0.120305374, -0.106553614, -0.05832196, -0.17975384, -0.045998584, 0.028324988, 0.079964355, -0.0076241577, -0.0320679, 0.010124119, -0.066885024, 0.02131584, -0.044521146, 0.10084071, 0.025535395, 0.019559706, 0.09899198, 0.0055235773, -0.028274475, 0.195713, -0.012385393, -0.045223083, 0.11340522, 0.11345675, 0.09736539, -0.098776296, -0.014194324, 0.041390087, -0.04755449, -0.008447358, 0.14207947, 0.04580916, 0.062368833, -0.0475826, 0.018018028, 0.033917867, 0.00774727, 0.046765037, -0.006010372, 0.02878801, 0.14709282, -0.14263164, -0.17846303, -0.049054917, 0.0041280063, -0.51045436, -0.41320863, -0.27303258, -0.5126873, 0.075641684, 0.052426953, 0.07300905, 0.024654744, -0.18403329, -0.12029062, 0.06496949, -0.037094843, -0.056355488, -0.016067179, -0.052959036, 0.13233227, 0.061606627, 0.04027082, 0.092641905, -0.098791786, -0.046964318, -0.06681409, 0.2764815, -0.034912452, 0.17290881, 0.18557113, 0.040796634, -0.14625421, -0.022184879, -0.19731992, -0.3642697, -0.01072157, 0.03907962, 0.061575208, 0.20178346, -0.07667623, 0.093624055, 0.08670053, -0.020364875, -0.12935194, 0.016141064, -0.052387133, -0.0376012, 0.010903217, -0.04838742, -0.037492037, 0.028944463, -0.0020686814, 0.07813775, 0.14876808, -0.0921631, -0.078405574, 0.31418222, 0.12786771, -0.06791707, 0.3218387, 0.044304166, 0.061383698, -0.123565905, -0.08228332, -0.03699417, -0.4498147, -0.19867069, -0.059449665, -0.25156054, 0.08619007, 0.0700749, 0.058104318, 0.08053306, 0.21370259, -0.19230439, -0.005907919, -0.012827216, -0.23505515, -0.40554142, -0.16787478, -0.053578123, -0.017533759, 0.03909432, -0.15461542, -0.1455624, 0.14432721, -0.1869561, 0.010957761, 0.021551032, -0.05372941, 0.001499258, -0.004016952, -0.07479481, -0.11454289, 0.08361359, -0.09020301, -0.28665942, -0.18988028, 0.1257953, 0.031077981, -0.21826328, -0.002646621, -0.1724281, -0.111888304, -0.15819256, -0.23792796, -0.11300037, 0.061192032, -0.017959975, 0.0351137, 0.046350133, 0.00879382, -0.049421143, 0.08001301, 0.14626563, -0.03785752, 0.21592522, 0.042970017, -0.09842274, 0.009939744, -0.10343259, -0.019104268, -0.08323815, -0.23255002, -0.13956161, 0.034688972, 0.011366286, 0.041167695, -0.048522525, -0.18641143, -0.11255414, -0.16384287, -0.47776115, -0.2959292, 0.18806961, 0.13573006, 0.04301943, -0.09772345, -0.09862728, -0.33376208, -0.10600656, -0.109492324, -0.36715803, 0.022017565, 0.08165228, 0.22041816, 0.16258003, 0.07778875, -0.0472863, 0.10274847, 0.03880004, -0.13509388, -0.055438578, -0.01001528, 0.060973924, -0.14207956, -0.17578125, -0.14314206, -0.28513664, -0.15198171, -0.21780835, -0.026426459, 0.12640595, -0.050796434, -0.16689757, 0.0036223407, -0.15348731, -0.15170015, 0.09416198, 0.013903828, -0.09123731, -0.19717972, -0.30695093, -0.08146537, -0.10200051, -0.019862648, 0.22535862, 0.15132603, 0.22798496, 0.11329027, 0.016911402, -0.014532801, 0.087921746, 0.00014538114, -0.024204213, -0.014497991, -0.10700656, -0.19286565, 0.10648625, 0.018360483, 0.0042661107, 0.0022704871, 0.08675148, -0.04035485, -0.37043813, -0.32882342, -0.5432247, 0.316842, 0.033694647, -0.028255787, 0.07896426, -0.15175758, -0.29452178, 0.140219, 0.010128058, -0.17528407, -0.076220684, 0.2351442, 0.21306802, 0.1499579, 0.23511837, 0.15128389, 0.08323394, 0.14883575, -0.033230416, -0.05276854, -0.029118737, 0.13980013, 0.054216232, 0.08319146, 0.0672667, -0.0032145302, 0.17721559, 0.2616563, -0.057042852, 0.21156964, 0.039373595, -0.047996968, -0.027379055, -0.16592075, 0.015454889, -0.056045223, -0.17452253, 0.04350751, 0.15541984, 0.056664918, 0.10571702, -0.0056393347, -0.09685761, -0.05159194, -0.17667218, -0.049268495, 0.12503265, -0.0074606715, 0.09370992, 0.051801912, -0.00026436, -0.006288272, -0.03188209, -0.035891265, 0.4047639, 0.004289862, -0.05233192, 0.06368792, -0.006377913, 0.039490048, 0.055025153, 0.18510367, 0.14268334, -0.03314309, 0.044987503, 0.043630548, -0.08910804, 0.01006458, -0.08699523, -0.06665984, -0.07266595, -0.06307987, -0.0005320195, -0.057823922, 0.025360469, -0.0037461207, 0.03272358, 0.0083493525, -0.05574602, -0.005095301, -0.04013109, -0.02981622, 0.03736856, -0.037377276, 0.00048459295, 0.007453501, -0.010821221, -0.056835596, -0.10583227, -0.05220885, -0.07932193, -0.0064809956, -0.025767364, 0.010709519, -0.015190761, -0.020718979, -0.0022859238, 0.042866133, -0.06893107, -0.035195466, -0.07503492, -0.08135566, -0.05770349, 0.016797487, -0.061342906, 0.032406565, -0.056533016, -0.04433881, -0.06740183, 0.04378045, -0.03139794, 0.027604297, -0.038938876, -0.008785344, 0.0014879741, -0.049370706, -0.06290573, 0.009588642, 0.042758532, -0.043882523, -0.073200636, -0.08369454, -0.075580835, 0.032888502, 0.014561883, 0.011686622, 0.05337994, 0.06791328, -0.0038914979, -0.04283915, 0.04850568, -0.02025893, 0.04248114, 0.008656636, -0.06888032, -0.031702977, -0.055734158, 0.010111601, 0.023408795, 0.03094867, -0.011751675, -0.07797931, -0.0905701, 0.014847509, 0.00023394717, -0.058111783, -0.06072787, -0.020792348, -0.060153373, -0.035764188, 0.018268812, -0.006291837, -0.021846063, 0.06352918, 0.031340558, -0.1016049, -0.03366269, 0.016402882, -0.06845681, -0.073565856, -0.021911498, -0.081477635, -0.035902135, -0.029985005, -0.02378224, -0.058320977, -0.017949639, 0.022285955, -0.07219917, 0.014360408, -0.018469594, 0.04334397, 0.03077471, -0.06444148, -0.034880232, 0.040083542, 0.018910497, -0.001992763, 0.028677024, -0.01720178, -0.0589848, -0.05484024, -0.082693234, -0.006294698, 0.03919019, -0.08924324, -0.021417577, -0.1060361, -0.027641825, -0.064054355, -0.04031499, -0.011620333, 0.046244353, 0.063652344, 0.046506412, 0.051857453, 0.003349859, -0.02400662, -0.051303044, -0.039112575, -0.03809327, -0.05457189, 0.014601164, 0.07000671, 0.009379372, -0.0154347755, 0.061588496, 0.03466302, -0.0068086223, 0.05576627, -0.017830297, 0.026519822, 0.0033167899, 0.0047959685, -0.06424118, 0.009410188, -0.028786495, -0.027351584, -0.022228582, -0.039045002, -0.11411906, 0.00849213, 0.011034774, -0.059675448, 0.0068864464, -0.07954003, -0.049645685, 0.024234325, -0.046150327, 0.068474606, -0.013273326, -0.054706402, 0.015957966, -0.0074613728, -0.029887907, -0.024872132, 0.020202488, -0.06401205, -0.007904664, 0.026113585, -0.016150665, -0.03832817, -0.01420939, -0.042447276, 0.01608042, -0.06869602, 0.020464616, -0.033883452, 0.012628443, 0.023577325, -0.045543946, -0.003806914, 0.016189467, -0.012176197, -0.034340482, 0.029163972, 0.055161722, -0.024749536, -0.066032015, 0.06285678, 0.007026666, -0.015963942, 0.05462724, 0.031812906, 0.026364282, 0.06691837, 0.043268792, 0.0008093044, -0.057069395, 0.05608134, 0.05533284, -0.10533558, -0.00982596, 0.049393337, -0.07968888, -0.059606895, -0.06032709, 0.02316758, -0.069399394, -0.08859563, -0.025540099, -0.008535162, -0.024438512, -0.011424363, 0.026569948, 0.06998746, -0.035243586, 0.04725434, -0.05631849, 0.0024075657, -0.0608373, -0.018851895, -0.0056976825, -0.025917366, 0.022633187, 0.027230762, -0.025066957, 0.04500562, 0.02445114, -0.055516966, -0.089060806, -0.06172285, -0.0056090415, 0.0026848072, -0.06564689, -0.080895744, -0.026765784, 0.005218588, 0.016488234, 0.040695753, -0.058229383, -0.043035608, 0.042340815, -0.028360907, 0.061686695, 0.00032945295, 0.03627886, -0.001752846, 0.06707822, 0.03138846, 0.004974723, 0.003965363, -0.06560963, -0.024739917, -0.053891756, -0.03713237, -0.018853588, -0.09675648, -0.02305614, -0.028122602, -0.050722193, -0.033316992, 0.013463752, -0.014964553, -0.0513777, -0.041146293, 0.0585642, -0.003551297, 0.06817688, 0.018163173, -0.054437026, -0.0110592395, -0.08151849, -0.029624946, -0.036499202, -0.04123977, -0.06924344, -0.0024789423, -0.033132363, 0.006871626, -0.034749813, 0.04979237, -0.049699184, 0.042649314, 0.02844738, -0.03061694, -0.042751454, -0.098996, 0.021414505, -0.0062419088, -0.057219997, 0.011853792, 0.008514741, -0.09204415, -0.034765486, -0.059027493, -0.0011525156, 0.025304208, 0.034413837, -0.01575556, -0.020122379, -0.038758487, -0.0036456883, 0.0625969, 0.019574821, -0.050208453, -0.06725555, 0.01841332, -0.028286342, -0.060137417, -0.04640912, -0.06612029, -0.077256985, 0.020034613, 0.058527246, -0.0157271, -0.057440072, -0.09554738, -0.01781022, -0.042711828, -0.06671609, -0.032669853, 0.018454704, -0.06127262, 0.018520683, -0.037414584, -0.041848574, 0.04852626, -0.033614565, 0.034741465, 0.03132172, -0.065569036, -0.081803754, 0.0055590477, -0.042895008, -0.015484751, -0.093377054, -0.029737478, -0.07715713, -0.03592938, -0.072413445, -0.03591468, -0.0098574655, -0.029392852, -0.10006083, 0.0581785, -0.019811288, -0.052350648, -0.048033807, -0.029903285, -0.024315897, 0.018213749, -0.012705804, 0.027238907, 0.0529415, 0.04680524, -0.054524537, -0.02414381, -0.002109076, 0.05250936, -0.01700118, -0.01273489, -0.06949654, 0.067238264, -0.071426705, -0.046525266, -0.07472353, -0.09743113, -0.100821525, -0.0956522, 0.011454283, -0.073765464, -0.070416786, 0.019633241, -0.06414679, -0.055237405, 0.005772177, 0.016466402, -0.043776795, -0.054933637, -0.062199663, 0.05487718, 0.013302974, 0.007933839, -0.05874352, -0.01774454, -0.038307887, -0.081852615, -0.016399693, -0.022391075, -0.046588954, -0.039571863, 0.009982382, -0.04514609, 0.05551319, -0.045196664, -0.033232808, 0.02722068, -0.04058167, -0.049814884, -0.022538522, 0.033647947, -0.058158938, -0.0049086343, -0.009845925, -0.021886779, -0.0079624215, 0.014121817, -0.02456255, -0.016493164, 0.0385447, 0.06687941, -0.05794981, 0.010082101, 0.001966171, -0.03845851, -0.041465662, -0.077183805, -0.104866475, -0.072143294, -0.043514535, 0.004206729, -0.08529755, 0.008552866, -0.051274985, -0.066505104, 0.007110637, 0.044763956, -0.05275234, -0.023728384, 0.0047729956, 0.008198624, 0.009690707, -0.05545221, -0.07020522, -0.06697965, -0.052621182, -0.031208348, -0.06297767, -0.04476739, 0.0011225714, 0.00013491511, 0.034080587, -0.04433167, 0.036853265, 0.013528272, -0.00094080815, 0.012575418, -0.056995098, -0.005849347, -0.11113386, -0.052701227, 0.0062888307, 0.046572812, -0.05482377, -0.034261562, -0.105351575, -0.03938208, -0.01125635, 0.007535732, -0.07586397, -0.0021667257, -0.043082446, -0.027555216, -0.037694898, -0.025482725, -0.1145869, -0.08774703, -0.038133025, 0.052776337, -0.04325029, -0.025848068, -0.08706046, 0.04075273, -0.046453703, 0.07647552, 0.05512433, -0.018686764, -0.06056018, 0.030715432, -0.009673592, -0.043462113, 0.038440194, -0.022619704, 0.01258103, -0.048944917, 0.009255342, -0.05121719, -0.06449629, 0.005915416, -0.006474477, -0.089933075, -0.058301315, -0.058411174, -0.035895307, -0.05702292, -0.04444239, -0.006147877, 0.020084124, -0.05378794, -0.027588293, 0.029622259, -0.015192337, -0.0025918381, -0.06377543, -0.06204833, 0.0058654235, 0.04951826, 0.029208302, -0.061077226, -0.072303794, 0.027866678, 0.021084623, -0.0152523015, -0.06515574, -0.026444748, -0.06900545, 0.007991263, 0.02543375, -0.04064845, -0.00684711, -0.0066881827, -0.06432559, -0.062791616, -0.06542499, -0.029196894, -0.09288064, 0.027401675, -0.0055083344, -0.0045090057, -0.102018446, -0.07103453, 0.03013531, -0.016629199, 0.048728697, -0.035078757, -0.04037394, -0.06292115, -0.038514763, -0.012690052, -0.0409802, -0.09854116, -0.043190673, -0.09992219, -0.060997486, -0.102679834, 0.025734428, 0.036135767, -0.08721136, -0.0796426, 0.053159036, -0.015975457, -0.02784307, -0.015274233, -0.059329107, -0.011217251, -0.012573246, -0.074706554, -0.0132262055, 0.016822036, -0.04939337, -0.041807204, -0.07073696, 0.016912641, 0.009754844, -0.08380844, -0.049466398, 0.012290629, -0.00351891, -0.062595576, -0.022966051, -0.053438973, -0.017272845, 0.030657433, -0.00824811, 0.13901183, -0.0047587855, 0.09112397, 0.01889923, -0.070825905, 0.11568743, 0.29237506, -0.0017029808, 0.15854184, 0.042316183, 0.06176759, 0.08488169, -0.13142262, 0.04244538, 0.06650359, 0.20214121, -0.052924994, 0.17651093, 0.022983221, -0.04611153, 0.18937369, 0.05228097, -0.47958952, -0.31958655, -0.11193662, -0.18605989, -0.011797626, -0.06937353, 0.17784916, -0.03642499, -0.14317207, -0.057761036, 0.10276205, 0.03933275, 0.08350643, 0.052662946, -0.058079667, -0.075568795, 0.11200474, -0.08246534, -0.21664098, -0.033484694, -0.14288475, -0.20316114, -0.029928444, -0.19883606, 0.06616301, 0.067185864, -0.051691856, -0.07271378, -0.26166034, -0.30830774, -0.40949476, -0.5618435, -0.15934654, -0.007157143, -0.10793522, 0.03481266, -0.025873885, 0.06988498, 0.04347599, 0.06291187, -0.05645754, -0.015361454, -0.013566749, 0.041763823, -0.04984739, -0.008218748, 0.044478, -0.0058695013, -0.045214463, -0.06327483, -0.2900557, 0.065646924, 0.06912173, -0.049311638, -0.0031534883, 0.060593393, 0.24908487, -0.1252054, 0.20824474, 0.35428727, -0.21848257, 0.22982262, 0.11239675, -0.057927597, -0.07512047, -0.26397467, -0.14506488, 0.044746153, -0.1977785, -0.40148568, -0.07171698, -0.2577094, -0.41452515, -0.40336505, -0.3536906, -0.4173904, -0.31144115, -0.215635, 0.03771052, -0.1518466, -0.14640863, -0.027757198, 0.059748504, -0.16084483, -0.0058446485, 0.15782796, -0.056700155, 0.13190047, -0.18335964, 0.087536424, -0.13804585, -0.09463927, 0.19026893, -0.025731197, -0.09430866, -0.090456404, 0.10357586, -0.04419716, 0.18675104, 0.089747645, 0.06729739, 0.21678983, -0.009074233, 0.0009454437, 0.2272231, -0.0927348, 0.099092565, 0.1658807, 0.045659058, -0.0065226494, -0.029501501, -0.026759721, -0.07779655, -0.117394194, 0.04749852, -0.0851529, -0.12864727, -0.2229034, -0.30160177, 0.34711188, 0.14020583, 0.04452164, 0.4173129, 0.0034345202, -0.21313009, 0.27852753, -0.042958226, -0.10029011, -0.001473939, 0.0012250402, -0.038145788, 0.08487081, 0.1884473, 0.032483082, 0.08973092, -0.034837924, 0.15765238, 0.30065385, 0.17908542, 0.3581342, 0.26058054, 0.24077532, -0.12691508, -0.027164921, -0.08565997, -0.08402398, -0.045372546, -0.0073863002, -0.056209635, -0.02191353, 0.023204815, -0.026605485, -0.06127639, 0.0290016, -0.31389734, -0.18024404, -0.30059123, -0.25987542, -0.37169713, -0.052621365, 0.027681682, 0.31680056, -0.64253986, -0.294989, -0.20645241, -0.098121025, 0.22420152, -0.21261416, -0.06695908, 0.07344532, 0.042011824, -0.046267625, 0.04049037, -0.07310782, 0.02747236, -0.08320848, 0.009919973, 0.04309689, 0.00022822835, -0.014198593, 0.005667525, -0.024102041, -0.060138706, -0.021345565, 0.034200843, 0.03318661, 0.07892828, -0.11673443, -0.05121039, -0.024702476, 0.089197315, 0.25714943, 0.3900769, -0.1318751, 0.05131898, -0.09848816, 0.09763638, -0.020835044, -0.02405137, 0.26993826, 0.3039489, 0.22108987, 0.31252548, 0.20013975, 0.17900547, -0.12700152, 0.12175517, -0.2206789, -0.118697606, 0.086427286, -0.21093534, -0.115223736, -0.047486085, 0.15828922, 0.23056075, -0.017404025, -0.33851516, -0.24874392, 0.039862636, -0.20976526, -0.14617278, -0.012594076, -0.118041426, 0.09303559, 0.031624343, -0.018114295, 0.009717512, -0.039338157, 0.09187225, 0.11705881, 0.124641396, 0.16285066, 0.12361467, 0.008817687, -0.19853203, -0.18151657, -0.11337877, 0.06280688, -0.005986849, 0.17189133, 0.053679056, 0.10087662, 0.10740298, -0.2973758, -0.30390066, -0.32421732, -0.09457972, -0.24101703, -0.06954034, 0.26049498, 0.07793664, 0.10393573, -0.028933212, 0.076944634, 0.0049294992, 0.08452227, 0.08725704, 0.039421942, 0.006507672, 0.008008001, -0.030693809, 0.15580651, -0.104010314, -0.21608773, 0.08946712, 0.02914727, 0.041079946, -0.055167507, -0.2005864, 0.078646794, 0.02038746, 0.1474542, 0.05557727, -0.04934621, 0.19433418, 0.0790533, -0.12511823, 0.09248755, 0.026778065, -0.002075099, -0.0020908138, 0.06750296, -0.06251439, -0.015507658, 0.03428916, -0.07100569, -0.075670905, -0.05772412, 0.019541545, 0.045231722, -0.16780709, -0.017868875, -0.084435225, -0.10265864, -0.044035334, -0.06268739, -0.24260074, -0.15314461, -0.07685169, 0.01814923, -0.0999848, -0.16563012, -0.12744364, 0.10388667, 0.24734594, -0.02656154, 0.16468829, -0.03077541, -0.015264108, -0.049803957, 0.025744366, 0.10443508, -0.00086844753, 0.059055034, -0.014487222, 0.23853992, 0.03828486, 0.028947359, 0.2006879, 0.05741823, 0.08507764, 0.24805698, -0.15410236, 0.11270063, 0.104359, -0.0009883813, -0.027826726, -0.12247978, -0.0836235, -0.26091734, -0.007995001, -0.10071925, -0.09068155, 0.039189585, -0.06398954, 0.009313732, 0.0077061746, -0.076703295, -0.04069454, 0.0904963, 0.08142999, -0.04444679, 0.024566887, -0.21894383, -0.111427575, -0.3550083, -0.022480976, 0.059688184, -0.10627998, -0.025457434, -0.058581464, -0.25627613, -0.17722964, -0.038226392, -0.056462307, -0.22289507, -0.023141323, -0.004971309, 0.036543015, 0.18536969, -0.0080006225, 0.2205434, 0.16702822, -0.0782504, 0.018236589, -0.08128545, -0.038560357, -0.25572053, -0.2234569, -0.056376874, 0.30541456, 0.13898556, 0.037219983, 0.0059443973, -0.19996706, 0.008682588, -0.0023952066, 0.31553182, -0.21210326, -0.33003312, 0.11796239, -0.083614826, -0.091091886, 0.4032627, -0.09672949, 0.07511301, 0.04174392, 0.111452125, -0.029180918, -0.047121823, 0.38661808, 0.20537114, 0.084650785, 0.42112905, 0.062112875, 0.08359194, -0.09355925, -0.25065082, -0.22053643, -0.0029485468, -0.067164816, -0.048860375, 0.04346585, -0.06568818, -0.020263093, 0.023739435, -0.2409743, 0.10735894, 0.09826866, -0.16328472, 0.08429025, 0.15332568, -0.051883318, 0.18349326, 0.076595195, -0.21467425, -0.15313616, 0.1494104, -0.04535539, -0.08461111, 0.074975535, -0.16762061, 0.06669456, 0.15021138, -0.09576748, -0.011966945, -0.11710615, 0.009342833, 0.008376549, -0.01775135, -0.04827713, 0.17768157, 0.2009202, -0.1669812, -0.29273483, 0.07301792, 0.10006217, -0.040473968, 0.100351214, -0.04989203, -0.07445268, -0.2213371, 0.03798626, -0.07067226, 0.11445853, -0.3258837, -0.29216322, 0.13350123, -0.10367068, -0.17758484, -0.037873995, -0.24918504, 0.085880175, -0.2969804, -0.073997945, 0.11743136, 0.05997, 0.16660406, 0.21675758, -0.15432817, 0.12600741, 0.028873526, -0.017574081, -0.08813523, 0.10163278, 0.003322939, -0.12376236, 0.36609107, 0.1012314, 0.21150081, 0.022656843, -0.079547465, 0.056213416, 0.028338287, -0.09238685, -0.0076171826, 0.027948994, -0.13871701, -0.13345076, -0.07121315, -0.07964323, -0.13546968, 0.1113219, -0.30944806, -0.22802864, -0.0072100037, -0.0040589827, -0.06401989, -0.035503853, -0.17717819, -0.0024359915, 0.056728818, -0.3579842, -0.47046065, -0.28101435, -0.10160866, -0.17450154, -0.4597582, -0.21447201, -0.09459696, -0.3993846, 0.032384217, -0.15318713, 0.017600695, 0.004674363, 0.0617094, 0.12084056, 0.10941518, 0.09573717, -0.08160945, 0.088965334, 0.11755694, -0.027847141, 0.020584794, -0.12376553, 0.12327934, 0.040430095, 0.10349033, 0.053467825, -0.043555614, 0.09119465, 0.078688934, -0.26125193, -0.37112385, -0.18467908, -0.056904506, -0.29170212, 0.030963594, 0.076505095, 0.106737606, 0.121904835, -0.13309449, -0.1171582, 0.19041769, 0.04491048, -0.12795852, -0.08883609, 0.17051685, 0.029332882, -0.038998436, -0.034033142, -0.0504146, -0.033459075, 0.07255793, 0.052485924, 0.04723551, 0.048537116, 0.07453543, -0.016652811, -0.0053907204, 0.055711016, -0.031183274, -0.035339296, -0.052812807, 0.023698911, -0.08358849, 0.045310877, -0.003410361, 0.033674926, -0.041726027, -0.01050868, 0.0026997752, -0.04557916, 0.034437884, -0.09744008, -0.011043863, -0.1356918, 0.028533665, -0.039451767, -0.04398415, 0.05497858, 0.0022868316, -0.017919961, 0.0714779, -0.05790237, -0.041438095, -0.043977913, 0.025690312, -0.059023708, -0.022885546, -0.10372252, -0.093625344, -0.021951817, -0.07710725, -0.1213584, -0.04601262, 0.06354621, -0.025016984, -0.081646115, -0.08629242, -0.0023249132, -0.03437346, -0.08032428, 0.00716964, -0.006154496, -0.0369519, -0.026395002, 0.036757834, -0.10311742, -0.095200144, 0.062385164, -0.002358351, -0.086276285, 0.005801213, -0.10021398, -0.05742548, -0.015640117, -0.09460226, -0.093927056, -0.07069691, -0.08885318, -0.14905895, 0.029861733, 0.033606566, 0.06656782, -0.05567925, -0.012632718, -3.627483e-05, -0.02106569, 0.015531061, 0.015888082, -0.06818522, 0.027040401, 0.0049840757, -0.07892918, -0.07785925, -0.0017903883, -0.11992902, -0.078101195, -0.06557821, -0.10600101, -0.04990223, -0.0016054164, -0.09316616, -0.038040083, -0.06562097, -0.15585019, -0.016179973, -0.10546638, 0.00029184713, -0.029562118, -0.041011196, 0.0009776292, -0.04550178, -0.029476292, -0.08015092, -0.09912307, -0.13181591, -0.01360271, -0.06730099, -0.05621444, 0.04380218, -0.06276755, 0.055591818, -0.043674428, -0.047651414, -0.10019517, -0.06624685, -0.040957127, -0.080021404, -0.002855219, -0.12263599, -0.07416427, -0.092920974, -0.12900355, -0.02296257, 0.033631124, -0.10996094, 0.06256224, 0.03815043, 0.038899843, 0.078583725, -0.058883544, 0.03559133, -0.012214847, -0.04073624, -0.025008542, 0.010951752, -0.0005285399, 0.0028579582, -0.144847, -0.056525353, -0.09070356, -0.17354938, -0.032979168, -0.00931879, 0.045916714, -0.04508448, -0.037654974, -0.07446468, -0.022233335, -0.0146554625, -0.09982412, -0.054798543, -0.032802667, -0.028154831, -0.1400328, -0.0024401862, 0.0373689, -0.027665773, -0.020855386, -0.10898702, -0.041002788, -0.034327634, -0.05291501, -0.09573316, 0.005917384, 0.029497461, 0.016379122, 0.06506482, -0.013522519, -0.085889295, -0.04633127, -0.09864187, -0.11374083, -0.021992575, -0.032622267, -0.055970304, -0.12464489, -0.08316883, 0.032967918, -0.025203902, -0.05637651, -0.06709641, 0.031119712, 0.06081325, 0.009367876, 0.015263848, -0.058213137, 0.021139912, -0.0023190118, -0.055966675, -0.040816683, 0.004417369, -0.040747426, -0.040076047, -0.05009292, 0.025597867, -0.0076743714, -0.10555941, -0.13018712, 0.04731262, 0.08779914, 0.05330067, -0.11976479, -0.015126187, 0.011295295, -0.034884848, -0.035962947, 0.0023645386, 0.0035757944, -0.034653854, 0.003229998, 0.03492821, -0.000118635595, -0.018650495, -0.09649082, -0.049822297, 0.0069797253, 0.010855938, 0.019212706, -0.07991828, -0.0374223, 0.00051998516, -0.064253576, 0.030779606, 0.06545311, -0.0532066, -0.09132038, 0.043596286, 0.03193701, -0.028151805, -0.029962756, -0.06250003, 0.02963069, 0.013960336, -0.06890622, 0.0794377, 0.014499182, -0.10714127, 0.094000936, -0.08733312, -0.1859785, -0.082296945, -0.0154685965, 0.040145043, -0.092350736, 0.022110632, -0.09107599, -0.08512746, -0.016074503, -0.034095634, -0.07498157, -0.05489218, -0.09463593, 0.08857909, -0.1245473, -0.078884915, -0.11984107, -0.037103806, -0.044629555, -0.062040973, -0.0035093634, 0.030220924, -0.054068167, -0.0052293874, 0.044923, -0.06650726, 0.016131613, 0.017194262, -0.04173492, -0.028325196, 0.0011424712, -0.036164097, -0.0723488, -0.023757162, -0.11657647, 0.00037693803, -0.06276848, -0.07696216, -0.013207213, -0.05250555, 0.0038206573, -0.041253936, -0.015467659, -0.05416112, 0.057744898, 0.059141662, 0.06735812, -0.03663866, 0.017214343, -0.038956463, -0.04986727, 0.056664392, -0.040475182, -0.020636454, 0.0063405707, -0.13074759, -0.059764747, -0.04449171, -0.077943034, 0.033871476, 0.042077765, -0.10408905, -0.08999459, -0.093923554, 0.077911735, -0.01704979, -0.106676586, 0.031086339, -0.026266638, 0.016796745, -0.061705533, -0.08174062, 0.031246413, -0.008036241, -0.048725005, 0.045523435, -0.05451908, 0.0024751178, -0.061674953, -0.023686107, -0.044016544, -0.050781418, -0.021705335, -0.11402859, -0.07128643, -0.016528696, -0.04619573, 0.005905763, 0.07101899, 0.05947283, 0.055740923, 0.034750544, -0.0018418091, 0.019999817, -0.089557745, -0.07195936, 0.00653591, -0.16355875, -0.036196258, -0.06715147, 0.04813839, -0.017560156, -0.018341992, -0.12650844, -0.050814096, 0.002693168, 0.025224209, 0.028531926, -0.029017726, 0.008845773, 0.041852884, 0.06886677, 0.019358935, -0.022059847, 0.02909797, -0.043976117, -0.034782555, -0.057440896, -0.019390853, -0.07482936, 0.032284714, -0.046859078, -0.10369542, -0.020354202, -0.096581995, -0.06933997, -0.07988921, -0.048927035, -0.0653139, -0.047180627, -0.010700135, 0.05193122, -0.026570003, -0.07349029, -0.075762875, 0.06414546, -0.08201724, -0.07850354, -0.02477991, -0.08671075, 0.017915173, 0.05275129, -0.0662487, -0.115478635, 0.03824889, -0.051659077, -0.028685955, -0.0074151633, -0.07451153, -0.041852828, -0.0986776, -0.046043012, 0.0057289335, -0.11685374, -0.10266048, -0.01571001, -0.085495055, -0.015124954, -0.040355463, -0.08241689, -0.16021267, -0.18510775, -0.12635972, -0.03382702, -0.010918106, -0.063579574, 0.061371546, -0.019785246, -0.0493644, 0.06333554, 0.0010749822, -0.04397904, -0.070818774, 0.008570418, -0.14458363, -0.021171616, -0.04660637, 0.040891986, -0.033617746, -0.0028722826, -0.055290658, 0.012074491, -0.03617926, 0.062386952, -0.04711881, 0.02530565, 0.114798404, 0.02046841, -0.052304287, 0.006170177, -0.039141845, 0.005208705, -0.099341385, -0.1305355, -0.05105563, 0.043800503, -0.057674415, -0.058141652, -0.02418246, 0.035420228, -0.1526283, -0.050593846, -0.09899497, 0.022048827, -0.033628404, -0.0768093, -0.07410001, -0.08445797, -0.13112198, -0.105422914, -0.07834891, -0.08407967, -0.081619896, -0.027977455, -0.077017285, 0.026997698, -0.05224363, 0.03882202, -0.008237215, -0.05956324, -0.10485485, -0.041241974, 0.045990285, -0.028680047, -0.12527503, -0.048613615, -0.04658398, 0.028044503, -0.09845368, -0.030608423, 0.06334856, -0.0023608569, -0.04927251, -0.024699047, -0.051498435, -0.039134495, 0.02365511, -0.06544073, -0.011219851, -0.046089184, -0.08530533, -0.11860955, -0.052933533, 0.0061827484, 0.050423365, 0.053192727, 0.05574714, -0.004721115, -0.02608094, 0.05849238, -0.0061281994, -0.03532474, -0.042355295, -0.07300255, 0.034796607, -0.09816975, -0.070881955, -0.093894064, -0.026687406, -0.02033231, 0.069154374, 0.015684819, 0.063728586, -0.019338686, -0.08433933, 0.042044785, -0.023728535, -0.031739466, 0.013930175, -0.105830476, 0.052295238, -0.0018956744, -0.04120633, -0.009330491, 0.028022433, 0.08602755, 0.0556996, 0.004332966, 0.014539309, -0.13701786, -0.071497194, 0.016754953, -0.025421832, -0.081005804, -0.010668798, -0.08981631, -0.12536249, -0.08513078, -0.062035896, -0.020379703, -0.021395477, -0.018691145, -0.008765713, -0.018794877, -0.12931955, 0.029545235, -0.014391274, -0.010964838, -0.028500594, -0.06852059, -0.046964724, -0.09633087, -0.04747941, -0.13822609, -0.042004697, 0.0027522168, -0.11245073, -0.028402917, -0.059005067, -0.13837896, -0.0072116763, -0.057886057, -0.014615103, 0.0041242596, -0.1199426, -0.050072562, -0.082268685, -0.0542009, -0.0886035, -0.06225827, -0.10350866, -0.007933001, -0.020816945, 0.0031147941, 0.03295222, -0.12898932, -0.16686404, -0.086471364, -0.0940582, -0.14717731, -0.14591709, -0.14946896, -0.118808106, -0.19234723, -0.046312533, -0.0061888127, -0.08077826, -0.13768376, -0.071871154, -0.15731527, 0.023810878, -0.12777025, -0.11284267, 0.121806525, 0.01587394, -0.04518575, 0.11353387, 0.06324857, -0.13272482, -0.007769402, -0.09257085, -0.09349058, 0.099801466, -0.050123632, -0.104687594, -0.16373956, -0.16357253, -0.120425075, -0.006842508, -0.24098712, 0.09326361, 0.27784002, -0.0033380245, -0.050941076, 0.20590544, 0.022991592, -0.06757225, 0.11036295, -0.19998679, -0.23122971, 0.06317514, 0.25235873, -0.07541431, -0.12727216, 0.15502325, 0.1983331, -0.12937674, 0.13321953, 0.1398572, -0.064697556, -0.15317783, -0.017707016, -0.07244372, -0.011833542, 0.030790694, 0.00094442035, -0.020000212, 0.02183427, -0.0432983, 0.12936316, 0.08710811, -0.12828654, 1.3585777e-05, 0.086356625, -0.24549584, -0.12234991, 0.021497086, -0.017972346, -0.09510485, 0.048279878, -0.061762575, -0.11708146, -0.121462815, 0.1211362, 0.05624259, -0.13154806, -0.07411541, 0.050611343, 0.022390509, 0.0029088673, -0.015571847, -0.017865883, -0.028409597, 0.04278697, -0.00014244854, 0.03648922, 0.027728131, -0.17582263, -0.11069213, -0.028497523, 0.11219652, -0.17633562, -0.0340574, 0.06410236, 0.077513404, -0.15856974, 0.23197193, -0.25950068, -0.10339118, 0.1161362, -0.07824778, 0.14507535, 0.10711601, -0.09144992, 0.14542931, 0.17156316, -0.11145606, 0.17329608, 0.25169984, -0.14493337, 0.25773737, 0.20375171, -0.18774298, 0.07145502, -0.0084513705, -0.09662562, -0.025383221, -0.070328094, -0.102421224, 0.032148164, -0.036539506, 0.066564225, 0.034776527, 0.29099753, -0.018591106, 0.14157665, 0.38501224, -0.029799825, -0.037862897, 0.13758716, -0.2368003, -0.11095907, -0.05014052, -0.39666805, -0.08724835, -0.14903627, -0.06647659, 0.069013774, 0.31068566, 0.106462836, 0.14740874, 0.1225889, -0.12174337, -0.10948553, 0.04871445, -0.23979138, -0.089447014, -0.0051464294, -0.04389514, -0.0796386, -0.086137645, 0.056596052, -0.0229618, -0.008846602, 0.11097117, 0.10413739, -0.09529239, -0.0649147, 0.035637297, 0.44120765, -0.06085668, 0.08562425, 0.3795852, -0.19798765, -0.046325106, 0.26928756, -0.26555598, -0.07291828, -0.10654867, -0.31639612, -0.1339243, -0.09930331, -0.041894503, -0.04097116, 0.0022288566, 0.10617751, -0.051244486, -0.2567987, 0.008564162, -0.04765569, 0.06655077, 0.1839798, 0.21459197, -0.027965134, 0.034668386, 0.07754497, 0.053934965, 0.0070913197, -0.006457093, 0.07816605, 0.10946441, -0.016105674, -0.008350189, -0.090965815, -0.07016112, -0.27086377, 0.012962006, -0.24614775, -0.15642196, 0.07652119, 0.06616605, -0.0015585604, -0.05705795, 0.0024278702, 0.30360517, -0.13117129, -0.06288855, 0.0434977, 0.102330014, -0.13884534, -0.12924272, -0.045338746, -0.0138124535, -0.044356436, -0.067544684, -0.02292091, -0.010791671, -0.030463139, 0.019808719, -0.010354514, -0.0011560423, 0.043754708, -0.24189992, -0.016339391, -0.042315766, -0.089235, -0.11028399, -0.07984069, -0.015496758, -0.13315383, -0.0175956, 0.17478317, -0.051245507, 0.26636818, 0.13579634, 0.06919233, -0.11952061, 0.22077756, 0.00037564267, -0.042418577, 0.20501816, 0.15379702, 0.23972343, 0.13537854, -0.09573545, 0.11430837, 0.26021641, -0.3055339, -0.033639286, -0.14218669, -0.014378046, 0.056895822, -0.050931063, -0.008656204, -0.029954113, 0.08484883, -0.17420985, 0.0528471, 0.41289502, -0.276084, -0.11345422, 0.21126309, -0.1622296, -0.08717339, 0.1515086, 0.0033211738, -0.043239854, 0.089978226, 0.03944866, 0.03747331, -0.036891475, 0.024051378, 0.018727696, 0.04339255, -0.0072151204, 0.016475936, -0.025850521, 0.023667192, -0.019645983, 0.11173655, -0.14842443, 0.17597555, 0.34798968, 0.1500005, -0.02623618, -0.19808891, -0.038554642, -0.2574512, -0.0714836, 0.07711387, -0.010675846, -0.010134859, -0.032207917, 0.06222552, -0.007842659, 0.07852759, -0.015136199, 0.05435966, 0.027037477, -0.028666548, -0.05307814, 0.19136582, 0.14427309, 0.08616484, -0.03289679, -0.00494557, 0.06054082, -0.20010649, -0.23101139, -0.15512846, -0.07612364, 0.039521493, 0.06082731, -0.21180543, -0.044964645, 0.11467056, -0.20402443, -0.048947677, 0.040688105, -0.0415723, -0.06697525, 0.06445394, 0.06769382, -0.013261494, 0.053992603, 0.003999421, 0.025199434, -0.03465996, 0.10309591, -0.11294893, -0.030432906, 0.0867555, -0.1649064, 0.054464586, 0.09037539, -0.14599484, 0.067306615, 0.15602657, 0.029618206, -0.045889325, 0.10095357, -0.036522012, -0.06688406, -0.021481205, 0.2241938, 0.11639949, -0.019738618, 0.033807315, 0.18588652, -0.1501378, 0.03642588, 0.025045695, 0.0454679, 0.058007553, -0.035263114, -0.21621256, -0.15032274, 0.1208589, -0.16501671, -0.14190112, 0.19478612, -0.052599594, 0.06044237, 0.17114964, 0.3029412, -0.06999695, -0.41912475, 0.10029177, -0.095062606, -0.397322, -0.052429203, -0.17402199, -0.19301255, 0.06565777, 0.0072192242, -0.015733443, 0.02975055, -0.055660654, -0.04045121, 0.035372794, 0.06846372, 0.047340315, 0.009179475, -0.15979935, -0.08266429, -0.07811279, 0.14073095, -0.1632126, 0.0071565495, 0.034591977, -0.15182014, 0.044434946, 0.15598778, 0.109300636, -0.02151218, -0.12783702, -0.13123925, 0.23644184, -0.045958944, 0.10239506, -0.067353055, -0.09423271, 0.21147105, -0.07153177, -0.03764567, 0.031658486, -0.18491656, 0.025258891, 0.059143767, -0.3138219, 0.04687401, 0.041520912, -0.02967979, 0.008792979, 0.13541085, 0.00018415725, -0.078359134, -0.16216205, 0.06963414, -0.021527255, 0.229271, 0.08269584, -0.29190955, 0.22256005, 0.039094828, -0.121845715, 0.27581105, 0.21189357, 0.048482984, 0.124301426, -0.011181258, -0.13251516, 0.06988961, 0.24032414, 0.031595264, 0.024471395, 0.11085339, 0.09464125, -0.098448165, 0.1522118, 0.10509052, 0.015629074, 0.021369182, 0.066151686, 0.082702145, 0.16637246, 0.34606624, 0.23525503, 0.0381913, 0.16233766, 0.24403754, 0.12214701, 0.016751394, 0.022534486, -0.0068652583, 0.14708829, 0.21437293, -0.04299504, -0.047124337, 0.21262506, 0.002409633, 0.116393104, 0.032483745, 0.09554993, 0.046024956, -0.19770028, 0.22029236, -0.1940574, 0.0045777825, 0.13422315, 0.14401056, -0.035989836, 0.034998912, 0.090202376, -0.16799875, -0.031488955, -0.015247123, -0.015592601, -0.24387245, 0.064151466, -0.055761028, -0.022580992, -0.08787218, -0.01902496, 0.20567076, 0.17926228, 0.07689098, 0.00038212148, -0.16985248, -0.0873442, 0.27720508, -0.0054471497, -0.2086783, 0.2049946, -0.03335374, -0.14587958, 0.21458939, 0.10259101, -0.07679479, 0.095256306, -0.01934756, 0.08224772, -0.007941887, -0.083492614, 0.033233196, -0.21487054, -0.040497594, 0.032780394, -0.445435, 0.01814042, 0.12992921, -0.13675663, -0.14427681, 0.123925366, -0.30247945, -0.09092941, -0.04353523, -0.4118681, -0.1010008, 0.34772998, -0.28577012, -0.08330235, 0.15230326, -0.14317788, -0.058329817, -0.047063217, 0.04069084, -0.16587146, -0.028639432, 0.22395168, -0.07404307, -0.035419513, -0.1202107, -0.009447905, -0.15161353, 0.057610676, 0.21110308, 0.092395924, -0.09823336, -0.0364656, 0.09469356, -0.08713662, -0.20787252, 0.041943442, 0.06191393, 0.0112218615, -0.21822515, 0.03462598, -0.09061997, -0.0028836722, -0.22968754, 0.005612841, -0.123394445, 0.15470195, 0.19608027, 0.118622206, 0.08458069, 0.019827316, 0.14455377, 0.035004355, -0.14435029, 0.16270532, -0.21106961, -0.029705131, -0.15068232, -0.18872766, -0.01973887, -0.18372197, 0.069933884, 0.10761793, 0.09062375, 0.07740918, -0.22382039, 0.1608369, -0.34724203, -0.3547707, 0.09940065, -0.29771575, -0.19653645, -0.26062298, -0.104780994, -0.016841538, -0.2748011, 0.01689266, -0.011101303, 0.039538294, -0.009371853, 0.038814727, 0.040216245, -0.15063314, -0.111400425, -0.06970371, -0.07420705, -0.13500692, -0.0033663516, -0.09517179, 0.04703413, -0.018629963, 0.08710333, -0.08465616, -0.047664832, -0.05926909, -0.04278961, -0.013246149, -0.09536642, -0.03565108, 0.01917351, -0.0026358538, -0.029834183, -0.085909404, -0.060433388, -0.10234855, -0.05072656, -0.052528165, -0.069654346, -0.07708718, -0.058635328, -0.045352813, -0.08417066, -0.08728837, -0.14529845, -0.13156718, 0.024129633, -0.04008937, -0.08567756, -0.07260059, -0.17403677, 0.021157797, -0.06587439, -0.07101574, -0.07919485, 0.02135273, -0.006098148, 0.052411396, 0.031676892, 0.036834277, 0.025277872, 0.16804726, 0.046376094, -0.00023487593, 0.060055174, 0.087822735, 0.050049942, 0.024324084, -0.04676187, -0.064925134, 0.010241968, -0.035468716, 0.04696021, 0.015580646, -0.08845909, 0.011447825, 0.03473617, 0.033170488, 0.036237787, -0.05397804, -0.029187044, 0.058144227, -0.0404972, -0.02101514, 0.063243166, -0.06882505, -0.042120036, 0.052321777, -0.15014414, -0.10801753, -0.008827334, -0.086673565, -0.101806045, -0.03015863, -0.042908493, 0.037018806, 0.127413, 0.0313607, -0.074484825, -0.01898041, 0.15323254, -0.12101849, -0.045433525, 0.07139799, 0.09150889, 0.089235194, -0.0016220897, 0.0027074816, 0.020266287, -0.08683039, -0.03697629, 0.019201577, -0.0400293, -0.06916477, 0.034350432, -0.14367732, -0.015836393, -0.061735272, -0.07527037, -0.10750033, 0.015050482, -0.013316965, -0.065827474, -0.13276264, 0.073625304, -0.08906137, 0.02114924, -0.101221, -0.091925785, 0.035534084, -0.07094417, -0.011932148, 0.018678753, -0.018886382, -0.060812667, 0.015858116, -0.094628185, -0.08226488, 0.0043811593, -0.0066286204, -0.012833238, -0.039757516, -0.08065867, -0.049467817, -0.0024315643, 0.04110785, -0.019479526, 0.043657113, 0.043268237, -0.035397027, 0.070596576, 0.049747456, 0.038954925, -0.0552914, -6.6325883e-06, 0.040136516, -0.048064902, -0.037041456, -0.04442483, 0.04600087, 0.06593467, -0.20666601, 0.0038787413, -0.0054678153, -0.092520714, 0.035990097, -0.07516333, -0.07408352, 0.0012459513, 0.042165525, -0.03142078, 0.026471222, 0.04342347, -0.035907254, -0.0536521, 0.09354991, 0.095258564, 0.0091707595, 0.010146446, -0.09869443, -0.11738449, -0.04796715, -0.042195905, -0.07556375, -0.019676993, 0.016550431, -0.01831918, -0.06213511, 0.046507332, 0.026792314, 0.00897129, -0.0699467, -0.049179442, 0.009234998, -0.092635594, -0.09974477, -0.023726497, -0.13110185, -0.060227558, -0.08119273, -0.06532344, -0.09760536, -0.03869684, 0.011562939, -0.04915243, 0.024013303, -0.017115565, -0.024210326, -0.08895007, 0.019718016, 0.031967793, -0.0018683225, 0.052555062, 0.02242232, -0.05047059, 0.05406893, -0.0148741035, 0.025481757, -0.012742545, -0.05261042, 0.03816965, -0.030023877, -0.08861089, 0.011572729, 0.035269897, -0.06417554, 0.030729745, 0.048904303, -0.123114526, -0.022119295, 0.10387846, -0.109404944, 0.008498782, 0.12772182, -0.040545475, -0.0046827947, -0.0076713674, -0.025989437, -0.13707857, 0.06543186, -0.07118806, -0.05107114, -0.10717484, -0.007883452, -0.034492284, -0.03972188, 0.005407074, -0.008832904, 0.013272956, 0.023950169, -0.12055065, -0.124029815, -0.0785295, 0.0011808367, -0.020067533, -0.05364115, 0.022152867, 0.05909315, -0.0061618784, -0.042058468, -0.02052402, -0.004173578, 0.0008502195, -0.045551796, -0.018741759, -0.012968231, 0.031372316, -0.029191362, 0.013873703, 0.010971143, -0.0473677, 0.06265313, 0.06397438, 0.0039176904, 0.07683958, 0.04162743, -0.053963408, 0.032194167, -0.03676384, 0.053506576, -0.07202893, 0.02433861, -0.039033253, -0.032375712, -0.042226546, -0.007250402, -0.0091984095, -0.12058188, 0.015059911, -0.20634077, 0.043480698, -0.014861809, -0.0206794, 0.029540703, 0.05420001, -0.021188278, -0.014451381, 0.011569157, 0.055778533, 0.055888847, 0.015800342, -0.04809036, -0.0045484914, -0.16403957, -0.101743504, -0.027715337, -0.045604397, 0.012779957, -0.12391355, 0.00032123137, -0.15110941, -0.030662382, -0.050248742, -0.09409341, -0.108804315, 0.0326101, -0.122209355, -0.044064824, -0.07341494, 0.04674787, 0.004136176, 0.05232395, 0.060586184, -0.07678607, 0.041507296, 0.015825339, -0.063190356, -0.007839005, -0.013229837, -0.012492813, 0.037681736, -0.032043986, -0.023532428, -0.045285136, -0.118028514, -0.020145046, -0.12171001, 0.010622892, -0.07640172, -0.07326763, -0.06299491, -0.093415, 0.008691544, -0.061548293, 0.0054765865, -0.06164792, -0.08977778, -0.062301595, -0.096323356, -0.09112647, -0.118281424, -0.1072133, -0.024491828, -0.16468875, -0.024083717, 0.10215092, 0.0374364, 0.06732329, -0.003921102, -0.09821722, -0.059889164, -0.11183248, 0.054613758, -0.05040246, 0.030998265, -0.04291698, -0.03670877, 0.050900504, -0.0700092, -0.17327441, -0.14323303, -0.029686725, 0.04549232, -0.05330922, 0.043886174, -0.026678042, -0.047767486, 0.04495574, -0.05168788, 0.0052941395, -0.057169713, 0.0493071, -0.057488024, 0.011370684, -0.016161077, -0.10141865, -0.1263909, -0.055719018, -0.0924844, -0.056083426, 0.030170329, -0.014716802, -0.06050862, -0.0002701443, 0.018567221, 0.004127507, -0.07900118, -0.059620913, -0.08249529, 0.030185282, -0.016321514, -0.0884735, 0.033009738, -0.013118917, -0.0025443407, -0.14845489, 0.036132965, -0.010949509, -0.018928615, -0.018962592, -0.03508208, -0.06186106, 0.00951686, -0.034804378, 0.01782204, -0.00039676498, -0.00574403, 0.09219943, 0.015077117, 0.03388392, 0.023256177, -0.040535405, -0.019207163, -0.043265834, -0.03530496, 0.0020541188, -0.07841476, -0.06442827, -0.041445427, -0.037745636, -0.02003087, -0.10453172, 0.02348029, 0.05639876, 0.046001915, 0.053639323, -0.017793687, -0.02523305, -0.07785681, -0.08549024, -0.14123416, -0.08682985, -0.09748727, -0.09094686, -0.031696737, -0.07934722, -0.08021508, -0.0038464535, -0.015600104, 0.0837004, -0.1074297, -0.038593765, 0.035408672, -0.11790786, 0.0200855, -0.057228632, -0.03583803, -0.026720082, -0.014470898, 0.026793247, -0.056106433, 0.120836854, -0.054882705, -0.062655106, -0.06191594, -0.014380161, -0.19267645, -0.002701731, -0.025088944, -0.028835302, -0.018606668, -0.0133135095, -0.06395177, -0.047847334, -0.10754868, 0.04289397, -0.02384066, -0.116730295, 0.0040544677, -0.17596959, 0.040535435, 0.05900305, -0.04757221, -0.04737225, -0.023377512, -0.052185226, -0.040913485, 0.022956522, -0.101437986, -0.12516046, -0.14349899, 0.00049279863, 0.05640137, -0.059662964, -0.03683095, -0.028751912, -0.05077617, -0.023609925, -0.06391785, -0.013006582, 0.024303176, -0.07571017, -0.06818847, -0.028884927, 0.10611431, -0.012918605, -0.05185783, -0.015827358, 0.109529614, -0.030634122, -0.009698741, -0.0043982184, -0.00086223707, -0.028731907, 0.023470527, -0.01928432, 0.027187495, 0.011655001, -0.06798561, -0.030346485, -0.036826923, 0.009512521, -0.023465017, 0.034100518, -0.042137776, -0.019730264, 0.017443072, 0.03347681, -0.0878673, -0.007359003, 0.040518418, -0.025346834, -0.010533339, 0.014513512, -0.022440229, -0.061842598, -0.012878945, -0.0024269505, -0.102067575, 0.032572143, -0.031087635, 0.034323737, 0.009141835, -0.07835508, -0.028447444, 0.036799487, -0.035027042, 0.06549221, -0.022962378, -0.038600028, -0.030598762, -0.061281737, -0.15036786, -0.068944655, -0.0065618847, -0.090273, 0.014667711, 0.09296075, -0.11662292, 0.022971699, 0.031033432, -0.03670164, 0.09396719, -0.13875876, -0.12882131, -0.11062905, 0.05157136, 0.076895654, -0.028011685, -0.108942576, -0.0552626, -0.101426594, 0.028061451, -0.15994923, -0.004775888, -0.019563103, -0.1676665, 0.026798947, -0.23982047, -0.10771317, 0.052006103, -0.024309665, -0.031390887, 0.05121196, 0.056281585, 0.056293197, -0.09861041, 0.056768518, -0.04886694, 0.018544605, -0.038512774, -0.05112622, -0.033047646, -0.06618159, 0.035981663, 0.06248762, 0.016955413, 0.062093467, 0.02343083, 0.053501967, 0.0090804, -0.07718448, 0.0007618936, -0.022722937, -0.015942618, -0.014626055, -0.08190149, 0.045338582, 0.03897211, -0.03876248, -0.04857667, 0.03488104, 0.041410174, -0.099673316, -0.06367431, -0.008172947, -0.05070689, -0.109732166, 0.01634806, -0.032524373, -0.09813638, -0.057968426, 0.03398555, -0.13035674, -0.076469354, -0.046679195, -0.074915126, -0.01379862, -0.03816883, -0.06152327, -0.03767912, -0.010623972, -0.031949136, -0.074052215, -0.07076863, -0.01284344, -0.014799408, -0.060755756, -0.029881822, -0.09061657, 0.05075265, -0.007936351, -0.011818454, 0.053837482, -0.00046307052, -0.08861417, -0.07919668, 0.010855682, -0.12798764, 0.026921771, -0.016125025, -0.054042824, 0.05734498, -0.0011636358, 0.07087885, -0.034683887, -0.010666827, 0.017009445, 0.03311807, 0.05979462, 0.036533233, -0.05219707, -0.002650683, -0.05614342, 0.03366402, 0.008198275, 0.013441352, -0.081622094, -0.039146606, -0.04349922, 0.02418472, -0.020217692, 0.0040769884, -0.017388027, 0.06440174, -0.1078145, -0.0994229, -0.0011497954, -0.0016478947, -0.10412796, 0.014455675, -0.10258086, 0.021097895, -0.07841239, -0.009739525, -0.083032206, -0.066425525, -0.04537143, 0.040044714, -0.02015941, -0.07668922, 0.019457843, 0.032209083, -0.104879595, -0.036082655, -0.058256466, -0.0008507573, 0.090169564, -0.0062311506, 0.052429985, -0.045631874, 0.039523657, -0.023698596, -0.06369188, -0.01713311, 0.065914504, 0.013969304, -0.060526982, -0.07646651, -0.045964755, -0.01338551, -0.09358297, 0.023383694, 0.0131183155, -0.0037542696, 0.009188133, -0.051912017, -0.0013362182, -0.041256636, 0.011784361, -0.052125767, 0.01183834, 0.03878246, -0.009277974, 0.011121467, -0.021517213, -0.03420962, 0.005794503, 0.045330875, -0.04829794, 0.033576027, -0.033642378, -0.06548135, -0.02124721, 0.0032552416, 0.028635865, 0.04975408, 0.09812047, 0.04313322, -0.0961965, -0.086284965, -0.077784576, -0.07075952, -0.062117748, -0.06660531, -0.0049528508, -0.03829797, -0.09289526, -0.053989045, -0.054187644, -0.14981845, 0.00976827, -0.06233877, -0.029651904, -0.074800186, -0.0044945744, -0.020487275, -0.059637044, -0.062145256, -0.020481208, -0.061616473, 0.06715529, -0.035123844, -0.06975067, 0.060308293, 0.0023772714, -0.013222929, -0.02332877, -0.047605023, -0.12981926, -0.04120502, -0.12317317, 0.003669379, -0.06754391, -0.10716659, -0.07372034, -0.07687386, -0.008490309, 0.031161884, -0.079713635, -0.09964905, 0.028698128, 0.0093216095, -0.097814344, -0.008893481, -0.017807692, -0.03353432, 0.013439021, 0.060833752, -0.032855183, -0.048902363, 0.03593198, -0.060462747, 0.062198818, -0.04446731, 0.039468966, 0.022492658, -0.04239334, 0.004829386, -0.06660883, -0.05573921, -0.021304319, 0.040624406, 0.0521499, -0.051963933, 0.04932819, 0.020311534, -0.07392616, -0.022454163, 0.017064665, 0.062005606, -0.036680724, 0.038309988, -0.047791384, -0.012257895, -0.015416876, 0.00906278, -0.0053945333, 0.020001808, -0.060963575, -0.11405458, -0.046424937, 0.031100694, -0.07284631, -0.12314214, -0.104160964, -0.13129014, 0.012201925, -0.07781578, -0.015566171, 0.053776793, -0.021600125, -0.048598662, -0.05834538, -0.033405725, -0.046126895, -0.040551733, -0.12262251, -0.020152606, -0.14694904, -0.1501204, 0.06603153, -0.034443315, 0.06295113, -0.021217685, -0.0074706674, -0.05925629, -0.004923053, 0.04106397, 0.004834719, -0.06150465, -0.087501615, -0.038348082, -0.055881035, -0.07885106, -0.12745246, -0.073049776, -0.05232145, -0.108812995, -0.052903436, -7.814282e-05, -0.01877062, -0.01362389, 0.066533856, 0.04336301, 0.061912272, -0.012566109, -0.027779605, 0.036376312, 0.022223428, 0.025293842, 0.0492329, -0.0051875487, 0.011687763, -0.07011262, -0.038575154, 0.061011404, -0.06562957, -0.11288602, -0.032649606, 0.010374392, -0.07565735, -0.11158307, -0.10288144, -0.037276156, -0.13981877, 0.056981504, 0.0140256835, -0.099184945, 0.017636629, -0.011911206, -0.05601768, -0.055370394, -0.037066374, -0.08409121, 0.040431753, 0.03302124, 0.05619718, 0.043652184, -0.0027117953, 0.064777926, 0.00899443, -0.017546222, -0.032992423, -0.027698038, 0.0152282985, -0.085302055, -0.030270621, 0.08090578, 0.09314456, -0.01464639, 0.026947943, 0.025566362, -0.101226844, -0.057500724, -0.076017074, -0.0065782038, -0.14228638, -0.15772204, -0.1253433, -0.14416221, 0.015066002, -0.10789807, -0.06734094, -0.024194991, -0.07800931, -0.0671931, -0.08780048, -0.08690295, 0.0129480865, -0.04549452, -0.08246687, -0.038266785, -0.02983972, -0.051505618, -0.06410632, -0.042008344, -0.13213186, -0.013642798, -0.105607145, -0.01519382, -0.022581145, -0.034489427, 0.0022250684, -0.10176122, -0.0039787544, -0.08478063, -0.0024227006, -0.050263047, -0.007682158, 0.01911989, -0.05237033, -0.05151982, -0.045882296, 0.047998752, 0.026173761, 0.04983244, 0.04571187, -0.012509104, -0.02450908, 0.01310307, -0.02054145, -0.041754607, 0.001702557, -0.024450585, -0.04253505, 0.00916823, -0.085840344, -0.08224021, -0.10502103, 0.05624459, -0.03239025, -0.01083357, -0.029549422, -0.038077828, -0.026059093, 0.051262714, -0.007902128, -0.11223731, -0.03307437, -0.022192247, -0.05319878, -0.0720017, 0.039869737, -0.07899155, 0.027152535, -0.08897551, -0.03009653, -0.08348561, -0.054590255, -0.013163829, 0.04175398, 0.0029341576, -0.098886, 0.037330523, -0.02544805, -0.06306556, -0.07669816, 0.03680812, -0.10807884, 0.027204556, -0.03959973, -0.011331095, -0.09465916, 0.029125094, -0.04714128, 0.0006164297, -0.08272588, 0.02918014, -0.025920177, -0.074028656, 0.007105712, -0.05656553, 0.01775515, -0.040687174, -0.097571634, -0.012092261, 0.0046568145, -0.019987797, -0.051193677, 0.04117019, -0.03181234, -0.059834495, -0.030683426, -0.038776774, 0.024814758, -0.067405574, -0.04172904, -0.098590605, 0.00769894, -0.12681276, -0.014352382, -0.037878383, 0.015294999, -0.05346572, 0.05349137, -0.051936638, -0.09786446, 0.029465461, 0.004604845, -0.03502028, 0.04964702, -0.017265823, -0.026498867, 0.022443958, -0.09340967, 0.022038927, 0.07383278, -0.0656501, -0.046966106, -0.0031628355, -0.05053518, -0.08689107, -0.0854405, -0.11709482, 0.0026939234, -0.10453494, -0.023620423, -0.11847923, 0.007452459, -0.11369429, -0.08451517, -0.11978234, -0.13455987, -0.010752721, -0.021427145, -0.09120275, -0.050278533, 0.040587246, -0.083231844, -0.07670938, 0.050141916, 0.010297898, 0.047051586, 0.054208234, -0.03903434, 0.018409496, -0.07589295, 0.026610104, 0.025241058, 0.04923291, -0.07144097, -0.023225542, 0.025755003, -0.08591665, 0.003289617, 0.02952938, -0.08953085, -0.072733834, -0.037046675, -0.018136658, -0.11772083, -0.08725417, -0.10776946, -0.07455562, -0.124085665, 0.03494988, -0.10735298, -0.03165371, -0.04287029, -0.043105632, -0.10429672, 0.016162973, -0.051086694, -0.020056996, 0.041875128, -0.002059928, -0.08013335, 0.031124186, 0.053150833, -0.0043226033, -0.0053028017, -0.006016236, -0.026428273, -0.07143775, -0.042413563, -0.06152287, 0.022540513, 0.0060804067, -0.0023938457, -0.10207695, -0.012830095, -0.09873623, -0.11806233, -0.035453044, -0.04746277, -0.03522428, -0.0029841568, -0.039810095, 0.028011588, 0.01844676, 0.023683522, -0.05332585, -0.104708575, -0.032445516, -0.038527735, -0.13551898, -0.11506033, -0.11657447, -0.013849857, -0.06479468, -0.071145564, -0.049147915, -0.00094982336, 0.01742946, -0.009739468, -0.053055566, -0.021842897, -0.016167691, -0.023490818, -0.029607782, -0.007015098, 0.045022335, -0.032769017, 0.012822468, -0.020293752, -0.08378075, -0.07903616, -0.02478057, 0.032902967, -0.063192785, -0.0668719, -0.10158216, -0.13033043, 0.026423698, -0.10841511, 0.11342583, 0.23505831, -0.13693762, 0.1288514, 0.1339409, 0.0014231013, 0.16707438, 0.10415442, -0.087072715, 0.049344804, 0.080588505, -0.15853998, 0.09026186, 0.11737875, -0.13163276, 0.08952192, 0.38020238, 0.14473021, -0.16586356, 0.057723343, -0.0957266, 0.07761789, -0.00023227985, -0.20311843, -0.09896587, 0.027547454, 0.031062039, -0.17403685, 0.005798791, 0.005228657, -0.006950446, -0.27023524, 0.030045746, -0.0954341, -0.023593867, 0.067993104, 0.18693085, 0.18164378, -0.06132253, -0.08997342, 0.22269887, -0.35770518, 0.043926746, 0.21399187, -0.18752338, -0.11067063, 0.042537484, -0.12395214, -0.0016197675, -0.117792964, 0.099409945, -0.045948446, 0.090352364, 0.04220622, -0.084891185, -0.10755996, -0.06524427, -0.05147219, -0.11922053, 0.024017956, 0.047778778, -0.09156788, 0.002652857, -0.03602101, -0.05819399, -0.07263511, 0.011504408, 0.043769456, 0.043184258, 0.0409081, -0.0069924737, 0.055492304, 0.11919269, 0.1819823, 0.03242504, -0.1597667, 0.024643986, 0.052064247, -0.06290027, 0.07515155, 0.16994165, -0.024496205, -0.02684197, 0.123385765, -0.014574093, 0.21225812, 0.09840124, -0.07539234, 0.25733587, 0.015099173, -0.061313644, -0.12139097, 0.19453454, 0.09259199, -0.16837424, 0.18024048, 0.02112967, -0.13089035, -0.055908702, 0.13669477, -0.08305512, 0.0885648, 0.025945047, 0.0124125155, -0.08817954, -0.0008200392, -0.0041193874, 0.019203883, -0.26033625, -0.02937962, -0.09253631, -0.026912725, 0.10242682, -0.11119588, 0.15937726, 0.058551434, 0.049966086, 0.026216438, -0.077128254, -0.049676903, -0.06722414, -0.13622352, -0.04067044, -0.049545515, 0.12072179, 0.20222875, 0.11868286, -0.038008127, 0.14671148, 0.1330835, 0.14789078, 0.06748073, -0.007848803, 0.067361966, -0.059079338, 0.02340304, -0.006709396, 0.0067343097, 0.025654163, -0.0016786647, 0.044346638, 0.022763595, -0.02170863, -0.01714346, 0.0013945887, -0.07249316, 0.13792513, 0.09603909, -0.07784719, 0.2914478, 0.013559489, -0.094964355, 0.01891586, -0.16315182, -0.21895398, 0.17310388, -0.17325091, -0.1454342, 0.018067965, -0.104237, -0.34410542, -0.049401544, -0.03973145, 0.04393665, 0.13609627, -0.056405857, 0.09330773, 0.27139688, 0.05989859, -0.008798331, 0.005874765, -0.10340547, -0.09337701, 0.02794292, -0.014042817, -0.04150393, -0.068141945, 0.030364126, -0.05341232, 0.032488648, -0.014410319, 0.14139234, -0.18091048, -0.031886604, 0.029088227, -0.09653963, 0.025736274, 0.06906116, -0.09081606, -0.027153604, -0.028606933, -0.047897004, 0.14872377, -0.12271663, -0.16803674, -0.23997267, -0.15427576, 0.06393688, -0.011645208, -0.023040894, -0.038345844, -0.010810874, -0.05535922, -0.06470375, 0.054046903, 0.08954658, -0.16026828, -0.30814284, -0.12461676, 0.107903555, -0.06689064, 0.04052498, -0.0045246263, -0.034578785, 0.08997082, -0.082471915, -0.1780795, -0.095510796, -0.07874516, 0.1042215, 0.0044632, 0.20242219, -0.14662182, 0.061098732, 0.16689374, 0.02863351, 0.03765606, 0.084829874, -0.25131375, -0.062050227, -0.0798894, 0.055089146, 0.0985014, -0.1386623, -0.10847172, -0.05527141, 0.12022577, 0.033928413, -0.35935694, -0.18829368, -0.17424148, -0.4148287, 0.039358642, 0.11998958, -0.10101212, 0.23142283, -0.0032888562, -0.08004722, -0.15864149, -0.15022887, -0.04601614, 0.05293598, -0.015785404, -0.049895503, -0.051168207, 0.076389655, -0.031787716, -0.06659056, -0.060322516, -0.017967803, 0.08521558, 0.077980846, -0.24931887, 0.16464387, 0.0272429, -0.2588815, 0.29025188, 0.06887785, -0.1360812, -0.07165057, 0.0744403, 0.12895107, -0.0049092025, 0.009117652, -0.0872464, 0.30598614, -0.017997917, -0.3408411, -0.050746158, 0.039321106, 0.06778808, -0.13300808, 0.010210176, 0.0038453043, 0.0067453217, -0.11166787, 0.022503292, -0.13994017, -0.27589688, -0.075800866, 0.09182671, 0.08320799, -0.17749842, 0.16792053, -0.033467162, -0.13912667, 0.104354225, -0.22537528, -0.14721483, -0.037824456, -0.118904814, -0.062430445, -0.11966697, -0.06634384, 0.09021929, -0.034089785, 0.030015761, -0.0386544, -0.026846748, 0.026450397, -0.074618794, 0.05292301, -0.0458638, 0.017162865, -0.11261938, 0.0369933, -0.13765728, 0.017972374, -0.29297403, -0.19226544, 0.1796576, -0.033751704, -0.10518239, 0.056892663, 0.09469356, -0.093390584, -0.057961967, -0.041621733, -0.27368313, -0.05759283, -0.07519554, -0.40120667, 0.125487, -0.0030505136, 0.13540418, 0.049595553, -0.1642519, 0.019739682, 0.2807452, -0.107040845, -0.041686364, -0.09062672, 0.024661612, -0.07669352, 0.1083859, -0.10492978, 0.03526439, 0.15666254, 0.19541535, 0.08452777, 0.21059355, 0.122738406, -0.0020379964, 0.110055655, -0.060151417, -0.01783754, -0.095739596, -0.012961183, 0.058173288, 0.011903704, 0.016954755, 0.030797215, 0.015690673, 0.036626432, -0.026473852, 0.02078395, 0.009787058, -0.025283387, -0.059460353, -0.07986114, 0.15361848, 0.09090572, -0.19226503, -0.041668583, 0.05755145, 0.027188277, -0.07461146, -0.018283943, -0.28030464, -0.11531095, -0.06325698, 0.13845429, 0.015207015, 0.23433375, -0.02686314, -0.03517822, -0.026654582, 0.14769827, 0.27192694, -0.035214543, 0.045254994, 0.20358172, 0.118500836, 0.2092062, 0.116441876, -0.012934688, -0.11458463, -0.013862987, -0.17051323, -0.07200366, -0.0021619396, -0.33536175, -0.10360815, 0.04222186, 0.055180546, 0.06528638, -0.1797074, 0.23699364, 0.21744083, -0.012918404, 0.1840408, 0.056094185, 0.105519556, 0.23239434, 0.13706733, 0.34495845, 0.14457966, -0.075776115, -0.031866822, 0.031658128, 0.0031471117, -0.025696099, -0.048252422, 0.11190272, 0.11431365, -0.09650089, -0.15696774, -0.1181208, 0.19107215, -0.114223406, -0.13254964, 0.082590766, 0.0425355, 0.27061808, 0.06164851, 0.06849359, 0.29465514, 0.10737125, 0.16769296, 0.20993851, -0.009325176, -0.05205503, 0.07920957, 0.059011523, -0.20146681, 0.20939611, 0.10021092, 0.09732868, 0.15195447, 0.10029796, -0.003937806, -0.23045766, 0.06833828, -0.23059353, -0.17630163, 0.37278777, 0.058828868, -0.19340783, -0.12004792, -0.03812955, 0.09242183, 0.18187252, 0.052464485, -0.19742374, 0.2611498, -0.051359177, -0.14492539, -0.0033246602, 0.06804782, 0.03921701, 0.113334425, -0.02991001, -0.30135798, 0.15232098, -0.14794257, -0.15645236, -0.39224404, -0.12027525, -0.01438363, -0.22479616, 0.10264661, 0.031919256, 0.10681422, 0.18969877, 0.051324096, -0.08697385, 0.033381883, 0.00968482, -0.22795048, 0.022133082, -0.016636826, 0.018052265, 0.08139671, 0.12059532, -0.08663318, 0.0027361636, 0.09059788, -0.14621119, -0.07705454, 0.0067969034, 0.034039836, 0.07351514, 0.117352076, 0.1573001, 0.07014719, -0.15838885, 0.33070177, -0.022583835, -0.30825904, 0.37800545, -0.103313215, -0.45168635, -0.012808405, -0.013346886, -0.120292366, 0.19024575, 0.08719814, -0.08623508, -0.031259786, -0.07998218, -0.24753763, 0.030369291, 0.0712343, -0.00401401, -0.016610216, 0.18955907, 0.052233856, 0.08150494, 0.0058996896, 0.04896115, -0.06850311, -0.10151901, -0.11619885, -0.13068038, -0.11781036, -0.07319818, 0.08692163, -0.07062219, -0.011492477, 0.061626248, -0.015298254, 0.04207129, -0.10114838, -0.0097426, -0.06943793, -0.0863572, 0.03550346, -0.09294192, -0.016751982, -0.15056165, -0.19210319, 0.17432036, -0.0895088, -0.0293877, 0.16503696, -0.095527485, -0.028635267, 0.07325198, -0.054898564, -0.052137814, -0.25531816, 0.02872041, 0.006337409, -0.03339245, 0.010857054, 0.14332587, -0.03956524, -0.16881576, -0.08304142, -0.026730122, -0.009760777, -0.085018344, -0.015714573, -0.0823169, -0.20834787, -0.02273728, -0.058603942, -0.10438732, -0.09840434, -0.0142818, 0.026114251, -0.115432814, -0.08281016, -0.12096983, -0.06865083, -0.011064326, -0.06879701, 0.0014626025, 0.01482786, -0.0105136065, -0.04167231, 0.025649074, -0.11632815, -0.007383833, 0.080866195, -0.03844261, 0.027060816, -0.059298698, -0.009783728, -0.060234822, -0.10880496, -0.06386782, -0.09141974, -0.0036923836, 0.0087619815, -0.060196996, -0.024190689, -0.08091924, -0.022386044, -0.114721335, -0.06734818, -0.0553107, -0.10334947, -0.069797955, -0.104641765, -0.09571881, -0.09725595, -0.0060529527, -0.053492278, -0.015367668, -0.0060292888, -0.0072266287, -0.004268781, -0.034273215, 0.01736069, -0.08082003, 0.0020916576, -0.022688696, -0.09140159, -0.06622924, 0.023373587, 0.016853103, 0.012975869, -0.039915297, -0.09715813, 0.042256437, -0.05200152, 0.04955911, -0.011881619, -0.004762232, 0.044914596, -0.011519757, 0.0023770134, -0.071850985, -0.031003714, 0.058239404, 0.017852684, -0.06595845, 0.059421953, -0.054540016, -0.0597872, -0.04930368, -0.012602708, 0.0028328344, -0.12992015, 0.039275832, -0.056776483, -0.025004173, 0.13294618, -0.012264767, -0.036248848, -0.0045262594, -0.03479195, -0.028035292, -0.0014525381, -0.015813008, -0.08548557, 0.036145743, -0.07335049, -0.014816625, -0.05488193, -0.060767822, -0.019182766, 0.026670318, -0.0034787795, 0.106720865, -0.05189272, 0.022822253, -0.030844895, -0.011231242, -0.059846908, -0.0101356795, -0.04926153, -0.041474234, 0.00449137, -0.005600512, -0.053703345, -0.03496681, -0.043102615, -0.09193712, 0.016403215, -0.072740324, 0.03065888, -0.040424317, -0.028446877, -0.069896445, -0.005892656, 0.005907081, -0.096465185, 0.041197542, 0.011855087, -0.049604334, -0.008180267, 0.031573508, -0.045789495, 0.0065668616, 0.050604675, -0.03693632, -0.033503093, -0.042512137, 0.04377258, -0.0700504, 0.05759512, -0.034433145, 0.032220595, 0.03862758, 0.043463722, 0.055327028, -0.054839157, -0.0020672767, -0.0029946135, -0.10245964, -0.11697641, -0.08931752, -0.11401857, -0.008145237, -0.08287682, -0.030375032, -0.07670526, -0.04719142, 0.00024072753, -0.014231764, 0.011886494, -0.03339002, -0.066685766, -0.05787454, -0.07149451, -0.085891694, -0.032237973, -0.10900379, -0.06695049, -0.031320427, -0.06843051, 0.029446635, -0.019979503, 0.041545685, 0.017920114, -0.05206451, 0.018602885, 0.06385499, 0.049695842, -0.007203333, 0.057515785, -0.05330837, -0.069706514, -0.030521987, 0.04049882, -0.05817844, -0.07886832, -0.09282558, -0.026345985, -0.054964844, -0.04968185, -0.0009608109, -0.12200899, -0.06536999, -0.07068128, -0.08584705, -0.019794898, -0.042933423, -0.04018444, -0.030070912, -0.15112461, -0.027205557, -0.060728967, 0.0054986402, 0.068257734, -0.068983346, -0.014235903, -0.059884083, -0.034826692, -0.032165226, -0.031794667, 0.03591947, -0.026651744, -0.059629932, -0.0741709, -0.07745213, -0.05200472, -0.044198297, -0.12226583, 0.032932643, -0.041140832, 0.07719375, -0.031921465, 0.051220004, 0.04203762, -0.0076451134, -0.017260829, 0.010269655, 0.015313623, 0.005021086, -0.06842428, -0.018558513, -0.059151273, -0.028372321, -0.030689243, 0.022059739, -0.008847815, -0.05522174, -0.10381951, -0.046624746, 0.012633879, -0.08890644, 0.010907518, -0.018212358, -0.10717662, 0.0035644702, 0.025365276, -0.06390446, -0.022354582, 0.030095022, -0.08439729, -0.06998048, -0.09096276, 0.03832537, -0.030987054, 0.018350743, -0.015388645, 0.06667195, 0.036872305, -0.026494917, 0.043359198, 0.061228693, -0.03419568, 0.07206735, -0.07348127, -0.11002658, -0.08430416, -0.1254868, 0.005400097, -0.0036610703, -0.090349756, -0.08193185, -0.067632474, -0.037871677, -0.08868382, 0.023393648, -0.005236535, 0.0011085168, 0.009529381, 0.015488877, -0.116367064, -0.0039220834, -0.065985516, -0.02414826, 0.012637861, -0.027881868, -0.026942987, -0.02746341, 0.045187876, 0.030954994, 0.030462794, -0.10076785, -0.09882284, -0.09571245, -0.019205827, -0.006979432, -0.026451642, -0.0008555736, 0.025186999, -0.07931127, -0.031828932, 0.029086795, 0.015810322, -0.10075276, 0.020907238, 0.050434973, -0.13549049, -0.10403249, 0.007275538, 0.043389052, -0.04513839, 0.021887824, -0.015501503, 0.013160557, -0.05334086, 0.040074926, 0.032323033, -0.05695165, 0.0037690918, -0.0902621, 0.009378193, -0.015423551, -0.08081732, -0.06978545, -0.05761083, 1.7594371e-05, 0.016537841, -0.08953415, -0.056239467, 0.08757782, -0.11349481, -0.1129022, -0.094931714, -0.003036029, -0.12241112, -0.09636477, 0.06943988, 0.038675457, 0.010855181, -0.09857933, 0.021910938, -0.044366084, 0.04059479, 0.045743108, -0.045110937, -0.079671085, 3.8659768e-05, -0.009357216, -0.017210366, -0.054869775, -0.035135046, -0.050737746, -0.04744697, -0.053010266, 0.0007904431, -0.060073923, 0.0037075188, -0.00811154, -0.08341989, 0.05268254, -0.10587367, 0.031010976, -0.10250346, -0.024311995, -0.03728461, -0.027159164, 0.036371097, -0.012888943, -0.0071158423, -0.049618267, -0.02276103, -0.070101276, 0.041092042, -0.016533662, 0.01833189, -0.03063, -0.050483968, 0.06328552, -0.031653646, -0.026679525, 0.0540112, 0.021967039, -0.07008231, -0.040718496, -0.12485911, -0.0886224, -0.12261561, -0.033855055, -0.04755656, -0.10592747, -0.104889736, -0.1290824, 0.03325592, 0.07429032, -0.07495631, -0.071598, 0.013312253, 0.034939464, -0.09101265, -0.088700116, -0.051979862, -0.108602464, 0.011005317, -0.10172221, 0.026596349, -0.08393488, -0.08540082, 0.034121573, -0.04845251, 0.04051995, -0.091851145, 0.023875818, 0.005881399, -0.09029395, -0.07943346, -0.017059624, -0.016804904, -0.045035325, -0.075899854, -0.08159101, 0.036260094, -0.025021795, -0.12098181, 0.070209764, -0.121149436, -0.06494345, -0.014849261, -0.051118452, 0.010590831, -0.101615526, -0.083929144, -0.07352444, -0.08421853, 0.04188124, -0.081076615, -0.097112745, -0.0123946145, 0.015627282, -0.0037473424, -0.08441525, 0.009191546, -0.0373016, -0.04264852, -0.05094575, 0.040345896, -0.042515174, -0.080664895, 0.025269486, -0.023584008, -0.08391627, 0.035273854, 0.025292752, -0.035209667, -0.05972264, -0.017801467, -0.063777775, 0.014373268, 0.039999608, 0.037133116, -0.005381609, -0.035610333, 0.064320475, 0.031088041, -0.04325273, -0.01597636, 0.047391027, -0.07443214, -0.09168224, -0.011580504, -0.03869926, 0.00631366, -0.010592269, 0.018284554, 0.014775359, 0.02693145, 0.05996011, 0.055712037, 0.03510605, -0.046727948, 0.025042448, -0.008452057, -0.09956956, -0.10522618, -0.0055971346, 0.029661497, -0.07086719, -0.004885108, -0.0005954728, -0.052338887, -0.01064207, 0.07474607, -0.04807011, -0.10461741, 0.034920402, -0.10557847, -0.0015653458, -0.0793958, 0.0010573436, -0.10663549, -0.007814189, -0.0607938, -0.010647756, -0.0329186, -0.017450765, -0.04743866, -0.07834908, -0.08625408, 0.02416635, -0.04771208, -0.038010903, -0.020226285, -0.028618522, -0.036442272, -0.07032235, -0.03825453, 0.068439804, -0.048239194, -0.03577717, -0.012992674, -0.05508872, -0.098934084, -0.09613844, -0.04563384, 0.059326433, -0.017822154, -0.06152814, -0.05709639, 0.013278387, -0.07468639, 0.054152224, 0.03815557, -0.055773173, -0.059190653, 0.023181185, -0.00615493, 0.008807116, -0.07797806, -0.04530474, 0.0013418436, -0.009799788, -0.03664232, -0.07757956, 0.034857936, 0.030700052, -0.09847958, 0.058637843, 0.02584533, -0.11372568, 0.026351474, -0.015115039, -0.12855959, 0.010272901, -0.08897528, 0.0016385401, -0.092858955, -0.08798722, -0.062072527, -0.081650116, -0.042724658, -0.11854355, -0.05018686, 0.12827753, 0.0046729418, 0.084105395, 0.054013375, -0.056842595, 0.038406454, 0.08659596, 0.038834892, -0.06758581, -0.0042512305, -0.04619849, -0.058009915, -0.06814778, -0.09065669, 0.046531867, -0.058349587, -0.06860077, -0.0035568206, 0.12572037, -0.01664198, 0.012813931, 0.004552208, -0.022015015, -0.14033186, 0.007882971, -0.007202034, -0.21157928, 0.08544149, 0.14919995, -0.17922518, 0.1567744, -0.07618751, -0.06152126, 0.33495685, 0.03299065, -0.19765392, 0.1742331, 0.2973679, 0.22885914, -0.07638094, 0.073790185, 0.06240631, -0.13064171, -0.19794045, -0.23803328, -0.038477696, 0.010583813, -0.13367878, 0.068672, 0.0083569335, 0.11705492, 0.1097088, 0.033862177, -0.016401622, 0.07409164, -0.14496133, -0.062479664, 0.157401, -0.038012333, -0.04883706, 0.24687883, 0.044328965, -0.05008126, -0.24299364, -0.088336624, -0.032536756, -0.14699614, -0.07394391, -0.09503004, -0.06587268, 0.033796035, -0.08548462, -0.30580738, -0.17396401, -0.16472344, -0.025621396, -0.12466667, -0.16077092, -0.2597413, -0.23388244, -0.16104579, 0.004059879, 0.019774165, -0.063852146, 0.045339864, -0.0015883943, 0.08285243, 0.074798755, 0.06631092, 0.060631156, 0.0026370646, 0.055073537, -0.067940176, 0.24282153, -0.11786821, -0.029761242, 0.1968843, -0.07313366, -0.0913729, 0.058285277, 0.07666413, 0.21768336, 0.03399787, 0.2087239, 0.37939984, -0.01874633, -0.041503083, 0.095284656, -0.10433228, 0.0857115, -0.013147117, -0.029286994, 0.0289106, -0.05278081, -0.06941011, 0.15479618, 0.023170257, -0.18049362, 0.11522022, 0.06206736, 0.04003891, 0.021656677, -0.120614186, -0.09652105, -0.15693015, -0.04133989, 0.0033431652, 0.06593356, 0.17639655, -0.17625774, 0.04215844, 0.3324678, 0.04017102, 0.06699183, 0.10187802, 0.115791105, 0.11957981, 0.05112625, 0.12224974, 0.2145913, 0.088852875, 0.14638464, 0.10218028, -0.08295444, 0.10086533, 0.041508332, -0.0018170866, 0.17364134, 0.10652249, 0.10246501, -0.027713515, 0.08590639, 0.041355748, -0.09683576, 0.06484796, 0.0019382178, 0.028795931, 0.048311774, -0.06723222, -0.037714116, -0.038905077, -0.025489224, -0.2196752, -0.25177687, 0.20509236, -0.15684046, -0.10370169, 0.19580896, 0.045505702, 0.019133266, -0.030976664, -0.066912055, -0.07429554, -0.1271955, -0.09396409, -0.008608836, 0.12448491, -0.14037746, 0.23854475, 0.26517582, -0.20223914, 0.06556269, 0.05013268, -0.119623505, 0.05351591, -0.044670004, -0.20686485, 0.032339428, 0.16226257, -0.030703515, 0.05543428, 0.0161875, 0.044956937, -0.0052048187, -0.02449273, 0.026154945, 0.03718832, 0.00679317, -0.23771678, -0.08332888, -0.11419641, 0.07493577, 0.039374057, -0.3090087, 0.051342543, 0.0845788, 0.0063533867, 0.034600757, 0.09945133, 0.13239855, -0.030407893, -0.008987164, 0.026928723, -0.03710241, -0.044225413, 0.044628218, 0.01630333, 0.009541405, 0.06897832, 0.04539353, 0.0029577226, -0.057256315, 0.018041175, 0.043657415, -0.015927434, 0.18710713, 0.23294404, -0.11848913, -0.0051657823, 0.034631956, -0.12869377, -0.12415576, -0.03215507, -0.057218496, 0.22499117, 0.3019409, 0.21079247, 0.23119286, -0.02143016, -0.045186568, -0.05189043, -0.043146838, 0.012062435, -0.014990643, 0.06876762, -0.013467577, 0.005060107, 0.0009253156, -0.07282074, -0.070888855, -0.07848413, -0.23024361, -0.09991067, 0.06429911, 0.0029335173, -0.1119073, 0.018639233, -0.035635356, -0.21856399, 0.014036953, 0.061682474, -0.091376625, -0.047675617, 0.02885205, 0.14103119, -0.049131326, 0.1360986, 0.1790039, -0.12776169, 0.07058017, 0.014068397, 0.013228547, 0.038316295, -0.04840723, -0.05555107, -0.001968994, -0.044279646, -0.0773902, -0.039488595, -0.15115839, -0.058159456, -0.10884509, -0.15177765, 0.060564507, 0.14603454, -0.15911643, 0.211149, 0.15028487, -0.40775666, -0.38182515, -0.5549701, -0.5530414, -0.29318044, -0.2282126, -0.037852876, -0.07058789, -0.049824413, -0.050387803, -0.007307148, 0.05088712, 0.03025659, 0.026585896, 0.08543215, -0.022991149, 0.029890731, 0.051907044, -0.122376606, -0.06569643, 0.1217377, -0.12219457, -0.05779982, 0.048020966, -0.22152625, -0.11100616, -0.005101816, -0.030244729, 0.065323524, 0.07402815, 0.1005948, 0.038292285, 0.070819154, 0.12186679, 0.13148986, 0.069817856, -0.042799268, 0.062388428, 0.04281245, -0.05181136, -0.0029601445, -0.025365734, 0.010853438, 0.039233655, 0.06561381, 0.00032690275, 0.005646779, 0.087190375, -0.27230194, -0.084022075, -0.21312243, -0.11259486, 0.117167816, 0.12792088, -0.3624948, -0.025160931, 0.04845707, -0.07677646, 0.11470688, 0.03591774, 0.02398219, 0.12363736, -0.031725664, -0.13821109, -0.2016736, 0.23625831, -0.13266882, -0.07413335, -0.17376101, -0.09528504, -0.024475085, -0.17841183, 0.060334604, -0.1485257, -0.17003937, 0.038357165, -0.106013924, -0.08678154, 0.04509547, 0.17849581, 0.10688507, -0.6966383, -0.2815788, -0.37152115, -0.053095233, -0.0018194003, -0.3105327, -0.33309382, -0.0044069216, -0.240579, 0.090479575, -0.030751359, -0.06652129, 0.07160738, 0.07094653, -0.0038480288, -0.014235307, -0.052209318, 0.072259456, -0.35418612, -0.20954013, -0.43854642, -0.1999619, -0.28510672, -0.49982607, -0.43461165, 0.048176873, 0.18537717, -0.30258888, -0.47421595, -0.18222043, 0.055125266, -0.061226066, 0.028221536, 0.19372319, -0.16400802, 0.020011391, 0.032987114, -0.036350127, 0.004456422, 0.074149475, 0.07817996, 0.12901756, 0.027441448, -0.110454746, 0.21388759, 0.03878372, 0.12864688, 0.04487337, -0.13343704, -0.03627989, -0.13747182, -0.107160255, -0.09351703, 0.0062127397, -0.1885768, -0.44621295, -0.092808746, -0.20273922, 0.009871364, -0.0031274715, -0.021654442, 0.00043629328, 0.10348173, -0.055396825, 0.036032908, -0.13157293, 0.3456878, 0.030403482, -0.16365278, 0.25548133, -0.047880698, -0.030953687, -0.35331956, -0.10795501, -0.109437525, -0.1616048, 0.021441622, -0.2318595, -0.08754108, -0.086206906, -0.28951877, -0.05816263, -0.14515063, -0.08939792, 0.11126946, 0.06808777, -0.055446617, 0.16926014, 0.069243945, 0.10251731, 0.27619293, -0.020168612, -0.019748181, 0.145254, 0.025073364, -0.03925066, 0.011718859, -0.05610155, -0.04515136, -0.25118938, 0.011222624, 0.13204834, -0.11838347, -0.14423308, -0.10187348, -0.07404927, 0.008026488, 0.04473959, -0.5074312, -0.3597549, 0.02715471, -0.3779175, -0.06177249, -0.027996194, -0.2853739, -0.11246613, -0.008327289, -0.030423863, 0.0815137, 0.27628297, 0.06342474, -0.10460421, -0.0014524066, -0.16694054, 0.1528328, -0.07506117, -0.0011511999, -0.006227739, 0.08935433, 0.033009853, 0.001173636, -0.020988032, 0.25232434, -0.14580142, -0.012355704, 0.0047732336, 0.1473536, 0.2681037, -0.024226675, 0.16192277, 0.21408202, 0.09397089, 0.06649, 0.13582428, 0.06729982, -0.020685684, 0.026645651, 0.16691375, 0.08346217, 0.06018758, 0.09605814, 0.0028041794, -0.045140833, -0.016379232, -0.1279636, 0.12373631, -0.07368791, -0.034100592, 0.22287832, 0.031674773, 0.077477984, 0.31168613, -0.1429644, -0.049833126, 0.006487364, -0.083765954, -0.069107905, 0.008139358, 0.012247243, 0.25398484, 0.20845592, -0.11596554, -0.15683329, 0.0012700331, -0.118571185, 0.0441546, -0.07998812, -0.28224263, -0.22326152, -0.24281038, 0.11861509, 0.096018344, 0.226996, -0.119731724, 0.057130434, -0.13522832, -0.06967563, -0.12654518, -0.08096937, -0.16191792, -0.10362402, -0.009870326, -0.13769196, 0.10907779, 0.17467469, -0.015982153, -0.05596324, 0.07679981, -0.2103965, 0.10535794, 0.076171145, -0.23583522, 0.05190503, 0.13471426, -0.22098495, 0.09584808, 0.13815819, -0.03773883, 0.15288383, -0.1422793, 0.12651703, -0.022188053, -0.14899904, -0.184808, -0.20642139, -0.10751577, -0.12121245, 0.011222459, -0.042140882, -0.107870445, 0.09027838, 0.2213079, 0.01899993, 0.24617267, 0.12633005, 0.0011271347, -0.17534232, -0.27897453, -0.105360605, -0.017629324, -0.2635779, -0.13197117, -0.085138045, -0.15529138, -0.050829697, 0.077111006, 0.12567788, 0.2295008, 0.047308177, -0.0026024943, -0.09437436, -0.20183009, -0.030954402, -0.07056961, -0.03108238, -0.08480008, -0.19825128, -0.145415, -0.018856589, 0.22024165, 0.050692003, 0.0062411204, 0.1132103, -0.029751122, -0.037016235, -0.17655939, -0.112754434, -0.039340753, 0.21175785, 0.1767113, 0.1048961, 0.0302699, -0.17079656, -0.16018243, -0.10997939, -0.11932243, -0.1332045, -0.09403598, -0.14758176, -0.043485165, 0.12307748, 0.054755166, 0.16210659, -0.034923673, -0.13670415, 0.07361981, 0.11505621, 0.054959353, 0.112817526, -0.028023237, 0.014580047, -0.015510035, 0.0454578, -0.08018432, -0.114739425, -0.25774968, -0.04278077, 0.0434554, 0.005535087, 0.0008407152, -0.021399891, -0.03598835, 0.065388426, 0.030301534, 0.021781428, 0.005950735, -0.064812995, -0.1338245, -0.067712836, -0.042850293, 0.031495623, -0.02261948, -0.050495688, -0.04750189, -0.082819246, -0.039356504, 0.15084748, -0.2347098, -0.08107986, -0.012902346, -0.14094856, -0.085014224, -0.14507021, -0.14597122, -0.09404841, -0.005560697, 0.06682078, 0.08100142, -0.03246989, 0.11289822, -0.17028391, -0.032958303, -0.10656838, -0.111101836, -0.0858231, -0.29314277, -0.29072812, -0.043264642, -0.0901632, -0.293227, -0.07772829, -0.26505122, -0.00034687383, -0.008696519, 0.03583584, -0.110277995, 0.0031343086, 0.06959633, 0.10003489, 0.049320076, -0.0028900164, 0.0036778746, -0.19816394, 0.019221606, -0.081344455, 0.02067295, -0.26467893, -0.23147929, -0.14183134, -0.077804774, -0.1586775, 0.027953466, 0.015500779, -0.1271119, -0.06641296, -0.100509845, -0.023390308, -0.07733344, 0.032978125, -0.05282001, 0.05385224, 0.05989163, -0.04092529, 0.07730311, 0.060133338, -0.035675906, -0.0185097, 0.0016731316, -0.067741275, -0.081876405, -0.13624583, 0.11648859, -0.002071301, -0.35727832, 0.095479906, -0.21960944, -0.09741698, -0.041368295, 0.16622812, -0.053431854, 0.09745065, 0.11560008, -0.01756778, -0.052554246, -0.071960814, -0.08271701, -0.15969783, -0.08838229, 0.24326697, 0.07430051, -0.06600502, -0.052322496, -0.009435907, -0.038138743, -0.24148835, -0.24843103, -0.016196663, 0.014736158, -0.018498357, -0.014477371, -0.019425636, 0.011360254, 0.053104434, 0.03421818, 0.048153687, -0.06507421, -0.052790124, 0.06254806, -0.101289354, -0.21480738, -0.1590171, -0.17300317, -0.3382882, -0.11226425, -0.1159249, -0.26103136, -0.13805571, -0.3117775, -0.060227443, -0.16145568, 0.21757886, 0.18649396, 0.14635058, -0.008372694, -0.0055322275, 0.054242373, -0.059169106, -0.02537898, 0.018707357, -0.026194528, -0.014425278, -0.04224338, -0.035802476, -0.29602033, -0.11402463, -0.18122146, -0.11325167, 0.025497088, -0.105639815, 0.01982513, 0.010919905, 0.12311796, 0.12451208, 0.20362483, -0.0038693028, 0.13413717, 0.09143832, 0.016887065, 0.32917294, 0.084367245, -0.09113817, 0.07876029, 0.13045786, 0.013409978, 0.11731596, 0.058530644, 0.2406165, 0.20932318, 0.09045269, 0.13828601, -0.04220513, 0.084192075, -0.1396676, -0.08044505, -0.12541194, 0.20783852, -0.00071986706, -0.035508998, -0.19816613, -0.116665445, -0.045949623, -0.18775684, -0.068818614, 0.02338375, -0.1106835, -0.031494983, -0.121384285, 0.054878045, -0.05268374, -0.024807252, -0.07680215, 0.02526675, -0.09193531, 0.0006593151, 0.04665763, 0.04160557, -0.12652414, -0.054781966, 0.08514008, -0.122498065, -0.011667181, -0.07563847, -0.1241682, -0.16807748, -0.07724671, -0.034776293, -0.14119028, 0.022784166, -0.09518537, -0.1486108, -0.04888024, 0.30373996, 0.15146045, 0.11974628, -0.01724129, -0.0012397666, -0.014612722, -0.03407164, 0.016097382, 0.03957509, -0.042571153, 0.027770994, 0.02718523, -0.13112336, 0.101404384, 0.15426077, -0.13048634, -0.20385334, -0.13020755, -0.02512656, -0.054751653, -0.17753084, -0.12249191, -0.09093146, 0.10983101, -0.27005163, -0.25298774, 0.089747794, -0.025164783, -0.04762673, 0.057902586, -0.017266532, 0.054509394, -0.0021904025, -0.022071525, -0.07173172, -0.038781136, -0.05365854, -0.07087179, 0.030683305, 0.13858984, -0.15762481, -0.25268418, -0.01653853, -0.21893696, -0.19896387, 0.039154045, -0.11935091, -0.09667185, 0.14226285, 0.051415734, -0.06611214, -0.21162967, -0.063586585, -0.027558558, 0.109101914, -0.039612465, -0.024879871, -0.18816727, -0.014884737, 0.011847644, -0.045044914, -0.037655424, -0.10204353, -0.15826148, -0.025870223, -0.1597221, -0.12360342, -0.04073919, -0.05354303, -0.1804834, -0.07225005, 0.07864949, -0.19898249, -0.112625524, -0.026741408, -0.014287912, 0.03381848, 0.1715845, 0.013120541, -0.1093066, 0.059491336, 0.0019804523, -0.083456084, -0.036473382, -0.0003022536, -0.027279735, -0.055521764, -0.049824197, 0.017945264, -0.06767861, -0.0016685049, 0.03097011, -0.05467062, 0.12717606, 0.016770672, 0.03090756, -0.09434572, -0.13964112, -0.031817656, -0.14116329, -0.13608739, -0.062192358, -0.33760145, -0.12068294, 0.043715358, -0.45073256, 0.032667138, 0.13228078, 0.07904257, 0.19926831, 0.2773375, 0.2635753, -0.15111572, -0.37214905, 0.078854434, -0.041192442, -0.15885584, -0.15981938, -0.24540012, -0.27121112, 0.017420297, -0.25627768, -0.11607986, -0.14347972, -0.0057138894, 0.01927444, 0.24491169, 0.23569661, 0.19965577, -0.08042744, 0.0021217593, -0.113469385, -0.031527545, 0.12496491, -0.117145754, 0.016994206, -0.020792898, -0.10740839, -0.09920436, 0.11846309, 0.1783845, -0.007925059, -0.068019114, 0.036258455, -0.14519496, -0.28410938, -0.1704221, -0.10658679, 0.04329454, -0.019218385, -0.20134287, -0.24013501, -0.05425176, -0.26653814, -0.27164924, -0.26207197, -0.21478932, -0.15789431, -0.0016536135, -0.2341114, -0.14897908, 0.038408745, -0.1137543, 0.115988694, 0.034819253, -0.090081245, -0.068578795, -0.070845656, 0.013431291, -0.021332305, 0.16019076, -0.20471041, 0.11412771, 0.25624573, -0.14637303, -0.06379232, 0.026256107, -0.13025063, -0.14643566, -0.16507909, -0.07217707, -0.031792957, -0.02836341, -0.014791139, 0.0633346, 0.012593288, -0.029868238, 0.03528541, -0.11680605, -0.5251305, -0.29883018, -0.07353317, 0.028655153, 0.08055144, -0.17287827, -0.042752244, -0.23985486, -0.14570463, -0.16472335, -0.09643664, -0.10697887, -0.07404177, -0.11875756, -0.04947331, -0.08888766, -0.026504982, -0.05755474, -0.03282167, 0.050591808, 0.026601404, -0.18578194, -0.07302355, -0.031057645, -0.08103274, -0.110459596, -0.003283503, -0.038848113, -0.038373552, -0.10477654, 0.029801741, 0.060077168, 0.036392283, 0.08028437, -0.011334692, 0.1330033, -0.27598205, -0.009158893, 0.12649418, 0.10459508, 0.13159344, 0.05445086, 0.035830144, 0.042162668, 0.032439515, 0.07877635, 0.069205664, -0.089831784, 0.003996517, 0.06990891, 0.008060101, 0.15040244, -0.06724994, -0.01979187, 0.08780864, 0.055868294, -0.1804609, -0.22228083, -0.16349216, -0.2981882, 0.101192154, -0.1339307, -0.109284565, -0.10281748, -0.15740968, 0.1608145, -0.0063760704, -0.27091444, -0.19741161, -0.26721245, -0.09848712, -0.39170438, -0.13092248, -0.123506956, -0.26205024, 0.04286873, -0.051810633, 0.05892511, -0.1382901, -0.12668206, 0.19011837, -0.22107412, 0.09051448, 0.11807571, -0.008193106, -0.1339556, -0.0713826, -0.14273521, -0.3120802, -0.089521326, -0.31327784, -0.013036812, 0.026765512, 0.054765124, -0.22947042, -0.0019815867, -0.05113249, 0.01864372, -0.070359856, -0.14943281, -0.033347987, -0.06933945, 0.0019556347, -0.12968758, 0.084122084, -0.13654032, -0.049234923, -0.10759069, 0.0038082951, 0.027156234, -0.02131719, -0.051387757, 0.051512703, 0.008520385, 0.040034235, -0.045932706, 0.060471892, -0.024015406, 0.0051070647, 0.03474813, -0.07556278, 0.0421993, -0.0009649777, -0.05393902, 0.018274257, -0.031000884, -0.010430279, 0.042807408, -0.048813783, 0.040167857, 0.016208908, -0.041941836, -0.06167495, -0.06824345, 0.056000825, -0.050655257, 0.011194848, 0.057147697, 0.030312741, -0.092660226, -0.08748587, -0.06323876, -0.025340838, -0.056352057, -0.045813393, -0.09359379, -0.00900209, 0.022697223, 0.00510163, -0.060006097, -0.028362487, -0.027081722, -0.087655924, -0.028441597, -0.04982713, -0.06689978, -0.08419272, -0.06551549, 0.02233891, 0.03138732, -0.03344104, 0.013858863, -0.020648273, -0.023999356, -0.027238008, -0.06641967, -0.027962945, -0.071275406, 0.01393868, -0.05466076, -0.0037232053, 0.0013482897, 0.010492009, -0.035252888, 0.01773027, 0.051951434, -0.06324892, -0.021835243, -0.0033589394, -0.076187626, 0.018304057, 0.051415637, -0.039266326, -0.0058353264, -0.016273417, -0.047175426, -0.017360862, -0.04973476, -0.005462227, 0.0252788, 0.0014519371, -0.056454733, -0.022361327, -0.048909776, -0.030203937, -0.018662233, -0.06897716, -0.053144686, -0.01908458, -0.033705737, -0.02304584, -0.006947264, 0.026707608, 0.01585841, -0.069579, -0.0026656466, -0.0005317683, -0.064790554, 0.03953765, 0.050302066, -0.031232063, -0.007606151, -0.0013418468, -0.016261956, -0.042464934, -0.0592252, -0.01289821, -0.008177953, 0.019638617, -0.012546091, -0.0040982994, 0.042605482, -0.05811202, 0.053447265, 0.051697146, 0.021713383, 0.019476945, 0.028465264, -0.06189211, -0.067467414, -0.082868755, -0.022060726, -0.045773473, -0.0022373418, -0.06674026, 0.04839841, -0.024190126, -0.037041754, 0.039414115, -0.004604525, -0.010410195, -0.055579875, -0.029006988, -0.054404963, 0.04389593, 0.051306963, -0.06519878, 0.016817532, 0.029327288, 0.007056646, -0.012856554, 0.024465837, -0.0008021295, 0.034623623, 0.007024847, -0.07471187, 0.054106966, -0.06667463, -0.090667635, -0.09292184, 0.050960228, -0.05879268, 0.04284182, -0.07154451, 0.03602557, 0.021372939, -0.023684049, -0.036812086, -0.06690465, -0.07757735, -0.045911666, 0.050867353, -0.05801266, 0.03318476, 0.07178916, -0.026220214, 0.020140773, 0.022256745, 0.021921577, 0.014801879, -0.065445, -0.066098414, -0.032949388, 0.029257208, 0.045312945, 0.023064017, -0.014167715, -0.0045092553, 0.047359213, 0.03074754, -0.056679618, 0.0368621, -0.079563305, 0.0020023568, 0.0074520623, -0.040688507, 0.02824802, -0.06430017, 0.025157303, 0.019927163, -0.036488812, -0.016251074, -0.07159633, -0.07181006, 0.045289833, -0.08820808, 0.03120225, -0.035751726, 0.0028409027, -0.014027655, 0.071363255, -0.020371508, -0.06104517, -0.07070643, 0.06318955, 0.020875297, -0.021805935, -0.013036225, -0.076249465, -0.045238648, -0.0062981537, 0.0014462216, -0.0705029, 0.019927008, 0.0022238542, 0.012062256, -0.0012690912, 0.002590025, 0.035488803, -0.024643434, 0.029403895, -0.015972942, -0.03550059, 0.03187139, 0.019836212, -0.002751518, 0.024359532, 0.05814947, -0.06301685, -0.0033064024, 0.060958624, -0.046205483, 0.07387402, -0.021001205, -0.074761346, 0.052994538, -0.034683045, -0.073275246, 0.022432087, -0.033802852, -0.006843501, -0.03332079, 0.03331314, -0.044413634, -0.012580193, -0.05176661, -0.07970202, -0.011556574, -0.06399528, 0.055773128, 0.042032704, 0.015115, -0.06394607, 0.04653389, -0.045992427, -0.009658195, -0.021511465, -0.016315881, 0.035284914, 0.019145899, 0.004901476, -0.049930625, -0.0629897, -0.03902116, 0.0017149637, -0.047319617, -0.051140275, 0.061190914, -0.06280669, 0.010411883, -0.0070892777, 0.03219517, 0.060123254, -0.059573695, 0.009207807, 0.018075678, -0.05950024, -0.042587694, -0.026402023, 0.021916954, 0.069276586, 0.0075109974, -0.049942307, -0.017191011, 0.04413548, 0.004028976, -0.017870683, 0.05724798, 0.058233842, -0.08877697, 0.032196626, -0.08359232, -0.06265037, -0.09126965, 0.02559484, -0.0409833, -0.03995777, -0.069780014, 0.031175738, -0.07077945, -0.02574858, 0.019085625, -0.04647701, -0.108100064, 0.0041151443, -0.015050251, 0.04670775, -0.07443959, 0.015977103, 0.04177182, 0.04667963, -0.012287747, -0.045662306, -0.00828138, -0.055619948, 0.05662495, -0.040365353, -0.020150589, 0.03381493, -0.011848311, 0.034050263, -0.025746167, 0.014991905, -0.07267081, -0.07586432, -0.057516888, -0.03836797, 0.025203122, -0.03661123, 0.029978517, 0.00566139, -0.07917964, 0.0041743573, 0.029929554, -0.062003784, -0.014493285, -0.07676789, -0.007752893, 0.006494285, -0.07337625, 0.072103, 0.061944015, -0.015898695, 0.0209958, -0.019959563, -0.039149243, 0.0070087872, 0.018186716, -0.039300043, -0.060881108, -0.024590325, -0.033242773, 0.049139045, 0.062046304, -0.04401254, 0.017692663, 0.026717698, -0.09874446, -0.031692825, -0.035861637, -0.050131075, 0.036909048, -0.068542115, -0.041757394, 0.021051958, -0.06261753, -0.03029189, -0.048318226, -0.041097898, -0.032303743, -0.010619277, -0.071522176, -0.0225775, -0.01944645, 0.058876954, -0.07219609, -0.054168884, -0.029693581, -0.09098899, 0.009339158, -0.008494591, 0.023841083, 0.04109784, -0.051834688, -0.01441526, 0.0349009, -0.0096940845, 0.021762906, -0.011516019, -0.054972876, 0.002061267, -0.05578919, -0.087069504, -0.01191688, -0.057116173, -0.07496376, -0.03540484, -0.031272244, -0.086508326, -0.012097469, 0.025094323, -0.016625788, -0.0074881376, 0.009391994, -0.012985349, -0.008883597, 0.054412603, -0.025903465, -0.04066855, -0.027998513, 0.046593197, 0.021757785, 0.037000958, 0.0032525796, -0.07979126, 0.029280597, 0.025977224, -0.076265104, 0.004570691, -0.029947093, -0.026728578, 0.015376493, 0.039209295, -0.0048365695, 0.0049947994, 0.016871653, -0.0071110553, -0.053274598, -0.024098262, 0.026842194, -0.07484405, 0.017750662, -0.026340388, 0.03489269, 0.031978983, -0.05023636, -0.09772903, -0.08393495, 0.013741772, 0.021889582, -0.049399965, 0.0483166, -0.03219567, 0.036233176, 0.027680274, 0.0016221197, -0.045188893, -0.051891528, -0.013233025, 0.04372613, 0.04975058, -0.069254145, -0.0197328, -0.00038125936, -0.033833433, -0.09577909, 0.03606271, -0.032113925, 0.0612505, -0.013954788, -0.077971175, -0.037935507, -0.061592337, -0.012341183, -0.055609148, -0.05941934, -0.012000032, 0.034139216, -0.080946624, -0.078841336, 0.0487668, -0.10118792, 0.055125114, 0.0048798146, -0.049740657, -0.037259363, -0.04933143, 0.0047211596, 0.043760154, -0.0071297027, -0.057701286, -0.005611001, -0.06071844, -0.013590369, 0.049717456, 0.042089798, -0.045422073, -0.057266496, -0.06565373, -0.020769278, -0.023688203, -0.044847537, -0.04048781, 0.058046818, 0.016258739, -0.050148427, -0.0448866, 0.03698795, -0.0015842479, -0.02836162, -0.038569305, 0.05101618, 0.05166487, 0.0026525834, 0.009585223, -0.07463516, 0.027402576, -0.0057112193, 0.004216028, 0.018196672, -0.06915373, -0.09931766, -0.047421936, 0.012339461, 0.035069022, -0.031670578, 0.013153518, -0.04329761, -0.032414928, -0.01633767, 0.04338111, -0.06274517, 0.048177492, 0.030952677, 0.04961926, -0.022260284, -0.09253241, -0.04736722, -0.046586953, 0.012032619, -0.052911196, -0.010158429, -0.091278404, -0.06610166, -0.054727484, -0.033492982, -0.058065314, 0.018245446, -0.026189372, -0.010685505, -0.01139654, -0.038644914, 0.007011955, -0.028460663, 0.002927393, -0.034755442, -0.0043193563, -0.05838222, -0.014752083, -0.09892097, 0.007502139, -0.099055246, -0.06228881, 0.030284047, -0.042953957, 0.027221045, 0.041482985, -0.0668701, -0.0014453916, -0.024917098, -0.07651598, 0.026982455, 0.019948183, -0.041157737, -0.022505775, 0.047623664, 0.027731707, 0.039271396, -0.065128, -0.0051765675, -0.059036277, -0.0029518283, -0.03983494, 0.00061498146, 0.028539764, -0.038612984, -0.06532649, -0.011054481, -0.028414348, -0.06583792, -0.043850813, -0.016165847, 0.16865239, -0.22089407, 0.06636324, -0.002732744, 0.0019390414, -0.03570338, -0.2806636, -0.1733121, -0.045326687, 0.04479239, -0.2111428, -0.11054931, -0.1746394, 0.10702877, 0.12448932, 0.11737103, 0.1789608, 0.1128806, -0.15104972, 0.034220554, 0.0813642, -0.08060499, -0.042372487, 0.19518517, 0.2241396, -0.22749865, -0.18224543, 0.08013448, 0.080256045, 0.18034561, 0.08367672, 0.029672941, -0.15228927, -0.038139686, -0.21162683, -0.027372736, 0.07408932, -0.2394582, -0.1524748, 0.13425507, -0.37011963, 0.15439485, 0.11289672, 0.043503724, -0.18513556, -0.13247782, -0.03722635, 0.16664822, -0.11668101, -0.36810005, -0.26707765, -0.49912918, -0.36246455, -0.3823668, -0.20309234, 0.1966821, -0.019855848, -0.38988498, 0.048617404, 0.016820585, 0.06506949, -0.05474812, -0.05175514, -0.017424366, 0.0034383293, 0.04926191, -0.059485603, 0.05450892, -0.04407012, -0.07483423, -0.2776812, -0.027683226, 0.039654873, -0.30301487, -0.08661057, -0.112363584, 0.20019898, -0.00842492, -0.27426666, 0.030858573, -0.023139354, -0.061156627, -0.108415216, -0.1660311, 0.04525522, -0.1854795, -0.39401054, 0.11544053, -0.3120885, -0.3668204, -0.23181951, -0.2147861, -0.36429098, -0.34503365, 0.11532025, -0.38481185, -0.27023306, -0.15285419, -0.26563117, -0.11658892, -0.18351404, 0.13718416, -0.34831014, 0.23189214, 0.072764456, 0.36877155, 0.11543873, -0.048258357, -0.21351083, -0.050506864, -0.034001436, -0.19250906, -0.04423193, -0.19142862, 0.120859794, 0.051369254, -0.027034014, -0.087920725, -0.036620528, -0.018963212, -0.19558449, 0.224248, 0.15044823, 0.102171406, 0.16268049, 0.19256113, -0.076786235, -0.061678767, -0.14504093, 0.0077251056, -0.05313715, -0.017853433, 0.023633426, -0.02035033, 0.009911227, -0.021960707, -0.041605026, 0.04544214, -0.0300989, -0.031393416, -0.08199541, -0.23241618, -0.08086099, 0.3451377, 0.0732428, 0.14995502, 0.33673093, 0.16577722, -0.0038874839, -0.12940575, 0.075916335, -0.016104214, -0.23609246, -0.117038034, 0.17270367, 0.114227556, 0.0884909, 0.32603526, 0.31545457, 0.0072465404, 0.38179228, 0.28572705, 0.30827823, 0.26865718, 0.20563921, 0.17192487, 0.001250921, -0.07104211, -0.0034958406, 0.05985764, 0.027998274, -0.038868252, 0.054454908, -0.062311385, -0.06321747, 0.058328897, -0.17437021, -0.33806837, -0.13575149, -0.075386025, -0.15937477, -0.17233232, -0.23266438, -0.42590478, -0.2606147, 0.042045817, 0.11833984, -0.17949057, 0.03186785, -0.34269878, 0.09201096, -0.033333912, -0.123813316, -0.01976743, 0.030998094, -0.055294894, 0.032171268, 0.023073563, -0.028097605, 0.053561687, -0.020648299, 0.022296978, -0.011702138, 0.18962173, -0.051230446, -0.026254337, 0.059067436, -0.074913755, -0.05211615, -0.023880811, -0.106791414, -0.042146347, -0.081495754, 0.02160179, -0.13711944, 0.04396564, -0.068570875, 0.10824295, 0.058693413, -0.0038238147, -0.16041781, -0.090903535, 0.15811637, 0.1194052, 0.2662541, -0.052381013, 0.088636, 0.13143386, -0.18971033, 0.036482338, -0.26906672, -0.30984893, 0.06139457, -0.24583422, -0.33386445, 0.29520395, 0.011603701, -0.4586949, -0.025976207, -0.23825602, 0.10733376, 0.0023367421, -0.123847365, -0.02298068, -0.046790235, -0.091052815, -0.23404539, 0.0027144079, 0.018359184, -0.03673276, -0.047553685, -0.05413584, -0.047027238, -0.03507463, 0.06369812, -0.0014922537, 0.19235873, -0.04790806, -0.039700646, -0.004327525, 0.16985428, 0.012057425, -0.35255772, -0.24305728, -0.4749911, -0.30606684, -0.3271412, -0.021458045, -0.10898178, 0.0946684, 0.04139719, 0.20086426, 0.044950068, -0.23750472, -0.06070546, -0.12597819, 0.0030574831, -0.037207454, 0.03384294, -0.07113059, -0.040441584, -0.09450674, -0.0046800883, -0.17990874, -0.102981165, -0.21343029, -0.17347415, 0.022789815, 0.049838793, -0.16485809, -0.195887, 0.025646077, -0.010100129, -0.07626142, -0.19734342, -0.09398613, 0.038477592, -0.10152335, 0.03858313, 0.084218785, 0.22118258, -0.005929277, 0.0143018, 0.037126835, 0.06567995, 0.03703153, 0.031035995, 0.057442565, 0.062938735, 0.028634293, 0.0696854, -0.19560197, 0.19622038, 0.005618472, -0.28085372, -0.2179088, 0.08868537, -0.04432849, 0.08306053, 0.23716193, 0.11615324, -0.2781602, 0.013661753, -0.06620016, -0.1957048, -0.12581713, -0.069811665, -0.041872837, 0.1389459, -0.09489707, 0.046464194, -0.14589879, 0.07484254, 0.15464115, 0.0399932, -0.039500047, 0.046632756, -0.21523677, -0.45663628, -0.06646096, -0.27418706, -0.38269645, 0.0067561567, -0.029460832, 0.06690359, 0.1390545, -0.17467588, -0.54576844, -0.0008163515, 0.28507453, 0.16087551, 0.29740283, 0.20892608, 0.13712458, -0.028908499, 0.046425734, 0.0016351182, -0.004265557, -0.003225133, -0.037138976, -0.039854243, -0.006315211, 0.05449169, -0.019798253, 0.06823538, -0.274222, -0.37578127, -0.10927266, -0.30805677, -0.2752306, -0.11513751, -0.22045444, -0.5617245, 0.064160496, 0.12418535, 0.08208085, -0.25095615, 0.2003584, -0.18957087, 0.3115867, 0.07751793, -0.20250079, 0.111057, 0.08807661, -0.25693637, 0.10327574, 0.042853754, 0.13920744, -0.18359156, 0.04331234, 0.0355535, 0.1606107, -0.11533995, -0.08455077, -0.016307611, -0.11721112, -0.06261642, -0.13200526, -0.14349495, 0.013582025, 0.020631196, -0.16311456, -0.11399313, -0.014325951, -0.29414675, -0.14523634, 0.04762561, -0.24595875, -0.03136253, 0.00045102043, 0.24686982, 0.14835753, -0.28378236, 0.16910593, 0.12528372, 0.007814976, 0.13406028, 0.15318438, 0.053771954, -0.0864022, -0.20828597, -0.13923317, -0.042218763, 0.0908377, -0.07496044, -0.12735265, -0.07045283, -0.40977073, -0.09272523, 0.01565031, -0.53923583, -0.050083555, 0.12698144, -0.23629467, 0.023927903, 0.14970869, -0.40156493, -0.04900201, 0.16278118, 0.054634616, 0.020055063, -0.070500694, -0.027992275, -0.14657971, -0.06744982, 0.17437428, -0.039751902, -0.085721485, 0.16989629, 0.18058927, -0.049980212, 0.055566803, 0.15764157, -0.28400204, -0.013278494, 0.0065365103, -0.0032581217, -0.08350232, 0.0069190306, 0.1496442, -0.37640104, -0.24319151, -0.015474378, 0.12660234, 0.10126105, -0.14376707, 0.05653361, -0.023889873, -0.0111091025, -0.07739918, 0.034631833, -0.04088647, 0.22788453, 0.09030152, 0.03836146, -0.18136507, -0.0083004935, -0.3299326, -0.16746613, -0.23408549, -0.5613329, 0.10092292, -0.0014422432, 0.031676218, 0.068302006, -0.025208216, -0.2585042, -0.22450382, -0.27457076, -0.57327867, -0.24868551, -0.13647501, -0.14753886, -0.07964236, -0.2764502, -0.047433566, -0.107120536, -0.12887606, 0.09755272, -0.2287967, -0.1016212, 0.026558978, -0.15428492, -0.053110935, -0.1708245, 0.010222497, -0.10304861, -0.019649731, -0.16101943, -0.35895163, 0.16192359, -0.06687364, -0.22549796, 0.066022374, -0.09493232, -0.03377733, -0.21300268, -0.28670165, -0.28625777, 0.16499227, -0.40259215, -0.38235483, -0.23437226, 0.09304228, 0.040706083, -0.018197447, 0.26578182, 0.17590983, 0.012068792, 0.100221984, 0.19599998, -0.04606652, 0.1880525, 0.04436238, 0.057240736, -0.06116565, -0.060427185, 0.0082015935, 0.032973014, 0.036399297, -0.0646584, 0.030274602, -0.07363907, 0.047103547, -0.084792465, 0.08987456, -0.11623176, -0.35842142, -0.24764834, 0.022880817, -0.42494512, -0.008609488, -0.1419703, 0.14871827, 0.13057928, 0.222054, 0.22723627, 0.24191903, 0.14409263, 0.046087515, 0.22933017, 0.37097642, 0.20863, 0.025471272, 0.00614795, 0.10300214, -0.001281798, -0.057770062, 0.07403298, -0.08230943, 0.066230044, -0.22379583, -0.06612812, -0.035539415, -0.058175486, -0.04545973, -0.08569051, -0.15201595, -0.04596417, -0.17268263, -0.007963194, -0.12487764, -0.17573759, 0.020670068, -0.14640352, -0.10105634, 0.23216616, -0.07815864, 0.06079387, -0.034705833, 0.13083853, 0.06273813, 0.047945764, -0.106935985, -0.17171767, 0.049506646, -0.02460968, -0.058087565, 0.015089352, -0.017673502, -0.005906296, -0.05057877, -0.034923572, 0.04971541, 0.26070604, 0.124549344, 0.15851532, -0.16455975, -0.089414455, -0.070925936, 0.047245745, 0.024894977, 0.043437373, 0.076881096, 0.01430228, 0.0115868645, -0.21513091, -0.085858114, -0.07044475, -0.15100491, 0.0405053, -0.100421816, -0.039877333, -0.18905231, -0.24070211, -0.12228, -0.26301807, 0.092009924, -0.007326004, -0.12682146, -0.11170912, 0.13697928, -0.15769295, -0.17167974, 0.07854986, -0.01802267, 0.066876866, -0.014222495, 0.005196882, 0.0052099456, -0.030753406, 0.09455929, 0.012976425, -0.05820731, 0.0046708793, 0.12018498, 0.09297815, -0.041071273, 0.19697432, 0.05577434, 0.077650964, 0.053414315, -0.14351721, 0.22585376, -0.18442903, 0.024151994, 0.03266321, -0.09381546, 0.03636293, 0.07066439, -0.0664151, -0.24327695, -0.40768942, -0.02393571, 0.022511741, 0.025879854, 0.10433893, 0.22407274, 0.20182064, 0.24978615, 0.049116578, 0.096857995, 0.094531074, 0.17902501, 0.2190718, 0.173159, 0.08427308, 0.12147355, 0.10895797, -0.080184795, 0.058519967, -0.05326238, -0.35165787, -0.33563173, -0.3295096, 0.19903073, 0.1555192, -0.01837724, -0.31079143, -0.014524123, 0.18471788, -0.045169864, 0.06025768, 0.13889378, 0.15625624, 0.17384714, 0.32884815, 0.057511475, 0.21445698, 0.15072367, 0.1560652, 0.21649985, 0.14738154, 0.00499657, 0.026780875, 0.06419728, 0.0123572815, -0.0025054992, -0.0626111, 0.05769418, 0.049962554, -0.101005256, -0.017620124, 0.034567423, -0.0564952, -0.26288557, -0.08041281, 0.12046565, -0.022257324, -0.028266761, -0.28830752, 0.10444479, -0.23458004, -0.33384994, -0.11408487, 0.016597312, -0.14690578, 0.062297262, -0.0012974883, 0.037454054, 0.110253096, -0.09417508, 0.24926507, -0.015629759, 0.10389571, 0.11722675, -0.0731901, 0.009228459, -0.33756804, -0.35135585, -0.32493854, -0.44037923, -0.07506416, -0.08822897, 2.0195615e-05, -0.12512057, -0.048738375, -0.10229719, -0.03285179, 0.009933233, -0.059718616, -0.0935067, -0.033233497, 0.10981166, 0.06815421, -0.024071962, -0.041231886, 0.074094824, 0.07266226, -0.09534629, -0.2360723, 0.053605326, 0.041522507, 0.085082464, 0.12667355, 0.21303351, 0.042107947, -0.048859667, -0.015665367, -0.04277166, -0.07690831, -0.063796, -0.010388275, 0.0011006824, 0.0026307232, 0.04093214, -0.08622253, -0.020184943, 0.071846105, 0.044031683, 0.22517762, 0.030648196, 0.005609669, 0.13755482, 0.10106646, 0.06958659, 0.18179055, 0.06582939, -0.10765541, 0.13298905, 0.21216896, -0.107884824, 0.09716354, 0.24996006, 0.013948235, -0.08969898, -0.0071641426, 0.08391668, 0.096996255, -0.261172, 0.042793043, 0.047317736, -0.16359, 0.016522791, 0.085341856, 0.12436718, -0.043427147, -0.0067749284, 0.09947383, 0.15448341, 0.0047286777, 0.3368836, 0.17141868, 0.082105674, -0.21473028, -0.15755136, -0.15344815, -0.1275501, -0.1434485, 0.06739995, 0.14746344, -0.12925361, -0.06941172, -0.012504715, 0.024899801, 0.070436895, 0.0571012, -0.022641078, 0.091954805, 0.023775937, 0.06294152, 0.050612025, -0.42374155, -0.12386435, -0.07662222, -0.08077539, 0.03171991, 0.06466302, 0.043810718, 0.1661542, 0.15158896, 0.04309269, 0.026490094, -0.32782432, -0.021954177, -0.030191083, -0.06750272, -0.2628219, -0.14663999, -0.0038198105, 0.017250787, 0.10233041, 0.021329584, 0.077258274, 0.035580896, -0.0033806004, 0.04501102, 0.027797991, 0.0036507796, -0.0137173515, 0.062308144, 0.19937006, -0.12966377, -0.24696246, -0.063629895, -0.12998949, -0.07009089, -0.096196786, -0.060450252, 0.09223366, -0.022882784, 0.1264891, 0.00420467, -0.006702022, -0.016969746, -0.00917534, 0.20135577, 0.026364028, -0.013616529, 0.019999478, -0.02764443, 0.030642392, 0.06531765, 0.04904122, -0.031215599, 0.05164458, -0.2199581, 0.023129465, -0.20847492, 0.016674217, 0.12436355, -0.012037419, -0.16024959, 0.098551095, -0.011123548, 0.014092898, -0.15164404, -0.07898564, 0.30787736, 0.17783439, -0.09112223, 0.031180575, 0.02179972, 0.0043829503, 0.042243555, -0.05565134, 0.10251093, -0.10439394, 0.04138685, 0.032917533, -0.2808066, -0.18287806, -0.13611822, 0.10233808, -0.055987813, -0.14691545, 0.04929237, -0.14655577, -0.028842878, 0.18249208, 0.07409974, 0.22506942, -0.36748207, -0.5020093, -0.21161683, 0.17480318, -0.22974959, -0.16265239, -0.051122833, -0.34409177, -0.4888049, 0.07890477, -0.026206497, 0.041822378, -0.027097471, -0.06950098, -0.006310794, -0.01702788, 0.032702267, 0.045276277, -0.09305804, -0.18245897, -0.14541273, 0.08815582, 0.06992443, -0.06919158, 0.045102373, -0.004595614, -0.02093338, 0.34692416, 0.1184587, -0.2875582, 0.32521778, 0.04183124, -0.119269304, 0.017038062, 0.022098131, 0.13980143, -0.096554756, 0.08943552, -0.15048063, -0.101210006, 0.09126176, -0.08305959, 0.041264374, -0.031563878, -0.03339481, 0.16925612, 0.08490962, 0.1307037, 0.08728789, -0.04228913, -0.15031336, -0.036742076, -0.051052686, -0.010545751, -0.4678825, -0.1006176, -0.11029891, -0.26114538, -0.1630632, 0.18604071, 0.22562444, 0.18726951, 0.1563929, 0.011298218, -0.035250835, -0.15557408, 0.08377794, 0.07854442, -0.111193456, -0.09098948, 0.02523308, -0.16269064, -0.044368498, -0.08904639, 0.017431768, 0.17664015, -0.12607476, -0.032429, -0.18535462, -0.08156208, -0.0134793855, 0.061472192, 0.0044220006, -0.13801141, 0.10663675, 0.14532597, -0.14365192, 0.24546564, 0.10708389, 0.029815173, -0.15692389, -0.052778386, -0.4690733, -0.32273853, -0.039229076, -0.2740208, 0.095296234, 0.036321867, 0.12676045, -0.08794086, -0.14369857, -0.165253, 0.15449664, -0.037375502, -0.3414363, -0.107040465, -0.22608677, -0.18967956, -0.11059737, -0.28760928, 0.06952322, 0.12047123, -0.26441893, -0.30584517, -0.22328223, -0.37277478, -0.37125722, 0.0032352228, -0.22521581, -0.23623317, 0.06101967, -0.040611934, -0.11549074, 0.13730106, 0.14268452, 0.11803015, 0.08592293, 0.049855802, -0.060954176, 0.042787958, 0.0018906137, -0.1233321, -0.008175038, 0.1662112, -0.102479495, -0.0052125803, -0.14957282, -0.22634068, 0.19024199, -0.01668334, -0.16260394, 0.16533934, -0.03067479, -0.12582333, -0.08784674, 0.003877131, -0.08515544, 0.053615123, -0.126535, -0.047997046, 0.0469337, -0.068846904, 0.013799059, 0.11105455, -0.009947216, 0.09750499, 0.059988316, -0.1427155, -0.12501967, 0.015582749, -0.0074705197, -0.15957467, -0.26228803, -0.32970268, -0.3317499, -0.1949813, -0.11850124, -0.037185825, 0.3153784, 0.25722528, 0.24762748, -0.3586668, -0.32285857, -0.113122284, 0.00506563, -0.2750139, -0.015685927, -0.047948036, -0.21125215, -0.2712887, 0.072962806, -0.05915457, -0.051881563, -0.11515213, -0.14091219, -0.11123684, -0.058977902, -0.106097706, 0.10229442, 0.059262913, 0.050392456, -0.057752155, 0.033250205, 0.0269565, -0.08913504, 0.12709548, 0.038756676, 0.06352938, 0.20835103, 0.05486829, -0.034372397, 0.05097349, 0.02753154, 0.05502099, 0.21977496, 0.06234165, 0.0866808, 0.16667353, 0.2747729, 0.23041458, 0.066126965, 0.15830347, 0.036133412, 0.26564753, 0.033073876, 0.122212864, -0.12389652, -0.007915451, 0.011225684, 0.037856624, -0.063668706, -0.08551269, -0.11187377, 0.0629903, 0.15524493, -0.046877354, -0.105201565, -0.12696421, -0.045638043, -0.011387455, -0.1871986, -0.028304383, -0.082976185, -0.18085067, 0.092216246, -0.17121804, -0.06798354, 0.010779475, -0.18664496, -0.1434771, 0.037836652, 0.08145765, 0.017433818, 0.015779855, 0.07926687, 0.048329465, 0.13682362, -0.012260756, 0.010762456, 0.16448358, -0.15088987, 0.12598369, -0.006104594, 0.096992455, -0.010607033, 0.01959368, -0.05414711, -0.27756083, 0.028255288, -0.055127587, 0.039319742, 0.006769685, -0.027083268, -0.03223146, 0.07180578, -0.0074871746, -0.0031366223, 0.08397168, -0.056451794, -0.1164592, 0.22374862, -0.07034293, -0.045420423, -0.08177537, -0.092847936, -0.052443366, 0.09317392, 0.0930293, 0.0141955875, 0.22941658, 0.051247045, 0.21731585, -0.011124997, -0.0068669235, 0.18299854, 0.031488676, 0.10583952, -0.032030586, 0.029038763, 0.0053977137, -0.050568257, 0.06187043, 0.05497762, 0.0032416587, 0.04790648, 0.0017488496, 0.013955007, -0.1764965, 0.111584276, 0.004058424, -0.010208576, 0.0650849, -0.05952483, -0.036621135, -0.009959522, -0.22636268, -0.017133942, 0.033088185, -0.14217505, 0.068520576, -0.0013774812, -0.08108675, 0.18264, -0.06415798, 0.09959886, 0.09253655, 0.019947568, 0.06726739, 0.102980316, 0.019155163, 0.012552716, -0.09127163, 0.045930285, 0.1895865, 0.060911443, 0.01988613, 0.18005046, 0.13125706, 0.084472395, 0.07441296, 0.055883467, 0.04936289, -0.092959724, 0.25052315, 0.15317503, 0.10184329, 0.3114094, 0.11217705, 0.07746193, 0.022239381, -0.18160082, 0.0067369593, 0.043600105, 0.22177967, 0.20769122, 0.11826699, 0.14841479, 0.06586866, -0.07645728, 0.115416944, -0.015480768, 0.17384796, 0.041759126, -0.1163549, -0.028364174, 0.055991296, -0.08240283, 0.07557809, -0.100076735, 0.08093539, 0.02230288, -3.3455886e-05, -0.038178194, -0.06705404, -0.05079215, 0.04581301, 0.004086787, -0.007259996, 0.02903205, -0.0391971, -0.12551406, -0.12358364, 0.06331659, -0.14205281, -0.30645034, 0.09312119, -0.03351927, -0.42181808, -0.27674267, -0.1278307, -0.23164614, 0.12926026, 0.0905261, 0.085447714, 0.12535962, -0.00784659, -0.038774543, 0.17013058, -0.051528797, -0.07774241, 0.41907948, 0.33793482, 0.21266998, 0.44316438, 0.26748896, 0.20901132, -0.03881567, -0.055202104, 0.07864739, -0.06211694, -0.06421227, -0.0917477, -0.03574421, 0.049622145, -0.00081314036, -0.21442382, 0.026998084, 0.073285595, -0.24838787, 0.07043532, 0.16522448, 0.03860073, -0.033463836, 0.15757991, 0.28872338, 0.10565949, 0.039595082, 0.29931945, 0.16898052, 0.16693811, 0.095184244, 0.11826058, 0.19644505, 0.03839679, -0.047077205, 0.04542685, 0.038502667, 0.052483037, -0.07149966, -0.01753838, 0.04135632, 0.00845194, -0.3281842, -0.11038924, -0.22672066, -0.17355762, -0.01715405, -0.120306544, -0.049865138, -0.24782826, -0.3161034, -0.14292043, 0.023229357, 0.0139254425, -0.23500131, -0.17172682, 0.16042905, -0.20055297, -0.1044659, 0.22337817, 0.5087298, 0.12634453, 0.21279345, 0.25590077, -0.0075771883, -0.11324525, -0.013747046, -0.24500483, -0.37316623, -0.11523975, -0.061351225, 0.021840015, -0.17656581, -0.010540294, 0.073925465, -0.20471562, -0.14654185, -0.1640387, 0.056595843, 0.05855453, -0.03746208, 0.13644764, 0.13545881, -0.0891269, -0.035771806, 0.024140859, -0.10857075, 0.07198052, -0.061277572, -0.028142745, -0.049491446, 0.032607432, -0.03901677, 0.014954246, -0.03131324, -0.0011338479, -0.2182743, -0.1056715, -0.06641326, -0.29896733, -0.107246704, 0.11889767, -0.48581988, -0.10274385, 0.2125266, -0.25267655, -0.1461502, -0.09863013, -0.09923138, -0.07956286, 0.0043768906, 0.09618789, 0.005364985, -0.086195886, -0.011314956, 0.014860643, -0.0034029589, -0.038228158, 0.07442815, 0.038520448, -0.08277141, -0.07061517, -0.0369054, -0.21323927, -0.3435156, -0.3570714, -0.22155567, -0.12739964, -0.17545785, -0.036915876, -0.029998515, 0.041453533, 0.16736041, 0.08027194, -0.18596964, 0.17273843, -0.002511809, -0.32725585, 0.12474021, -0.14870436, -0.05279215, 0.036804166, -0.04478729, -0.03209675, -0.01822915, -0.060281012, 0.01756704, 0.043961722, -0.042888924, -0.04596952, -0.06103926, -0.020006457, -0.032096904, 0.24151108, 0.109099865, -0.021412626, 0.2002886, -0.015884101, -0.078858286, -0.3017032, -0.2739982, -0.035303593, -0.21963166, 0.10765552, 0.1590825, 0.07765381, 0.12831841, 0.10146679, 0.066378824, 0.0281392, 0.017377006, -0.033769406, -0.19713746, -0.07586977, -0.028388457, 0.051872287, 0.006763445, 0.07671115, 0.2601146, -0.046165857, 0.19633837, -0.02792125, -0.05380861, 0.1232228, -0.075787954, 0.022996536, -0.16812585, -0.036166135, -0.0072079496, -0.2270907, -0.11811957, 0.12666993, 0.21757597, 0.08623035, 0.21709436, 0.045378387, -0.017433343, 0.017473882, -0.009025321, 0.019691998, 0.033441834, 0.0748778, 0.005933757, 0.06760296, -0.15135926, 0.070820905, 0.20934322, -0.109514944, 0.24226676, 0.25165206, 0.1751121, 0.0016241433, -0.13614017, -0.15495896, -0.14261673, 0.095877975, -0.022528484, 0.08785279, 0.09036447, 0.11288136, -0.040942326, -0.17240044, -0.05681563, -0.010819731, 0.11474125, 0.061403748, -0.06034451, -0.07251017, -0.09919774, -0.051615555, -0.104013056, 0.040800758, 0.11478947, 0.22909628, 0.014439976, -0.005679845, -0.04503964, 0.05218259, 0.050311062, -0.01286371, 0.082426794, 0.03465033, 0.027764473, 0.03304832, 0.17513655, 0.04472038, 0.049044233, 0.122765385, 0.06725234, 0.060399424, 0.22035521, -0.13160546, 0.2504994, 0.25261363, 0.10421791, 0.20295115, 0.22303298, 0.24864987, -0.40070078, -0.25646183, -0.06039362, -0.34220168, -0.15502763, -0.11781346, 0.037987612, 0.011897819, 0.1666303, -0.34344167, -0.055551525, -0.17814621, -0.20637876, -0.03923733, 0.098560326, 0.12690473, 0.21763599, 0.074772164, -0.022613708, 0.049530778, -0.34764478, 0.069154136, 0.08873212, -0.050177082, 0.13761353, 0.08776458, -0.042355705, 0.021428447, 0.120028965, -0.023117885, 0.087569945, 0.26647258, 0.13113384, 0.053797077, -0.098968394, -0.044531703, -0.099159084, -0.21146506, -0.22804607, -0.045993585, -0.19322494, -0.11844141, -0.10119146, -0.009578066, 0.21521804, 0.025565151, 0.061854016, 0.055282805, 0.02537789, -0.00615121, 0.102822766, 0.14700517, 0.007345459, -0.09569538, -0.2068164, -0.105263285, -0.04677647, -0.13354658, -0.009617246, -0.09866441, -0.16325442, -0.07574592, -0.27493843, 0.17404854, 0.1277297, -0.28119355, 0.13317029, -0.010706532, 0.054573108, 0.09022531, -0.0061148102, -0.015390723, -0.15143783, -0.037125327, -0.015443247, -0.050952885, 0.0076080593, 0.06488366, 0.17214112, -0.10783548, -0.09767742, 0.075708106, -0.0005037381, 0.014758096, 0.058566824, 0.06745019, -0.05202198, 0.031188726, 0.0644787, -0.080660015, 0.04468762, 0.0126688, 0.01510188, 0.04031764, 0.06291684, 0.15737596, -0.18230256, -0.15132055, 0.09060342, 0.03828067, -0.096112505, -0.16751505, 0.0004884196, 0.100524895, 0.03519453, 0.08540258, -0.0010698118, 0.19550216, -0.16664301, -0.1945271, -0.23718722, -0.35560644, 0.0518595, -0.21798886, -0.19318545, -0.0451721, 0.018281244, -0.3492479, -0.10087502, -0.28043267, -0.019091463, -0.048156373, -0.016216256, 0.08992672, -0.0035100924, -0.23662925, -0.40814656, -0.51881737, -0.053090546, -0.39267194, -0.07826439, 0.20876648, -0.104470864, -0.07820047, -0.039332513, 0.07055029, 0.26530123, 0.0108005395, 0.13982421, 0.08444892, -0.1557724, 0.1524336, -0.09720391, 0.03466044, -0.23827551, -0.18833923, -0.103145696, -0.31698304, -0.10188398, -0.06216225, -0.004328198, -0.3023568, 0.25939444, 0.0766462, 0.062593915, 0.23115534, 0.0015315001, 0.13732083, 0.15129778, 0.03191763, 0.1221514, 0.13220681, -0.19071454, 0.06264193, 0.070662074, -0.08634124, 0.0061290604, -0.08401725, -0.18531822, -0.19428205, -0.07696934, -0.029241169, -0.004196424, -0.08359043, 0.012722591, -0.0035117501, -0.15736248, -0.084757544, 0.15792635, -0.20807149, -0.0120279705, -0.095977284, -0.13204062, 0.08819047, -0.10824784, -0.016216215, 0.1658587, 0.11418185, -0.1714376, -0.004913682, 0.06100146, 0.022948213, 0.09774178, 0.061448436, 0.18299322, 0.05348509, -0.0067841, 0.00033862778, 0.007965685, 0.22878607, 0.26469544, 0.029907743, -0.022848835, 0.25169975, -0.13060513, -0.009359102, 0.04087908, 0.055804133, 0.06176974, 0.14241278, 0.026796198, 0.08470457, 0.093917735, 0.059454206, -0.05686328, -0.2768433, -0.030737827, 0.0213889, 0.044171605, 0.015773268, -0.038106594, 0.064856894, -0.024385186, 0.04023436, -0.012483078, 0.21696162, 0.15175009, 0.17761397, 0.039510954, 0.07864093, 0.06659769, 0.108175606, 0.022353131, -0.031009538, 0.240885, 0.13398877, 0.2903678, 0.092874944, 0.07145585, 0.12004121, -0.019804511, 0.031250868, -0.028675435, 0.020365437, -0.018342767, 0.10366539, 0.11199625, 0.04484941, 0.038827345, 0.15896243, -0.017854484, 0.059701208, 0.03063947, 0.12826084, 0.08169101, -0.19920409, 0.0781711, -0.17652014, -0.016503816, -0.012389152, 0.14729294, 0.16619469, -0.11673095, 0.0115612, -0.16721122, -0.24624875, -0.19851749, -0.256464, -0.22974162, -0.12842505, 0.013514374, 0.07350782, 0.1829049, -0.04113708, 0.24091817, -0.0413977, 0.041618105, 0.105408356, 0.11601378, 0.10567132, -0.00714951, 0.093894765, 0.12517974, -0.07896607, 0.036974143, -0.071277946, -0.22338995, -0.045445096, -0.008435368, -0.013057701, -0.055693578, 0.003707846, 0.032070603, 0.022779139, -0.036069024, -0.0825358, -0.009884413, -0.07348183, -0.08671421, 0.004087523, 0.049271762, -0.09623072, -0.056795355, 0.20804071, 0.031885665, -0.120260656, -0.04476857, -0.153332, 0.055655465, -0.058218453, -0.16386996, -0.07079668, -0.012541362, -0.0029332638, -0.09280171, 0.3601831, 0.23580196, -0.05579452, 0.1539152, 0.17594796, 0.03884945, -0.24138264, -0.31047732, -0.18040729, -0.0528358, -0.013956755, 0.059858087, 0.01144762, -0.048485097, 0.011847348, -0.06386076, -0.026138743, 0.00084537786, 0.12306101, 0.1139125, -0.20373446, 0.049397882, 0.06937235, -0.20851655, 0.055414982, -0.0024972514, -0.18935308, -0.0017320364, 0.17177507, 0.016011, 0.06907317, -0.06541882, -0.04642596, 0.060761638, -0.10938111, 0.020834478, 0.008923985, 0.079403214, 0.07714336, -0.06634078, 0.0021723274, -0.050683957, -0.027573034, -0.006193994, -0.017851287, -0.019394996, -0.007491868, -0.04058914, -0.005698291, 0.012332486, 0.015984343, 0.09123563, 0.08008751, 0.07185115, 0.0053478205, -0.15935542, -0.1247176, 0.08052597, 0.14984545, 0.14108261, -0.06415507, -0.13130237, 0.048432156, 0.19898641, 0.0849228, -0.14920068, 0.052394185, -0.0039174394, 0.053979695, -0.18815203, -0.4653861, -0.18117997, 0.11183359, -0.11559177, -0.15813169, -0.020457208, -0.08600986, -0.23635255, 0.06953596, 0.020851694, -0.32624134, -0.20073473, -0.16167557, 0.056581143, -0.13079983, -0.20011103, -0.045522522, 0.10474337, -0.14119361, -0.047127277, 0.005328982, -0.023719743, 0.041378126, 0.04982716, 0.09022444, 0.036956295, -0.03065284, -0.02299125, 0.013853616, 0.18047297, 0.09320699, -0.13603772, 0.12902482, 0.06371818, -0.004734138, 0.27289703, 0.069112346, -0.107664876, -0.07131728, -0.10328039, -0.19585678, -0.1127288, -0.27462256, -0.20145115, -0.3065375, -0.02860857, -0.20762205, 0.102970265, 0.00573817, 0.087300636, 0.11942783, -0.017750202, 0.08234848, 0.12244859, 0.0016784375, 0.03345408, 0.1524506, -0.0053703566, 0.07539444, 0.12565425, -0.030301169, -0.07137332, 0.12403106, -0.063530535, -0.06666624, -0.012010532, -0.057897747, -0.029346738, 0.08237883, 0.08200205, -0.06711456, -0.04068544, 0.05992654, -0.15694077, 0.024785897, 0.0031517856, -0.020019338, -0.011681912, 0.030446716, 0.01752433, -0.017037975, -0.062374495, -0.017012926, -0.033802807, -0.16926283, 0.14269534, -0.15877399, -0.13752297, -0.21448047, 0.08740814, -0.15746503, 0.2184566, 0.12506464, 0.052736726, -0.06669824, -0.12439595, -0.06665776, -0.07668288, -0.016413787, -0.105631806, -0.13388847, 0.10298402, 0.09754462, 0.12913923, -0.06343549, 0.041973446, 0.030443447, -0.0009500192, -0.20540471, -0.18511704, -0.084614195, -0.08038041, -0.19887866, 0.0009833626, 0.08640414, -0.09799203, 0.14463238, 0.08313292, 0.06224533, -0.19490172, -0.012964322, -0.30933958, -0.20523402, -0.037158463, -0.18212281, -0.38279665, -0.089960754, -0.27492365, -0.056949835, 0.0052874647, 0.0153129175, 0.049230564, -0.005729108, -0.0042434777, -0.03418646, 0.028982867, 0.043143738, 0.09937203, -0.15861857, -0.35204002, 0.06418944, 0.118005164, -0.14298385, -0.06177666, -0.053045224, -0.31749573, 0.1001789, -0.01076192, -0.14223589, -0.011469912, -0.01787462, -0.105646916, -0.12920631, -0.019953344, -0.10156384, 0.080325715, 0.08874309, 0.050907392, -0.084641665, -0.01684775, -0.028454935, 0.1415705, -0.022925787, -0.09840337, 0.05372403, 0.04669231, 0.17403312, 0.070642464, -0.12313005, 0.008815547, 0.008808074, -0.11662195, 0.028250076, -0.017653588, -0.0012269327, -0.09120231, -0.03947623, -0.07574704, -0.11568598, -0.018673964, -0.086065404, -0.040452275, -0.1170322, 0.16615675, 0.08499751, -0.066894084, 0.02336105, -0.013850623, -0.31468037, -0.108163044, -0.2409088, -0.020394044, 0.07096162, -0.09574603, -0.07698694, 0.07315504, -0.11565272, -0.1375643, -0.11398534, -0.11947551, 0.090951465, 0.15947936, 0.2647576, 0.046401147, 0.017456628, 0.06296202, 0.0279826, 0.102423824, -0.06789923, -0.030428037, -0.1670204, -0.05787057, 0.13174008, -0.045787625, -0.027972057, -0.021094305, 0.08327019, -0.18972576, 0.12170961, -0.08818157, -0.24687289, 0.059718627, -0.17282203, -0.091720365, -0.031909212, -0.13223389, -0.3901954, 0.036338355, 0.026154099, -0.12117052, -0.12111318, -0.05472989, -0.26099285, -0.22295381, -0.12409424, -0.28518778, 0.062383376, -0.16778874, -0.12758729, -0.065816, -0.041405328, -0.010678929, -0.10689874, -0.26803055, -0.13851917, -0.26800895, -0.099109024, 0.25054234, -0.31760535, -0.30114242, 0.16800588, -0.12836765, -0.055831432, 0.22670446, 0.008407221, 0.1542288, 0.13948861, -0.42361593, -0.025422625, 0.18175977, -0.3243325, -0.20558436, -0.052964117, 0.06994459, -0.095090784, -0.017777868, 0.18629996, 0.036288116, 0.106503785, 0.13069488, 0.04255161, 0.09639602, -0.049224816, -0.30948624, 0.05416667, 0.08034738, -0.27198324, -0.012158361, 0.12296618, 0.033042606, 0.12050398, 0.02773064, 0.017432105, -0.20339175, -0.010975563, -0.0828623, -0.10038517, -0.14146844, -0.15234822, 0.0066546286, -0.08008096, -0.07948655, -0.110339515, -0.17727627, -0.20126136, -0.059059788, -0.14092435, -0.0507043, -0.29757735, 0.13316819, 0.06656224, -0.12643157, -0.008376844, -0.098538294, -0.30289778, -0.011862868, -0.008364586, -0.21976769, 0.027593391, -0.011404089, -0.032891348, -0.0126750395, -0.10916949, 0.009335391, 0.048484992, -0.09136594, -0.05887551, 0.26441026, 0.07774813, -0.031943988, 0.18215844, -0.014553012, 0.12524779, 0.16342998, 0.17014135, 0.0499032, -0.105604306, -0.16945535, 0.082601845, -0.08349647, 0.11319198, -0.014487316, 0.028105918, -0.08351223, 0.055673532, 0.18211748, -0.096718304, -0.21805996, 0.17464237, -0.06879622, 0.005239177, 0.058802433, -0.03949921, 0.0055011483, -0.33553523, -0.3237228, -0.36215383, -0.41827786, -0.3089768, -0.34256303, -0.42309368, -0.22365387, -0.27067402, 0.056387637, 0.040708367, 0.023274727, 0.111306086, 0.0871967, 0.03655487, 0.053068355, 0.02357504, 0.39985964, -0.062299702, -0.07018576, -0.1159416, 0.100647286, 0.250472, 0.06393429, -0.17511992, -0.09244384, 0.07266023, 0.018736526, 0.083697446, 0.14100799, -0.1281697, 0.066939875, -0.049046464, -0.042075414, -0.04703214, 0.17241491, -0.320082, -0.41997245, -0.22268917, -0.24596927, -0.122456945, -0.20393229, -0.15332249, -0.010423205, 0.1963685, -0.17415176, -0.028184839, -0.015164826, -0.07351829, -0.12486799, -0.14200889, -0.07602074, -0.024017544, -0.18859594, 0.05921595, 0.08811802, -0.061388616, -0.14434032, -0.05519392, -0.010906823, -0.09763042, -0.10338317, -0.12954786, -0.06448218, 0.024462065, 0.053016305, -0.016603077, 0.024980914, -0.031971004, -0.010439353, -0.04519354, -0.0554802, 0.051469088, 0.07272059, 0.06469924, 0.107784554, 0.066386804, -0.167483, 0.12555036, 0.10170708, 0.17597201, -0.4530902, -0.012888682, -0.17640679, -0.03252811, -0.05380284, 0.15569784, 0.13989337, 0.060242888, 0.23035052, 0.1962486, 0.06569102, 0.06989162, 0.12710135, -0.022291299, 0.01733513, 0.07745082, 0.06748525, -0.09144354, 0.021174707, 0.16988273, -0.25204667, -0.0017367937, -0.088843316, -0.024595657, 0.20586441, 0.32504383, -0.07957818, 0.022302294, -0.2060211, -0.30982688, -0.13099778, -0.083564594, -0.11567599, 0.07786033, -0.07604588, 0.033325434, 0.06174704, -0.038418204, -0.019486364, 0.21538314, -0.15504752, 0.005708113, 0.14704572, 0.21840104, 0.0111754015, -0.17207587, -0.23094909, -0.26590252, -0.16121395, 0.07342866, -0.057256658, -0.3490208, -0.13795286, 0.12117991, 0.016311377, 0.0029829512, -0.0076136836, -0.053962696, -0.030974284, -0.08719575, -0.03083887, 0.047687918, -0.031159572, -0.046300415, 0.015722876, -0.19947998, 0.13373937, -0.095408306, -0.1733012, 0.038710255, -0.07970508, -0.22155775, -0.05644768, -0.023181535, -0.077534914, -0.1273436, 0.1396742, -0.15671124, -0.21230541, 0.12881827, -0.12925684, 0.17611274, 0.1941251, 0.008915727, 0.2462854, 0.20500118, -0.12906435, 0.3382238, 0.14522883, -0.035412326, -0.100224376, -0.028381543, 0.023535324, -0.11657373, -0.07571492, -0.07058631, 0.005327727, -0.030558622, -0.03721627, 0.037655294, -0.07129067, -0.0855354, 0.0055698985, 0.07249576, -0.009940031, 0.022843145, 0.17217869, -0.010600903, -0.005179331, -0.01783489, 0.16347946, 0.045865137, 0.0025848735, -0.004765957, 0.26248476, 0.16134879, 0.037237722, -0.05473601, 0.045216218, -0.046412926, -0.05652176, -0.04297599, -0.002907962, -0.002996035, -0.09018343, -0.01061102, -0.18080525, -0.055992477, -0.030064926, -0.20572916, 0.19170918, -0.064438276, -0.058235236, 0.048111834, 0.11993779, 0.15744223, 0.19959532, 0.035722166, 0.044242196, 0.020666195, -0.04354023, 0.11739921, 0.23737654, -0.078292914, 0.15905814, 0.05249061, -0.14248161, 0.16641074, -0.049089346, 0.06911635, 0.02519128, -0.23652726, 0.19562703, 0.1441181, 0.1528069, 0.15421739, 0.069836944, 0.08392828, -0.14256765, 0.13696283, 0.019346379, 0.012395139, -0.16494909, -0.04640362, 0.015681367, -0.092680745, -0.02877671, -0.015099794, 0.20841593, 0.041454334, 0.036453594, -0.04845584, -0.041786417, -0.08205031, -0.073170945, -0.03357076, -0.05949241, -0.022666242, -0.0029722739, -0.059554342, 0.082856864, -0.18187408, 0.20262542, 0.05904645, 0.017724482, 0.1343834, 0.22393215, 0.09716516, 0.0023313235, -0.071573995, -0.15823078, -0.051453106, -0.06716089, 0.008348948, -0.3010187, -0.15097241, -0.032858707, -0.2574991, -0.020003118, 0.042706177, 0.060575813, -0.0684074, -0.00023563472, 0.060310837, -0.03954587, -0.11344951, 0.035140254, -0.11390523, -0.19285758, -0.11104777, -0.17267303, -0.15601301, -0.21684974, 0.015729142, -0.06150489, -0.09871085, 0.27971104, 0.05829419, 0.20173982, 0.035738297, 0.037326626, 0.15650216, -0.20723428, -0.082457595, 0.08988622, -0.05029812, -0.0019031237, -0.041994266, -0.024888147, -0.016928097, 0.008452166, -0.0033145049, 0.024640745, -0.016613213, 0.08719745, -0.006828137, -0.103243515, 0.086694404, -0.08101359, -0.2514866, 0.0015831618, -0.07182439, -0.24830747, -0.18284117, -0.059723392, -0.06685075, 0.029340887, 0.086180836, -0.21611112, -0.12758559, 0.074027225, 0.08885377, -0.30584377, -0.18381944, -0.28936693, -0.041533202, -0.27834955, -0.22216359, 0.073806465, -0.02764375, -0.115629956, -0.015381175, 0.022184948, 0.012955168, -0.0647171, -0.012245346, -0.1870084, -0.12503028, -0.06203552, -0.2694026, -0.19356173, -0.051861987, -0.13921992, 0.16438772, 0.006657781, -0.0015050961, 0.063674666, 0.018491654, 0.029335719, 0.024361582, 0.07840195, -0.06012338, -0.025105517, 0.021450657, -0.027407067, -0.00034470117, 0.03345518, -0.051195234, 0.008912864, 0.1690682, 0.1044688, -0.24850577, 0.016246548, -0.19605146, -0.0017462585, 0.029855926, -0.008418981, -0.005682141, 0.03016764, 0.0214708, 0.056434125, 0.16060306, -0.01832759, 0.20082259, 0.30127442, 0.065030314, 0.016263207, -0.06568423, -0.21042787, 0.119801365, 0.010174647, -0.32539088, -0.16528985, -0.09782163, 0.011683134, -0.023824288, 0.040935487, 0.17572708, 0.023422284, -0.09070046, 0.034406066, -0.001088517, -0.04586598, -0.07846154, -0.02619465, -0.24150905, 0.0015681451, 0.05826966, 0.02522529, 0.09978052, 0.041168462, 0.19703779, 0.030054701, 0.1262133, -0.07389433, -0.17941819, 0.20053121, 0.046677854, 0.004190333, 0.16842586, -0.1910625, -0.06754394, -0.10364184, -0.06657382, -0.063665435, -0.051058307, 0.056186, 0.083936006, 0.04136044, 0.17677784, 0.16234013, -0.45942897, -0.1758105, -0.18257889, -0.5131315, -0.10090757, -0.010400917, -0.29169655, -0.13121136, 0.039464865, 0.041911792, 0.0860174, 0.35761184, -0.0511587, -0.05116182, 0.11087944, -0.0808826, 0.09771106, 0.053149875, 0.15526058, 0.046797663, -0.10454519, 0.336106, 0.115022026, -0.2948358, -0.08505278, -0.010670764, -0.27893454, 0.051133174, 0.0048284116, -0.06497844, 0.061664123, 0.015137559, -0.085130304, -0.07866667, -0.028307755, 0.008026087, 0.07456825, 0.16075629, 0.09019135, 0.1912986, 0.09507294, -0.16394468, -0.10477472, -0.0520033, -0.06081775, -0.31577936, -0.33037144, -0.17352915, -0.239933, -0.056363545, -0.12516935, 0.1588766, 0.302174, -0.15528324, -0.5275708, -0.2464645, -0.26886973, 0.08859053, 0.23545994, -0.10718993, -0.08836237, 0.015412111, 0.3332562, -0.18867306, -0.03273724, 0.070525795, -0.35259163, 0.13587719, 0.038364526, -0.15646249, 0.027452193, -0.11366404, 0.2107657, 0.16779822, 0.040136904, 0.036019817, 0.060370605, -0.05015065, 0.17757076, -0.036735617, -0.040704638, 0.18847556, -0.07561822, -0.07341664, 0.005177484, -0.07313384, -0.11602039, 0.1409635, 0.04607081, 0.07071398, -0.010807181, 0.09537184, 0.08987582, 0.18987426, 0.024879776, -0.1939449, -0.059974212, -0.048926454, -0.15739906, -0.047804307, -0.22552699, -0.12602009, -0.18563823, 0.041370124, 0.18987653, 0.13961431, 0.24628223, 0.060499348, -0.11349376, 0.08953076, 0.16211306, -0.12173798, -0.022000313, 0.12655537, 0.11363147, -0.03282689, 0.022499241, -0.10681184, 0.08041775, 0.087111175, -0.12111874, 0.09892544, -0.04635467, 0.055313844, 0.10450257, 0.09099193, 0.08834184, -0.002311044, 0.029962044, 0.31401762, -0.077098615, -0.12072305, 0.0345907, -0.16296224, -0.07503008, 0.021455064, 0.032900836, 0.19726005, -0.06497234, 0.018830296, 0.09580772, -0.1240254, 0.1083688, 0.10304907, -0.18347308, 0.0031243789, 0.07401576, -0.20107883, 0.006142877, 0.025089467, -0.1894442, -0.08956507, -0.0032920614, 0.23243554, -0.046321515, -0.2690354, -0.05127605, -0.07312798, -0.41728988, -0.22344036, -0.105957314, -0.21850173, -0.08972822, -0.074269734, 0.1082809, -0.12088979, -0.14460042, -0.19716336, -0.29103258, -0.223288, -0.14455973, -0.2448622, -0.25046396, -0.21722823, -0.1312036, 0.08725891, -0.11256827, -0.05361435, 0.009781189, -0.321514, -0.0325922, 0.021751901, -0.06599962, 0.10114407, 0.15940912, 0.0012052454, -0.03476662, 0.11081609, 0.15908465, 0.106860235, 0.23093924, 0.014643284, 0.05100118, 0.05421931, 0.04899895, 0.2115695, 0.21815175, 0.11171263, -0.1152488, 0.07953236, 0.022009747, -0.086734414, 0.020365808, 0.035985727, -0.049516123, -0.07719365, 0.11188434, -0.018732907, -0.06263605, 0.021972425, 0.037825193, -0.057146214, -0.05985169, -0.012695594, -0.04969238, -0.04887028, -0.2586267, -0.056675546, 0.13530149, -0.12269401, 0.1563083, -0.0047192452, -0.18647222, 0.015602512, 0.033662595, 0.34990853, 0.09499099, 0.10475992, 0.1557309, 0.115926675, 0.05006031, -0.14361957, -0.0005770594, -0.0034356033, 0.12668017, 0.14454402, 0.1580974, 0.02503481, 0.026219955, 0.08343194, -0.049309555, -0.19508155, -0.032046884, -0.50234365, -0.23726168, 0.080275126, -0.13169236, -0.17526373, 0.03355208, 0.04283065, -0.24482551, 0.0787307, 0.27092445, 0.16310942, -0.032017462, 0.0332015, -0.0054667033, -0.29177257, 0.006474331, 0.023759063, -0.058604024, 0.061505258, 0.038199566, 0.16290383, -0.041467134, 0.100090705, 0.17916381, -0.097006075, 0.08036591, 0.2491268, 0.025148015, 0.005885221, -0.27418047, -0.1484538, -0.19991295, -0.19427153, -0.49545977, -0.056899045, -0.18681474, -0.107966624, -0.12393512, 0.044254955, -0.0016849024, -0.057239126, -0.108407244, -0.121386275, 0.0018701176, -0.010444991, 0.019568386, 0.0026548468, -0.064624466, -0.12042915, -0.18062557, 0.06544488, 0.025127899, 0.029442461, -0.18009174, -0.13224252, -0.04966201, 0.17357491, 0.006637864, 0.0077654314, 0.1932475, 0.064592466, 0.042862453, 0.2909968, -0.016280234, -0.14430657, 0.11387676, 0.06372032, 0.1033009, -0.15651916, 0.1291775, -0.05061335, 0.2869685, -0.009204917, -0.026656233, -0.07873674, 0.045731973, -0.045917444, 0.06385731, 0.018323835, 0.09894722, 0.040093713, -0.20676085, 0.1332402, 0.09876884, -0.31474653, 0.14584689, 0.053490277, -0.3256724, -0.17877635, 0.3349687, 0.1921468, 0.012971442, 0.12733196, 0.18963884, -0.0012985261, -0.110329494, -0.034129784, -0.05446401, -0.16324256, 0.033275243, 0.00090539706, -0.018881323, -0.025500061, 0.064061806, -0.0067616506, 0.052168183, -0.025797669, 0.04165281, -0.1589163, 0.13614577, 0.16405673, -0.14768139, 0.12044195, 0.21834174, -0.27679098, -0.08127392, 0.14832152, 0.31192902, 0.27518314, -0.039642043, 0.13310571, -0.17514864, 0.0054381355, 0.14558765, -0.20215578, 0.02897977, -0.017352462, -0.012165274, -0.2880662, 0.2298238, -0.11196375, -0.22703296, 0.036741674, -0.13157125, 0.034346566, -0.14643633, -0.019559868, 0.22593626, -0.29839784, -0.28922617, 0.26881182, 0.10612619, 0.30365354, 0.2445588, 0.2119411, 0.06647754, -0.056059122, 0.019520298, -0.0080544995, -0.12799402, 0.038266312, -0.008713665, 0.064874195, -0.11047502, -0.10296322, -0.12939897, -0.11035262, -0.046266727, 0.012917362, -0.036622155, -0.034680698, -0.07370361, 0.38972533, 0.1826125, -0.06147798, 0.109243505, 0.050708354, -0.19852072, 0.20156129, -0.025150673, -0.14155798, -0.13144839, -0.038593404, -0.062419776, -0.13815446, -0.13789871, -0.10114582, 0.0807431, -0.18354939, -0.04594585, -0.005664511, 0.01853791, -0.021801626, 0.05079966, 0.006926163, -0.07878582, -0.09964674, 0.0018003599, 0.026569495, 0.08730462, 0.01734856, 0.2859998, -0.051918615, 0.044697735, 0.015121493, -0.039965257, 0.03137135, 0.060336858, 0.0043406915, -0.19281137, -0.011085178, -0.07815072, -0.023810854, -0.10166602, -0.022025598, 0.12711199, 0.16138588, -0.058306977, -0.010182257, -0.046861358, 0.011299022, -0.008819079, 0.027502472, 0.05851211, 0.061821878, 0.030158449, -0.12549403, -0.037726983, 0.23842376, -0.23530956, -0.3722883, 0.015830372, -0.1807218, -0.21454138, 0.10944929, 0.08976572, 0.063553035, 0.13410954, -0.011088707, -0.005825346, 0.14000995, 0.28708547, 0.14800736, 0.17464343, 0.043052226, 0.06348077, -0.058440056, -0.039369978, -0.040646553, -0.19841257, -0.08918517, 0.1022837, 0.020822847, -0.14547248, -0.08112776, -0.0220189, 0.039616738, -0.16462608, 0.13681664, -0.07651972, 0.10033411, 0.3625281, 0.13012005, -0.20760283, -0.15203565, -0.07379745, -0.15775007, 0.15841334, 0.008794271, -0.15605846, -0.013977756, 0.016594084, -0.03151274, 0.0811429, -0.021660937, 0.063669465, 0.029876875, -0.00043843582, -0.06353249, 0.0136936605, -0.21736956, -0.12129345, -0.037988078, -0.19339192, -0.04703329, 0.11846396, -0.2925271, -0.3053235, 0.09561118, 0.20536226, 0.04257707, -0.2500683, -0.07232332, -0.1331624, 0.026817776, 0.110056795, 0.15672483, -0.09320793, -0.12658137, -0.2895936, -0.1431091, 0.17898178, -0.13875511, -0.092372075, -0.37040797, -0.24861212, 0.021668956, -0.09563513, -0.012490635, -0.03678966, -0.11909423, 0.035910968, -0.0065367767, -0.14988278, -0.029872093, 0.04959769, 0.27484518, 0.07359699, 0.1342877, -0.009389145, -0.11679462, 0.06460906, -0.042116933, 0.028860124, 0.12252826, 0.044380374, -0.016744666, 0.03161363, 0.057235613, -0.05798638, -0.1309643, 0.17975207, -0.09224205, -0.025247283, -0.020065445, 0.192209, 0.27214354, -0.115294255, -0.018857673, 0.12819491, -0.10454429, -0.18322735, -0.13249974, 0.03883473, 0.14252475, 0.034500837, 0.005757623, 0.0018873727, 0.25789475, -0.005917549, -0.049277596, 0.16371414, 0.033842433, 0.06899072, 0.02439942, 0.15806703, -0.0833533, 0.27965143, 0.16381966, -0.00081466715, 0.23741356, -0.07917613, 0.10000232, 0.015811272, -0.015515342, 0.02665334, -0.0046602106, -0.08560009, -0.09781551, 0.24594863, 0.1564061, -0.049828425, 0.023008302, 0.04456247, -0.08098923, 0.03365023, 0.03128614, -0.06843609, -0.15823396, 0.1899684, 0.25374475, 0.022809982, -0.0049795816, -0.060104437, 0.026749503, -0.01987549, -0.037714027, 0.04522157, 0.2220619, -0.045769785, -0.15131144, -0.042249832, -0.06896409, -0.18906419, 0.2415152, 0.18463148, 0.04640821, 0.14347172, -0.020048918, -0.2856061, 0.12603293, 0.0592407, -0.10416955, 0.14966135, 0.09805019, -0.009524628, 0.057292458, -0.03193894, 0.048001524, -0.109121434, 0.003928172, 0.0644162, -0.0034446747, 0.09405192, 0.20022887, 0.23409356, 0.042252272, -0.03220552, 0.17705053, -0.07072237, -0.20684563, 0.18651797, -0.086286485, -0.06485739, 0.2079071, 0.09651455, 0.061802696, 0.09221172, 0.08711657, -0.04169925, 0.22369027, 0.022812393, -0.016508715, 0.17706035, -0.04578376, -0.07085834, 0.1917014, 0.024414035, 0.0069517875, 0.10662994, 0.05292144, 0.08726192, -0.34335592, -0.125711, 0.11917261, -0.27520162, 0.040593628, 0.17903988, -0.37220037, -0.0911735, -0.11331764, 0.14142588, 0.07307361, 0.0026065134, -0.015007295, 0.07049714, -0.20712015, -0.054274593, -0.12440952, -0.09331565, -0.11958699, 0.23648964, 0.07127835, -0.222584, 0.017597415, 0.23407035, -0.029974148, -0.07091643, 0.13094005, -0.0385756, -0.1396224, 0.054031417, -0.17512947, -0.13700722, -0.16283208, -0.39794675, -0.1404237, -0.14547761, -0.060737897, 0.015961992, 0.091737926, -0.13818285, -0.06455659, 0.09966574, 0.06936475, -0.10869284, -0.07036855, 0.09208667, 0.021190673, -0.05167498, 0.035257112, 0.120108806, -0.05980692, 0.024120936, 0.08928307, -0.03690095, -0.05124966, -0.05075117, -0.008781096, -0.07074019, 0.013242364, -0.10949418, -0.0022638896, 0.0671105, -0.05202359, -0.06256544, 0.1571701, 0.23554589, 0.08682806, 0.03381238, 0.1106462, -0.014164861, 0.02073605, -0.015063014, -0.14691578, 0.16688454, 0.23041306, 0.17868948, 0.022954792, 0.023267617, -0.07142373, -0.08662175, -0.017997017, 0.05520779, 0.11598171, -0.1628945, -0.049133543, 0.04606472, -0.25433922, -0.02818418, -0.0626819, -0.17437142, 0.03050563, 0.1732652, 0.0050204294, -0.19931503, -0.0867836, -0.22280854, -0.20368491, 0.055914886, -0.047204994, -0.13516904, -0.20499717, -0.094330505, 0.120541945, 0.17437944, 0.0037718152, -0.06608944, -0.09948175, -0.07539702, -0.0027756316, 0.02377727, -0.01825851, -0.027115427, 0.056348376, 0.020289797, 0.04160368, -0.027591165, 0.0451199, 0.14749269, 0.14278969, -0.081883475, -0.053936318, -0.03090997, 0.041455105, -0.012981282, 0.047985137, -0.039852712, -0.26925302, -0.14392652, -0.19651766, 0.072091505, -0.14597653, -0.26745114, 0.05404258, -0.17413245, -0.110162035, -0.07465857, -0.12562391, 0.07921547, -0.1479544, -0.14810914, -0.0061561847, -0.07486712, 0.0706154, 0.025346814, 0.18104082, -0.04552408, 0.040462233, -0.2332659, 0.07569631, 0.10763546, 0.13291217, 0.030969009, 0.03428257, -0.06363707, -0.08782904, -0.07778253, 0.01899008, -0.19356892, 0.007930759, -0.102437265, -0.09891773, -0.20445552, 0.27652407, -0.13773619, 0.12583086, 0.1509122, 0.13251592, 0.0644098, -0.1751595, -0.02188416, -0.105483875, 0.041968573, 0.011567629, 0.023981456, -0.10698458, -0.057403456, -0.18334506, -0.023954771, -0.11952065, -0.17095017, 0.024934271, -0.06493787, 0.07609758, 0.044659927, -0.07402802, -0.052370172, -0.02299997, -0.040624272, 0.033731192, -0.08455785, -0.09173604, -0.3183764, -0.06933771, -0.09228738, -0.3404871, -0.08157417, -0.21200545, -0.2407803, -0.04065924, -0.0877506, -0.07047738, -0.16212901, -0.29898983, -0.2713555, -0.06406325, -0.10396588, -0.2785719, -0.3362055, -0.26965904, -0.04515423, -0.027271578, -0.008371901, -0.16751999, 0.08855646, 0.058223493, -0.2814867, -0.05002367, 0.011999128, 0.051534873, -0.0651966, 0.048789456, 0.060087085, -0.05598168, -0.03547063, -0.0023751638, -0.10220985, -0.1072635, -0.12235638, -0.14691484, 0.095870525, 0.0008831877, 0.04615059, 0.06494663, 0.04575358, 0.11041361, -0.05850635, 0.013998877, -0.12159987, -0.25089955, -0.12588984, -0.23608744, -0.26490656, 0.0017640922, 0.0033206418, 0.070317455, 0.0135957785, 0.030892285, -0.052181702, -0.049679574, 0.007190205, -0.028685456, 0.023048462, -0.072978675, 0.042180553, -0.19462937, -0.06245191, 0.13213322, -0.23301007, 0.017344853, -0.0011366867, -0.08109302, -0.034310956, -0.12033053, 0.10584619, -0.1849643, -0.119763546, 0.101127096, -0.08339094, -0.06387139, -0.016313186, -0.21816, -0.0051791207, 0.2223653, 0.043737005, -0.0012811684, 0.0018830535, 0.16044445, 0.0570751, -0.03598883, -0.06685584, 0.29181343, 0.25024226, -0.18965751, 0.04881768, -0.046253044, -0.0152479755, -0.012030475, 0.019716807, -0.21119861, -0.14519447, -0.12790659, 0.020821162, -0.0058083003, -0.29167485, 0.11620403, -0.009648287, -0.07424032, 0.065861925, -0.032490086, -0.07300593, 0.06393306, 0.044611022, -0.06460499, 0.0026280903, 0.035116535, -0.010158062, -0.1526133, -0.08466599, -0.09575194, -0.15722397, -0.17949833, -0.04874057, 0.04819244, 0.11488869, -0.12655468, -0.009451216, 0.12436672, 0.18576217, -0.05630864, 0.100619145, 0.02896187, 0.08269825, 0.012690665, 0.19342303, -0.006308757, -0.049377143, 0.040953748, 0.061693758, -0.023802064, 0.0077278167, 0.046723098, 0.04446166, 0.01190079, -0.27889732, -0.121670626, 0.025740713, -0.18771923, -0.12524712, -0.16208804, -0.24076657, -0.25684875, -0.26627305, -0.12587121, 0.07304708, -0.07113031, -0.16210803, -0.023553595, -0.17538893, -0.080874406, 0.10828138, -0.2699532, -0.054216642, 0.052471288, 0.0150380125, 0.04065263, -0.07721705, 0.018608725, -0.03055228, 0.018558107, -0.0430594, 0.20838238, -0.020242883, -0.27928358, -0.009126892, 0.011034252, 0.053563166, -0.10375257, 0.09727655, 0.100010335, -0.14764917, -0.039902467, -0.15194346, 0.066730246, 0.26193088, 0.17923069, -0.0697346, -0.11078198, -0.04819798, -0.01364545, -0.16909821, -0.10640411, -0.056489404, 0.19261515, -0.02713551, -0.081644125, 0.012893843, 0.14912096, -0.044618025, -0.07486937, 0.18466212, 0.010987825, -0.08161908, -0.102694206, 0.1267043, -0.014586979, -0.06855975, -0.057848766, -0.10387854, 0.0077774194, 0.050285585, 0.028547164, -0.23593336, 0.087402806, 0.056211345, 0.16341645, -0.05872598, -0.03993155, -0.066622354, 0.04913348, -0.01187752, -0.026120847, 0.06021684, -0.03815464, 0.043141674, 0.037989594, 0.057248488, 0.06725701, -0.20871498, -0.008302057, 0.047904454, 0.22302628, 0.112314165, 0.3227608, 0.09075645, -0.04742073, -0.07616279, -0.10556656, -0.031461477, -0.07702124, -0.17235373, -0.1545772, 0.10118031, 0.11741379, -0.007530458, -0.062515795, -0.094238676, -0.04270789, -0.14248848, -0.04080746, -0.116606675, -0.39694405, 0.035121694, -0.10271357, 0.11374361, 0.029503342, -0.13183485, -0.1284939, -0.034572504, 0.063544594, -0.12794502, -0.2696986, -0.19909039, -0.100408055, -0.13035065, -0.21447796, -0.24571146, 0.14834785, -0.19469818, -0.09428555, 0.044106696, 0.1743639, 0.1805629, 0.21350144, -0.17902768, 0.17394681, 0.15734418, -0.08285367, -0.055660587, -0.11771188, 0.015297497, 0.035009924, 0.09643224, 0.12762028, 0.12609974, 0.08352465, 0.027025616, -0.02819931, -0.024759231, 0.14308563, 0.19824724, 0.12822393, -0.11099817, -0.026364917, 0.25080967, -0.09116171, -0.16010767, -0.09005022, -0.036762882, 0.043453276, 0.06502374, 0.16260694, -0.031617645, 0.15836163, -0.007015022, -0.22581954, 0.021030087, -0.07514159, -0.05405308, -0.07881144, 0.06552226, 0.013169919, -0.059660222, 0.14013423, 0.12680268, -0.18897727, 0.017814122, -0.018426927, -0.14879723, -0.20852111, -0.06354228, 0.023688033, -0.19731198, -0.17263526, 0.03131378, 0.17311573, 0.03629638, -0.102718286, -0.15333475, 0.038862027, 0.1291413, 0.076991566, 0.06649177, 0.06640098, -0.03725069, -0.16125824, -0.011880817, 0.121687576, -0.07730759, 0.07360432, 0.009304641, 0.24268973, 0.032225993, -0.015744356, -0.05611013, 0.03949226, -0.1033229, 0.039193712, -0.004368858, 0.013607382, 0.094094984, -0.14523481, -0.07996878, -0.046809796, -0.10105619, 0.030827379, -0.17451172, -0.069592826, 0.030551618, -0.16805193, -0.11547185, -0.08307236, -0.1974839, -0.25410584, -0.1366292, -0.18728898, -0.076878965, 0.018319193, 0.013255881, -0.12101513, -0.08759594, 0.047564078, -0.19161725, -0.13643546, 0.07400633, -0.02171982, -0.030917434, 0.09951196, 0.039194874, 0.008103951, -0.060673505, 0.13388078, 0.22990896, 0.14763303, -0.15253174, -0.31727344, -0.333146, -0.046479527, 0.14187257, 0.013392322, 0.114311546, -0.082987934, -0.22626443, -0.027641399, 0.022701276, -0.045448545, -0.0020262513, -0.011744825, -0.16805229, 0.020580214, -0.02930928, -0.08866027, 0.067414984, -0.116367385, -0.037275743, 0.011539903, -0.044234227, -0.0063537373, -0.044068456, 0.10424127, 0.017420294, -0.03849512, 0.0626623, 0.04142949, -0.11202664, 0.08284598, -0.05384358, -0.004355183, -0.092130184, -0.10777446, 0.018107941, 0.04524598, 0.13172306, 0.09724488, 0.11416147, 0.14072043, -0.10749705, 0.009389875, 0.085062295, -0.085129306, -0.071694836, -0.1859544, -0.007108204, -0.08969346, 0.07172998, 0.0049463734, -0.10561213, -0.023673339, 0.09349284, -0.17590849, -0.025039138, -0.2216633, -0.019362474, -0.07231935, -0.42815948, -0.14146608, -0.19001564, 0.12097379, -0.08755207, 0.08728477, -0.20830758, -0.14343464, -0.15958737, -0.050642513, -0.024158375, -0.058614045, 0.22671059, 0.06775934, -0.0022028675, -0.06850437, -0.19530396, 0.05904357, -0.049730066, -0.064073175, -0.16131519, 0.26067904, -0.038593583, 0.0007073049, -0.10977721, -0.09848431, 0.03589349, 0.075697355, 0.039832707, 0.019388333, 0.12389544, -0.018416721, 0.13158871, 0.2907202, 0.13028541, 0.07351665, 0.16749077, -0.06451341, 0.15328972, 0.07264539, -0.11436982, -0.008688044, 0.06733558, 0.18247038, 0.14335215, -0.02430686, -0.04057528, -0.0051341206, -0.1707552, -0.08979041, -0.09037441, -0.040828653, -0.0584923, -0.027544867, -0.004138668, 0.053841934, 0.046853807, 0.032974474, -0.0476068, 0.036280937, -0.102425255, 0.010811499, -0.052819952, -0.07717635, -0.16676998, 0.014818071, 0.002617892, 0.06570527, 0.19549504, -0.23843227, -0.04389253, -0.044965744, 0.07012088, 0.1206961, 0.022621453, 0.07798653, 0.14458223, 0.24540183, 0.30701518, 0.161403, 0.044652715, 0.07512639, 0.088912815, 0.08169885, -0.3336681, -0.055346962, -0.096195206, 0.15360281, 0.046747766, 0.12203947, 0.16359173, 0.12410671, -0.018705867, 0.035971183, -0.2322222, -0.19520913, 0.15053983, 0.20718107, 0.05075717, -0.30649194, 0.1130253, 0.06679744, -0.3447913, -0.13716291, -0.17769267, 0.035128757, -0.004667342, 0.101166, 0.0018354446, 0.1621111, 0.01778109, -0.29866287, -0.098589435, -0.071240604, -0.35312253, -0.25272375, -0.15107322, 0.08973654, -0.030234061, -0.086091824, 0.17035535, 0.12678179, 0.21983801, 0.022397775, -0.060431167, -0.0712555, 0.016255036, 0.052298445, 0.09048351, -0.009064241, 0.031909153, 0.03822246, -0.102039166, -0.1290142, -0.23962463, -0.22986723, -0.0922366, -0.09117071, -0.25372362, -0.0074892207, 0.12824816, 0.14833327, 0.089942195, 0.07037895, 0.13641793, 0.11827153, 0.014554567, 0.0969683, -0.092322215, -0.11306032, -0.18609874, 0.22277063, 0.11020215, 0.07188879, -0.06596127, -0.13600902, -0.34996995, -0.30189157, -0.0034342334, 0.023737751, 0.06199087, 0.01702389, -0.066198565, -0.0038935617, -0.09904137, 0.029768217, -0.03492543, -0.05815226, 0.025833186, -0.122780085, -0.1663512, 0.25060844, 0.020709958, 0.0428325, 0.11975811, -0.066297114, -0.073560834, 0.16192465, 0.062005647, 0.14414258, 0.15763704, 0.28627667, 0.1679193, -0.2990174, -0.121951886, -0.022427319, -0.012256355, -0.043768745, -0.03445689, -0.036225043, 0.043843653, 0.01689742, -0.04551807, -0.058955833, -0.082047775, -0.15184575, -0.27211353, 0.018719735, -0.038989093, -0.20482677, 0.02203726, 0.35384, -0.12001301, 0.0989663, -0.22836909, -0.048839018, -0.031734765, 0.051458597, -0.08377112, -0.10058892, 0.14237438, 0.016059011, 0.09445643, -0.22537255, -0.06783866, 0.017197635, -0.015370435, -0.011156137, 0.05949337, 0.14513582, 0.30188957, 0.057026498, 0.19113453, 0.2511867, 0.08299946, -0.39361218, -0.2222995, -0.05976297, 0.23354611, 0.08383977, -0.05136291, -0.005824829, -0.034308717, -0.011305311, -0.14051206, 0.02835632, 0.014600454, -0.3014218, -0.12460684, -0.03532556, -0.03712348, 0.016168645, 0.031838223, 0.021432582, 0.03681638, -0.06822287, 0.027426518, -0.044876825, -0.03471828, 0.0754782, 0.005521834, 0.07397014, 0.078055725, 0.14414035, 0.16840847, -0.3162693, -0.19391882, -0.16681208, 0.08151942, 0.1450979, 0.0030570405, 0.053802855, 0.13439174, 0.088328496, -0.19145527, -0.1364875, 0.07621362, -0.100047484, 0.0022976487, -0.07206598, -0.0682509, 0.040758416, 0.006485685, -0.06233029, -0.048747323, -0.0800949, 0.09187374, 0.07580907, 0.07355153, -0.059381764, -0.13034317, -0.04003738, 0.31211647, 0.3158614, 0.2121804, -0.14670283, 0.11602352, 0.049983058, -0.072962604, -0.032162543, -0.11308335, 0.29532763, 0.3548926, 0.24959837, 0.03408257, -0.0025406166, 0.032066904, 0.010715, 0.016422465, 0.070655294, -0.009545938, 0.058368027, 0.03286213, 0.100456975, 0.07594845, 0.056714218, 0.036961604, 0.2248608, 0.21465614, -0.11955176, 0.07970081, 0.065847434, -0.015158611, 0.0016486206, -0.15018931, 0.08914448, 0.013928924, 0.07417733, 0.006541277, -0.111181155, -0.1579929, 0.1335264, 0.019496625, 0.02443057, -0.026128793, 0.021072352, 0.005454902, -0.059004072, 0.13063161, 0.12855957, -0.11168535, 0.13356249, 0.08527623, 0.043513034, 0.02811753, -0.16019559, 0.1498484, 0.041452374, 0.056131445, 0.006819438, -0.20234908, -0.15378977, 0.01502221, -0.11730201, 0.020964248, -0.18734178, -0.015102068, -0.04454653, -0.04055306, -0.010698488, 0.05883707, -0.022644425, 0.01716974, 0.0906, -0.0486768, -0.050418112, -0.009475144, 0.010018017, 0.06923726, -0.043078557, 0.12453228, 0.113566004, 0.1184016, -0.013002298, -0.00855215, 0.062741876, 0.24034776, 0.16054605, 0.079336315, -0.03547837, 0.02306037, -0.017327335, -0.01148604, 0.013467758, 0.068139374, -0.12639044, 0.0813305, -0.11029657, -0.16472904, 0.13562766, -0.0921948, 0.18552597, -0.22198968, -0.1752903, -0.3485766, -0.042515345, -0.020632157, 0.116955064, -0.06903011, -0.093217656, 0.46547818, 0.23038043, 0.21893385, 0.19455704, 0.2137481, 0.12910752, -0.073069386, 0.11612446, 0.21154281, -0.44630328, -0.16950439, -0.095494494, -0.1502691, 0.25656426, 0.23355353, -0.107378535, 0.14571758, 0.055868767, -0.23179838, -0.03212203, 0.018245649, 0.08852264, -0.03297041, -0.011798733, -0.087204374, 0.013587949, -0.059519563, 0.029133137, 0.021371363, -0.04499764, -0.08431273, -0.054322332, -0.021634854, 0.3358737, -0.06222775, -0.0072364253, 0.22315176, 0.036148474, -0.060472198, 0.10503149, 0.100325175, 0.018963344, -0.010526496, -0.12368165, -0.109465785, -0.08814764, -0.11301991, -0.11760813, -0.04373853, -0.05831714, -0.1392832, -0.06327196, -0.082977265, -0.10370907, -0.12712614, -0.04308119, -0.04792953, 0.25225356, 0.04793663, 0.10012909, 0.19443312, 0.0571459, 0.026907181, 0.07642148, 0.13413088, -0.068774186, 0.026429424, 0.102155276, -0.014977693, 0.0995616, 0.29121885, 0.15241808, -0.031985953, -0.06631682, -0.064442046, -0.0004380822, -0.008863124, 0.18556692, -0.24604638, -0.05597927, 0.01323566, -0.30851823, -0.10128679, -0.016437238, 0.08329998, 0.14744608, 0.092233025, -0.09711242, 0.049709298, 0.14058632, 0.016771855, -0.05018737, 0.036840186, -0.20972821, -0.025526885, 0.08442469, 0.119080596, -0.024337366, 0.041882917, 0.26719615, 0.1648746, 0.2242117, 0.06878515, 0.14449768, 0.16607258, -0.11001579, 0.029576676, 0.10527534, -0.41683385, -0.15214904, 0.016884444, 0.2624445, 0.05577963, 0.11796896, -0.09260186, -0.19157515, -0.03544325, -0.23716299, -0.21538149, -0.14682446, 0.041674186, 0.041378025, 0.060570695, 0.056508448, -0.022563044, 0.03635525, 0.100534365, 0.17601259, 0.04074762, -0.15252392, -0.096536055, -0.09359446, -0.059336375, -0.022038437, 0.05308704, 0.237541, 0.250096, 0.040010374, 0.0038406136, 0.083977535, 0.02376595, 0.12165303, 0.05073986, 0.15416116, 0.028662343, -0.03973811, -0.061033107, -0.037972458, 0.015222574, 0.17423318, 0.09872457, 0.010467687, -0.036804482, -0.045253318, -0.25062922, -0.24430136, -0.42372423, -0.039025404, -0.12586612, -0.03295908, 0.059590455, 0.06556592, 0.23407531, -0.011558639, -0.12578776, -0.061127145, -0.12831971, -0.12214926, 0.0019396266, -0.060416207, -0.057243537, 0.2468745, 0.13862427, 0.016282905, 0.017829958, 0.020472394, 0.009586371, 0.0815188, 0.11561719, 0.054227684, 0.00084892544, -0.04456179, 0.0065647396, -0.17436154, -0.027784357, -0.23093621, 0.10158193, 0.0005534236, -0.2963245, -0.021162655, 0.037247255, -0.48987642, 0.11503672, -0.01712363, 0.04012558, -0.13955879, -0.13600005, -0.23830825, -0.28860208, -0.15574175, -0.17557354, 0.18219128, 0.06715716, 0.064937465, 0.02269506, 0.10802905, 0.22105579, 0.27570885, 0.15217142, 0.10652196, -0.14435256, -0.10278813, 0.085701376, 0.054781612, 0.058686256, 0.041151065, 0.19300456, -0.050511, 0.103760876, -0.21895286, -0.19659647, -0.115028426, -0.07730563, -0.09761585, -0.124183506, -0.10510205, 0.059770435, 0.1377834, 0.05762455, 0.0015896944, -0.08816812, -0.0729574, -0.09609045, -0.038387474, -0.13106787, -0.063756384, 0.114976466, -0.046482053, -0.051944688, 0.0282422, -0.06373542, -0.009196134, 0.041240096, -0.012998106, -0.06612416, -0.043876212, 0.060829513, -0.18559362, -0.23945208, 0.21978301, -0.08858989, -0.10098369, 0.07814895, 0.14373012, -0.01899931, 0.03368082, 0.08137931, -0.03579454, 0.14658208, -0.075319126, -0.26775396, -0.025746532, 0.06401793, -0.056264497, -0.22998923, -0.085436456, -0.24620737, -0.18787983, -0.08974252, -0.12830138, 0.024097292, 0.12784109, 0.03409026, -0.22679368, -0.0842877, -0.253922, -0.03324353, -0.043742187, -0.18964854, -0.05608658, -0.119506516, -0.17948258, -0.09715448, -0.10743342, 0.04661461, 0.011773329, -0.012241764, 0.088483974, -0.012392819, -0.081478685, 0.11099682, -0.10584773, -0.052752186, -0.18891923, 0.0036519552, -0.07324243, -0.03972809, 0.09060735, 0.09689395, -0.03103648, 0.10749652, 0.13895904, 0.2081335, 0.13479583, 0.10545853, -0.24479242, 0.069151066, 0.0730996, -0.254378, -0.044766054, 0.08389857, 0.0071320734, -0.021743264, -0.03435783, 0.0197385, -0.00073055463, 0.045528695, -0.042166494, -0.1381639, -0.050052032, -0.39964533, 0.14867102, 0.105520554, -0.44725773, -0.053905316, 0.20208985, -0.053325143, -0.061155323, -0.12065419, -0.063732274, -0.18560989, -0.15056273, -0.25207624, -0.10534463, -0.27398175, -0.3484955, 0.22642009, -0.1015013, 0.08212357, 0.10494913, -0.12363953, -0.017684987, 0.05660394, 0.058134038, -0.15410379, -0.058977842, 0.046231236, -0.072355114, -0.07007176, -0.0643598, 0.08583813, 0.0035685927, 0.06730707, 0.016476346, 0.06464563, -0.034726907, -0.082794726, -0.09312689, -0.17976758, 0.055675935, -0.072401, -0.06454996, 0.15934698, -0.15066758, -0.07921571, -0.08534913, -0.2070974, 0.009364949, 0.18144307, 0.34634665, -0.11516775, -0.24734913, -0.010007829, 0.018922405, -0.0035882783, -0.020119324, 0.023270521, -0.009013746, 0.03540328, -0.024535473, -0.01274036, -0.06029346, 0.065176085, 0.032252736, -0.013877506, 0.1266526, 0.10527022, -0.08315893, 0.0046103955, 0.124251485, -0.026506117, -0.10053279, -0.116413236, 0.1121362, 0.007851332, -0.31977192, 0.041031253, -0.11969805, -0.15642108, 0.10727435, 0.23259254, -0.028912535, 0.10246898, 0.025955087, 0.25717765, -0.2306225, -0.10324955, 0.24442735, -0.16389108, -0.06372632, -0.030062012, -0.23115297, -0.16439274, -0.15702158, -0.05323317, -0.18050788, -0.28946158, -0.031681728, -0.0221509, -0.037625287, -0.107071616, -0.14761405, -0.02082803, 0.0795517, -0.017768942, -0.11889388, -0.014330388, 0.015384943, 0.08557741, 0.01115487, 0.021156156, 0.086039305, -0.03303146, 0.051233184, 0.091541775, 0.16778603, 0.19047348, 0.15260737, 0.038976412, 0.15914148, 0.14990668, -0.2466029, -0.05111888, -0.029117746, -0.27539092, -0.1569535, -0.0861474, -0.34507847, -0.11222796, 0.12682821, -0.26645485, -0.18589734, -0.12534603, 0.045375824, 0.11685088, 0.016960422, 0.05109046, 0.018568784, 0.00842461, -0.022483388, 0.0355128, 0.04775032, -0.084153175, -0.055628013, -0.13513348, 0.17792507, 0.03231322, -0.0892832, 0.006345013, 0.0011150911, 0.033598397, 0.014578995, 0.05823585, -0.28241873, -0.05048396, -0.028522026, -0.24156806, -0.057029363, 0.11271415, -0.052987467, 0.007269846, 0.006467224, 0.0155936, -0.06474192, 0.052761044, -0.007255363, 0.06275049, -0.070659876, -0.007202478, 0.04938203, 0.0703217, -0.12541085, -0.061293747, -0.14780706, -0.023849832, 0.024781408, -0.00082836533, -0.035789736, -0.17767018, 0.07261982, -0.061296836, -0.11019504, -0.20697667, -0.12905921, -0.09733969, 0.022072269, -0.15541638, -0.07913089, -0.029226998, -0.038806986, -0.15363997, 0.00763893, -0.12177759, 0.016368087, 0.10389126, 0.14869185, -0.00036311155, -0.21477382, -0.18039055, -0.042530563, -0.22431912, 0.087424584, -0.06651422, 0.19000995, -0.00035110206, 0.17910296, 0.2787098, -0.029104672, -0.29601252, 0.12310596, 0.111195475, -0.22152783, -0.16835131, -0.07825571, 0.048454124, 0.07115468, -0.027534183, 0.051536884, 0.06455033, 0.08755946, -0.0016361709, -0.0032596583, -0.011203369, -0.22925448, -0.12612325, -0.14772035, -0.07070717, 0.010449719, 0.106885366, -0.32728732, 0.03898068, 0.09564806, 0.001148382, 0.05015993, -0.12690593, -0.24232528, 0.07140535, 0.0210063, -0.3562695, -0.27434435, -0.39376885, -0.06329374, -0.14030746, -0.115802854, -0.042271756, 0.07084114, -0.14913292, 0.2316813, -0.0058757896, 0.042573143, -0.0036074617, -0.038732167, 0.027245255, 0.053643342, -0.023633728, 0.042234898, 0.083735965, 0.07105792, -0.040232036, 0.032701932, 0.09947037, 0.10365769, 0.07582684, 0.03982088, 0.0074803983, 0.24097724, -0.043939393, -0.19068985, -0.19252814, -0.30755848, 0.051213108, -0.01895682, 0.09084614, -0.14576513, 0.026626376, 0.16482826, -0.20548917, 0.011862975, -0.08110267, -0.048182406, -0.030164683, 0.010756946, 0.07309274, -0.044336542, 0.08073969, 0.12180166, -0.016253753, 0.056077223, 0.08687298, 0.069518745, 0.0102187805, -0.24507445, 0.14371565, -0.041720733, -0.17072359, 0.18527007, -0.045111928, -0.14174864, 0.14214967, 0.12875743, -0.23166126, -0.088872865, 0.12314118, -0.06812064, 0.048939332, -0.2172401, -0.24092695, -0.23737213, -0.1682729, 0.038926095, -0.12311184, -0.21180671, 0.028586099, 0.25489473, 0.12121632, -0.22148386, 0.0840831, -0.03774956, -0.1857913, 0.09413367, -0.029945381, -0.14394814, 0.00952518, 0.01906811, 0.1010221, 0.03632038, -0.07435137, 0.045566827, -0.17575818, -0.031599212, -0.039877564, 0.10501982, 0.06339077, -0.015136702, -0.093801774, 0.13147451, 0.028272174, -0.08781298, -0.11273019, 0.07383017, 0.22753723, 0.16472365, 0.24955918, 0.25019556, 0.011054294, -0.018577663, 0.094635375, -0.24202856, -0.17078821, -0.08021121, -0.014567768, -0.040507376, 0.053685036, 0.0006627566, 0.01272544, -0.034221727, -0.022421459, 0.09029763, 0.28161222, -0.046340056, -0.19829345, 0.40425944, 0.19530602, -0.06902682, 0.26186153, -0.031582013, -0.17285778, -0.19865187, 0.14008692, 0.119574346, -0.12991053, 0.19509383, 0.17213681, -0.025899317, 0.01721769, 0.032534502, 0.16865125, 0.058621287, -0.0449864, 0.014358857, -0.011435503, 0.053105343, 0.0036073814, -0.104450546, 0.07094552, 0.09307904, 0.11505562, 0.07620813, 0.060275234, 0.09993108, 0.050192196, -0.08722061, 0.014086673, 0.07563256, 0.17443824, 0.25990805, -0.06264945, 0.2123873, 0.10443587, -0.052322634, 0.01155365, 0.043823835, -0.14091195, 0.025999375, -0.008579204, 0.05929945, 0.063140646, 0.0927094, -0.053114377, -0.17654745, 0.124658726, -0.08701612, -0.033961173, 0.10586947, -0.08034809, -0.17814937, 0.18690409, -0.31463754, -0.19804263, -0.13115768, -0.48149496, 0.32127288, 0.16325405, 0.13536578, 0.19140138, 0.1091848, 0.05141199, -0.12822492, -0.12222434, -0.088430665, 0.068445526, -0.018767498, -0.0140956985, 0.0038205322, -0.035692878, 0.0950802, 0.098350525, 0.118803814, 0.15555514, -0.034370508, 0.15184812, 0.025831914, 0.005992642, 0.1251456, 0.24934345, 0.044098146, 0.031629667, 0.35092404, 0.13678214, -0.022947708, 0.098316036, 0.28605536, 0.2238299, -0.13265215, 0.2828025, 0.015961226, 0.07275834, 0.27009428, 0.03840122, 0.07446573, -0.06297349, 0.012516374, -0.012275426, -0.3219221, -0.17008492, 0.12589402, 0.061899874, 0.041314475, 0.11492465, -0.19630103, 0.017423034, 0.059918694, -0.053882804, 0.074124634, 0.26755017, 0.081641875, 0.092829004, 0.1813508, 0.13873039, 0.052191626, 0.014573837, 0.019684657, 0.093546964, 0.16623749, -0.09076082, -0.053272214, 0.13521984, 0.21180984, 0.094118714, 0.1265832, 0.17490458, -0.27754802, -0.1237424, 0.059566792, -0.017185573, 0.01272729, 0.03919288, 0.016260378, -0.06575787, -0.0335794, 0.039173476, -0.0016941783, 0.031306107, -0.094048955, -0.061281797, 0.095246956, 0.005935171, 0.05523555, -0.04225554, 0.22546214, 0.23395711, -0.008757456, -0.15558353, -0.030412044, -0.15842232, -0.23187223, -0.22625272, 0.04639627, -0.12435691, -0.0119800875, -0.027191516, 0.13111702, -0.015479573, 0.0022014694, 0.1226033, 0.17876385, -0.117179155, -0.27009532, -0.49323642, -0.0063015586, 0.2181326, -0.050322805, 0.11173194, 0.14841822, 0.06299705, -0.050491285, -0.07534833, -0.09635708, 0.27293664, -0.022360638, 0.16639517, 0.26378858, -0.10315873, 0.14164954, 0.101633795, -0.13530071, 0.12311063, 0.025788406, -0.14509593, 0.0718711, -0.039956663, 0.03861138, -0.2217164, 0.0033808593, -0.11473852, -0.40785584, 0.22968847, 0.24806912, 0.14368074, 0.009487808, -0.13559878, -0.10070309, 0.040564053, -0.27019605, -0.13265695, 0.03265381, -0.008552222, 0.06822821, -0.042010408, -0.051363308, 0.0154617755, 0.028302237, 0.040320843, -0.020618124, 0.021992896, 0.11618068, 0.1959237, 0.058135618, 0.073680565, 0.022405127, -0.045421034, -0.31180316, 0.09799252, 0.0027444076, 0.16662443, -0.04875535, -0.061794095, -0.117405176, -0.3710105, -0.10606785, -0.33395898, -0.4091292, -0.2600237, -0.018944906, 0.09591302, -0.118543364, -0.052477553, -0.09263463, 0.08505229, 0.114623636, -0.15652966, -0.06281064, 0.014791408, -0.06067589, 0.063885614, -0.020741295, -0.026035618, 0.0128558, 0.0020759255, -0.009621757, -0.028892243, -0.16926663, -0.09133782, 0.13249803, 0.028129265, -0.05454805, 0.112326466, 0.028421193, -0.09361008, -0.16935086, 0.063545816, 0.17298591, -0.08485561, -0.1646615, 0.11277499, -0.14957859, -0.30337188, 0.035295065, -0.059542492, 0.05986607, 0.0028840976, 0.049992144, 0.077295855, -0.03723089, 0.0563521, -0.012439252, 0.02667429, -0.0135985715, -0.17314139, -0.17410883, -0.004826246, 0.1107821, 0.03572815, -0.00212021, 0.21605211, 0.2677475, -0.39849424, 0.032248653, 0.032033548, -0.032309726, 0.15535606, 0.00027003023, 0.15469798, 0.2928534, 0.21160972, -0.030067954, -0.04901344, 0.1036072, -0.2419232, -0.22860584, -0.31217104, -0.15545581, -0.32858813, 0.2272073, -0.10859406, -0.020671753, -0.090451755, 0.025680186, -0.13097867, -0.3669961, 0.047096416, 0.18908745, 0.13121583, 0.23548083, 0.022968428, -0.20539005, -0.043078855, -0.22531582, -0.18068689, -0.12098155, -0.28230697, -0.22398335, 0.0055254893, 0.05420334, -0.078273974, -0.07172116, -0.030636793, 0.03844636, 0.07200326, -0.038148865, -0.019088462, 0.092386335, 0.07301009, -0.14943072, 0.16035399, -0.053576335, -0.07680446, 0.11718476, -0.0225656, -0.36272255, 0.017924977, 0.1807284, 0.32053116, 0.12972094, 0.04926627, 0.054253794, 0.25670373, 0.14072628, -0.00888273, -0.024795188, -0.022564031, 0.0067671877, 0.04228837, -0.07446394, -0.05313467, -0.0068758964, 0.014703239, -0.05452542, -0.08873614, -0.006859736, -0.062044412, -0.12120039, -0.01707255, 0.10372348, -0.04332303, -0.05435503, 0.031796668, 0.031870153, -0.14121264, -0.047921836, -0.20012084, -0.14618641, 0.0075109466, -0.07949301, 0.043003645, 0.13862325, -0.06463022, -0.037073616, -0.022907032, 0.03664974, 0.019164002, -0.024160014, 0.07475994, -0.036439583, -0.0600499, -0.050620858, -0.014121839, -0.06628616, 0.018338237, -0.03876198, -0.09377932, -0.13419333, -0.13026993, -0.16464254, 0.32779476, 0.18182287, 0.19010772, 0.20155515, 0.0709935, -0.07194233, 0.1257156, 0.057561807, -0.13014102, -0.03524289, 0.0039067105, 0.17537628, -0.058814514, -0.01820161, 0.10512685, -0.076197125, 0.022097297, 0.1926383, 0.049396593, 0.13720667, -0.09466049, -0.32423025, -0.19893643, -0.1545212, -0.29954785, 0.017965468, -0.009865962, 0.07476802, -0.06759, -0.19387674, 0.06759993, -0.04399275, 0.10092506, 0.13334082, 0.07289626, 0.14291188, 0.07773021, 0.058624353, 0.04774226, -0.0041743563, 2.7455417e-05, 0.0423498, 0.02331183, -0.028212888, 0.014688634, 0.07841705, 0.05496021, 0.048145935, 0.11569599, 0.04214, 0.15746854, 0.09989846, 0.13937227, 0.116822295, 0.19414176, 0.046938505, 0.16879357, 0.02452799, 0.045731585, -0.07880658, 0.11507841, -0.045680657, -0.2412078, 0.072006114, 0.11579649, 0.057218403, -0.06973726, 0.032573283, -0.07135651, -0.42996588, -0.38823578, -0.06968037, -0.020270735, -0.11900373, -0.15403943, -0.065614246, 0.17194991, -0.08757817, 0.062714905, 0.20960703, 0.16815442, 0.0073587475, 0.025343796, 0.06608641, 0.034904674, -0.16242738, -0.0024768794, -0.1907961, -0.3436363, -0.65680104, -0.05100592, 0.062800676, -0.061817057, -0.22135323, -0.06409259, -0.006933459, -0.4193979, -0.21617714, 0.24917552, -0.004286475, 0.032443196, 0.043145858, -0.018249033, 0.055502247, 0.057035822, -0.08202454, 0.068400085, 0.0050828345, 0.15468183, 0.098747924, 0.025397254, -0.03871604, -0.04207741, -0.0841949, -0.2940492, -0.20016983, -0.27871293, 0.123732015, -0.024352219, -0.08031289, 0.035738498, -0.012280157, -0.024804119, -0.015613205, -0.02450461, -0.057448648, -0.16056265, -0.06266601, 0.075944915, -0.10212031, 0.026127925, -0.06467081, 0.10141938, 0.13334893, -0.13351087, -0.00045609192, 0.10237338, 0.06296704, 0.17862485, 0.19132538, 0.13509355, 0.19983107, 0.048285723, -0.17587787, 0.071065135, -0.039779358, -0.02349446, 0.057122026, -0.12612477, -0.081079654, -0.11830947, 0.26245734, 0.21274944, -0.06885221, -0.10951553, 0.025396422, 0.047384273, 0.048616834, -0.07931478, 0.006031605, -0.04494935, -0.056395914, 0.10825647, 0.08377717, 0.28432995, 0.20901497, 0.047918405, 0.28416705, 0.15499559, 0.05986429, 0.111329734, -0.1693208, -0.12566823, -0.119541205, -0.26075107, -0.026637131, -0.032399196, 0.061613176, 0.13058622, 0.010303384, 0.051285874, 0.06757559, -0.117638394, 0.21335542, 0.21874242, 0.054709833, -0.12679116, -0.14825112, -0.2147084, 0.15697694, 0.012550669, 0.08921807, 0.087861255, -0.02990464, 0.020949157, -0.031992532, -0.24509692, -0.27461454, 0.10946784, -0.0072864355, 0.1320856, 0.25376996, 0.10626234, 0.14496295, 0.06453318, 0.088422716, -0.12960088, -0.15926316, -0.039068617, -0.14978951, -0.028782763, 0.049825687, 0.028052598, 0.15938084, 0.29395467, 0.2231355, 0.074778065, 0.090093546, 0.058012955, 0.047647063, -0.021529628, -0.09965562, 0.07145071, -0.105262704, -0.19422312, 0.06420622, 0.004902828, -0.20330714, -0.0010835238, -0.02497331, 0.050395634, 0.06752925, 0.038401574, 0.032272562, 0.0483927, 0.09485525, 0.14531069, 0.15671498, 0.28072855, 0.21984339, 0.12900554, -0.0033516854, 0.09824553, 0.14595473, 0.0030820328, -0.16013119, 0.1406671, -0.1122413, -0.34005708, 0.2447883, 0.027472584, -0.40809965, -0.028056199, -0.015549236, -0.029144319, -0.04167623, -0.02069742, 0.0477765, 0.017444925, -0.0724769, 0.022639384, -0.0026457252, 0.039719243, -0.019073907, -0.035132304, -0.04966123, -0.026748875, 0.0040924153, -0.04660981, -0.053769805, -0.06049583, 0.00020862049, 0.00021962434, 0.027107544, 0.031005442, -0.01359871, -0.04188756, 0.034719024, -0.085986175, -0.032770038, -0.041659586, 0.0061260937, -0.00024560853, -0.045678012, -0.02415634, -0.06175332, -0.0139587205, 0.0026655928, -0.090067364, -0.044344097, -0.0035446712, 0.042237174, -0.030666567, -0.028151084, -0.04941986, 0.02558812, -0.029204998, 0.025984326, 0.009526659, -0.06044826, 0.032541286, 0.00035570198, -0.07922319, 0.0054310835, -0.05103385, 0.012702828, 0.00365257, 0.0141690755, -0.020338194, -0.0121504245, 0.043927796, -0.06768119, 0.01088046, -0.035969425, -0.048724428, -0.077179804, -0.070375144, 0.0036792315, -0.045778766, -0.06435117, 0.03525007, 0.011270856, -0.040315837, -0.07419295, -0.038902182, 0.018131766, 0.0418014, 0.017024621, -0.07064909, 0.054938525, -0.005267717, -0.024009038, -0.105284296, -0.075512625, -0.092355676, -0.016722087, 0.0028417157, -0.058793947, -0.020247305, 0.010863608, 0.0009605306, -0.044101875, -0.02223575, -0.010822484, -0.032327417, -0.062005743, 0.037187267, 0.046015527, 0.041518565, -0.09970517, -0.07371318, -0.06160657, 0.012157231, 0.032996047, -0.025602587, -0.04998214, 0.054574672, 0.04399605, -0.07469494, 0.010093189, 0.031481754, 0.04470185, 0.0030330787, 0.015450559, 0.057147514, -0.03308481, 0.0047166203, 0.013175638, -0.043811306, 0.013124819, -0.05960677, -0.054194637, -0.019610034, -0.075804204, -0.07552861, -0.05348833, -0.052698486, -0.044919, -0.009839287, 0.017075589, 0.045926493, 0.047071874, 0.0038545658, -0.07636047, -0.046320047, -0.023757612, -0.018457957, -0.051869694, 0.030926447, -0.011774422, 0.007529108, -0.045697194, -0.005482497, 0.012345929, 0.06281409, 0.059873667, 0.045846686, 0.0066080214, -0.021887012, 0.039154176, 0.014541047, 0.01598998, 0.008211238, -0.041987907, -0.014455226, 0.0062956247, -0.0127265155, 0.03821223, -0.0016543644, 0.007855523, 0.021742035, -0.015761023, 0.011095011, -0.041756883, -0.03433601, 0.010561682, 0.017161256, -0.10072958, 0.02940479, -0.041303236, -0.092520945, 0.03295013, 0.076807626, 0.013952882, -0.040442843, 0.01644616, 0.074488215, -0.04580997, 0.037926044, -0.07749069, -0.059307247, -0.0051641734, 0.047319103, -0.058726624, 0.054807752, -0.01907296, -0.07829207, 0.03484978, -0.085706934, 0.042520907, -0.013625083, 0.012583677, -0.0539336, 0.060878664, 0.024962934, 0.040410567, -0.020559212, -0.060250282, -0.06324934, -0.09464108, -0.021732397, 0.026681349, 0.009680137, -0.019376308, 0.039255872, 0.040475115, 0.006499745, -0.042890802, -0.042908613, 0.0040936396, -0.077163205, 0.018570688, -0.013863202, -0.010364642, 0.003004416, 0.04974413, -0.044973623, -0.053550117, 0.01070678, -0.020030454, 0.054003913, -0.037261605, 0.009715786, 0.028126877, -0.0314055, -0.06703784, 0.032737877, -0.087608345, -0.010822474, 0.013753281, -0.0687444, 0.035828438, -0.045803368, -0.011815413, 0.030091671, 0.026125785, 0.051977523, -0.05114728, 0.017462367, -0.0822836, -0.0860557, 0.03293413, -0.00823301, -0.028518809, -0.06457738, -0.04374799, -0.058403607, -0.064185515, -0.012512919, 0.00844735, -0.029474707, -0.066276744, -0.06872574, -0.040243898, -0.005318444, 0.010274708, -0.02423763, 0.0068158517, -0.01748456, 0.06482114, 0.034110878, 0.065847196, 0.037307594, -0.069336705, 0.013967647, -0.039351624, 0.02841956, -0.080019504, 0.02375883, 0.037962634, -0.023213256, -0.08513547, 0.06057139, -0.010257067, 0.005534707, -0.05097507, -0.08720735, -0.043947045, 0.0038243192, -0.049538907, 0.033813097, -0.057612807, 0.025195234, -0.012678433, -0.007800892, 0.03680207, 0.047779135, 0.065607145, -0.06612126, -0.00370574, 0.023937449, 0.0040719076, -0.011662103, 0.04764773, -0.0007475101, -0.06673899, -0.061355162, -0.034532268, -0.04555782, -0.061581917, 0.006488117, -0.01805641, 0.05147033, -0.06006843, -0.06638491, -0.021373836, 0.018002708, -0.07284042, 0.022297036, -0.037177976, -0.0058131656, -0.070957676, 0.015457828, 0.027248073, -0.070772134, -0.0024243277, 0.003275868, 0.047981367, 0.018085565, -0.013217023, 0.02660478, -0.023031438, -0.016762594, 0.03362586, -0.0024003445, -0.049010012, -0.03037128, 0.041279346, 0.019691031, -0.07519671, -0.072634846, -0.011860791, -0.0019214556, -0.0586386, 0.047608282, -0.016122831, -0.08133976, 0.0061696414, -0.010686091, -0.08329689, -0.017600281, 0.025321513, -0.029305844, -0.09101595, -0.02572838, 0.0029993826, 0.035691187, -0.042496108, -0.04108679, -0.0034752, 0.0483859, -0.012937336, 0.00415118, -0.07944301, 0.01468579, -0.029919699, 0.03516167, -0.06675812, -0.011321084, -0.032560725, -0.07066734, -0.046355285, -0.056271043, 0.011409967, 0.007509276, -0.016377322, -0.004120895, 0.0009971645, 0.040681444, 0.047787085, 0.005484936, 0.0047093555, -0.051594943, -0.0059361677, -0.030874543, 0.05242156, 0.029015156, -0.057558753, -0.021132516, -0.06073766, -0.052498534, -0.066372626, -0.03303846, -0.03517102, 0.013551054, -0.048149716, -0.011947295, -0.005616224, -0.018022932, -0.025290582, -0.08015977, -0.093255185, -0.07555797, -0.047259573, 0.014689778, -0.13884734, 0.066308044, -0.06941224, -0.016170619, -0.017233877, -0.009586414, -0.05630711, -0.071542956, -0.03693999, 0.0071915155, 0.0035184333, -0.04039736, 0.057811543, 0.022837456, 0.07125388, -0.05364559, -0.07376102, -0.027250499, -0.015330238, -0.06355342, 0.0033298032, -0.010105186, -0.048248675, -0.031359315, -0.052386377, -0.07819515, 0.0027504687, -0.0058261687, -0.04629826, 0.06386005, -0.03010862, 0.044084568, -0.031225352, 0.035216063, 0.02085242, -0.034660958, -0.00083890423, 0.028999628, 0.016305754, 0.041982025, 0.056491956, -0.07885881, 0.015808932, -0.015068982, 0.042642877, 0.025445223, -0.02063229, 0.010478135, 0.04695706, 0.028598053, -0.021455247, 0.039291877, 0.007850795, 0.038827702, 0.04146333, -0.08324372, -0.106455736, -0.086618125, -0.044176392, -0.06884065, -0.023549668, -0.065345764, 0.00087005657, 0.018210772, -0.09816675, 0.015227461, 0.017317671, 0.047766086, -0.04109591, -0.052864276, -0.053716805, -0.04826318, -0.041829977, -0.040404093, -0.025094941, -0.081703715, 0.046619102, 0.055747308, -0.078226015, 0.041906547, -0.040841434, -0.044315882, -0.012295455, -0.08176075, -0.005253344, 0.013820591, -0.03356486, -0.08555272, -0.024496313, 0.0022787638, -0.08896003, -0.06663224, 0.004773407, 0.01955175, 0.020934632, 0.0002940047, -0.037350427, -0.016508533, 0.00011182254, -0.021340324, -0.019300556, -0.088519275, -0.057624627, 0.031160684, -0.0017075187, 0.037001356, -0.02541018, -0.06713183, 0.0023709754, -0.02109372, -0.05644586, -0.08655799, 0.002156279, -0.0563314, 0.0041738343, -0.07935583, -0.09750076, -0.044209506, 0.008222472, -0.012399819, 0.036248665, -0.06351051, -0.068257876, 0.034025047, -0.026832538, -0.036221057, 0.025963483, -0.027443655, -0.04851386, -0.045546196, 0.015306252, 0.039789684, -0.09177011, -0.0603193, -0.0035625522, -0.031181928, 0.008063884, -0.07946602, 0.0072308127, -0.06865163, -0.025406035, 0.0395608, -0.046354275, -0.035247207, -0.007332946, -0.075726435, 0.035983503, 0.05342501, 0.02253454, -0.044830058, 0.070104115, 0.025072575, 0.046655197, 0.021488238, 0.053703688, -0.019768028, -0.048065726, 0.039022844, -0.05920515, -0.020425221, -0.009289268, -0.04072095, -0.08864558, -0.07724003, -0.045029353, -0.051186588, -0.01396867, -0.05109492, 0.051654063, 0.017033972, -0.01616142, -0.033805322, 0.007946622, 0.028648425, -0.052841745, -0.09800183, -0.09208752, -0.05787116, 0.030365368, 0.007055975, -0.08726266, -0.0829641, -0.034375254, -0.023656784, -0.00064103946, 0.050402, 0.031957384, -0.039675325, -0.07766961, 0.10998411, 0.07768759, -0.05386863, 0.01011276, 0.20972562, 0.10076144, 0.10079832, -0.019272042, -0.4130834, -0.0049037905, 0.17603819, -0.1396259, -0.096399434, 0.013472811, 0.022196397, 0.034653228, -0.08792196, -0.19691366, 0.1268404, 0.047652774, -0.37792364, -0.060002904, -0.22722225, -0.12584503, 0.1134423, -0.07029342, -0.39308417, -0.34111056, -0.2698354, -0.12550977, -0.038898695, 0.037391387, 0.02125418, 0.18820253, -0.0725954, -0.11612997, -0.01274968, 0.07894891, 0.0013502988, 0.07674175, 0.051421527, -0.09752739, -0.0011026767, 0.0048743067, -0.20347324, 0.15456292, -0.1302342, -0.21747062, 0.007917126, 0.112164564, 0.0053009773, -0.082616955, -0.15913053, -0.13412966, -0.021828195, -0.19544841, 0.009950275, -0.050336093, -0.0689457, -0.07300778, -0.020101657, -0.051743075, 0.05525437, -0.058353893, 0.00037304565, 0.06370009, -0.070308164, 0.075029075, -0.06243888, -0.24370912, -0.28304628, -0.6531836, -0.4080977, -0.13263205, -0.190321, 0.23551995, -0.12945518, -0.36415005, 0.09407234, 0.017524151, -0.39109248, 0.17276785, -0.0639956, -0.2573972, 0.00684008, 0.010956147, 0.057744294, -0.078762196, 0.117270306, 0.047735147, -0.076312505, 0.033540633, 0.08947074, -0.036393747, -0.2340384, -0.32328916, 0.02506111, -0.36889687, -0.42698598, -0.16375199, -0.07486821, -0.35114133, -0.00661374, -0.073642105, -0.08744351, 0.049036883, 0.041043594, 0.007198151, 0.093535975, -0.052312132, 0.07830215, -0.11758007, 0.074870795, -0.3379384, -0.13788512, -0.35716435, -0.42997438, -0.07979294, -0.104821086, -0.659381, 0.020948278, -0.1433946, -0.030209878, 0.06866174, 0.049690317, -0.026342355, 0.2502082, 0.080237776, -0.17155811, 0.07496429, 0.03856589, 0.08365536, -0.03515881, 0.008886407, 0.08233572, 0.006410292, -0.05173998, 0.014824153, -0.10127743, 0.13416533, 0.07543517, -0.023133162, 0.21686208, -0.08042069, 0.09162471, 0.16376728, 0.0067593604, 0.16898629, -0.07503205, 0.0046090945, 0.137018, 0.13767952, -0.0074125, -0.12748498, 0.12532128, 0.09848394, 0.19923387, 0.04269091, 0.044323158, 0.20827927, -0.22777246, -0.042664528, 0.20481241, -0.14879358, 0.1115959, 0.10505139, 0.027756244, 0.06173065, -0.013562897, 0.09802402, 0.025548758, 0.04373712, -0.0013555731, 0.057888407, 0.10091766, 0.07491703, 0.07686068, 0.07128956, -0.055861853, 0.05772383, -0.09024779, -0.009201038, -0.15678197, 0.38494152, 0.0220402, -0.113972545, 0.08703272, -0.030480642, 0.010701359, -0.17586383, -0.36745214, -0.09111103, -0.076766856, 0.014050229, 0.052964892, -0.13035572, 0.057963826, -0.010469697, -0.05157575, 0.057237063, 0.15388273, -0.13988586, -0.15891142, 0.088446386, 0.0024456815, 0.12619554, -0.032642968, -0.023540951, 0.09971722, -0.077481024, 0.0516752, -0.00020325143, 0.09007175, -0.099834256, -0.13704874, -0.18202305, -0.1047498, -0.16421859, -0.3933351, 0.22923957, -0.0067675193, -0.1486276, 0.08539215, -0.14364626, -0.08691164, 0.09022916, -0.09020126, -0.14689688, -0.21425256, -0.102435574, -0.00043133594, 0.15162045, -0.09170893, -0.28750753, -0.11230255, -0.12213208, -0.4890831, 0.1827718, -0.079713166, -0.23280635, 0.06142839, -0.071055494, -0.24497381, 0.10647715, -0.06754141, -0.04840171, 0.013141984, -0.1051021, -0.0029033674, -0.10351872, 0.007698441, 0.013751092, 0.01229527, 0.005195583, -0.00071029546, 0.04769425, 0.15166704, 0.074726686, 0.044959556, 0.20708418, 0.20469618, -0.0035964279, -0.029154414, 0.09874611, 0.13420163, -0.13480158, -0.16955735, -0.0021665497, 0.09298738, 0.039471995, 0.17559335, -0.07614531, 0.025393901, -0.056895614, -0.075308375, 0.060017634, 0.016364891, 0.06623932, 0.10564849, 0.03942015, -0.037644554, 0.09335808, 0.14159693, 0.054016232, -0.10068919, -0.027462414, -0.23533647, -0.20403574, 0.119308785, -0.10315861, -0.15611178, -0.23092635, -0.014002317, -0.026985815, -0.21697342, -0.055451963, -0.18964978, 0.04645414, -0.06635769, -0.26817825, 0.014030334, 0.033885527, -0.03717279, -0.062272698, 0.046205115, 0.042079654, -0.06038184, 0.007154706, 0.041837387, 0.004102331, 0.10069993, -0.08128315, -0.23808637, -0.033474114, -0.05469805, -0.34939522, -0.045050383, 0.1393639, 0.030214757, 0.15039663, 0.0893555, -0.05705902, 0.041866597, -0.08583698, -0.0048752134, 0.07891886, -0.101721965, 0.14275591, 0.07048423, -0.08840722, -0.10603184, -0.26737022, -0.41207483, -0.12386237, -0.059813313, -0.20376515, 0.16305129, -0.11877248, -0.044231042, 0.088687874, -0.07210195, 0.009671064, -0.06128849, 0.0086830985, -0.065907896, -0.07949941, -0.22311074, -0.19943886, 0.014310362, -0.10009473, -0.1642285, 0.10863003, -0.09949562, -0.16830441, -0.009019105, -0.12738444, 0.0045010555, -0.061924737, 0.0006696567, 0.0730653, -0.09512042, 0.009241969, -0.02400121, -0.057025336, -0.003036267, 0.048076753, 0.116652966, -0.14140895, 0.093618, -0.013761584, -0.15988334, -0.23127063, 0.29645556, 0.024813687, -0.052747093, 0.102309346, 0.2160147, 0.19980484, 0.107361086, 0.020940721, -0.0022784355, -0.19222176, 0.013851177, -0.16131593, -0.10970388, -0.17099303, -0.045446236, -0.1438195, -0.010950239, 0.2483718, -0.14912462, -0.07086344, -0.0817083, 0.119564734, -0.03597083, -0.04385501, -0.02172409, -0.079348214, -0.09959031, 0.34299365, 0.13598464, -0.0671687, -0.055083364, 0.13253915, -0.018625796, -0.08158198, -0.036549903, 0.17622894, -0.13619708, -0.21940058, -0.106281795, -0.04800993, -0.2839539, -0.38199565, -0.13933203, -0.05247208, -0.25618044, -0.121078, -0.11855582, -0.011694921, -0.071803294, -0.09997908, -0.069713585, 0.121384434, 0.12424003, 0.10675425, 0.116945595, -0.071709245, -0.11222098, 0.11418285, 0.12107214, 0.07664139, 0.18129559, 0.24846584, 0.08106811, 0.070209175, -0.12180809, 0.15155032, 0.14549837, 0.054377094, -0.036335263, 0.18415773, 0.16074868, -0.048157092, -0.17512149, -0.063319996, 0.16857342, -0.049231783, 0.01557817, -0.053128827, 0.0866057, -0.10465784, -0.28751034, 0.10458796, -0.018403789, -0.06621972, -0.028353633, 0.08208121, 0.066732585, 0.1277311, 0.0025926568, 0.015898716, -0.019051071, 0.047056887, 0.118791565, 0.25652352, 0.084607475, -0.2038937, 0.019649575, -0.15687633, 0.038569115, 0.03437438, 0.032910224, -0.06502087, 0.14994088, 0.22994368, 0.03917326, 0.08453816, -0.019851858, -0.12995648, -0.07300795, -0.059484914, -0.19563852, 0.115481, 0.086709455, 0.032334164, 0.17922534, 0.17370719, -0.102483764, -0.02660042, -0.0114556495, 0.045616798, -0.08722041, -0.049869686, -0.115718134, 0.034078952, 0.021534976, -0.11084556, -0.04176796, -0.027234942, 0.06828909, -0.2042532, 0.07175361, 0.10457144, -0.2087519, 0.039056305, 0.2233457, 0.08220988, 0.117002055, 0.022139389, 0.16413137, 0.17694327, 0.084450565, 0.028963927, -0.11376131, -0.0860341, 0.04032748, -0.18825741, -0.07295315, -0.08059962, -0.15023722, -0.40914604, 0.078312196, 0.033345133, -0.021686137, -0.077198625, 0.021101816, 0.14194298, -0.07424344, 0.07093035, -0.024620565, -0.02139766, -0.009896807, 0.14293979, 0.18414286, 0.013827198, 0.08782238, 0.07380938, 0.11241165, 0.19105871, 0.23924497, 0.18551646, 0.040777437, -0.03397816, 0.010192774, 0.10322314, 0.039702423, 0.15728287, 0.089076206, 0.10923423, -0.06268453, -0.08334029, 0.021323187, -0.115292095, -0.3548381, -0.09819556, -0.12800778, -0.22265388, 0.25869218, -0.21090376, -0.3095927, 0.09004921, 0.09738535, 0.2828173, 0.25572088, 0.16669503, 0.20465565, 0.32020283, 0.120675996, 0.13315956, -0.07801249, 0.101078495, 0.16734387, 0.0031900357, 0.04930455, -0.031675942, -0.05123721, 0.022559954, 0.044264644, 0.015579219, -0.008019994, -0.18987843, 0.15321268, 0.10444568, -0.009504358, 0.087660305, 0.120256156, 0.2780427, 0.06924173, -0.10944671, -0.13693863, 0.112497084, -0.054866973, -0.30604818, 0.09937761, -0.075337924, -0.3451734, -0.060663786, 0.11060701, -0.115387164, 0.020505952, -0.11152628, -0.030630684, 0.09177495, -0.019473346, 0.10167167, -0.14662574, -0.031992555, 0.051008236, 0.040070117, -0.03143558, 0.04830365, 0.018719895, 0.101785295, 0.092579916, -0.028884387, 0.0325102, 0.11710006, -0.10138238, 0.00800212, 0.033841442, -0.06822223, -0.05661901, 0.17110534, -0.18046398, -0.006981993, 0.012300523, -0.32258815, 0.046520542, 0.016860804, -0.26238686, -0.059684224, 0.0066145966, 0.05830945, 0.0254798, 0.056793682, 0.0022679435, -0.0430786, 0.033193253, -0.033794723, 0.06003059, 0.012104373, 0.15249671, 0.09985151, 0.16243516, 0.10974076, 0.02937768, 0.17209187, 0.23036584, 0.035753846, 0.141485, -0.1572624, -0.28419536, -0.059987716, -0.0378686, -0.20657277, -0.23221566, 0.08078101, -0.06251496, -0.36959574, 0.20925733, -0.06063537, -0.07301339, 0.099684715, 0.051260166, -0.06529271, 0.015231812, 0.12281201, 0.18775399, -0.23799971, -0.11981231, 0.03676496, -0.16425379, -0.032488424, 0.076160885, -0.004325022, 0.10464228, -0.101881795, -0.19492786, -0.31480938, 0.010621215, -0.14323202, -0.2714833, -0.025559664, -0.010268362, -0.082132384, 0.038617622, -0.009209104, 0.1451579, -0.20399417, -0.025241835, -0.009876663, -0.11436746, 0.021706928, -0.040654328, -0.035562254, 0.032362137, -0.33418906, 0.072547376, 0.082569815, -0.25118315, -0.09737313, 0.039131537, -0.18819854, -0.13990973, 0.04146247, 0.024184495, 0.08581474, 0.088183284, 0.0649861, 0.10651635, 0.018582912, 0.056907658, -0.030501647, -0.11242139, 0.09433654, 0.060830668, 0.0247855, -0.14493394, -0.140865, 0.39302418, 0.068837345, -0.19448768, 0.06786221, 0.090159185, 0.28968093, -0.047473937, 0.06999742, 0.13011599, -0.1295625, -0.26055685, -0.27476686, 0.08937053, -0.048349712, -0.22432548, 0.26585877, -0.020901697, -0.19710614, 0.18502119, -0.11287528, -0.19084617, 0.0119203925, 0.017930001, -0.07357274, 0.11790987, 0.017792651, 0.015032194, 0.18511958, 0.09198908, 0.06824809, -0.05740495, 0.024672998, -0.11983577, -0.00027341946, 0.031373527, 0.02192116, -0.11583985, -0.11939387, -0.093989514, 0.14844084, 0.089994945, 0.050975546, -0.06940026, 0.044604134, 0.16556697, -0.378876, -0.19670075, -0.09233448, 0.008248208, -0.036943503, -0.075338386, -0.08017069, 0.036449604, 0.044537555, 0.03870883, -0.068670616, 0.006749953, 0.07546859, 0.06642909, 0.16858453, 0.015745983, -0.19583157, -0.12784877, -0.0048735696, -0.13214253, -0.027481237, 0.13406673, 0.115921855, -0.04874097, 0.22536087, -0.20366754, -0.1229763, 0.2090706, -0.0775199, 0.07827173, 0.044302806, 0.11219922, -0.028308926, -0.06787214, -0.397336, -0.21468353, 0.05235955, 0.017232668, -0.20052533, 0.13387698, 0.04224954, 0.02702356, -0.041311607, 0.092821084, -0.16669065, -0.022111844, -0.10033163, -0.12608865, -0.17884782, -0.1270253, 0.029771117, 0.11157478, 0.02392978, 0.12675512, 0.04165897, 0.057997603, 0.11215402, -0.085214615, -0.017836802, 0.0009907207, 0.021999693, 0.030970734, -0.033808567, 0.0022790392, 0.040845774, -0.0037700308, 0.32583168, 0.0053144987, 0.060486328, 0.12854616, -0.12855904, -0.10425824, 0.03772054, -0.034743644, -0.24194756, 0.17522594, -0.0046514915, -0.16919726, 0.04255214, -0.025319144, -0.0073662037, -0.060708847, 0.10638731, 0.003341825, -0.017078744, -0.022616593, 0.026017902, -0.029052733, -0.052682333, 0.0866673, -0.008631782, 0.034781873, -0.0766202, 0.0771463, 0.1828732, -0.0918988, 0.051062983, -0.012875678, -0.16331312, 0.19654451, -0.066804856, -0.2965757, -0.011473082, -0.2543563, -0.13766046, -0.16255565, -0.47631735, -0.14008641, 0.025319684, -0.31090516, -0.7323059, 0.058832653, -0.05402352, -0.04916464, -0.076950304, 0.02265482, -0.006587591, -0.022077035, 0.031129682, 0.07317654, 0.06493199, -0.06346895, -0.017963938, -0.019716283, 0.05719835, -0.050069284, 0.008268652, 0.08509387, 0.0755523, 0.09145948, 0.22007619, 0.11040714, -0.029857296, 0.14731243, -0.0725367, -0.0011278389, -0.0845275, -0.20856993, -0.051426575, 0.003769946, 0.08059638, 0.14920467, 0.14466181, 0.10706764, 0.25790346, 0.19198655, 0.12792411, -0.02716434, 0.028224587, 0.09503059, 0.14710544, -0.21897216, -0.1609181, 0.41930327, -0.050260846, -0.25105, 0.029261261, -0.079318665, -0.22114445, 0.030474074, 0.0981491, 0.09008099, 0.22207822, -0.010191523, -0.096098065, 0.02935993, -0.038548302, -0.03261361, 0.04914244, 0.0037686634, -0.025537575, -0.038959235, 0.012965947, 0.058439985, 0.013192144, 0.052614722, -0.013539107, -0.10281973, 0.10336131, -0.04339619, 0.095494255, 0.04000004, -0.072020195, 0.1634262, -0.17319725, -0.1724023, 0.11759965, 0.08184948, -0.1421004, 0.009053291, 0.10511352, -0.05763705, -0.041455176, -0.07082602, -0.03862753, 0.30778396, -0.12429324, -0.003054499, 0.2612728, 0.14076468, 0.05582172, -0.06656722, 0.15751389, 0.05930524, 0.028280552, -0.13914639, -0.06272876, 0.005681128, -0.14998277, -0.054103892, 0.2210424, 0.005504725, 0.03366542, 0.24241962, 0.111760795, 0.10284903, 0.023153681, -0.074339546, -0.15475628, -0.07611085, 0.3019299, -0.19902216, 0.103443965, 0.14169262, 0.1642254, 0.47302285, 0.32144058, 0.2701365, 0.08638065, 0.21959315, 0.0911111, -0.051486902, -0.00037760643, -0.23134135, -0.02440735, -0.08101009, -0.1497427, 0.045403853, 0.04479911, -0.22148731, 0.16677752, -0.11049594, -0.17666431, 0.26176834, 0.17417236, -0.172798, -0.21028829, -0.30854157, -0.16584487, -0.11818441, -0.318986, -0.2822219, 0.29003224, -0.023742866, -0.16537994, -0.08018677, 0.07866604, 0.10443173, 0.03940547, 0.03957083, 0.16697323, -0.024293078, -0.024085244, -0.12918314, 0.24395306, 0.32441747, -0.020198531, 0.16893253, 0.07788668, 0.060340974, 0.12783524, -0.083805546, -0.066804215, 0.045993406, 0.24253462, 0.06974695, 0.12683393, 0.14193735, 0.076889366, 0.167348, -0.086722806, -0.041542027, 0.10127846, -0.093830965, 0.018306427, -0.074760206, -0.02910264, -0.11105539, -0.16359136, 0.04117331, 0.053324033, -0.12724954, 0.015787961, -0.09225294, 0.23330359, -0.064943306, 0.006632999, -0.0922631, -0.1819628, -0.0022816665, -0.16689721, -0.005456323, 0.012109838, -0.028635046, -0.31918648, -0.371994, 0.078791894, -0.079406254, -0.24638925, 0.10081854, 0.070270814, 0.0042032762, -0.0043680444, -0.104773425, -0.06301054, 0.24544254, 0.1764105, 0.014550723, -0.16055071, -0.14182945, 0.1397181, -0.17924833, 0.065950595, 0.12626536, -0.18888763, -0.11218072, 0.089633666, -0.04833431, -0.091879964, -0.11661562, 0.032747887, -0.11128677, -0.23214556, -0.04469743, -0.091988325, 0.118697606, 0.09030753, -0.0028801844, -0.13132398, 0.09065709, -0.050696626, -0.17348377, 0.20208135, -0.053394876, -0.16783066, 0.173234, -0.23127712, 0.13951114, 0.15441103, -0.17774807, -0.29467994, 0.041404936, -0.042395685, -0.5985744, 0.22612569, 0.15746386, 0.17610787, 0.038129255, -0.02473933, 0.08044259, -0.0018466366, -0.023610229, -0.29553568, -0.08365803, -0.16695498, 0.029506644, -0.17479017, -0.28531402, 0.0002038599, 0.04190926, -0.23911642, -0.32751644, 0.11712906, -0.07577784, -0.028147025, 0.08997351, -0.21444057, -0.254012, -0.1567171, -0.48585787, -0.7536953, 0.13368256, 0.09575572, -0.054194003, 0.15454376, 0.06981464, 0.02521537, 0.15048653, -0.0051451353, 0.03241054, -0.039105088, 0.16185786, 0.12527873, -0.082183786, 0.059989333, 0.17341435, -0.1534819, 0.051988307, 0.06308485, 0.11927034, -0.07953732, -0.0744685, 0.21027797, 0.12704237, 0.16486722, 0.030939931, -0.07052164, -0.009577512, -0.018201655, 0.032042887, -0.16839111, 0.066787474, 0.10448274, 0.096433215, 0.25081775, 0.008115996, -0.093982846, -0.059153896, 0.1299436, 0.19063595, 0.074687295, 0.13600408, 0.11867692, 0.069595, 0.020367896, -0.016867833, 0.2530902, 0.12975252, -0.051025704, 0.021403931, 0.0076025757, -0.15238656, 0.024183387, -0.19376984, -0.20709516, -0.4744566, -0.37496585, -0.23567611, -0.1788526, -0.2989121, -0.22811031, -0.19637425, -0.19285488, -0.04047064, 0.057095405, -0.06627955, 0.050397467, -0.05292741, -0.082161814, -0.007391433, 0.045280214, -0.0036496508, -0.06192048, -0.13122232, -0.06026573, -0.1315981, 0.22560547, 0.16632912, 0.004351109, 0.15511537, 0.07028503, 0.1232904, 0.029787116, 0.041687693, -0.082141936, 0.2709396, -0.04934905, -0.12801707, 0.09190106, -0.21238945, -0.4018668, 0.03020587, 0.18360996, 0.18735746, -0.09100945, 0.021655828, 0.018963046, -0.12797949, 0.05276706, 0.031814188, 0.12602374, 0.084114105, -0.3695556, 0.2182245, 0.18897983, 0.031922497, -0.15163161, 0.023283798, -0.059375037, 0.06429614, 0.15490493, 0.28149733, -0.23240244, 0.0873354, 0.2674166, -0.19576195, -0.056308247, 0.20455214, 0.008125274, -0.017013459, -0.32804844, 0.2253812, -0.027072372, -0.23499997, 0.08803956, -0.02102625, -0.13392514, -0.27008116, -0.21379475, -0.13558903, 0.04219561, -0.19075677, 0.04241771, -0.012333074, 0.04387559, -0.17466448, 0.040293124, 0.10617709, -0.061543893, -0.0011741893, -0.00740786, 0.07261937, 0.011313443, 0.093634926, -0.008757349, 0.26813343, 0.08378673, -0.1555968, 0.19058742, 0.24103826, -0.020105332, 0.21172775, 0.2314285, -0.11119842, 0.18624732, 0.016996207, -0.11668052, 0.28460696, 0.22961268, -0.09918873, 0.11440101, 0.004963509, -0.35378236, -0.035189804, 0.0867464, 0.06294492, -0.15589097, 0.00585059, 0.0068027666, -0.16853093, -0.15076827, -0.039395317, 0.024549672, 0.032896083, -0.006136784, -0.013005219, -0.034526024, 0.044294786, -0.04502991, 0.056062847, 0.05101793, -0.04735021, -0.37485036, -0.37744355, 0.07139505, 0.07926912, -0.3177348, 0.07323382, 0.20935369, 0.006523811, 0.17534983, 0.115649484, 0.21427155, 0.07908655, 0.072312176, 0.22751237, -0.041941784, -0.03946261, 0.0066893254, -0.020838756, -0.013009436, 0.0059391716, 0.0059366184, -0.010618152, 0.037453566, -0.045683976, -0.036915004, 0.03569904, -0.13233641, -0.25010416, -0.18453726, 0.030315727, -0.016289975, -0.16220373, 0.10084953, -0.07642627, -0.011762303, -0.22754908, 0.15393715, -0.13340396, -0.30013418, 0.14974868, 0.27245602, -0.026882604, 0.002185048, 0.12573098, -0.16966653, 0.040203918, 0.016914537, -0.13682476, -0.47442797, 0.067071, -0.39053535, -0.32309633, -0.16050497, 0.09136692, 0.032415893, -0.06323264, -0.16386725, 0.102783844, 0.21218272, -0.1979208, -0.09778253, -0.09585941, 0.032944698, -0.016557982, -0.067089975, 0.16970909, -0.11722361, -0.074279115, 0.12773068, -0.14412136, -0.15185167, -0.04432867, -0.029513208, 0.009086847, -0.018424485, 0.08152219, 0.11732437, 0.073662646, -0.0058488874, 0.052712582, -0.057560574, -0.06683345, 0.19648431, -0.10629564, -0.04855043, -0.08610566, -0.09332539, 0.089605436, 0.054817095, 0.10868834, -0.1612384, -0.13793506, 0.1019068, 0.097194724, 0.07001848, -0.11767691, -0.050191965, -0.07664523, -0.09910747, -0.038329292, -0.07834498, 2.1458145e-05, 0.0052519655, -0.041314457, -0.029406317, -0.071667016, -0.046337903, 0.22696464, -0.0067281886, 0.034092974, 0.04812791, 0.08906715, 0.100138985, 0.1829393, -0.09204172, -0.36798003, -0.40933865, -0.1656466, -0.054304592, -0.13018548, -0.102865286, -0.005261838, 0.08806844, 0.015434678, -0.23301554, 0.021381175, -0.012685192, -0.015370297, -0.058222063, -0.07493311, 0.063372724, -0.011116857, 0.065045744, 0.036986183, 0.05628277, -0.023860343, -0.12106298, 0.228015, 0.12803297, -0.0013328332, 0.090485476, 0.101227865, 0.15601881, 0.03386608, -0.033406492, -0.14885142, 0.030103508, 0.010441201, -0.08184864, 0.22219737, 0.06499509, 0.014804305, 0.08195095, -0.15193553, -0.26006112, 0.17370117, -0.05534274, -0.21408142, 0.17959026, -0.10026022, -0.025114996, -0.16172421, -0.073339656, -0.3294199, 0.045375157, -0.1229503, -0.35584664, 0.22986172, 0.08861175, 0.07307601, 0.18739824, -0.09580846, -0.005254671, 0.18791257, -0.014845206, 0.0006332847, -0.1287248, -0.2780783, -0.33574212, -0.05251847, 0.00012219421, 0.011406939, -0.022973072, -0.020764232, 0.044471823, 0.07230492, 0.013681067, 0.03447104, 0.023266923, -0.11838293, -0.44926125, -0.032698594, -0.03961787, 0.12510805, 0.2417747, 0.12197839, -0.04841219, -0.072619654, -0.14070617, -0.588638, -0.10504742, -0.14545889, -0.112886205, -0.15359566, -0.122485586, 0.13686639, 0.20043582, 0.10913396, 0.026948135, 0.31757084, 0.10746495, 0.09628384, 0.29460034, 0.070761, -0.05471174, -0.12675242, -0.06533869, -0.30589852, 0.0771484, 0.024622079, -0.10381931, -0.121708415, -0.16499704, -0.067762755, 0.20006663, 0.10075803, -0.0350099, 0.08761412, 0.09413028, 0.0066031385, 0.07333989, 0.06540248, -0.16997005, 0.20810574, -0.10189656, 0.30174905, -0.1112285, -0.016196601, 0.18513109, -0.06663102, -0.058526844, -0.054092817, 0.04227874, -0.069945276, -0.07579844, 0.100783266, 0.047982864, -0.13121684, 0.033408735, -0.058836646, -0.025192223, 0.1220847, 0.2394096, 0.14959031, 0.22248498, 0.1631284, 0.04371647, 0.22589466, -0.056796096, -0.15530275, 0.11509144, 0.09180663, 0.05470123, 0.21427278, -0.022593508, 0.030151099, 0.25181168, -0.08041197, 0.08725682, -0.2802411, -0.21215867, -0.20158385, -0.10182801, 0.1632903, 0.07017763, 0.04976423, 0.08794096, -0.042232335, 0.1417973, -0.043354806, -0.07465744, 0.050863452, -0.0121077495, -0.027741503, -0.05140206, -0.045812763, -0.15131272, -0.041644458, -0.1960968, 0.11832448, 0.071981385, -0.08966417, -0.0062570423, 0.34367356, 0.17989282, 0.33286452, -0.11772957, -0.08367257, -0.27415857, -0.027876664, -0.03608627, -0.061248902, 0.13575962, -0.06525288, 0.02945876, -0.03762387, 0.053044, -0.029478803, 0.0017071848, 0.07948077, 0.05576021, 0.06419966, -0.17993511, -0.15797387, -0.19902311, -0.014595374, -0.005953046, 0.01871818, -0.1200373, -0.17964314, 0.26881436, -0.047922403, -0.038115434, -0.0056543644, 0.04889332, 0.0739254, -0.07370153, -0.014983379, -0.0047561894, 0.14285062, 0.00021462535, 0.07539469, 0.054287188, -0.045845166, 0.16781661, -0.29716212, -0.17081074, 0.17000274, -0.47818598, -0.24295141, -0.24667405, 0.23193665, -0.084613495, -0.108572476, 0.06413092, -0.2143388, -0.16999876, 0.016975077, -0.1539915, -0.33984327, -0.111258596, -0.14059441, -0.05331586, 0.06252586, 0.13114087, 0.05315965, 0.22896461, 0.06879569, 0.0075567607, -0.45178613, -0.3676472, -0.1418573, -0.13903113, -0.27571774, -0.09180418, -0.048530415, -0.20169683, -0.3022264, -0.4106426, -0.35794786, -0.635863, -0.14044093, -0.19091754, -0.46824548, 0.22930299, 0.07582102, -0.15382843, -0.029481566, 0.043827817, -0.161863, 0.1043552, -0.19321883, -0.041918788, 0.15410188, -0.010771275, -0.14247984, -0.17892598, -0.1800197, -0.2621731, -0.089676924, -0.16398977, -0.20584686, -0.075201884, -0.10488571, -0.12504083, 0.1250626, 0.13132292, 0.022526126, 0.12865736, 0.20829923, 0.12770976, 0.13442077, 0.120772175, 0.10605429, -0.16213626, -0.14094566, -0.12335769, -0.12368794, -0.08473105, 0.09749116, 0.102365114, 0.012025684, -0.032370105, 0.024010185, 0.18560888, -0.0487109, 0.0503628, 0.038707647, 0.24767266, 0.016730225, 0.14526199, 0.29159057, 0.07489076, 0.08794089, 0.08759643, -0.012747711, -0.001506372, 0.013307173, -0.28777996, -0.046279088, -0.05945472, 0.1755718, 0.017183704, -0.03137452, 0.12328762, -0.1273248, -0.032531664, 0.1699337, -0.054658163, 0.0014676151, 0.06615751, 0.09057242, 0.17104918, -0.02729139, -0.041575104, -0.06811491, 0.059721496, 0.09707493, 0.10598879, 0.05779665, 0.13143294, -0.042489436, -0.20978832, -0.13893376, -0.081975944, -0.11227986, 0.015834963, 0.21483554, 0.02514927, -0.0387918, 0.058085807, -0.032182388, 0.04011634, 0.0015243025, 0.044235002, -0.027285505, 0.009682588, 0.05281602, -0.03774968, -0.07576981, 0.025681224, -0.09793609, -0.009386952, -0.0951514, 0.007922265, -0.2778267, 0.05351244, -0.15194629, -0.16118632, 0.06475059, -0.2443507, 0.032185428, -0.25892138, -0.11578498, 0.10720365, 0.03789306, 0.10974296, 0.019270405, -0.118584864, 0.10960764, 0.071845956, -0.09635066, 0.08810112, 0.006788142, -0.06333385, -0.04478504, 0.111321904, 0.0018769068, 0.058828454, 0.103764065, -0.3785255, -0.17480369, 0.007334612, 0.003332325, 0.050080895, -0.06301596, -0.0066881296, 0.012340938, -0.14794719, -0.022142826, 0.12786601, -0.1680476, 0.011935446, 0.12598985, 0.010760409, 0.01466768, 0.074011765, -0.12348142, -0.18009593, -0.070633635, 0.030296601, 0.1733922, 0.23004733, 0.08956389, -0.00032930129, 0.08917517, -0.01473555, -0.18651634, -0.13992496, 0.049512792, 0.0008893895, 0.08434216, 0.03668881, 0.012139499, -0.01251583, -0.0102630835, 0.08746151, 0.05441117, -0.013230095, 0.23035422, -0.04050249, 0.043489933, -0.052929062, -0.23204261, 0.08533531, -0.49242154, -0.48649767, -0.2740649, -0.14944118, 0.16603136, 0.026173146, -0.19729686, -0.08393544, 0.09296126, -0.14116523, -0.24672662, -0.19696687, 0.24419391, -0.011734862, -0.03352191, 0.12027768, 0.00091922196, 0.13713229, -0.07254988, 0.22294377, -0.063367754, 0.014475089, -0.086002976, -0.057519775, -0.025252245, -0.0074723694, 0.06488132, 0.09873132, -0.03457128, 0.087599665, -0.16824645, -0.1605517, -0.102393836, -0.3089147, -0.07356304, -0.042759612, -0.13954048, 0.011932008, -0.0096706385, 0.2955815, 0.21474165, 0.11046058, 0.105917886, 0.08712832, -0.022933248, -0.067146, 0.004455421, -0.074608825, -0.025069322, 0.06711337, -0.030985665, 0.059673123, 0.04124643, -0.042218648, -0.033760652, 0.033857692, -0.052630562, -0.02191482, -0.117044546, 0.058144327, 0.19680986, 0.12195373, 0.06359629, 0.16351622, 0.18683568, -0.029129146, -0.15391292, -0.039034005, 0.08460096, -0.22882143, -0.13480622, -0.26080856, -0.11872557, -0.24199362, -0.16745858, -0.1352021, -0.006717787, 0.0021222834, 0.04470817, -0.09645437, -0.07955505, 0.0010540413, -0.14214864, -0.019460335, 0.09493267, 0.11111682, 0.13195305, -0.00058306317, 0.001747036, -0.060563277, -0.1686036, 0.0438032, 0.031380367, 0.17496215, 0.07025538, 0.01698375, 0.01939036, -0.060145903, 0.063667335, -0.0996815, -0.16821462, -0.020887664, 0.0706259, 0.1408427, 0.052206032, 0.10836381, 0.112068355, 0.015654577, -0.013980159, 0.08347804, 0.06717368, 0.022454768, -0.08901953, -0.015496517, -0.13011664, 0.10736888, -0.032845438, -0.04273272, -0.15934342, 0.13553113, 0.090303846, -0.025837189, -0.10101675, -0.30776265, -0.2265969, -0.10469093, -0.38855687, -0.0077961716, 0.03801329, 0.096137285, -0.026208673, 0.10519751, 0.038311016, 0.051446542, -0.044498764, -0.01221774, -0.07627799, -0.08290974, -0.06946161, -0.16225146, 0.14392284, 0.21347561, -0.13997206, 0.16118175, 0.07842915, -0.018932639, 0.016244646, 0.03796439, 0.07203611, 0.0842297, 0.11977939, 0.041723046, 0.050637536, 0.0851353, -0.067158915, 0.019195236, 0.044206128, 0.015738128, -0.07145302, 0.021307379, 0.054215986, -0.05458966, -0.0625115, 0.045586385, 0.03295944, -0.06807036, -0.056704666, -0.06650295, 0.10550353, 0.34628287, -0.04329971, -0.12718613, 0.18066466, 0.060256444, -0.22858173, -0.22479352, 0.035559107, -0.2905007, -0.15934971, -0.08389773, -0.3278453, -0.08873685, -0.07059689, 0.03503234, 0.20022921, 0.15175165, 0.040091787, 0.13816322, 0.026662441, -0.1584015, -0.06617887, -0.1510697, 0.15572229, 0.08830488, 0.005839528, 0.12624103, 0.19324517, 0.043352187, -0.09520318, 0.04156343, 0.007900761, -0.04521716, -0.051966105, -0.11252202, 0.115090676, -0.0025881606, 0.04877969, -0.16143245, 0.11437264, -0.023685025, -0.04524568, 0.036298662, -0.0018083188, -0.055187188, -0.035204433, 0.026185654, -0.04404521, 0.023022698, 0.012446279, -0.33024788, -0.2706589, -0.19777323, 0.002704676, -0.10333202, -0.1874194, -0.030755388, -0.07539562, -0.038989283, -0.037097942, -0.007864577, 0.053682644, 0.056904666, -0.049175035, -0.0670643, -0.22180055, -0.18810904, -0.25324094, 0.08768194, -0.32926726, 0.08552236, 0.15387136, -0.021031361, 0.009594912, -0.14494681, -0.083284765, -0.13704184, 0.05590377, -0.09783155, 0.1532254, 0.14199433, -0.010407071, -0.13441694, 0.21653667, -0.059654083, -0.09261799, -0.049154233, -0.08801627, -0.35687673, -0.13201429, 0.02709354, -0.0032107537, -0.29142755, -0.040298965, -0.14280614, 0.27728975, 0.050780173, 0.06995925, 0.094468355, -0.04674634, 0.23509157, -0.020557774, -0.2009154, -0.09906904, -0.27314886, -0.029500898, -0.102522954, -0.00040076848, 0.012756467, -0.19084924, -0.10472869, -0.0018433924, -0.27132234, 0.14528777, 0.04894347, 0.15358955, 0.056137715, -0.052967932, 0.17253174, -0.16644749, -0.2619937, -0.08006355, -0.0668149, 0.076595664, -0.019769043, 0.16767704, 0.08561133, 0.16271056, -0.12989473, -0.12984012, -0.08449501, -0.093761265, -0.048905674, 0.034528412, -0.07673632, -0.06764362, -0.114027835, -0.2136028, 0.07622495, 0.09673595, -0.24610242, -0.114534624, -0.039586686, -0.100571185, -0.18589158, 0.06895238, -0.23070541, 0.037996244, 0.052279014, -0.085017346, -0.09221209, 0.12623376, -0.024300713, -0.042575166, -0.12137647, -0.12021173, -0.10939744, -0.07295327, -0.051942375, -0.14958511, -0.26967606, -0.02174567, -0.11439637, -0.26373258, 0.08553218, 0.3678996, 0.27181354, 0.22869477, -0.16077259, -0.13914716, -0.005267242, -0.019821323, -0.1882426, -0.023710605, 0.1132218, 0.19146574, 0.11017672, 0.0121694645, -0.0056010326, 0.12703297, 0.016307512, 0.17086151, 0.19468226, 0.03423716, 0.30665073, -0.14053531, -0.08070398, 0.036278244, 0.073423736, 0.16982947, 0.07518394, -0.0721275, -0.036806446, -0.09001268, -0.031747017, -0.036708985, -0.18208365, -0.06777304, 9.791661e-05, -0.110772304, -0.05313624, 0.2341364, 0.0073469197, 0.0109143965, 0.10274075, 0.15611415, 0.20846862, 0.12615854, -0.02961957, -0.33402905, -0.12654947, 0.03642997, 0.010963227, -0.06883333, 0.05605821, -0.12538508, 0.102651246, -0.009000648, -0.093069166, -0.07466573, -0.112470515, 0.068090126, 0.06292006, 0.053365797, 0.11658738, 0.09115267, -0.07882382, -0.13461122, -0.17179388, -0.099772684, -0.1716756, -0.22304198, -0.035340887, -0.13997114, 0.069202945, -0.054172482, -0.08610949, 0.00813972, -0.0612463, 0.24127205, -0.03292963, 0.15557271, 0.14046443, 0.0014020127, 0.03732758, 0.020920213, -0.105159186, -0.10276004, -0.06061522, 0.20211485, 0.21097353, -0.05988488, -0.07467333, 0.028895533, -0.23955521, -0.11208281, 0.18319322, -0.025060605, 0.024598215, -0.052550532, -0.06885244, -0.09569646, -0.1003336, -0.0634678, -0.09606317, -0.019578898, -0.031543437, 0.025378365, -0.05960379, 0.036592755, 0.019601453, 0.013743484, -0.06331156, -0.0043670204, 0.024788894, -0.013071733, -0.13140452, -0.08280434, 0.077734485, -0.07615428, -0.030461479, -0.055007637, 0.051103782, -0.032630984, -0.0700411, -0.05520062, -0.12591128, -0.061915167, 0.0019804558, -0.03802318, -0.037442375, 0.028501919, -0.07366694, -0.05436547, 0.0005319144, -0.04913848, -0.038734425, -0.07050279, -0.0283088, 0.051325288, -0.06527816, -0.06223825, 0.045405157, 0.023140302, -0.1007295, -0.09199583, 0.042985726, -0.024100995, -0.027896537, 0.05341359, -0.032058977, -0.002022559, -0.029863816, 0.036227733, -0.0890297, -0.01699035, -0.08968998, 0.030819744, -0.052962877, -0.09344612, 0.054468054, 0.06262678, -0.042321455, 0.023065118, 0.03599307, -0.06523533, -0.024065685, -0.04699859, -0.034619097, -0.023988144, -0.078993276, -0.05524602, -0.076775625, -0.09735372, -0.08399656, 0.057581536, 0.02059124, -0.039106518, -0.028890736, -0.03086978, 0.037294336, 0.019575723, 0.038924024, 0.015570423, 0.03653126, 0.008404193, 0.0970964, -0.018782247, -0.03955709, -0.028897075, -0.0067379395, -0.08038314, -0.009842927, -0.10020882, -0.05978457, 0.04117983, 0.047665957, 0.03702071, -0.013771964, 0.012134309, -0.052731223, -0.0048166355, 0.02424477, -0.07598079, -0.00937787, -0.028092552, -0.07142189, -0.012608471, 0.061318405, 0.049316153, 0.06940891, -0.01260745, -0.018580392, 0.017055698, 0.02246924, -0.0042700274, -0.00089977373, 0.0074280724, -0.078351706, -0.012808975, 0.104622744, -0.056161582, -0.10099005, -0.052790366, -0.094781674, -0.021322643, 0.0323128, 0.08527264, -0.027480599, -0.038739007, 0.004253245, -0.043603245, -0.062069282, -0.034400214, 0.03236965, 0.010104158, -0.019629953, 0.022690153, 0.04429139, 0.060273837, -0.018416716, 0.008181819, -0.07543422, 0.008823385, 0.016825132, 0.011644914, -0.037717275, -0.08956567, -0.036416717, -0.030605266, 0.012545936, -0.08589006, -0.010173785, -0.028893823, 0.01147576, -0.06357745, 0.01004558, -0.05094247, -0.10397728, 0.08359929, 0.07415339, -0.0034008946, -0.07558705, -0.0041916645, 0.03892356, -0.089292854, -0.05545587, -0.044874616, 0.050177976, -0.033199914, -0.04730674, -0.022239598, -0.062262937, -0.0020622094, -0.015569358, 0.06181718, 0.028018434, 0.05508005, -0.00013594663, 0.007759806, 0.012642403, -0.05977277, -0.10951345, -0.07613061, -0.10283611, -0.01790341, -0.094836876, -0.09386669, 0.03215747, -0.0052998518, -0.009258594, 0.036410525, 0.010682524, 0.02519548, -0.033690244, 0.024659768, -0.060593292, 0.070313305, 0.05825095, 0.066717714, -0.058760952, 0.069643095, -0.03557498, -0.020128883, -0.12734154, -0.015602395, -0.039181013, -0.105958335, -0.024364391, -0.103013456, -0.015672466, 0.03164384, -0.045476, -0.0499031, 0.0018489207, -0.076388285, -0.03980399, -0.04142822, -0.0008681164, -0.06959882, 0.011611062, -0.013909743, 0.057479855, -0.028959002, 0.08762685, 0.027846234, -0.087572955, -0.014162856, -0.0018782109, -0.009336458, -0.008822193, -0.07482273, -0.0021946228, -0.048626523, 0.014946019, -0.08055594, -0.06109339, -0.007996098, -0.08591875, -0.0018360853, -0.06604757, -0.013501877, 0.037798747, 0.033439912, -0.046599846, -0.0077230623, -0.02795916, -0.064165495, -0.007989629, 0.0041511348, 0.007266015, -0.024334406, 0.013327196, 0.057619315, 0.0034461766, -0.009841125, -0.071880914, -0.036158863, 0.024172327, -0.013763991, -0.10415833, 0.035773396, 5.1983097e-05, -0.04298931, 0.014500782, -0.039332792, 0.02493007, -0.13063696, -0.08417371, -0.11593391, 0.0066021853, -0.02258334, -0.06814722, -0.023102317, -0.0153662395, -0.034129564, 0.05824688, 0.008038387, 0.039179027, 0.04392363, 0.05088929, 0.005545169, 0.032991976, 0.056360215, 0.052239135, -0.018968413, 0.06135299, 0.06032706, -0.046493106, -0.088156916, 0.025862228, -0.012659808, -0.14434242, -0.008559808, -0.04842942, 0.014608841, -0.026345411, -0.008955698, -0.07970561, -0.107701845, 0.024217403, -0.009392252, -0.060861297, -0.04269366, 0.009381701, -0.033156447, 0.020244287, 0.041324988, 0.015975272, 0.034202795, 0.0015885967, 0.06377764, -0.07546083, 0.03606534, 0.004991013, 0.011945573, -0.07033706, -0.05961949, -0.08473163, 0.0076755006, -0.07517891, -0.028851135, -0.04174472, -0.10965037, -0.10191549, -0.025156694, -0.045482192, -0.03295301, 0.04174512, -0.08452486, 0.016189815, 0.044728115, 0.061623335, -0.040152732, -0.03870837, 0.03598927, -0.064929, -0.093319796, -0.052395508, -0.0924916, 0.014457401, -0.092271276, -0.03822114, -0.058387537, -0.021265058, 0.043899845, -0.07116144, -0.10770465, -0.020819772, 0.049363863, 0.035477847, 0.01047347, -0.013564043, 0.001844273, 0.005764524, -0.046703666, 0.03552451, -0.04751439, -0.08542706, -0.07979801, -0.043053888, -0.07240261, 0.03505075, -0.005163925, 0.045949917, -0.008908133, -0.07229866, -0.114737585, -0.011214501, -0.08186148, -0.116074674, -0.0033149042, 0.03174817, 0.0049569146, -0.012010861, 0.03129415, -0.008602555, -0.004399913, 0.0143672945, -0.085984215, -0.061115474, 0.022887524, -0.07667198, 0.043638255, -0.059794575, 0.019288184, -0.040464308, -0.08121899, -0.0049258205, 0.030722879, -0.0476203, 0.0749275, 0.051391922, -0.07138508, -0.0348623, -0.06857387, -0.0704126, -0.053983144, -0.07142712, -0.03177734, -0.010937917, -0.1113344, -0.061545752, -0.030433264, -0.004730225, -0.028231958, 0.01746964, 0.01340729, 0.066685274, -0.028720021, -0.08265483, -0.07131071, 0.010783101, -0.03482768, -0.037369918, 0.037411924, -0.049502734, -0.047121536, -0.105494685, -0.07411707, 0.02759982, -0.021604655, -0.08684568, -0.086529166, -0.023169598, 0.04213566, -0.13786027, -0.02597443, -6.514411e-05, 0.009456253, -0.08402956, 0.017229347, -0.09494369, -0.0022416033, -0.15287445, -0.02175474, 0.007856849, -0.075937, 0.076809295, 0.051101778, -0.08574099, -0.024043746, -0.030627001, -0.036257036, 0.022111235, -0.07071057, -0.044715147, 0.055420417, -0.046900455, -0.0693541, 0.010510235, -0.11614204, 0.0007562286, 0.04834196, -0.028953334, -0.06984404, 0.03137394, 0.072017156, 0.015121451, -0.01311699, 0.00047514748, -0.058290754, -0.059636068, -0.03105427, -0.07029335, -0.010454013, -0.095297895, -0.03620442, -0.0959187, -0.056123503, -0.04368762, -0.08143992, 0.011851752, -0.11078139, -0.014105058, -0.1004001, -0.08089076, -0.09797272, -0.03844646, -0.018531403, -0.11355727, -0.003641849, 0.0066933725, 0.049247302, -0.062495086, -0.044177424, -0.095822126, -0.008159801, 0.043861903, -0.047200248, 0.017381126, -0.040235016, 0.0024676246, 0.017766358, -0.083517395, -0.058114905, 0.00661743, -0.0050871195, 0.069059804, -0.09217343, -0.046372995, 0.04483953, -0.08796383, -0.012774414, -0.027399259, -0.05343859, 0.012339707, -0.008286829, -0.02328781, 0.011093189, -0.005564776, -0.038238224, -0.03561318, -0.04835636, -0.057994094, 0.069027476, 0.034580648, -0.091806486, 0.02627962, -0.118732505, -0.002798587, -0.02254061, -0.10186289, 0.051824104, -0.01365567, 0.003257564, -0.0613842, -0.031259064, 0.0057840007, -0.064547695, 0.026958715, -0.081577174, -0.11027854, -0.03901585, -0.07665539, -0.022347864, -0.06062866, -0.10396012, -0.06856087, -0.014475608, -0.101359986, 0.015283229, -0.08643323, -0.04390775, -0.08479184, -0.09437809, -0.07539112, 0.021859694, -0.02190274, -0.0982882, -0.116805926, -0.120894924, -0.1351689, -0.028835025, -0.13746135, -0.105621204, -0.07568053, -0.04047248, 0.047230467, -0.06924852, -0.080694735, 0.03117665, 0.06327758, -0.020275002, 0.072096705, -0.03100091, -0.07624608, -0.05651293, -0.06462453, -0.027129557, 0.018042326, -0.052458398, -0.0123938285, 0.16744688, 0.117577605, -0.041445896, 0.051808417, 0.10663508, 0.062832996, -0.14320539, -0.10787447, -0.026265252, 0.24712057, 0.22034617, -0.052289337, -0.1483178, -0.20372184, 0.051574472, -0.37226462, -0.20419033, -0.15853946, -0.1272187, 0.010479479, -0.16240112, -0.06267205, 0.015528733, -0.016623883, 0.008540108, -0.09338895, -0.15120907, -0.035851832, 0.21846484, 0.032616403, 0.07404079, -0.00226516, -0.07930898, 0.20042083, -0.21954145, -0.1168618, 0.060173713, -0.08508484, -0.18692255, 0.23292543, 0.15118954, -0.116035044, 0.07743215, -0.0031676886, -0.1888817, 0.33070526, 0.13155037, 0.10904392, 0.065535575, 0.04600553, 0.024925891, 0.07981477, 0.189864, 0.017014375, 0.0782461, 0.03467882, 0.0049428274, -0.087519296, 0.11415682, 0.11967029, 0.18087679, -0.039003372, -0.26951632, 0.0022932254, -0.002990105, -0.06759841, 0.01194101, -0.013521923, 0.012439344, 0.034193125, -0.008041142, -0.047413185, 0.12112564, 0.13481213, -0.17219502, 0.14280312, -0.0013937888, -0.12587933, 0.14193794, -0.24372306, -0.27786562, -0.090445355, 0.05247906, 0.109705746, -0.08530636, 0.025746742, 0.0638067, -0.02685199, 0.027050003, 0.17124285, -0.023471035, -0.021044914, 0.23146956, -0.081563644, 0.04943541, -0.10148441, -0.00860161, 0.07050785, -0.002855486, -0.1558081, -0.012085591, -0.26701182, 0.051227342, 0.158831, 0.058973283, 0.024477763, -0.025003621, 0.053359367, 0.033812925, 0.18647099, -0.01080797, 0.17185768, 0.050119415, -0.058625717, 0.12930174, -0.017190734, -0.19694814, -0.02735833, 0.06965868, -0.2749764, 0.08787725, -0.26491362, -0.017617596, -0.08269476, 0.036213797, -0.08553691, -0.12668976, -0.2033987, -0.17404355, -0.16871493, -0.037625846, 0.11888175, 0.18579139, -0.05102376, 0.13055338, -0.09970968, -0.11823295, -0.070392, -0.011208836, -0.013823783, 0.0036025508, 0.02448193, -0.06486127, -0.058906436, 0.056349948, 0.020177895, -0.25622943, -0.10815351, 0.043328166, 0.08380467, -0.24999367, -0.045810193, 0.1921918, -0.10501996, 0.096660495, 0.20442513, -0.23545586, 0.097175844, 0.17119922, -0.18641454, -0.020713123, -0.025767608, -0.06569194, 0.07165012, -0.13481711, 0.038386066, -0.01750151, -0.15380257, 0.26386282, 0.2387705, -0.13017292, -0.017004983, 0.019161562, 0.019135524, 0.09051568, 0.04885092, -0.05026019, 0.04143199, 0.03832627, 0.05188108, -0.03427681, -0.051164024, -0.13236484, 0.09726418, -0.05050989, -0.19513918, 0.00052211987, 0.017187983, -0.07101286, 0.23474286, 0.08743374, 0.1184812, 0.18838784, 0.0044367765, -0.1847921, -0.041026216, 0.04983054, -0.13783197, 0.0055619143, 0.015609703, -0.008160175, 0.008579653, -0.025081633, 0.08001094, 0.059741665, -0.03310158, -0.0019562442, 0.079287365, 0.056587964, -0.050848573, 0.07634318, -0.094902605, -0.22331168, -0.015440072, -0.21094221, -0.17614529, -0.48910996, -0.010748546, -0.13413504, 0.020877015, 0.07300113, -0.076373935, -0.006614781, -0.15102816, -0.0043163206, -0.08201359, -0.05124607, 0.08695313, -0.10699689, 0.008343679, 0.35878167, -0.01215001, 0.11723033, 0.24064107, -0.119223155, 0.04109371, -0.045700092, -0.19857438, -0.22596261, -0.15569794, 0.11908644, -0.056537606, -0.20925471, 0.21970688, 0.06567374, 0.09913951, -0.04734603, -0.1251529, -0.009397384, -0.020160092, -0.09489579, -0.075373515, 0.079935245, 0.022647964, -0.0040725404, 0.036322497, 0.050800048, -0.05498693, 0.064912006, -0.007852618, 0.005788585, -0.17292932, -0.05293768, 0.4331964, -0.12764798, -0.18440048, 0.06729382, -0.21498212, 0.108574085, 0.06500026, -0.039981138, 0.046876483, 0.13053916, -0.03293773, 0.19485049, 0.14322317, -0.19588512, 0.10621701, 0.25821134, 0.027193785, 0.06275743, -0.06666309, 0.033486027, -0.003688794, 0.022558719, 0.09661583, -0.0014987399, -0.06998548, 0.0015591049, 0.07654565, -0.13465182, -0.04006107, -0.0116502475, -0.21718419, 0.017105564, -0.25345355, -0.30861384, 0.18210724, 0.038732234, 0.13656242, -0.10786629, 0.022315364, 0.1230162, -0.0037188255, -0.12035903, 0.12682316, 0.020021006, -0.008772618, 0.007787755, 0.023744829, -0.034257032, -0.0186209, 0.033360265, 0.0078525925, -0.061240666, -0.15442789, -0.07959531, 0.07053069, -0.15239492, 0.038454175, -0.1793737, 0.1066185, 0.17405549, 0.012133309, -0.03656736, -0.006811005, 0.010127068, 0.08998683, 0.10125883, 0.016547205, -0.07394212, 0.06408571, -0.009035444, 0.057948027, -0.06189909, -0.14455445, 0.055971097, -0.04132549, -0.15479323, 0.38135755, -0.021379905, -0.2662354, -0.0076333843, -0.12127968, -0.28753018, -0.026986087, -0.009565779, 0.10343179, 0.20812622, 0.13107298, 0.25565523, 0.13941182, 0.029269475, -0.005937798, 0.059309706, 0.121657126, 0.083318554, -0.11236418, 0.1341648, -0.08301589, -0.030865347, -0.01337163, 0.02341991, -0.069037005, 0.036185745, 0.017091481, 0.0478394, 0.04822962, -0.035296753, -0.043271437, 0.25215426, 0.19563603, 0.055474553, 0.06008229, 0.08336204, 0.20992178, 0.17730723, 0.13191901, -0.010362148, 0.114827186, 0.2600428, 0.10603827, 0.1982465, 0.1336804, -0.13365006, 0.15507431, 0.1461717, -0.20009793, 0.044212237, -0.21562901, 0.026371744, 0.0793226, -0.13577303, 0.11812578, -0.2581546, -0.25583977, -0.12508014, -0.10873827, -0.22827476, 0.07487699, 0.18751317, 0.13594268, 0.050386902, 0.14968058, 0.030444976, -0.015763644, -0.18753351, -0.08071588, -0.13269795, -0.070700824, 0.080971435, -0.07213199, -0.089318745, 0.1972561, 0.07757958, -0.30822408, -0.34697124, -0.22487932, -0.11160234, -0.096916325, 0.116243534, 0.17434075, -0.06265577, 0.04336862, 0.10614604, 0.06332557, 0.07579782, 0.050352026, -0.15027441, 0.16453709, 0.0711392, 0.036982633, -0.044036265, -0.16797866, 0.073489964, -0.053514134, 0.0070292396, -0.070562184, 0.065246016, -0.06483989, -0.052893225, 0.23546152, 0.13516465, 0.08138672, -0.20290646, -0.07828476, 0.13980456, 0.031075839, -0.13437289, 0.20672934, -0.024341455, 0.08175152, -0.08059368, -0.058337957, 0.03368174, -0.04603261, 0.090516895, -0.078208506, 0.00979164, 0.14500599, 0.08074732, 0.08679006, 0.14408314, 0.14398055, 0.037216924, 0.23540938, -0.034876693, -0.21747999, 0.1609421, 0.10513857, -0.32417718, 0.11021045, -0.07850648, -0.2089568, 0.3643236, 0.12062782, -0.0847687, -0.15144596, -0.05519057, 0.009925758, -0.06920645, -0.13712762, -0.012685444, -0.4547521, -0.14166641, 0.15639918, -0.015307761, 0.14562893, 0.05400182, 0.09161787, -0.07330134, 0.041440662, -0.14568506, 0.065397255, -0.049807828, 0.04508026, 0.1447573, 0.13168535, -0.024033776, 0.09555897, 0.13243355, 0.06666361, 0.04406747, 0.13027745, -0.052030604, 0.12262978, -0.0047320463, -0.19678645, -0.12123085, 0.029545741, -0.21313362, -0.12743166, 0.056748737, -0.010316845, -0.015638165, 0.1808808, -0.14488554, 0.014562451, 0.046958394, -0.17391065, 0.07970362, 0.10635379, 0.20346443, 0.06679649, -0.035317484, 0.15453878, -0.07862315, 0.003808646, 0.19094203, -0.17240882, -0.2156749, -0.04591188, -0.16843468, -0.09197155, -0.0657613, -0.015568211, -0.12854898, -0.0029090364, -0.20570433, -0.34703293, 0.14327955, -0.026850654, 0.25993714, -0.0023018813, -0.13643391, -0.13364504, 0.016183434, 0.037549183, 0.012740426, -0.0100893695, 0.0540033, -0.13551621, 0.079689264, -0.055559747, -0.21206418, 0.05826452, -0.042461857, -0.05754846, -0.31245786, -0.05732454, -0.27794793, -0.03206017, -0.19263989, -0.012167456, -0.12311987, -0.2751579, 0.222624, 0.05396969, 0.10397196, 0.21479201, 0.05956719, 0.06059768, 0.117829114, -0.16115737, -0.027960163, 0.19660114, -0.033526048, -0.044945676, -0.018566808, -0.029429179, -0.013321457, -0.12854059, -0.0045195674, 0.011808289, -0.11540424, -0.050348315, -0.13486391, -0.04951803, 0.13569328, -0.113144845, -0.12606, 0.15311003, 0.12687548, 0.22186603, -0.07855052, -0.12209361, -0.17482464, 0.09249491, -0.048919536, 0.03683896, 0.06251466, -0.04081564, 0.1675259, 0.10479862, -0.08314246, 0.109993845, 0.024631366, -0.08322312, 0.21598125, -0.15480542, -0.07820581, -0.041204587, 0.048924476, 0.07083004, -0.03073622, 0.040225264, -0.015231952, -0.15281036, -0.011250723, 0.010259807, -0.0016726046, -0.042219333, 0.04966442, 0.13434204, -0.14393896, -0.09891527, -0.16505776, -0.062207446, 0.007228096, -0.25797054, 0.10242665, 0.027812349, 0.068399124, 0.28851146, 0.19502382, -0.056925006, 0.1796631, -0.0032569075, -0.02712307, 0.006292195, 0.0057033403, 0.0036511112, 0.053540427, 0.0034585772, -0.03192247, 0.0322862, -0.012721243, 0.0357773, -0.19274163, 0.019263554, 0.18725231, -0.2020906, -0.3238524, -0.4012968, -0.10924817, -0.22585446, -0.37969974, 0.13437812, -0.06441041, -0.67634565, 0.09576942, -0.32276314, -0.41144478, 0.12357901, 0.041901983, 0.19805501, -0.035131864, -0.036376998, 0.005050111, -0.070116416, 0.024290102, 0.034124587, -0.032591775, 0.010151622, 0.05615416, 0.04521401, 0.18076748, 0.28420097, 0.09037216, 0.029401174, 0.29963887, 0.035795964, -0.043550283, 0.0796793, 0.22597645, 0.15710911, 0.15484312, 0.19117293, 0.22149225, 0.11136072, 0.06850925, 0.18613179, 0.23596345, -0.23520021, -0.3779445, -0.28276527, -0.121531956, -0.389636, -0.3153623, 0.08540612, -0.21057442, -0.014070131, 0.094482474, -0.012318462, -0.4619482, 0.07826663, 0.07346636, -0.331781, -0.11327938, -0.063384645, 0.10655434, -0.024295093, -0.0817733, -0.015639313, 0.076798774, 0.04885596, 0.02714001, 0.058894567, -0.05264313, -0.08933649, -0.37027657, -0.108496815, -0.54559666, -0.337757, -0.15966983, -0.4209731, -0.30648875, -0.15248027, -0.274867, -0.08598823, -0.05087849, -0.030197764, 0.08347538, -0.19687076, -0.1292409, -0.09450723, -0.21670951, -0.11895867, -0.005919522, 0.040309563, 0.26293895, -0.053512745, 0.06444657, 0.3138794, -0.3618549, 0.0015845452, 0.26633778, 0.07801973, -0.028919697, -0.021588605, 0.00195698, 0.033873625, 0.081828885, 0.07032432, 0.026006775, -0.03890967, -0.03514806, -0.04263376, 0.07790769, 0.028888308, 0.058564976, 0.03251002, -0.03717381, -0.18717934, -0.24343503, -0.2322316, -0.27812493, -0.12003024, -0.12990987, -0.12684211, -0.059723593, 0.18863949, 0.10230147, 0.15543948, -0.08857373, -0.02153916, -0.15553868, -0.08208728, 0.06435601, -0.0012894466, -0.0133782765, 0.017490445, -0.025208259, 0.00031257918, 0.0044495603, -0.053376365, -0.08088784, -0.1836048, -0.24629629, -0.11747688, -0.14858432, -0.12971213, 0.21684755, 0.057779923, -0.527008, -0.13576579, -0.41840234, -0.18785805, -0.2677898, -0.026649266, 0.13707493, 0.13569964, -0.000816509, -0.17120583, -0.03056643, -0.054388225, 0.07051393, -0.35129073, 0.19531177, 0.26063865, 0.05805361, -0.053931188, 0.10160752, 0.24362116, 0.04817035, -0.08195847, 0.15224582, -0.09617085, -0.028435612, -0.15081884, -0.15850356, -0.20633674, -0.23604614, -0.33428615, -0.41976792, 0.07201719, -0.13886745, -0.04970436, 0.032435793, -0.029692486, 0.10717109, 0.050730597, 0.042499844, -0.06563831, -0.037831325, 0.038635984, -0.040441617, -0.11693303, -0.034308173, -0.040834934, 0.076916516, 0.06318627, -0.080104515, 0.14415528, -0.13055778, -0.14532012, 0.1300052, 0.08755535, 0.14617665, 0.14369681, 0.13889423, 0.30049676, 0.010936566, 0.078479595, 0.022318136, -0.021750797, -0.08466824, 0.017967796, -0.044398706, -0.08468873, 0.0453556, 0.0055761435, 0.04487389, 0.019747475, 0.05099898, -0.017354514, 0.1496893, -0.07938549, 0.026235597, 0.052915525, -0.030925525, 0.0388272, -0.03424126, -0.08229822, -0.12462674, -0.060695842, -0.32568437, -0.31029835, 0.0043421714, -0.1245933, -0.2539915, 0.10649289, -0.03670341, -0.016286274, -0.06302053, 0.011150167, 0.07142782, -0.013888604, -0.027641963, 0.040495485, -0.038180254, -0.28089815, -0.17171532, -0.012272195, -0.08390445, -0.09611714, -0.0030485375, -0.021814048, -0.106307425, -0.13168529, 0.16867736, 0.16482833, 0.119142205, 0.14339401, 0.12103603, 0.112861186, -0.040490106, -0.20851538, -0.20045058, -0.027359318, 0.03662999, 0.059532844, -0.10418654, -0.051442884, 0.077634394, -0.23247263, -0.17818202, -0.20552343, 0.115801305, -0.04338925, -0.0143348975, 0.13755944, -0.12706959, -0.11581294, 0.073659874, -0.11766389, -0.03349944, 0.20504382, 0.104569055, 0.27840987, 0.11442091, 0.15416943, 0.28140643, 0.017622584, -0.15740074, -0.045778614, 0.03878269, -0.04437795, 0.034260523, -0.027802724, -0.012078045, 0.06581054, -0.01158551, 0.034241952, -0.007042547, 0.09134996, 0.009041764, 0.09020249, 0.12145424, 0.1539563, 0.17382334, 0.03244613, 0.042965848, 0.037041508, 0.12403585, -0.12472976, -0.27230003, -0.058422152, -0.11788159, 0.0039153676, -0.21505971, -0.113076024, 0.16034901, 0.19966598, -0.05131119, -0.2088148, 0.16763055, -0.0420917, 0.07074751, 0.049914204, 0.009329051, -0.039393943, -0.040053245, 0.025308926, -0.023995472, -0.014230693, 0.15347879, 0.3452693, 0.005621649, 0.13959996, 0.2595375, 0.15474604, -0.12793824, -0.29369465, 0.22308129, -0.09208609, 0.10971631, 0.19966596, 0.07283548, 0.16367622, -0.38700682, -0.12609185, 0.031609483, -0.2510039, -0.012577227, -0.037786573, -0.020846296, 0.05477601, 0.12574819, -0.024406075, 0.023428332, 0.09479656, 0.09023191, 0.009756188, 0.06554605, -0.12029027, -0.2887725, -0.27627116, -0.04005909, 0.2009821, 0.050663028, -0.16264929, -0.08792233, 0.1406866, -0.027662322, 0.03550512, 0.24361664, -0.22900091, -0.085372455, 0.087219924, -0.40080482, -0.031472772, -0.14581841, -0.27872494, 0.3053673, 0.14141269, -0.03871603, 0.0059195696, 0.10442733, 0.1563976, 0.078934416, 0.21652664, -0.1646173, -0.2664928, -0.2562755, 0.035796154, 0.023450878, 0.21629782, -0.012276875, 0.045427974, 0.0386136, -0.034829948, -0.17869067, -0.13933603, 0.17622842, 0.11767273, 0.24407366, -0.093875356, 0.012862188, -0.045706958, -0.26228777, -0.3145801, -0.2296272, -0.08122243, -0.23962104, -0.2033713, 0.05985049, -0.057473358, -0.122256055, 0.035000514, 0.025716774, -0.046758894, -0.08461223, -0.10709649, -0.07113656, -0.00800548, -0.027110234, -0.18539613, -0.12921867, -0.13546099, -0.20772037, -0.07123604, -0.059112392, 0.046004064, -0.2247669, -0.11580757, 0.055845506, 0.010092173, 0.16022548, 0.30551875, -0.061533455, 0.032118887, -0.049895644, 0.10252418, 0.103474274, 0.15957835, 0.05536088, 0.13073112, 0.1813607, 0.0108807385, 0.03926967, 0.24321988, -0.06322106, 0.17270553, 0.20594689, -0.013565939, -0.06758211, -0.14080875, 0.24991441, 0.1562681, 0.1774728, 0.2042943, 0.15002766, 0.26137334, 0.0032511062, 0.070172206, 0.24420148, 0.049012803, 0.022519719, -0.20376357, -0.06609456, 0.05269829, -0.06447143, -0.15078792, -0.123932585, -0.07886843, -0.20628767, -0.24844609, -0.25476703, -0.447352, -0.29525742, 0.13798912, -0.45215163, -0.101296365, 0.3340515, 0.14397039, -0.009563157, 0.02035366, 0.02432641, 0.01515575, -0.11223137, -0.18661349, -0.3109583, -0.16136463, -0.061104365, 0.013773985, -0.057172272, 0.018985389, -0.082032636, 0.049344543, 0.056069307, 0.07321521, 0.20875825, 0.06322498, 0.14575084, 0.028896185, -0.03303974, 0.048043218, 0.14362997, -0.2714652, -0.20647728, -0.046349406, -0.10867553, 0.019711757, 0.17102093, -0.0498647, -0.025196267, 0.045709196, 0.03787513, 0.09523304, 0.004440348, 0.14467013, 0.056434236, 0.36843842, -0.145497, -0.37729645, 0.032566063, -0.28745028, -0.22892395, -0.10324064, -0.36529168, 0.013473718, -0.22392501, 0.098246634, 0.27092573, 0.11116418, 0.111339234, 0.17276154, 0.00842847, -0.14740431, 0.002061946, -0.18954046, 0.04857943, 0.13960953, -0.02131398, 0.067000136, 0.111719824, 0.25614098, -0.12920816, 0.012479758, 0.19123776, -0.10843816, 0.07380868, 0.1753684, -0.071585506, 0.068568714, -0.14927857, 0.006936772, 0.081510015, 0.00459354, 0.048325777, 0.08890571, 0.06884595, -0.18958311, -0.02954087, -0.26601958, -0.072455876, 0.09230755, 0.24927466, -0.042573307, 0.07716778, 0.04166398, 0.020026276, 0.18898524, 0.05638167, -0.07754434, -0.0034496803, 0.033495013, 0.025118904, 0.04207517, 0.028100796, 0.06809134, 0.028918428, -0.039351694, -0.20428404, -0.17181991, 0.34931728, -0.1802706, -0.22958407, 0.42171803, -0.054418568, 0.040254615, 0.226208, -0.027171375, -0.22389369, -0.18682705, 0.013073198, 0.087741025, -0.11099683, -0.065574184, 0.10455288, -0.15217932, 0.088195734, 0.051758457, 0.023947923, 0.11785564, 0.015780915, -0.014589595, 0.18296716, 0.05159318, -0.11783796, -0.044716407, 0.06253819, 0.36967242, 0.13432375, -0.08181578, 0.004030178, 0.12760183, -0.016166197, -0.29540002, 0.11297799, -0.0728004, -0.4076651, 0.32302603, 0.17562352, -0.40056938, 0.10391045, 0.13820621, -0.118683435, -0.11103576, 0.08138283, 0.24812074, 0.013216958, 0.08516571, 0.052321766, -0.10263701, 0.23431008, -0.20076968, -0.118575804, -0.22810277, 0.09167564, 0.046784066, 0.081437804, -0.025770571, -0.14391811, 0.08659523, 0.06462648, 0.04447665, 0.056485474, -0.014897411, 0.12107904, 0.024439486, 0.018425489, -0.031295292, 0.021634461, 0.034117, 0.02218458, -0.21565743, 0.1870239, 0.01207484, -0.17997952, 0.15703405, 0.3991717, 0.36145806, 0.014545874, 0.10118048, 0.12581429, 0.016172174, -0.02061516, 0.09359471, -0.13116889, -0.21452865, -0.09898609, -0.17728035, -0.20071545, -0.28001395, 0.016513348, -0.08346386, 0.07922362, -0.062382203, 0.23217145, 0.10886975, -0.19561075, 0.0031110868, 0.09260069, 0.0637706, 0.015593762, 0.018025925, -0.040363353, -0.03382949, -0.008726919, 0.104006864, -0.05884522, -0.09850746, 0.059970837, -0.27285227, 0.019501355, 0.13695614, -0.1593719, 0.03366396, -0.12300839, 0.06693262, 0.098783016, -0.090539105, 0.14076829, 0.20680289, -0.24299273, 0.13596052, -0.15724127, -0.3482757, 0.05080237, -0.04225179, 0.02600324, 0.06331624, -0.05359203, 0.0754509, 0.057728264, -0.05884985, -0.02959674, -0.30815414, -0.07968185, 0.082177244, -0.0855399, 0.14123371, 0.03521486, 0.024394713, 0.0014701908, -0.027028883, 0.2429427, 0.03297981, -0.0005161166, 0.03411948, -0.07363336, 0.04394922, -0.13113244, -0.39003128, -0.0141970515, 0.09640408, 0.02675437, -0.28032416, 0.4789021, 0.2778033, 0.028809981, 0.15043995, 0.01967385, -0.047556695, -0.048132956, -0.022882136, -0.08287613, 0.080573626, -0.13631889, -0.051763073, -0.053600695, -0.053185694, 0.006668524, -0.097597346, -0.10399265, -0.1320023, -0.16551945, -0.05040282, -0.06148376, -0.21161595, -0.11857076, 0.0051746643, 0.09846734, -0.031481974, 0.04242137, 0.09708109, 0.108730055, 0.01527837, 0.016305976, 0.030459842, 0.05551615, 0.003418204, 0.06391227, -0.23187307, -0.036441375, 0.02490773, -0.0338144, 0.11404652, 0.034867838, 0.029025452, 0.041979678, 0.04082476, 0.08169551, 0.1671997, -0.14201966, -0.32964015, 0.33388686, -0.023513295, -0.106613405, 0.091243684, 0.076909654, 0.03372579, 0.02471549, 0.07616434, -0.09371636, -0.074352086, 0.070863366, 0.0027599738, -0.10876195, 0.10135221, 0.40638438, -0.18431637, 0.046759065, 0.16720675, 0.12134791, -0.0027029682, -0.06033717, -0.26554787, -0.0017456276, -0.05642447, -0.047374822, 0.048168972, 0.27255985, -0.0626324, 0.05780284, 0.1651258, -0.0010995605, -0.056836896, 0.002187916, -0.0006727466, -0.0211123, -0.050479084, 0.042007897, 0.018882437, -0.04789007, 0.05310481, -0.0363876, -0.16859514, 0.34406936, 0.09742877, -0.07580526, 0.1982775, 0.015548893, -0.18734193, -0.16837926, 0.007359241, 0.1083572, -0.2381964, -0.23082855, 0.07358921, -0.02105972, -0.14187285, -0.19684806, -0.08389879, -0.25857425, 0.100511745, -0.06402553, -0.14476752, -0.014441954, 0.037132267, 0.018663194, -0.067536056, -0.053576488, 0.040017623, -0.10356082, -0.14616765, 0.03922314, -0.19297734, -0.33560738, 0.19871506, 0.031203846, -0.16055658, -0.12685937, -0.4294488, -0.1919233, -0.2805219, -0.34934914, 0.09820572, 0.00047894212, -0.32836103, -0.06154309, -0.05106268, -0.029923651, 0.07634527, -0.012071419, -0.046115644, -0.061805416, 0.04078806, -0.054554667, -0.0003666502, -0.1865593, -0.2573913, -0.06488739, 0.1294513, -0.06761427, 0.26379412, 0.19910993, 0.03338481, -0.022937045, 0.020408351, -0.06024449, 0.21329604, 0.023106335, 0.04606135, 0.20160182, 0.050444305, 0.08097926, 0.3675022, 0.101484716, 0.046346355, 0.3519885, -0.009938336, -0.16534984, 0.1553339, -0.17517048, -0.13655086, 0.055363704, -0.12526329, 0.029170211, 0.001509867, -0.3439535, -0.16797844, -0.23173639, -0.14304604, -0.08986495, 0.06392849, 0.21615303, -0.07741154, 0.23533963, 0.26884407, -0.15318164, 0.08791067, 0.034310378, -0.12378716, -0.037649207, -0.2047686, 0.096738696, 0.123878025, -0.15683752, 0.13936332, -0.14793506, -0.34543386, -0.30672577, -0.07426673, -0.073953554, 0.14796646, -0.05141974, -0.065970734, 0.053439435, 0.04628931, -0.0039698607, -0.087695695, 0.12941386, -0.16854773, -0.122366756, 0.14372009, 0.026420562, -0.028041694, -0.004083683, -0.01495054, -0.10968853, -0.054094292, 0.010875993, 0.014495323, 0.0320524, 0.0969663, 0.0258762, 0.17999497, -0.12678681, -0.008912276, -0.19775349, -0.066028126, -0.010821258, 0.0735007, -0.010909639, 0.09673906, 0.11594154, 0.022966621, 0.08450098, -0.07328134, -0.22326547, 0.051368657, -0.1665827, -0.17071512, -0.0332959, 0.012468138, 0.009577397, -0.16556577, 0.34479222, 0.13891675, 0.124264866, 0.3413223, 0.12850311, 0.11962815, 0.029664736, 0.08507025, -0.08328923, -0.016466407, 0.064099334, 0.024750525, 0.026526483, 0.021132449, -0.07370478, 0.09555698, 0.14966811, 0.057845533, 0.1321231, 0.117160425, -0.14738, 0.16720195, 0.19073689, -0.30484504, -0.005212107, 0.0136619955, -0.25233895, -0.21025203, -0.004366024, -0.17368814, -0.18017504, -0.036396947, 0.032747135, -0.17066392, -0.017322592, 0.19080429, 0.23169929, 0.047557697, 0.00026591387, 0.021851897, -0.16567364, -0.033702113, 0.007515737, -0.26278222, 0.005617723, 0.18003759, 0.044710007, -0.54233354, 0.17071493, -0.063544355, -0.25014064, 0.04947123, -0.10792106, -0.29418054, -0.42206663, -0.1881326, -0.23016618, -0.18725234, -0.064638205, -0.09776578, -0.10037522, 0.070919946, -0.23274146, -0.11643299, -0.151795, 0.14760022, -0.1381851, 0.03929416, -0.122204304, -0.15826987, -0.027338494, -0.14626439, -0.065174386, -0.06925832, -0.21419075, -0.12658545, -0.024664702, 0.088631526, -0.0007727957, -0.10949753, 0.24585621, -0.023964463, 0.013904842, 0.15196519, -0.02267735, 0.0063411887, 0.1421705, -0.013177822, -0.05391721, 0.026397614, -0.2705273, -0.23919119, -0.1925544, -0.024011225, -0.23076414, -0.10874814, 0.013363756, 0.007579982, -0.18618746, -0.19211677, 0.05064835, -0.1563064, 0.09964353, 0.13102072, 0.10514011, -0.05860882, 0.21518265, 0.28146458, 0.07552382, 0.042309318, 0.07546022, 0.032673012, -0.0704182, 0.027216773, 0.016217144, -0.114025556, -0.000627879, -0.061312735, -0.09300724, 0.059416506, -0.051241733, 0.01118665, -0.18762887, 0.05686568, 0.03451061, -0.24515128, 0.00031618364, 0.019364014, -0.021363806, -0.037914146, 0.019725911, 0.07964719, -0.02443937, 0.12424258, 0.13316622, -0.12814693, -0.24936229, -0.36033604, -0.023576885, -0.114739485, -0.0031737268, 0.18371873, 0.14071248, 0.19169813, 0.045709442, -0.080151394, -0.035071403, 0.123218276, -0.004322983, -0.058087226, 0.28515175, 0.038165163, -0.2018022, -0.05292474, -0.05236771, 0.05399315, 0.08394557, 0.057089217, -0.10334391, 0.0015622058, 0.15968977, -0.10407879, 0.0016445621, 0.1538439, 0.041599438, -0.18150078, -0.11754699, -0.12964185, -0.15067141, 0.0091535095, 0.14333229, -0.062432766, -0.050648775, -0.019819362, 0.03155109, 0.029448174, -0.042591367, -0.036816247, 0.07648348, -0.035248384, 0.07072337, -0.07958401, -0.0701532, 0.078297794, 0.021129483, -0.032122497, 0.22842658, 0.22290146, 0.109606296, -0.12294033, -0.2323727, -0.29702944, -0.10963512, -0.051970355, -0.050415367, -0.027893187, 0.023090705, -0.046303697, -0.13916422, -0.22295143, -0.15200426, -0.003283008, -0.05746781, 0.09684277, 0.037044514, 0.09071847, 0.2504395, -0.15333545, -0.1606773, -0.07985913, -0.30896655, -0.12280697, -0.36131978, 0.10414716, -0.20415196, -0.3569444, -0.074773245, 0.17342152, -0.066513665, -0.14189106, -0.026220916, -0.15699774, -0.47611284, -0.40187445, -0.68019545, -0.23057985, -0.25506794, 0.04179922, -0.09641183, -0.11777048, -0.15985967, 0.046971716, 0.059307404, 0.17542607, 0.20598575, 0.10533907, 0.13312669, 0.13983913, 0.14735669, 0.040972095, 0.18616016, 0.27113733, 0.05273158, 0.0067163506, 0.08416533, 0.049139805, 0.022414297, 0.0097984895, 0.12547112, 0.009920744, 0.008818247, 0.006952226, -0.0025880672, 0.20754686, 0.176071, 0.017710404, 0.2555875, 0.17768484, -0.3055505, -0.095940985, -0.087336175, -0.002664244, 0.006203273, -0.043563604, -0.099465854, -0.03271126, 0.10082414, 0.023902172, -0.11697924, 0.077313565, 0.052269515, -0.13950981, 0.09404737, 0.2605736, 0.0629788, 0.26207933, -0.2780978, -0.20408882, -0.0082812635, 0.110447064, 0.056858007, 0.05692248, -0.04275061, 0.09427272, -0.005380328, -0.0045916946, -0.09398641, -0.08959702, -0.043412294, 0.017548285, 0.10679681, -0.06413127, 0.009857052, 0.07532027, -0.025574185, 0.04807272, 0.18313962, -0.028461592, -0.02332874, -0.11737321, -0.28252673, -0.21680845, -0.23953122, -0.093615845, -0.30542547, -0.38957897, 0.018105032, -0.04000809, 0.06430619, 0.08121459, 0.013661305, 0.06875458, 0.04510013, 0.008983188, -0.010331103, 0.106275685, 0.023153327, 0.1148201, -0.057450503, 0.048830066, 0.097986214, -0.005481767, -0.02110784, 0.082014546, 0.071116306, 0.024848046, -0.086825356, 0.17069444, -0.2057554, -0.6034751, -0.23943384, -0.13449052, -0.05458905, 0.13797854, 0.051528968, 0.10023532, -0.16079393, 0.15410323, 0.07351156, -0.09167198, 0.09677104, 0.028956095, -0.22430468, -0.047876276, -0.06951389, -0.29044852, -0.059605155, 0.08089325, 0.32673728, 0.16543435, 0.18546781, 0.08196218, 0.107449256, 0.09287301, -0.0008632601, 0.09979848, 0.13933277, -0.19575252, -0.15362662, 0.1019597, -0.029903961, -0.019565085, -0.027409319, -0.02638825, -0.018292036, -0.04602565, 0.060575772, 0.08624695, 0.031107727, -0.06994027, -0.18387507, -0.03715275, -0.055028558, 0.016559796, 0.17705214, -0.2511349, -0.13414282, 0.20805189, -0.20023935, -0.1106911, -0.303106, -0.26538387, -0.14218783, 0.07501547, -0.11988663, 0.13399081, 0.2233128, -0.08859711, -0.118922345, -0.047249828, -0.069685526, -0.10863368, 0.009228469, -0.00048695877, -0.021491041, -0.016409028, -0.029008584, 0.038048305, 0.0056427326, 0.0059012086, -0.053734124, 0.050169192, 0.13811423, 0.13547808, 0.14291409, -0.06857177, -0.051109176, -0.0074506006, -0.020830441, -0.03603198, 0.05075113, 0.07216134, 0.1577707, 0.13228285, -0.038928762, 0.03376428, 0.05908094, -0.0528275, 0.029944835, -0.03270476, -0.019484192, 0.053966474, 0.04986597, 0.13381825, 0.021316048, -0.05902599, -0.022965413, 0.042247284, -0.020214856, 0.028666038, -0.027670879, -0.26273465, -0.23029912, -0.26262823, 0.07945599, 0.038638707, -0.1081942, 0.059848342, 0.15909094, 0.10838681, 0.19580898, -0.05742414, -0.14995155, -0.016822442, -0.026957776, -0.06382479, -0.023754086, 0.09770494, 0.07318561, -0.056908675, 0.08075964, 0.21509427, -0.05994612, -0.04992354, 0.21935906, -0.03557211, -0.25811923, -0.26536047, -0.2873626, 0.0055297604, 0.059139855, -0.078050666, -0.009762634, 0.18960913, 0.10238545, -0.18457122, -0.03385623, -0.1393724, -0.020834165, -0.042552464, -0.040667232, 0.041555617, 0.039665632, 0.039735507, 0.062096138, -0.015587897, 0.05481661, -0.08666385, 0.03644278, 0.15428637, -0.02993124, 0.023046564, -0.040285498, -0.1475634, -0.024067929, 0.06884855, -0.118597746, -0.17147194, -0.20938104, -0.32691696, 0.09982181, -0.08436186, -0.53926164, 0.092974156, 0.19899702, -0.1659179, -0.14469682, -0.31646246, 0.034166634, 0.079079404, -0.274004, 0.48674205, 0.15150972, -0.34918585, 0.028600514, 0.09201699, -0.021340039, 0.13914461, 0.1590766, 0.17573777, 0.14816761, 0.0038155944, 0.00835607, 0.12890151, 0.10288004, 0.13917951, -0.05837693, -0.071797125, -0.0874721, -0.26159185, -0.27691126, 0.007832278, -0.20314111, -0.15458906, -0.07144511, -0.17030545, 0.1540976, -0.07516989, -0.109460734, 0.13849032, -0.33069393, -0.105323516, -0.064669915, -0.017711675, -0.06335197, 0.024291465, -0.057449427, 0.08059012, 0.24965522, 0.19245704, -0.030901594, -0.12730594, -0.029285962, -0.048832405, -0.14522867, -0.14283171, -0.161894, -0.08303255, -0.13540901, -0.20058574, -0.08748781, -0.021459565, 0.05564122, -0.009396739, 0.08602396, 0.08660392, 0.092656314, -0.15160853, 0.13294275, 0.24731517, 0.267014, -0.0047025336, 0.039337207, 0.1275012, -0.14617799, -0.1308011, -0.028967366, -0.01913992, -0.048165668, -0.040969554, 0.053549062, -0.02378283, -0.018059526, 0.12432418, 0.17476664, 0.048451126, -0.021212768, 0.06402765, 0.3003351, 0.049014136, 0.123733394, 0.08450177, -0.053672224, 0.060025778, -0.14235647, 0.06916588, 0.089645855, 0.064195655, -0.070005685, 0.052761484, 0.021220058, -0.18412113, 0.13586341, 0.15109225, 0.2799856, 0.1582445, -0.10121955, 0.19857638, -0.16170703, -0.33562633, -0.15598893, -0.31347668, -0.3319405, 0.14315782, 0.15116714, 0.114901446, 0.131876, 0.1379699, 0.0140203545, -0.13091972, -0.23878466, -0.1460719, 0.10993733, 0.15891448, 0.09160201, 0.042802412, 0.15273115, 0.18794563, -0.31187615, -0.13436121, -0.0026095528, 0.08048245, -0.049074877, -0.052912656, -0.102440156, -0.12524527, -0.08866653, -0.22097757, -0.19177963, -0.2678995, -0.0016444921, 0.009256315, 0.13307054, -0.15427841, 0.037669964, 0.07767939, 0.17383662, 0.31922203, 0.18070032, -0.07282987, -0.21874833, -0.07687607, -0.06412258, 0.15820715, 0.1085871, 0.1497741, 0.12776472, 0.25153068, 0.13759074, -0.23240659, -0.25054786, 0.19704773, -0.03263426, 0.14631288, -0.16419144, 0.02033854, 0.13879943, -0.01346472, -0.015438547, 0.05991037, -0.0050062374, -0.112749614, -0.058624927, -0.19199845, -0.04702113, 0.10592574, -0.038101375, -0.2069936, -0.22190562, -0.17752501, -0.03124713, -0.07112539, -0.40342465, -0.27294886, -0.12642407, -0.12919474, -0.19733718, -0.065140635, 0.014654457, 0.024221566, 0.036046024, 0.07005317, 0.11703276, 0.44150153, 0.043988507, 0.03661588, -0.03366626, 0.020112997, 0.090493746, 0.10297113, 0.11440466, 0.045548666, 0.060828827, 0.13812703, 0.16900992, 0.049335904, 0.08869702, -0.03256697, 0.06713859, 0.17795645, -0.04862854, 0.15727943, 0.034208696, 0.010305198, 0.06431324, -0.060386315, -0.14480706, 0.061548457, 0.0045919456, -0.084328234, 0.25895151, 0.035347108, 0.123313226, -0.013938108, 0.07535256, -0.15212911, 0.013155218, -0.06511764, -0.0056236587, -0.13323177, 0.057153255, -0.064031355, -0.030600127, 0.13089035, -0.106295146, -0.058492206, 0.24423674, 0.14362407, 0.04882763, 0.071424395, 0.08720383, 0.08569046, 0.011627525, 0.102783635, 0.066647306, 0.13013732, 0.2582827, 0.15839604, 0.04594208, 0.10680307, -0.18958154, -0.03263403, -0.006329991, -0.0035581458, 0.06952655, -0.03303783, -0.016300706, -0.013831228, 0.029944463, 0.02530338, -0.056656912, -0.004642382, -0.04282758, 0.017017066, -0.08464957, -0.039556537, 0.05848051, 0.051678855, 0.080543, -0.048911493, 0.040389564, 0.08810882, 0.22642726, -0.02944358, 0.09911517, -0.25986448, -0.09730519, -0.11050618, -0.13897195, -0.47693768, -0.2224604, 0.09385549, -0.36298132, -0.3621393, 0.17588732, 0.055691134, -0.04738937, -0.07963833, -0.12729637, -0.08805346, 0.0204745, -0.20066565, -0.020416908, -0.18405578, 0.16795744, -0.12135205, -0.1673639, -0.15596493, -0.032060448, 0.07636803, -0.11112715, 0.10264782, -0.06370124, -0.07378115, -0.05814362, -0.02142087, -0.033673063, 0.11451716, -0.1295991, -0.029813156, 0.0694417, -0.14919282, 0.13986802, 0.0036929154, -0.16651396, -0.020848988, -0.2952716, 0.12477953, -0.10886865, -0.063740656, 0.029388873, -0.052853525, 0.12482322, -0.27499673, -0.18990111, -0.004398161, -0.06912773, -0.12631075, -0.25467423, 0.006183148, 0.005076468, 0.006188151, 0.06967771, -0.033809535, 0.0675494, 0.05208773, 0.007913508, -0.008623379, -0.31386387, -0.09902896, -0.096859105, -0.2033025, -0.36268485, -0.25939825, -0.095906004, -0.31392744, -0.54048216, -0.22076409, -0.18196951, -0.2708194, -0.17156263, -0.0810865, -0.24180925, -0.06726089, -0.08157854, -0.34711853, 0.23443966, 0.11023124, -0.0399977, 0.31403708, -0.35419732, -0.044543065, 0.030267226, -0.104750805, -0.016871281, 0.04887136, 0.036907278, 0.05567395, 0.09591092, -0.007219529, -0.016916309, -0.08715535, -0.071964495, -0.025770567, -0.029378695, -0.06560404, 0.074663416, -0.023786044, -0.1404338, 0.05287769, 0.045843057, 0.0001930114, 0.09980729, 0.07041194, 0.058453575, -0.09767636, 0.05455169, -0.04414706, 0.18225077, 0.04731073, -0.085872814, 0.12304682, 0.06524644, 0.049925666, 0.04147028, 0.079567865, 0.0032866097, 0.0067439917, -0.015371436, 0.05630236, -0.023028411, 0.07493457, 0.15435234, -0.0047273277, 0.062188026, 0.097881176, 0.0010263685, 0.1472747, 0.18048477, 0.17375848, 0.14145802, 0.15646647, -0.2990979, 0.04912143, -0.06565083, -0.19598238, 0.17137286, -0.0012018855, -0.10436529, -0.034732457, -0.18790811, -0.42426813, -0.25063145, -0.41028976, -0.41096133, -0.15562493, -0.19635507, 0.021317244, -0.1255601, 0.084576964, 0.12164236, -0.012757125, 0.01846923, 0.025076555, -0.12989134, -0.15930706, -0.06397116, -0.026818419, -0.08545191, -0.24242392, -0.23066197, -0.13497287, -0.14873138, 0.062616244, -0.06266878, -0.05301474, -0.021590095, -0.05666056, 0.047482453, 0.0467534, -0.014387939, 0.061554156, 0.022529947, 0.06384317, 0.10267444, 0.115243174, 0.22265787, 0.2119835, 0.074645616, 0.1127753, 0.29967958, -0.20173886, -0.10051101, -0.08936281, 0.05037236, 0.055264674, -0.04715491, -0.262647, -0.13803583, 0.1407472, -0.15563007, -0.07276283, 0.14666665, -0.072907045, 0.02404547, 0.02869294, 0.01306418, -0.01809428, -0.03151773, 0.023865351, -0.06847977, -0.033384293, 0.012924119, -0.060355302, -0.09877675, -0.17763752, -0.13110285, -0.25283384, -0.15633836, -0.054564353, -0.13491777, 0.066279955, -0.02723796, -0.06625787, 0.03603953, 0.0056068674, -0.0054840823, 0.0019662776, 0.066271335, 0.0763783, 0.013618588, 0.06275182, 0.07057163, 0.016097074, -0.03221079, 0.042917408, -0.06794427, 0.02680975, 0.052193593, -0.1438776, -0.1713144, -0.13746923, -0.21965672, -0.04450073, -0.06451152, -0.1411235, 0.06959047, 0.08828281, 0.122404814, 0.03360006, 0.05177814, 0.013597533, -0.016565599, 0.038768146, -0.10242558, -0.17498666, -0.14445367, -0.019799994, -0.019523105, -0.072189435, -0.16547547, -0.03125497, -0.030395953, 0.16591868, 0.19638216, 0.058877043, 0.04755458, 0.12813741, 0.047812883, -0.051853802, 0.11892301, -0.11250045, 0.011848652, -0.028350806, -0.080757126, -0.11240654, -0.030488985, -0.016901806, 0.009478948, 0.048844937, 0.028546207, 0.11410603, 0.12187492, 0.20874284, -0.055045336, -0.0024276439, 0.025943484, 0.018603632, -0.019256715, -0.026269259, -0.044000447, 0.06386078, -0.03642437, -0.08405013, 0.00808161, 0.025890145, -0.05605684, 0.08261273, 0.21482961, -0.11769472, 0.059884388, 0.24756138, -0.05723563, -0.13263072, 0.013982564, 0.011273665, -0.07762013, 0.020928232, -0.069517404, -0.11369038, -0.022822633, -0.3386077, -0.21849814, -0.08943043, -0.12609646, -0.23009168, -0.2818613, -0.045593504, 0.047871064, -0.0834346, 0.09056782, 0.05878768, -0.019869283, 0.08702495, -0.017091785, -0.08114863, 0.15937664, 0.01599155, -0.06038792, -0.064991534, -0.1545055, -0.15467678, 0.12576304, -0.002560879, -0.055486314, 0.051894587, -0.058261517, -0.25427863, -0.11519062, 0.038354617, -0.14460681, -0.08400423, -0.21131927, 0.24939679, -0.23307788, -0.18808569, -0.113433346, -0.1354804, 0.035293195, 0.12144988, -0.040229253, 0.06261997, 0.09703537, 0.06826931, 0.091294155, 0.076059334, -0.11709422, -0.058071278, -0.091964304, -0.26258487, -0.11934613, -0.12791175, -0.35962096, -0.26835096, -0.3679719, -0.39359164, -0.11762031, -0.07887203, -0.34493414, -0.0014784485, -0.11522306, -0.21969111, -0.09515222, -0.081212066, 0.013038739, -0.122674294, -0.18117872, -0.026616199, 0.18839315, 0.12217919, -0.20401534, -0.02248299, 0.08435388, 0.023461103, 0.067734584, -0.036778573, 0.039879754, -0.0922882, -0.20338044, -0.11324762, -0.12670828, -0.12904216, -0.07065929, 0.011892939, 0.17218408, 0.24435052, 0.17686117, 0.14080743, 0.11533723, 0.2034614, 0.31927997, 0.06396961, -0.04191738, -0.059071366, 0.04175891, -0.037595544, 0.06466759, -0.102749735, 0.02849523, 0.13107768, 0.07570887, 0.06808416, 0.085083954, -0.13086788, 0.21295649, 0.24378988, -0.19695254, 0.194981, 0.07987645, 0.011291716, 0.1685216, 0.075642765, -0.0789379, 0.08463282, -0.015664803, 0.060853373, 0.06698375, -0.07864753, 0.10304159, 0.127664, 0.019841416, 0.20291601, 0.09121783, 0.036821786, -0.106629156, -0.17176694, -0.238609, 0.0014732, 0.031963028, 0.022811841, 0.046370886, -0.034866747, 0.19486375, -0.13050276, -0.18774657, 0.09503634, -0.060334653, -0.12072315, -0.30807588, -0.2143822, -0.19763254, -0.27436614, 0.0056427666, -0.06789654, -0.03127323, 0.050460525, -0.050726462, 0.094638474, 0.10885227, -0.022416735, 0.06846969, 0.074870884, 0.21655798, 0.09132974, -0.12256959, -0.033612676, -0.053235184, -0.13863213, -0.08007851, -0.23660208, -0.16732892, -0.23290703, -0.2008081, -0.00536657, -0.07112795, -0.048059784, 0.094573855, 0.054420874, 0.07239482, -0.09271203, 0.03592884, 0.09066907, 0.30078948, 0.023155538, 0.026521742, -0.06968537, -0.19147393, 0.22383268, 0.0025334593, -0.0505544, -0.27129441, -0.04730584, 0.12725149, 0.17151496, -0.003958574, 0.075430244, -0.03438809, -0.07028745, 0.087370396, 0.0010938103, -0.040707003, -0.11797038, -0.05902785, -0.09405341, -0.0041403016, -0.08522451, -0.07078946, -0.031126978, -0.09119584, -0.037673686, -0.026791232, -0.07999058, -0.082745664, -0.058588106, -0.05529053, -0.06503254, -0.030075386, -0.12201957, -0.04996654, -0.061594274, 0.09524291, -0.029352691, -0.012602064, -0.07327797, 0.053913277, 0.03144107, -0.1372059, -0.02205927, -0.009469372, -0.0008985936, -0.053924732, 0.004674029, 0.040274695, -0.017568564, 0.049669806, 0.026031302, -0.08189504, -0.11931921, -0.06515543, -0.016909903, 0.01920511, -0.034785897, -0.09386784, -0.112560086, 0.019874938, 0.02631026, -0.029576093, 0.039734546, 0.04077231, -0.04922284, 0.009347311, 0.042332638, -0.09133608, 0.0028561207, -0.07350238, -0.02391382, 0.003537593, -0.023197342, -0.056476135, -0.029976044, 0.0010511812, -0.03379515, 0.03435096, 0.036624625, -0.009593248, -0.041352145, -0.00429471, 0.018891815, -0.022702865, 0.01991043, -0.036188204, 0.0071232137, -0.039767213, -0.0076269805, -0.0193688, -0.112261996, -0.05743546, 0.022943974, -0.018574739, -0.063727565, 0.034099206, -0.053970415, -0.093652755, -0.008268433, -0.11004461, -0.086967185, -0.034284413, 0.012518573, 0.07602992, -0.13926661, -0.02989133, -0.08166998, 0.0027473888, -0.080362484, -0.061966877, -0.033006318, 0.03878559, 0.045774814, -0.07995751, -0.134644, -0.06454555, 0.050759524, -0.056332786, -0.07711273, -0.08481411, -0.020875987, -0.03040227, -0.07453959, 0.010452693, -0.092564635, -0.07079674, -0.019048179, -0.039448474, -0.051718194, -0.060793415, -0.035898376, 0.01933879, -0.03942934, -0.08286796, -0.048270375, -0.061389435, 0.0068957563, -0.015158033, -0.03658033, -0.030670403, -0.02355418, -0.08829344, 0.012670745, -0.10311158, -0.08057287, -0.07090058, -0.07495643, 0.00699951, -0.07186641, -0.029188003, -0.018972987, -0.061496906, -0.06252574, 0.048278946, 0.0015218034, -0.048816778, 0.017237436, 0.017740188, -0.05816193, 0.08471944, 0.026734501, -0.039948627, -0.030868355, -0.019883614, -0.02442639, -0.048388734, 0.007535937, -0.03272057, -0.04897329, -0.06406063, -0.039978847, -0.047195017, -0.041297894, -0.114159174, 0.04724198, -0.07144402, -0.039604455, 0.08914267, 0.023653168, -0.037380464, -0.0012592108, -0.012629871, 0.00044315914, -0.06535035, -0.06755152, -0.025662346, -0.030084228, -0.0503912, 0.0075525097, 0.042571593, -0.035017226, 0.028309442, -0.05868841, -0.036014207, -0.06549717, -0.101332024, -0.08287593, -0.02772486, -0.017877912, -0.09377269, -0.10142299, -0.048795775, -0.08706997, -0.05068963, -0.052917104, -0.013521781, 0.021055698, 0.027961299, -0.02168353, 0.0439444, 0.076314494, 0.040942095, -0.009502842, -0.026215758, 0.014913887, -0.013223618, 0.035829186, -0.012052722, -0.03626117, -0.0669133, 0.020321712, -0.007372454, -0.049883287, 0.0022767466, -0.07446937, -0.1041051, 0.00530033, -0.073732376, -0.0496015, -0.057714622, 0.0237399, -0.008223726, -0.060928605, 0.07460604, -0.0077882065, 0.038166616, -0.040480338, 0.053762306, 0.020887986, -0.06834807, 0.037862845, 0.07403902, 0.021323556, -0.011603178, -0.031119531, 0.026087021, -0.07395527, 0.02612732, -0.025800379, 0.01927753, 0.0088922875, -0.05653386, -0.06432259, -0.0017353556, -0.048034944, -0.0055038845, -0.002080006, -0.058152582, -0.066269375, -0.09056436, 0.048092544, 0.060655, -0.004202262, 0.025517186, 0.006989102, -0.063002855, 0.03950175, 0.026666403, -0.022794822, -0.05171463, -0.032209937, 0.034584697, -0.017895907, -0.02415263, 0.056300323, 0.063638404, -0.037389558, -0.09631188, -0.030007904, -0.024430126, -0.008409161, -0.055982903, -0.061643716, -0.06657504, -0.06387494, 0.013680547, -0.053895954, -0.0779101, -0.04626726, -0.11329012, 0.027541703, -1.1691276e-05, -0.07423076, -0.09292863, 0.07113725, -0.0653495, 0.05565235, -0.020756226, -0.030289937, -0.06303239, -0.012590904, 0.0013961568, 0.043509014, -0.092102945, -0.01936362, -0.02456489, 0.03831723, 0.013313538, -0.020896312, 0.0086077815, -0.010302305, -0.027663127, -0.07612341, 0.023741296, -0.066995524, -0.043128658, 0.05317037, -0.10178125, -0.11240514, -0.044440985, -0.021660473, 0.06134652, 0.027177028, 0.021381455, -0.0482522, -0.02914563, -0.03439427, 0.036173053, 0.014201407, 0.06420767, -0.08462575, -0.064308755, 0.034879062, -0.0670387, -0.11419709, -0.07925184, 0.05122896, -0.041255146, -0.053703018, -0.0018887826, -0.12594575, -0.054101355, -0.06137463, 0.0301502, 0.0066884225, -0.039408457, 0.048535872, -0.081317686, 0.05529708, -0.02318309, -0.05040329, -0.07526052, -0.059349857, -0.024130475, 0.05666592, -0.031848695, -0.0032555275, 0.0011846988, 0.006644738, -0.018588873, -0.056011405, -0.10525538, -0.04437747, -0.016229525, 0.0282649, -0.05186218, -0.01892845, 0.008995528, -0.091924734, -0.06977327, -0.02017291, -0.04887032, 0.027713992, -0.051144775, -0.03850596, 0.07235736, -0.044172384, 0.021882154, -0.025618179, 0.07006886, -0.058473114, 0.025337694, 0.037496746, 0.016934523, -0.06797513, -0.08345945, -0.03414651, -0.049485225, -0.0041907122, -0.05856766, -0.13089678, -0.03424982, -0.116780445, 0.008300212, -0.0443521, -0.009509817, -0.016981948, 0.0352322, -0.025482604, 0.047715966, -0.022482177, 0.033436246, 0.030827347, 0.01319514, -0.008543055, -0.04458662, -0.1308427, 0.008006189, -0.008250457, -0.081922345, -0.13990612, -0.025550637, -0.07325257, -0.06949345, -0.008854683, 0.020281725, -0.032033816, 0.010590377, -0.099398315, -0.035983194, -0.0076132813, -0.027107097, 0.011864628, -0.08054634, -0.06347428, -0.020944674, 0.01673027, -0.10249871, -0.0711145, -0.015561817, 0.018728195, -0.031022782, -0.06696977, 0.0058480683, -0.0133858, -0.027056042, -0.06622982, -0.07127259, -0.093445435, -0.12009248, -0.028060969, -0.066842556, -0.061914485, -0.06440053, -0.08480699, -0.0706821, -0.04080831, -0.103768796, -0.012091279, -0.041077636, -0.042711068, 0.040492855, -0.049241073, -0.02746514, -0.073217735, 0.042756695, -0.10056028, 0.04465483, -0.014967638, -0.054846305, -0.06284287, -0.050349545, -0.04216794, 0.030366225, -0.033509042, 0.032424077, 0.028304026, -0.045932125, -0.06197333, 0.005245554, -0.0768652, 0.021892656, -0.065358385, 0.006850115, -0.08097646, 0.033534557, 0.035483655, -0.09389948, -0.027739292, 0.038957257, 0.04284277, 0.026787298, -0.029478356, 0.0061519276, 0.019245388, -0.054400858, -0.12810114, -0.0057976423, 0.042006988, 0.016956089, 0.0049754917, -0.06345273, -0.056735203, 0.0069032083, -0.051724274, -0.028262073, -0.111228295, 0.015857074, -0.013427887, 0.027513446, 0.049129646, -0.032175075, -0.09153211, 0.04550074, -0.06943605, 0.019030744, 0.008246642, 0.015843686, -0.058792572, -0.06876223, -0.07102303, -0.007663016, -0.11682726, -0.15075873, 0.008868921, -0.036706317, -0.022800982, -0.0684067, -0.04146435, -0.010657705, -0.03850358, -0.08726549, 0.05092583, 0.017283611, -0.038339, -0.05268872, -0.010451914, -0.09592242, -0.081128486, -0.11429292, 0.03174998, -0.049648214, 0.02732369, 7.130066e-05, -0.020638056, 0.04244197, 0.0024478617, -0.09304239, 0.0055764397, -0.03568228, -0.080702044, -0.033421434, -0.042820033, -0.061869044, -0.03271739, -0.087443955, 0.0027531106, 0.0017004411, -0.056129817, 0.0067257583, -0.050690997, 0.03851891, -0.0027253781, 0.048652552, -0.080066286, -0.03170067, -0.008310375, -0.07169197, -0.10208316, -0.07501814, -0.06382133, -0.09776954, 0.01856973, -0.017507648, 0.016007865, -0.11966361, 0.045864623, -0.059082966, -0.03781068, -0.064925715, -0.097267956, -0.10417478, 0.06233216, -0.05013706, 0.029352311, 0.028343245, -0.016002646, 0.065949656, 0.020822145, -0.009919593, 0.052087616, -0.13689752, 0.013129875, -0.035400987, -0.049406018, -0.01630093, -0.090738766, -0.11225392, -0.015758693, -0.05863054, -0.02670269, -0.13547918, -0.02665934, -0.059486907, -0.08171259, -0.09917448, -0.034080055, 0.00091319985, -0.057287756, -0.0133314915, -0.13550176, 0.10153064, 0.1497419, -0.09273166, -0.22415538, -0.024745962, -0.19758457, -0.17597765, -0.14966126, 0.009176969, 0.0787344, 0.21133126, -0.25427043, 0.018976025, 0.22032982, -0.17659676, -0.23651887, -0.03690637, -0.033845406, -0.20634335, 0.04004554, -0.08963157, -0.38895372, -0.34173813, -0.1656744, -0.25131318, -0.43244803, -0.07695847, -0.08393545, -0.008457429, -0.029867366, -0.0968222, -0.1378098, 0.056963827, 0.020300979, -0.11447064, 0.042570323, -0.10668947, -0.2157132, 0.014557381, 0.13498642, -0.057025038, -0.057809185, 0.13589346, 0.13992722, 0.08850147, 0.22271954, 0.2224521, 0.2502939, 0.19787928, 0.31012505, -0.003127266, 0.09755213, 0.1676341, -0.013871717, -0.018680656, -0.04527536, -0.03845576, -0.038991403, 0.009032452, 0.05071944, -0.01576777, 0.04270282, 0.011666545, 0.29484493, 0.17808865, -0.22675717, -0.4350896, -0.103435695, -0.15929365, -0.5101092, -0.09502138, 0.09662051, -0.052582584, 0.10076935, -0.10545246, -0.1525262, -0.010194821, -0.088828415, 0.022529084, -0.07930186, -0.13183962, -0.21212831, -0.18936905, -0.028183686, -0.016549207, 0.021395117, 0.030883264, 0.0800108, 0.11873264, 0.026926884, 0.1998551, 0.16697504, -0.37183928, -0.05367675, 0.0071464716, 0.1243054, -0.14442097, 0.015964506, 0.077353105, -0.14021814, -0.04879193, 0.13174489, -0.009319385, 0.087516166, 0.10049555, 0.07534157, 0.20151924, 0.21584643, 0.3984295, 0.11700469, -0.17131294, 0.09570645, 0.09817748, -0.51993877, -0.23000966, 0.13554536, 0.032208312, 0.08082759, -0.09811868, 0.045316204, -0.1443667, -0.009591629, -0.17989802, -0.22891495, -0.09609046, -0.004249909, 0.036223643, 0.02608184, 0.03457306, -0.035410956, 0.039046615, -0.00883444, -0.012306569, 0.04445769, 0.1610238, -0.06899156, -0.07269983, 0.027677774, 0.007406204, 0.16591164, -0.115780756, 0.110531874, 0.1976831, -0.24967958, -0.067147404, 0.14825493, -0.16819951, -0.13022429, 0.13293862, -0.14384922, -0.050639834, 0.08126564, -0.021736385, -0.120918006, 0.06623025, -0.02058928, -0.042471837, -0.15418427, -0.07597398, 0.044373214, -0.11050159, -0.06552053, -0.019088155, 0.05259307, 0.055701934, 0.0521053, 0.033724606, 0.055097166, -0.031103546, 0.04931308, 0.09315921, 0.17550561, 0.11872644, -0.012311846, 0.048679292, 0.16021731, -0.37753156, -0.19414875, -0.38473523, 0.04970222, -0.13247088, 0.14065024, -0.0140355695, -0.02935409, 0.04093804, 0.12827422, 0.047867343, 0.14994524, -0.059063405, -0.015287694, -0.04310891, 0.059569947, 0.008809308, -0.060587652, -0.041845568, 0.003078632, -0.06360945, -0.1362919, 0.10378477, -0.062101077, -0.3146892, -0.2880527, -0.09508206, -0.2996021, -0.27570683, -0.4043596, 0.0017789409, -0.047878075, 0.054031514, 0.054002933, -0.24913418, -0.2008223, 0.027815795, -0.053393614, 0.16204585, -0.3290436, -0.017930442, 0.1110166, -0.2534544, -0.11351665, -0.20475245, -0.023279347, 0.052726373, -0.46213537, 0.10773934, 0.13792397, 0.23704223, 0.010636603, -0.047856666, 0.07500914, -0.064130485, -0.111559965, -0.04604436, 0.033593543, 0.055990785, -0.052834556, -0.023788966, 0.11327269, 0.124937944, 0.023437712, 0.00038660585, 0.11169393, -0.11448775, -0.13534324, -0.01264545, -0.03574395, -0.026100202, -0.0042424267, -0.11004273, -0.006336572, -0.019553883, 0.030926319, -0.16632403, -0.01927825, 0.02841511, 0.05007109, 0.13092738, -0.071520485, -0.05250179, -0.19413154, -0.037502408, -0.22845618, -0.16811585, 0.018112574, -0.01985267, -0.02764805, -0.018944904, -0.10152812, -0.21894108, -0.057109363, 0.034904234, 0.031870447, 0.06954503, 0.049715213, -0.050833046, 0.0553219, 0.040729087, -0.0016378388, 0.05985493, 0.0021076526, 0.14644505, -0.24352174, 0.035662174, -0.17443058, -0.16925165, 0.03280677, 0.0526828, -0.17904668, -0.04250709, 0.032240514, -0.26925796, -0.24865313, -0.061608393, -0.05652374, 0.04657942, -0.15651259, -0.06049448, 0.032159016, -0.00012072928, 0.043065522, 0.023992421, 0.02257849, 0.016923828, -0.04893899, -0.018533478, -0.23043963, -0.06990689, -0.04182575, -0.039790645, -0.06510769, -0.13925925, 0.057934564, 0.035014108, 0.011322222, 0.12410536, 0.21203247, 0.3032252, 0.10930275, -0.10132078, -0.22342457, 0.18541007, 0.10032642, -0.14071092, 0.07059009, 0.06209565, 0.12204952, -0.07785387, -0.12169558, -0.0027709876, 0.014713107, -0.09618303, -0.030381093, 0.023551848, 0.2937575, -0.056730755, -0.07266894, -0.23216051, -0.13405125, -0.21744424, 0.057267766, 0.09039246, -0.098979875, -0.08939448, -0.03749108, -0.40091434, -0.25749516, -0.42090955, -0.026603116, -0.06549839, -0.43375978, -0.0005192599, 0.054527324, 0.022563105, 0.019863417, 0.016442731, -0.0140118655, -0.027947215, -0.030541545, 0.042754576, -0.10578407, -0.03570923, 0.07838799, -0.23463158, -0.4603402, -0.39620897, -0.072209194, -0.26696992, -0.26695165, 0.038272783, -0.0014315691, -0.18685202, -0.2912386, -0.12542021, -0.10200489, -0.10131726, -0.09998281, 0.103467934, -0.16642335, 0.12777568, 0.051529154, -0.115820274, -0.1437047, 0.01961869, -0.078766495, -0.1055917, -0.1776714, 0.060416553, 0.19196963, -0.014703524, -0.12137443, 0.028928421, 0.13122837, 0.015014954, -0.08824382, 0.01631873, 0.11147834, -0.0070987027, 0.09220312, 0.22779466, 0.065064125, 0.18373097, 0.043573614, -0.04708602, 0.10716744, 0.23419844, -0.08486401, -0.1548669, -0.07543947, 0.19469765, -0.193784, -0.34032822, 0.01021545, -0.14948308, -0.15351179, 0.010410964, 0.094759, -0.44507986, -0.38104036, -0.45573223, 0.0172276, -0.16979459, -0.31107402, 0.19241184, 0.099738285, 0.023318993, 0.035402514, -0.08196315, -0.45987839, -0.17038767, -0.117260866, -0.2128265, 0.052361302, 0.010126287, 0.07899946, 0.015895534, -0.072681375, -0.15712917, -0.23839505, -0.033449695, 0.16768646, -0.0271048, -0.025579894, -0.15001819, 0.04309786, -0.09813805, 0.008345374, -0.022986846, 0.11614885, -0.012265813, 0.014019084, 0.082618944, 0.14511403, -0.007040493, -0.0077303513, -0.39134738, -0.018697271, -0.043722667, -0.066708446, 0.2866245, -0.01687157, 0.07653183, 0.13430472, -0.08452011, 0.00088313373, -0.053963225, 0.08178997, -0.07539902, -0.10539907, -0.17153095, -0.13840768, -0.24012542, -0.102052405, -0.12687035, -0.31517428, -0.055133782, -0.13598213, 0.17182384, 0.13691345, 0.10123103, 0.14954206, 0.059470836, 0.10464442, 0.008978879, -0.19531967, 0.09805139, -0.042063814, 0.031102896, -0.22361371, -0.18795758, -0.16002305, 0.01466132, -0.09282992, -0.18599164, 0.09429701, -0.01866318, -0.06115621, -0.04687524, -0.04172939, -0.011709632, -0.027801812, 0.031963106, 0.094289824, -0.037543215, -0.11275951, -0.19194226, -0.25594622, 0.059312813, 0.008826471, 0.11715831, 0.031985637, 0.14396626, -0.014013927, 0.09055816, 0.02630966, -0.016023956, -0.021981167, 0.054430228, -0.1241176, 0.13515912, 0.06645322, -0.067318246, -0.016206842, -0.21157387, -0.34833995, -0.20261848, -0.45377794, -0.36288616, -0.3265551, -0.038951647, -0.40532994, 0.1388336, 0.089629516, 0.24777874, -0.029055424, 0.035002533, -0.029593926, -0.14052305, -0.26725692, -0.15284522, 0.058768123, 0.16281065, 0.2757899, 0.0045288997, -0.105315104, -0.029140074, -0.28903568, -0.20880616, -0.21177818, -0.09623977, -0.020277858, 0.18760502, 0.15142082, -0.14088106, 0.008715537, -0.29142767, 0.1249748, -0.2673669, -0.014614123, 0.028006347, -0.025351346, -0.26015815, -0.3038793, -0.14534934, -0.10545993, -0.2243999, -0.2693584, -0.0625144, -0.071353935, -0.09703886, 0.08311813, 0.11885491, 0.091251105, -0.02832218, 0.08741806, 0.08270699, 0.0521395, 0.07644258, -0.036836848, 0.14228947, 0.07981075, -0.06468316, 0.008108987, -0.051366918, -0.04617248, -0.074791305, 0.23591788, 0.14576147, 0.1320724, 0.16927591, 0.042796437, -0.13684978, 0.03990078, 0.091529146, -0.16124871, -0.19591628, -0.1137398, -0.089264825, -0.12631463, 0.08858681, 0.045990173, -0.06190303, 0.20483547, 0.061156318, 0.02624895, -0.14245939, 0.27721113, 0.30711058, -0.045871727, 0.16174608, -0.06803587, -0.051486265, -0.07434778, 0.0072293384, 0.06976206, 0.13228586, 0.029728636, 0.10795011, -0.062524274, 0.0051736003, 0.014521374, 0.17771117, 0.15548317, 0.07072217, -0.09628726, -0.16633703, 0.081576034, 0.059274998, -0.17512879, -0.24240343, -0.04417507, 0.011754339, -0.0010501996, 0.045035362, -0.019653656, 0.06787471, -0.045920756, 0.0473888, -0.005057477, -0.3813933, -0.2541851, -0.4397844, -0.069482304, -0.011119517, -0.031459168, 0.21152829, 0.15174991, 0.07271431, 0.22655608, 0.27243343, 0.06609195, 0.06360951, 0.27481568, 0.20724896, -0.06889035, -0.12984093, 0.06703223, 0.13532664, -0.027432026, -0.058301132, -0.014301858, -0.025491243, -0.09862948, -0.074522346, -0.10560824, -0.061328825, -0.2624978, -0.27165642, -0.459937, 0.035637785, -0.0755609, -0.18745433, 0.009274449, 0.06669628, 0.074281886, 0.35366955, 0.16136286, 0.17363635, 0.121064916, -0.12350767, -0.13342147, -0.114361405, -0.24349545, -0.118038416, 0.029636422, 0.048280183, -0.28292453, -0.09545132, -0.049248677, -0.29327145, -0.042763047, 0.027002025, -0.28321892, 0.0019606976, -0.098556116, -0.049635135, -0.09448683, -0.062497843, -0.021387044, 0.027868336, 0.03550895, 0.07004593, -0.13524511, -0.049594175, 0.0059057344, -0.137512, -0.11446965, -0.09318148, -0.0893356, -0.034205887, 0.005988642, 0.11949735, 0.19004251, -0.021457175, -0.057979543, 0.036169272, 0.08342977, 0.0628574, -0.0066855275, 0.07094297, -0.14593254, -0.2519598, -0.13930985, 0.006802401, 0.01898609, -0.07504406, 0.057570662, 0.17000563, 0.13186745, -0.13242552, -0.13851917, -0.008926246, 0.015109824, -0.12111517, 0.14179938, 0.10048955, 0.08126465, -0.19059421, 0.068100594, 0.054923326, 0.008231301, -0.0035177902, -0.026385982, 0.013454545, -0.032254703, 0.026758486, 0.032883056, -0.37373388, -0.31329185, -0.34364823, -0.4213238, -0.4119842, -0.21366882, -0.13086958, 0.1180865, 0.16896547, 0.04880922, 0.1484035, 0.10599074, 0.15247835, 0.12874103, 0.107782565, 0.06329696, -0.059803348, 0.0045642816, -0.0137613565, 0.005598107, -0.048281826, -0.06411161, 0.008001868, 0.04446279, -0.036804654, -0.079021186, -0.044730112, -0.36284062, -0.026191816, -0.048764486, -0.19266744, -0.041056424, -0.14662975, -0.14294185, 0.04131089, 0.294051, -0.19716099, 0.023801219, 0.100461595, -0.04051599, -0.10237077, -0.0017141333, -0.009943633, 0.034915958, 0.19745345, 0.09539281, -0.043791957, 0.0006799665, 0.33203268, -0.050270736, -0.10541299, 0.1564238, -0.17190737, -0.24462122, -0.115444, -0.23669577, -0.27512592, -0.043317895, -0.10433474, -0.41675305, -0.068838306, -0.15067999, -0.026431844, 0.05366159, 0.01999812, -0.018613562, -0.0406751, 0.10259727, -0.06754262, -0.078654096, -0.23048487, -0.13832593, 0.009640766, 0.0051427893, -0.02202408, -0.044374213, -0.06847004, -0.049820177, -0.043627523, -0.0033490898, 0.08120436, 0.0989797, 0.11866753, 0.0445943, -0.08312488, 0.057938512, 0.051413454, -0.26086953, -0.1514236, -0.09790202, -0.25152525, -0.39308965, -0.26300398, -0.19082199, -0.1650586, -0.12428365, 0.08762336, -0.03985841, 0.0879084, 0.06206768, 0.020614207, -0.034091134, -0.066341035, -0.0030840025, 0.01211594, -0.0026111412, -0.06596886, 0.0071154367, -0.20633993, -0.24919121, -0.2821278, 0.21429688, 0.19031958, 0.25874275, 0.24024375, 0.046844523, -0.06343748, -0.12211414, 0.17806017, 0.018749587, 0.053940117, 0.24311781, 0.11937676, 0.13779908, -0.028431216, 0.013937422, -0.015486032, 0.055453558, -0.005141556, -0.02538215, 0.006424719, -0.059814125, 0.008317371, 0.064690866, 0.028655214, -0.09026399, -0.26912656, -0.038001005, -0.13203953, -0.18332225, -0.14458288, 0.043455172, -0.053425938, 0.014171024, -0.58795804, -0.29327226, -0.29004896, -0.14530416, -0.09172995, -0.087269105, 0.22677678, 0.094800875, 0.34848282, -0.28315958, -0.1558393, -0.2776904, 0.13147081, -0.10885596, -0.043725677, 0.24510534, 0.08959157, -0.0058150357, -0.007833398, -0.14480816, -0.07855324, 0.012076449, 0.057272263, 0.015088896, 0.15823899, 0.01754974, 0.07914052, -0.6508972, -0.4419361, -0.6314246, -0.08135195, -0.10227209, -0.055831846, 0.080483064, 0.032661445, -0.10386059, -0.019665236, 0.06758244, 0.03833864, 0.06687723, -0.018901763, -0.036761243, 0.012446148, -0.00076608243, 0.025489153, -0.14437875, -0.1605853, -0.30234334, -0.3021464, -0.08594352, -0.27226722, -0.018769132, -0.20273855, 0.08938031, -0.24451397, -0.031337053, 0.123847745, 0.15719137, 0.15009953, -0.12913023, 0.18773913, 0.08701834, -0.05016166, -0.15153943, -0.19387501, -0.2784849, -0.11546359, -0.10164435, 0.020984981, 0.11637662, -0.05072245, 0.12195665, -0.07661855, 0.044786673, 0.21483047, -0.008881881, 0.08515167, -0.066773325, -0.012055358, 0.0725418, 0.024300711, -0.058038246, 0.08631097, -0.11547983, -0.104472265, 0.091948666, -0.04276812, 0.058742188, 0.17772399, 0.023866642, -0.26535666, -0.21896859, -0.27949998, -0.031663116, 0.049917847, 0.14741245, 0.06217503, 0.22543287, 0.107340045, -0.46656364, -0.36055937, -0.5087302, -0.05251663, -0.076301426, -0.10927244, 0.13380767, 0.21851215, 0.20082778, -0.36942273, -0.18505327, -0.11466519, -0.12669219, 0.027907385, -0.06919088, 0.07048259, 0.0447512, -0.06750627, 0.10039274, 0.10279707, 0.018682994, 0.07298794, 0.06899375, -0.046520304, 0.28768554, -0.12513341, -0.0070735924, -0.048437655, -0.052001566, -0.16081913, -0.18977697, -0.36487618, -0.1876754, 0.02059896, -0.06673664, 0.040101714, -0.25052848, -0.15479311, -0.28132746, 0.12922929, 0.10189751, 0.078325234, 0.114403054, 0.05294328, -0.03201097, -0.17740776, -0.10945193, -0.15104046, -0.041574806, -0.08048155, -0.05318763, 0.21174484, 0.05027628, 0.12530339, -0.24966285, -0.078397565, 0.04092571, -0.1832571, 0.17210932, 0.09596374, -0.08262299, 0.26887476, 0.2709094, 0.078950934, 0.1205904, 0.15359533, -0.07735385, 0.015965631, 0.003575517, -0.02477342, -0.19137776, -0.2280049, -0.080504835, 0.07902977, 0.029961871, 0.0394467, 0.009421538, 0.15176238, 0.18455952, 0.081524245, -0.04285328, 0.055833414, -0.019370232, -0.08548465, 0.03162287, 0.04201934, -0.10349658, 0.07225049, -0.007984046, -0.11708699, 0.12697262, 0.004781833, -0.06865127, 0.00032325895, -0.13208273, -0.14771907, -0.08912906, -0.093464635, -0.037710227, -0.024165576, 0.25728244, 0.1375393, 0.14328663, -0.0043940227, -0.15417549, 0.07625666, -0.010557105, 0.005402434, -0.29052618, -0.18506044, -0.28752726, -0.047386758, -0.14467293, 0.10387062, -0.1503138, 0.008181355, 0.043159455, -0.13270898, 0.072832145, -0.038432606, 0.002828772, -0.14750798, -0.0398703, 0.02432768, -0.008607818, -0.085071355, -0.17176558, -0.23893416, -0.41869444, -0.21315028, -0.16791978, -0.08095522, -0.057053022, -0.018661264, -0.0331787, -0.08689386, -0.04852497, -0.08432154, 0.15981983, 0.1773544, 0.15551092, -0.1348107, -0.17816788, 0.06315108, -0.27390265, -0.07766249, -0.03489232, -0.20869169, 0.0029361711, 0.20842005, -0.01969759, 0.19997516, 0.12520699, 0.11041456, -0.012588149, -0.011040756, 0.090120666, -0.056180924, 0.030187543, -0.09091145, -0.19987994, -0.12330292, -0.15498789, -0.06547942, 0.057938788, 0.12850027, -0.22103614, -0.01264022, 0.17293552, -0.13140766, -0.1689061, -0.06647899, -0.12353536, -0.10740447, 0.058476362, 0.0070514344, 0.05895049, 0.19082192, 0.13922082, 0.26872486, 0.011517796, -0.043194592, 0.015022203, 0.08914568, -0.010645584, 0.026755428, 0.1474374, -0.054439217, 0.08843415, 0.045751493, 0.00074329454, 0.046598088, 0.06923709, -0.048793346, -0.077913344, -0.0132770045, -0.10519543, -0.12666267, -0.14780647, -0.11013783, 0.0015595272, -0.2572806, -0.08158173, 0.019221427, -0.21020855, -0.16106701, -0.09303764, 0.084571935, -0.049017098, 0.09468545, 0.02512347, 0.08816006, 0.23009115, 0.030063717, 0.05348753, 0.1491197, -0.013515099, 0.0015555633, 0.018403918, 0.055030566, -0.027216423, -0.06480729, -0.062346604, 0.035067353, 0.027772259, -0.17002138, 0.016917652, 0.05219354, 0.08504025, -0.021699946, 0.13492501, 0.1713643, -0.0019584417, -0.064099945, -0.07497591, -0.10890205, -0.024825256, 0.017512757, -0.06737081, -0.029057125, -0.10104305, 0.11746066, 0.06185585, -0.07363894, 0.0079690125, 0.15895984, 0.06682467, 0.04303461, 0.23499137, 0.09097753, 0.017224826, 0.04512944, 0.02845784, -0.006108846, 0.20435275, -0.08814346, -0.16664404, -0.09841974, -0.14402163, -0.07897664, 0.020584593, 0.06735663, 0.037657272, 0.08941971, 0.08127992, 0.025785962, 0.025960578, 0.16684178, 0.31285807, 0.3322843, -0.0679869, 0.105223745, 0.16569307, -0.10778539, 0.011393986, 0.074808575, 0.06928946, 0.018508257, 0.07511876, 0.14355299, 0.03526931, -0.08529755, 0.35314873, 0.1836891, -0.0037761694, 0.02254317, 0.006718786, -0.06769056, 0.090357736, -0.04940709, 0.02450273, 0.014749409, 0.06934754, 0.014107554, -0.008094765, -0.0023090108, 0.0604652, 0.32124278, 0.04298308, 0.20908044, 0.1322153, -0.22896267, 0.22900975, 0.08584103, -0.10867889, 0.006872253, 0.17464745, 0.18324126, 0.18398286, 0.01742182, 0.035714276, -0.094093494, 0.11789973, -0.07639318, -0.08776135, -0.15797478, 0.048003793, -0.0023137345, -0.4176364, -0.323422, -0.06935718, -0.3921309, -0.3898864, -0.3432062, 0.010496036, 0.05079432, 0.012451433, -0.048759792, 0.022274971, -0.013070836, -0.05396413, -0.07817024, -0.06229348, 0.24844266, -0.085339345, 0.067310445, -0.0066058026, -0.030550938, 0.092596635, -0.13410021, -0.21577555, -0.07083373, -0.023317542, -0.07176321, 0.008267494, -0.14172004, 0.0027970625, -0.1387026, 0.049470823, -0.08332621, 0.16257742, -0.017312346, -0.03973275, 0.01959342, -0.08528229, 0.042946633, -0.010545424, 0.011927183, -0.08681689, -0.025160188, 0.0856527, -0.06959746, -0.07341856, 0.12991753, 0.2158027, -0.0095417965, 0.027228212, 0.16073908, 0.018847067, 0.04440842, 0.10236879, 0.17531534, 0.09946533, 0.10944012, -0.24308576, 0.09365771, 0.29156014, -0.05608782, -0.19249898, -0.14781372, 0.023059232, -0.0577346, 0.029713122, 0.09671665, 0.18687299, 0.2223905, 0.3584831, -0.00038712818, -0.0067692804, 0.0030718204, 0.21248402, 0.043090224, 0.21753316, 0.39956036, 0.28661132, 0.5456461, -0.07322193, -0.033273924, -0.088485606, 0.12060108, -0.17360449, -0.30469704, -0.0013981806, -0.05817268, 0.14524537, 0.07435388, 0.00404999, 0.11641308, -0.024568342, 0.080096796, -0.05511234, 0.019113548, -0.043093372, -0.04899051, 0.1724083, -0.023267288, -0.096960746, 0.08321209, -0.02871518, -0.12185995, -0.33945078, -0.060013525, 0.06931852, -0.105756044, -0.263078, 0.0065524974, -0.2693025, -0.14074692, 0.12761992, -0.18335207, -0.08354767, 0.025651982, 0.019576237, -0.03388182, 0.036008716, -0.025325736, -0.06600434, -0.00054860464, 0.09598785, 0.020004077, 0.022845406, 0.255727, 0.24668321, 0.38903454, 0.0676338, 0.08127289, 0.09577235, -0.004814899, -0.0510656, 0.22963181, -0.06134179, -0.080368586, 0.09604731, -0.008222805, 0.051163632, -0.07964337, -0.049649667, 0.06612809, 0.07379557, 0.061169077, -0.063538104, -0.00033151053, -0.03793447, -0.014475517, 0.0031934783, -0.049077597, 0.04106796, -0.051237985, 0.019535577, 0.02182333, 0.10014742, -0.06713365, 0.118725225, 0.07707531, -0.042242654, -0.20855758, -0.19725662, 0.018273069, 0.07047258, -0.046848126, 0.08931193, -0.037046924, 0.0073015727, -0.016062908, -0.07088722, 0.11366945, 0.14306922, 0.13222335, 0.14474925, 0.009277777, 0.055484798, 0.08828149, -0.07943962, -0.09483656, -0.045543853, -0.01456425, 0.03412406, 0.07371508, -0.042449612, -0.024720602, 0.0059559406, -0.30873275, -0.11043216, -0.057973363, -0.13461104, -0.017979706, -0.11893482, -0.2587125, -0.25320563, -0.09988344, -0.027858691, -0.043705977, -0.08857163, -0.048555855, 0.09948915, 0.01955049, 0.04543639, 0.08604216, 0.07762881, 0.012304605, 0.018492946, 0.06720157, 0.19125982, -0.016713116, 0.04271428, -0.03199175, -0.018845495, 0.04503904, -0.08225434, 0.04408966, 0.21735252, 0.08030911, 0.049304824, 0.0757578, -0.23796552, -0.041176017, -0.10514158, -0.40862465, -0.34930593, -0.044197142, -0.12960856, 0.18052807, 0.06092058, -0.11980562, 0.16503873, 0.13559082, 0.17590724, -0.100966625, 0.059340704, -0.16911632, -0.049838617, 0.07150872, -0.07826167, 0.012505912, 0.11635573, -0.062184263, -0.035364326, 0.15662661, 0.012163512, -0.09175237, 0.083321854, 0.038200714, -0.13602944, -0.08611057, 0.14220083, -0.030958058, -0.27411962, -0.011071085, -0.079808906, -0.051825117, -0.14104456, 0.09707803, -0.018166047, 0.13187258, -0.026913838, -0.17082785, 0.075867034, -0.04441256, -0.016454868, -0.070795305, -0.13176401, 0.050459042, -0.1905005, -0.03711864, 0.00020142947, 0.26354346, 0.09914124, 0.13648733, -0.13368616, 0.051525038, 0.012177967, 0.11219551, 0.028031012, -0.023117237, -0.046790514, 0.13913846, 0.07322729, -0.009374052, 0.05250449, -0.068290256, -0.20062774, -0.024833186, -0.24880381, 0.07431907, -0.15599814, 0.03252219, 0.016570471, -0.06623738, -0.007013739, 0.060945727, -0.17017998, 0.10049573, 0.11154934, 0.18577439, 0.18670812, 0.02414838, -0.120033875, 0.108258195, -0.11286482, -0.10216841, -0.14554028, 0.054611657, -0.28856736, -0.0037039712, 0.1011439, 0.10854013, 0.16651818, 0.21939167, 0.19316559, 0.16030528, -0.20300207, -0.25113288, 0.0068710973, -0.43035385, -0.16972023, 0.09126377, -0.22594593, -0.12870255, 0.041931603, -0.11653069, -0.041288737, 0.18425502, -0.22132762, -0.11243787, 0.061150696, 0.26822954, 0.39567852, 0.43475884, 0.02892612, -0.02854873, 0.016164267, -0.018744651, 0.0035205646, -0.05502069, -0.2775171, -0.16190116, -0.010905164, -0.07143019, 0.081321925, 0.18069084, -0.012303523, -0.030451873, -0.048559252, -0.04116895, -0.13592525, -0.085283145, -0.19164032, -0.20675279, -0.09478062, -0.06216726, -0.15864627, -0.050601628, 0.06369869, 0.11881307, 0.31191778, 0.07646137, -0.008132252, 0.06467692, -0.08644593, 0.09845079, 0.20597284, 0.11987257, 0.08969449, 0.03640279, 0.09109832, -0.008016968, 0.0047676987, 0.17077848, 0.040755384, 0.22155133, 0.21920228, 0.17180507, 0.15652098, 0.19668825, 0.00095454545, 0.023509355, -0.06303174, 0.0736977, -0.011489708, -0.018843703, -0.07109701, 0.023084491, 0.20249307, -0.058799736, -0.09960192, 0.0328515, -0.062766224, 0.03210975, -0.20511709, -0.12053754, -0.021304103, 0.1619355, 0.19535491, -0.0081019, 0.040879834, 0.15505505, -0.06713165, -0.17507613, -0.10850862, 0.011060588, 0.17943422, 0.029708296, -0.05463042, 0.039477583, 0.023938423, -0.0041653146, -0.14361547, 0.10363944, 0.004951117, 0.2722565, -0.009331411, 0.011789832, 0.023751337, -0.09641881, -0.063299745, 0.0114964135, 0.0587357, -0.07439655, -0.057578754, -0.12311992, -0.17085965, 0.08611502, -0.15556489, -0.05405409, 0.09963707, -0.22207572, -0.09023662, -0.052376777, 0.041884232, -0.15453552, -0.00070315984, 0.15698671, -0.01923713, 0.053998955, 0.117684186, -0.03420184, -0.2058734, -0.20002927, 0.016950436, -0.08103045, -0.08385365, 0.088747956, 0.15684386, 0.1858889, -0.29072997, 0.026944635, -0.029562147, 0.05140603, 0.10326098, -0.06210969, 0.10791774, 0.080429904, -0.058569543, -0.031571366, 0.19379014, -0.19444788, 0.03580824, 0.13617043, 0.00947108, 0.03201407, -0.14906187, -0.10483618, -0.15792152, -0.026125643, -0.10544549, -0.36063716, -0.045995243, -0.115711145, 0.10200392, 0.3596297, 0.14688833, -0.009490606, 0.04823657, 0.038603593, 0.0649178, -0.014254744, 0.011840426, 0.015388166, 0.021425035, 0.05107832, -0.028398914, -0.25580254, -0.09580212, 0.056576673, -0.099740595, -0.0026975526, 0.1549119, 0.1333248, 0.1856126, 0.11554019, 0.16709541, -0.069448285, -0.069773786, -0.10655396, -0.17522177, -0.072123505, -0.18183778, -0.23162769, 0.119118266, -0.09130082, -0.049131867, 0.0054225684, -0.11286284, -0.08426563, -0.14297076, 0.001929404, 0.08050979, 0.10816551, 0.044056676, 0.16950946, -0.15179911, 0.121700555, -0.14807674, 0.18194045, 0.13623254, -0.15876038, -0.18171725, 0.23117669, 0.0777285, -0.042570762, 0.23990044, 0.013487935, -0.28125143, 0.112669095, -0.116846785, -0.16349919, -0.18442304, -0.18859105, -0.14457165, 0.0782315, 0.01741341, -0.22726376, 0.30639538, 0.053046305, 0.32151175, -0.16564956, 0.0017755923, -0.057599414, -0.037320808, 0.18036488, 0.16801886, 0.03069161, -0.04851764, -0.02182364, 0.029733703, 0.055871107, -0.051589143, -0.0817035, 0.015616591, -0.092174515, 0.030714767, 0.018409766, 0.015991068, -0.27149618, -0.19808501, -0.1408359, -0.16502383, -0.047788516, 0.24534748, -0.24390905, 0.15507752, 0.38587254, 0.06934154, 0.020120794, -0.054041386, 0.15854353, 0.26515284, 0.11057908, 0.17423451, 0.1434164, 0.13944523, -0.05918801, -0.079093456, 0.027550362, -0.15250278, 0.06255006, 0.14737327, -0.10165432, -0.29015067, -0.2690533, -0.10337241, 0.03596262, -0.09210599, -0.101383194, -0.023164248, 0.014635547, -0.040133525, 0.020896733, 0.08255178, -0.056666736, -0.011548706, -0.06516951, -0.13339531, 0.013320091, 0.13665713, 0.13563201, -0.023816373, 0.05699748, -0.01264396, 0.051577937, 0.21854053, 0.0859515, -0.045085687, -0.12111603, 0.079906605, 0.16905898, 0.03507916, -0.039832592, -0.024453899, 0.01727718, -0.035912007, -0.07105329, -0.026621085, -0.0050277906, -0.0017532244, -0.03339993, 0.027351504, -0.03751575, 0.13067292, -0.23076475, 0.08286393, 0.17450634, -0.067357525, -0.043265026, 0.07272928, 0.13246433, 0.23181695, 0.32018188, -0.01924371, -0.063338295, 0.2693272, -0.3613796, 0.03283498, 0.062305998, 0.013607257, -0.12872867, 0.1571534, 0.19808759, 0.046547323, 0.30110097, -0.09461729, 0.064902514, 0.119704776, -0.2744721, 0.049424175, 0.097242534, -0.054217897, 0.06838172, 0.02166935, 0.086559296, 0.05067554, -0.027057596, 0.083007455, -0.111099236, -0.24299537, 0.041297346, -0.14481239, 0.06597973, 0.3287797, 0.15503405, 0.13328843, -0.00029251573, -0.0735832, 0.016675394, 0.0927664, 0.047579177, 0.12127902, -0.026909187, 0.06107719, -0.025969205, 0.018562885, 0.103342496, -0.2874871, -0.006989318, 0.13556355, 0.100559294, 0.057138395, 0.05252411, -0.021565981, -0.2358134, -0.07405897, 0.16448356, -0.1427746, -0.13948707, 0.052453708, -0.0074011837, 0.06892505, -0.22356924, 0.08454897, 0.055386588, 0.018080015, 0.03928274, 0.027173033, -0.07187829, 0.14522979, 0.14266479, 0.11704325, -0.19824012, 0.010672191, 0.098812, -0.22557186, -0.15163025, -0.021738049, -0.059333958, -0.26530787, -0.1718404, -0.071969114, -0.10264801, -0.24492313, -0.13804987, -0.058641244, 0.01990178, -0.16458435, 0.07983365, 0.052261483, 0.075362906, 0.023024615, -0.04094608, -0.014941273, -0.03431948, -0.020921612, 0.033354353, 0.05033181, 0.03391887, -0.045468107, -0.046962213, 0.08239038, 0.056184597, 0.09353393, 0.027221832, 0.054665726, 0.12027884, 0.09988354, -0.0037491217, 0.06421822, 0.07913681, -0.0106891515, 0.27242, 0.13476022, 0.027245557, 0.111198805, 0.035203658, -0.24460188, -0.12271629, 0.16087812, -0.056237217, -0.03217334, 0.060850784, -0.056914825, 0.035688955, 0.069067046, -0.32331237, 0.06738402, -0.0050126826, -0.1626941, 0.09705836, 0.17643175, -0.12785603, 0.018298531, 0.2739517, -0.021492984, -0.015249591, 0.15985736, 0.07519557, -0.07069474, 0.052996986, -0.1153264, -0.20061457, -0.18146957, 0.014720941, 0.053315826, 0.032655716, 0.0021567892, 0.05978733, -0.019581238, -0.04772068, -0.016287172, -0.008694612, 0.012519005, 0.21225919, 0.15719932, -0.26493338, -0.19469154, -0.053718545, -0.08877096, -0.14001244, -0.038233664, 0.047108654, 0.18209718, 0.12877716, -0.003928231, 0.14593215, 0.26148474, 0.05643667, 0.056533918, 0.1862092, 0.12333837, -0.14079814, -0.04214848, 0.19571619, 0.010217763, 0.109213896, 0.1074111, -0.056041833, -0.18298545, -0.1281601, -0.011023326, -0.020931518, 0.10248575, 0.113828026, 0.019749936, -0.11458301, -0.06351296, 0.17915073, 0.060069617, 0.18869583, 0.0022268551, 0.27626592, 0.14700097, 0.18088454, 0.18753345, -0.07957755, -0.0050743595, -0.29774863, -0.14470248, 0.34004852, 0.18712074, 0.09690482, 0.10317733, 0.0050018243, 0.17383114, -0.13965482, -0.10802602, 0.11700176, 0.22315976, -0.07335781, 0.029285027, 0.0714038, -0.18746133, -0.1443294, -0.22260338, -0.018508699, -0.090447195, -0.05937371, 0.09207014, 0.040646985, -0.01833234, -0.1055339, -0.10008435, 0.0908359, -0.13822034, -0.23174374, -0.021111563, -0.11880669, -0.3135149, -0.11061051, -0.29437608, -0.15413101, -0.011055, -0.11285793, 0.056249246, -0.06446778, 0.017389541, 0.0006589502, 0.19160134, -0.042366825, 0.027328325, 0.04386175, -0.14842096, 0.023386726, 0.1300996, -0.03260828, -0.030357081, -0.04322949, -0.3324607, -0.20941152, 0.0096390415, -0.18138914, -0.10865012, -0.17399423, 0.0058535906, -0.06336638, -0.057005096, 0.002369038, 0.21153808, 0.057431977, 0.002852603, 0.03765435, -0.04149173, 0.03779997, 0.07478244, 0.0039531174, 0.16242348, 0.13303594, 0.021748874, 0.014243595, 0.060719553, -0.10701517, 0.09208544, -0.12060728, -0.13366766, 0.06156733, -0.11740569, -0.08535751, -0.22230366, -0.06520861, -0.037996966, -0.122111075, -0.18976983, 0.21715124, -0.32379597, -0.14253081, 0.10054852, -0.17906478, -0.14575931, -0.10302514, -0.20349272, -0.023451045, -0.036503855, 0.014821952, 0.14461131, 0.27202865, 0.06481608, 0.05465003, -0.16616161, 0.09447471, 0.10117428, -0.1257566, 0.1387211, 0.15973173, 0.019256225, -0.049579576, 0.08801278, 0.14275678, -0.08996998, -0.09876627, -0.1575512, -0.19886217, -0.18065982, -0.07208908, -0.10894008, 0.15497512, 0.14656071, -0.11643312, 0.011528884, 0.020829111, 0.005309965, -0.14564496, 0.048442654, 0.14844373, 0.032436214, -0.18281111, 0.18254906, 0.11136237, 0.12225537, -0.0443817, -0.049288664, 0.17973953, -0.38233998, -0.28273615, -0.015324399, -0.20190048, -0.0116850715, 0.06525221, -0.13899504, 0.025461113, 0.2366572, -0.019274106, -0.10747933, -0.2140096, 0.1864589, -0.08275502, -0.081292965, -0.04165434, -0.20585251, -0.00078469294, 0.23267424, 0.25842795, -0.17701803, 0.13879149, 0.07278686, 0.053413663, -0.1446625, -0.13472743, 0.046998452, 0.11753639, 0.16693296, 0.1502745, 0.049341686, 0.013997564, 0.027853288, -0.061753172, -0.065461166, 0.0013044226, -0.13803299, 0.045561828, 0.009226597, 0.09459056, -0.17049433, -0.15613757, 0.12963852, -0.13779111, -0.15257108, 0.24655391, 0.12719622, 0.04773935, 0.10016119, -0.071252055, 0.0863602, 0.15769945, -0.15889797, -0.047924925, -0.10409591, 0.074177526, 0.08882456, -0.10228738, -0.028409388, -0.081786744, -0.12544607, 0.13539943, -0.103947625, 0.0593968, 0.113066345, 0.11282309, -0.025992785, 0.03854843, 0.040474467, -0.14941205, -0.057134748, -0.086998224, 0.13955335, -0.13607909, -0.058022864, 0.15093414, 0.12698857, 0.06842876, 0.17534085, -0.024743836, -0.2565951, -0.23831818, -0.037061095, -0.18952121, 0.013204134, -0.010547252, -0.1288059, 0.28264683, 0.012725156, -0.08829178, -0.042303484, 0.010047291, -0.015751401, 0.023046462, 0.0042393208, -0.05735981, 0.054685928, 0.013233089, 0.024928944, 0.050633907, 0.11759159, 0.19264048, -0.056205448, 0.08344137, 0.012365533, -0.1266548, 0.02993898, -0.18773744, 0.18395805, 0.12124545, -0.0023785178, -0.0034327956, 0.21382675, -0.08107343, 0.0671785, 0.11161707, -0.02146962, -0.3147747, -0.30174634, -0.1563947, 0.031145182, 0.08271465, 0.024947554, 0.16510515, 0.30327728, 0.012155522, -0.16474745, -0.06888931, 0.02154453, -0.10156068, -0.057174668, 0.12490087, 0.083997115, -0.07213242, 0.10642314, -0.24230683, -0.34940934, -0.133927, 0.16349629, -0.06930437, -0.119543545, 0.14960809, -0.06426867, -0.09151193, 0.055474963, -0.14903307, -0.014902804, 0.0003106204, 0.008574674, 0.16884167, 0.22162464, 0.1845493, 0.1098144, 0.09642487, -0.016085848, 0.075480044, -0.09681432, 0.14225608, 0.06893272, -0.18990935, 0.09459836, 0.01713985, -0.0613046, -0.030762134, 0.017147422, 0.0787959, 0.01724669, -0.06990371, -0.06856394, -0.039759923, 0.037945364, 0.097382255, -0.11253885, 0.12577805, -0.003123025, -0.24192336, -0.23146695, 0.021123068, -0.26815522, -0.3402296, 0.046885587, -0.038344532, -0.2626585, 0.10582801, 0.09417397, 0.14005917, 0.14101441, -0.081419654, 0.15113428, -0.08384572, 0.007999114, -0.010740543, 0.16124476, 0.037854955, 0.13204302, 0.13024606, 0.24161536, 0.14738269, 0.017813772, 0.064400576, 0.061569408, 0.0009243033, -0.05362044, 0.028199026, 0.015598327, 0.018631961, 0.0319338, 0.085542955, 0.13635582, -0.11693612, -0.012352669, -0.027189936, 0.017652582, -0.0018905869, -0.09494124, 0.0026004973, -0.17509864, -0.1395402, -0.26908398, 0.1206325, 0.09302117, -0.13159841, 0.1529195, 0.066660404, -0.06739212, -0.038482156, 0.031377826, -0.0691135, -0.029577836, 0.0089545585, 0.018880123, -0.101817876, 0.020519631, -0.09395582, 0.12592374, 0.08392051, 0.12752034, -0.00806698, -0.13654384, -0.14382698, -0.417741, -0.17649496, -0.100076996, -0.098427184, -0.18807855, -0.12443221, -0.19585033, 0.14083666, -0.3429839, 0.05141463, -0.23296931, 0.25757325, 0.22781393, 0.089021206, -0.20998862, 0.02583418, -0.0014637792, -0.29970986, -0.11636932, -0.040301293, 0.08759698, -0.020564485, 0.22547808, -0.11026607, 0.04254969, -0.0034916613, 0.04474699, 0.2743297, -0.039406434, -0.040553838, -0.11009726, -0.2321095, 0.022058185, -0.012691401, -0.18239227, -0.090477444, -0.06603663, -0.0087095415, -0.043790475, 0.056132413, 0.00030234494, -0.0527301, 0.054036617, 0.024923429, 0.0052835257, -0.014387205, 0.0662363, -0.041880194, -0.1282068, 0.058544364, 0.040045265, 0.15303572, 0.051318027, 0.1199101, 0.07559742, 0.20981756, 0.31027895, 0.096198335, 0.019395184, -0.16408122, 0.113223895, 0.10455982, -0.00072506437, 0.22861327, 0.15634654, -0.050033893, -0.00020389384, 0.11851891, -0.0015476506, 0.018388197, -0.003750123, 0.029147003, -0.035670016, 0.109548, 0.034224093, -0.13004375, -0.04734083, 0.12645334, -0.09067341, -0.03339518, -0.03063713, -0.30231914, -0.25329024, 0.022437021, 0.018253887, -0.13738608, -0.031145463, -0.21275972, -0.16639155, -0.13402107, -0.17838451, -0.31325957, -0.14642772, 0.051146746, -0.02861121, 0.054202948, -0.0037864747, -0.0021781018, -0.022409815, -0.025553811, -0.030217823, -0.01477927, 0.00093305786, -0.24034673, -0.4132798, -0.03351771, -0.039963968, -0.016880888, -0.056441594, -0.13085793, -0.1038743, 0.15866452, 0.1282911, 0.17933638, 0.16871452, -0.011138872, 0.04948399, 0.19628884, 0.15642144, 0.19912544, 0.098805584, -0.09197827, -0.01984229, 0.043238897, -0.017342351, -0.16058503, 0.06324226, 0.0061404305, -0.21615516, 0.16053794, 0.09291545, -0.05355913, 0.08400085, -0.054318976, -0.17893516, -0.043375578, -0.1082792, -0.0643589, 0.0068856417, 0.14119174, -0.011985313, 0.07759292, 0.07066439, -0.011890422, 0.10942825, 0.019577166, 0.030869989, 0.020939281, -0.038275607, -0.023150908, 0.017195316, 0.033293303, -0.0036681779, -0.03812708, -0.038726263, 0.007755872, -0.04848793, 0.19356509, -0.18973576, 0.11889631, 0.112878844, -0.18580152, 0.095158175, 0.02973638, 0.030255735, -0.12766306, -0.282687, -0.3461188, -0.16752636, -0.07974219, -0.089200795, 0.08721935, -0.12223743, 0.0784242, 0.08877343, 0.10969091, 0.04826495, -0.07410063, 0.10003092, 0.057887595, 0.06839722, -0.07992412, -0.12886065, 0.11442959, -0.026732057, 0.06463472, 0.016517377, 0.037698988, -0.05641147, 0.09141586, -4.3369117e-05, -0.0029565666, -0.10724544, 0.12964177, -0.26128903, -0.0626664, 0.07199875, -0.085305706, 0.2786138, 0.22897798, 0.427011, -0.032876845, -0.014739878, 0.1132726, 0.19255129, 0.08380226, 0.12298263, 0.09064935, 0.017528925, 0.017850997, 0.08896943, 0.027348792, 0.031625286, 0.077762865, -0.11469978, -0.0071031773, 0.10160373, -0.013487735, 0.036595568, 0.028517498, 0.09609214, 0.06498228, -0.009476778, 0.18570945, 0.089338064, 0.02278585, 0.19253078, 0.104475036, -0.0004840024, -0.03096141, 0.12583496, -0.12409652, 0.20305727, 0.024728822, 0.14315957, 0.22053657, 0.047891628, 0.1656216, 0.114629455, -0.013845211, 0.16441493, 0.090196036, -0.03062325, 0.34590417, -0.070255876, -0.061839, -0.20494922, -0.13466729, -0.0859687, -0.016358776, 0.008371269, -0.049536996, -0.091082536, -0.11365827, 0.05916221, 0.007784504, -0.08250317, -0.017689718, 0.20208262, -0.09052716, -0.16725013, 0.17153913, 0.0119811045, -0.23670799, -0.103497885, -0.08326536, -0.23396534, 0.040174343, -0.081855014, -0.054874953, -0.1531541, -0.06370028, -0.16930573, 0.006147609, -0.23133373, -0.08284562, 0.08161857, -0.0018688666, -0.121177785, 0.061773155, 0.21977979, -0.091689035, 0.15848903, 0.054008037, 0.14937086, -0.12252137, 0.042541035, -0.014162048, -0.4986978, -0.09737592, -0.08245724, 0.2332104, -0.10603317, -0.28732455, 0.146207, -0.03773158, -0.40382406, 0.17434025, 0.15473624, 0.19851488, -0.2351056, -0.2917824, -0.18715191, 0.27930784, 0.061007064, -0.09846207, 0.30734286, 0.25732917, 0.23290145, -0.058682244, -0.2728686, 0.06653128, -0.030184217, 0.021987353, -0.048478957, 0.061567575, -0.06680042, -0.064360805, -0.04884658, 0.010066903, 0.16040707, -0.18919161, 0.09276776, 0.1370317, -0.29806057, 0.0053199725, 0.14399432, -0.13195172, -0.098465495, 0.094813086, -0.07031857, -0.07353797, -0.0036726997, 0.050850857, -0.0284838, 0.17299296, 0.07200238, 0.08612736, 0.08197112, -0.023488158, 0.015708743, -0.20227881, -0.10759279, -0.03992931, 0.054448277, 0.024532048, -0.02872654, 0.0077208304, -0.025394432, -0.019246593, 0.05298707, -0.33784685, -0.10125971, -0.04151528, -0.0012959605, 0.16201939, 0.10976093, -0.12596032, 0.04386645, 0.1858981, -0.22660902, -0.052479662, 0.42230716, -0.121342614, -0.18209286, -0.0765733, -0.08907678, 0.08389717, 0.041712508, 0.033850044, 0.19891252, 0.016184589, -0.057892404, 0.02962922, 0.115785144, 0.19260381, -0.012034586, -0.26909873, 0.17776638, 0.025212565, 0.006328139, -0.29573804, -0.4150217, -0.14373486, 0.012032588, -0.08138553, -0.007958095, 0.110365056, -0.046370115, 0.20192115, 0.0062816995, -0.060524944, 0.071413785, 0.04240742, -0.09306676, 0.062016115, 0.28970912, 0.18375914, 0.24927175, -0.09269753, -0.025128864, -0.0033782464, -0.043591492, 0.12908728, 0.026743557, 0.11290012, 0.18642873, 0.04145839, 0.044234734, -0.047739018, 0.0041241273, -0.046538595, -0.09914177, -0.07134329, -0.06446506, 0.05972669, 0.11951139, -0.067907035, 0.092574075, -0.15350562, -0.11454349, 0.043083522, 0.18959801, -0.08137834, -0.0811113, 0.11449966, -0.031383753, 0.001577723, 0.019727353, 0.021206604, 0.019783875, 0.05316997, 0.08531852, -0.025221592, -0.030976685, 0.081384145, -0.12910596, -0.044884194, 0.120926626, 0.08377296, -0.11065015, 0.14163862, 0.105423935, 0.09487655, 0.25897774, -0.17426243, -0.2579732, 0.15631914, -0.048260726, -0.24145836, -0.012580636, -0.20251708, -0.18106711, 0.14581303, 0.06775838, 0.14238593, -0.07412766, -0.03140989, -0.10047478, -0.07278057, -0.05954841, 0.0957611, -0.05656559, -0.16133957, -0.48020577, 0.09491735, 0.017418588, -0.10467717, 0.1147733, 0.197145, -0.048684742, -0.0038467199, 0.116065405, 0.13953272, -0.1696705, 0.08963297, 0.08439606, -0.27603123, -0.081729345, 0.38211465, -0.12538649, -0.1799002, -0.26503873, -0.15090354, 0.22832693, -0.113240905, -0.030987568, -0.115653135, -0.028820757, 0.04068749, -0.12311999, -0.3102347, 0.10711504, -0.2095198, -0.187008, 0.054619845, -0.19479221, -0.51196295, -0.004747805, 0.102822885, -0.054940823, -0.10200825, -0.084451646, -0.045880143, 0.035297044, -0.051081322, -0.064828075, 0.19722968, -0.1949465, -0.067088865, 0.04290906, -0.039944507, -0.20303968, 0.3362288, 0.034614805, -0.16398303, 0.23175643, 0.012325663, 0.01974411, -0.056543518, -0.0421185, 0.10456394, -0.16474375, -0.08066726, -0.16427067, -0.20606816, -0.058059283, -0.17887624, -0.19286874, -0.11617966, 0.098769896, -0.18521032, -0.24469614, -0.21491027, -0.044175457, -0.04537969, 0.01074546, 0.014256916, 0.018117078, -0.058220055, 0.017665787, 0.088772185, 0.035457645, 0.07031745, -0.24759401, -0.11257398, 0.12435869, -0.0628432, 0.17761582, 0.04778563, 0.14343758, 0.115248606, 0.0026473282, 0.23500322, 0.18627633, -0.1737153, -0.00033940366, -0.165556, 0.13496937, 0.06643819, 0.14813082, 0.081560515, 0.0008073603, 0.0027894045, 0.031580508, -0.021727495, 0.043531764, -0.034554042, -0.032711606, 0.06523959, 0.05015293, -0.3393536, -0.101680145, -0.14568396, -0.0998653, -0.19249041, 0.11082618, 0.09141974, 0.13365453, 0.08483142, 0.04638639, -0.16465065, 0.02217763, 0.05501527, 0.009615721, 0.24072437, -0.0862577, 0.01703465, -0.32908946, -0.06093267, -0.03821037, -0.24505734, -0.17753315, -0.023072032, -0.16696186, -0.56158257, 0.046232093, 0.16064663, 0.034445412, 0.1659924, 0.10154035, -0.13148458, 0.05189562, -0.062569775, -0.12722649, 0.019672656, -0.14369497, -0.14320382, -0.12145497, 0.07656669, -0.12450321, -0.13669714, 0.16132891, -0.066418685, -0.17585433, -0.016393265, -0.045734823, -0.06545468, 0.07330381, 0.07792873, 0.077878825, -0.012058018, -0.045021173, -0.016874922, 0.18887274, 0.11385939, 0.06423297, -0.1531818, -0.20953783, 0.056642126, -0.1278852, -0.076697305, 0.09013108, 0.07066546, 0.13318366, 0.10633804, 0.21555568, -0.09437424, 0.09583608, -0.04840062, 0.109829485, 0.26182216, 0.01983631, 0.07351007, 0.100662276, 0.059261285, 0.036510468, 0.10476142, 0.10099643, 0.04719086, 0.03248006, 0.134377, -0.0056284238, -0.11157897, 0.05639264, 0.018829992, -0.16036905, 0.011674482, -0.07859145, -0.17980283, 0.1978837, -0.09125957, -0.27608675, 0.067750975, -0.07607181, -0.063592084, 0.25880867, -0.1203925, -0.034508422, 0.050297715, -0.02785338, -0.015531181, 0.052875575, -0.0050368686, -0.061675876, -0.064084806, -0.06506903, -0.01597262, 0.010284188, 0.12657507, -0.16204292, 0.022440214, 0.103410155, -0.15791455, 0.09338727, 0.084184654, -0.05367202, -0.07849794, 0.093539044, -0.08735158, 0.008072764, -0.17774862, -0.0040729614, -0.10076268, -0.101018876, 0.02569181, -0.1390166, -0.15279168, -0.19458787, 0.046808183, -0.09066159, -0.08049617, -0.085831754, 0.05218942, 0.05781733, 0.23501576, -0.24236275, 0.084383644, -0.012589256, 0.018118517, 0.074364915, -0.012634241, 0.0368943, -0.20340343, 0.033608347, 0.023126172, 0.185065, 0.10439483, -0.07934599, 0.26659036, -0.15104522, -0.027273651, -0.020820461, 0.020594409, -0.033541158, 0.060449183, -0.05314842, -0.001525813, -0.025703967, -0.043859977, 0.008226726, -0.043422263, -0.05203455, 0.043779004, 0.02640284, 0.03923653, 0.039773747, 0.2471518, -0.033393968, -0.0037659686, 0.16633712, 0.028061766, 0.23770143, 0.3023695, 0.021269105, 0.19170263, 0.1485482, -0.0003820394, 0.19080918, 0.27950856, -0.029081533, 0.0495222, -0.3244355, 0.12934184, -0.00039423618, -0.22339934, 0.30941585, -0.042146903, -0.06787967, 0.049466565, -0.07369644, -0.10000999, 0.24777064, 0.075681806, -0.046647344, -0.13540904, 0.19183739, 0.015738232, 0.07659983, 0.030440856, 0.08577365, -0.16524558, -0.037266515, 0.22599377, -0.099489465, -0.22299325, 0.104447074, 0.040497944, 0.23232853, 0.29381618, 0.01675641, 0.11418325, -0.13422568, -0.14628278, -0.017694235, -0.15055701, -0.01733582, -0.12027697, 0.13026005, 0.002160054, -0.10471435, 0.027816912, 0.012244926, 0.07697072, 0.1889637, -0.03415024, 0.06082008, 0.1042576, -0.04765576, 0.24941634, 0.14331375, -0.26173702, -0.09992565, -0.02045991, 0.28306314, 0.064381905, 0.048371274, -0.014439367, -0.2401975, -0.09284395, -0.15894364, -0.2149431, -0.037472114, -0.030781243, 0.08123658, -0.047185343, 0.022531195, -0.018474849, 0.1428376, 0.0039303806, -0.09669042, -0.119311236, 0.029371347, 0.031866208, 0.11332002, -0.24098596, -0.2059634, -0.12090312, -0.04159276, -0.04522074, -0.01589548, 0.023259765, 0.14324646, 0.04195265, 0.14659515, 0.15429576, -0.08458891, 0.10396438, -0.06853494, -0.08424194, -0.21019243, -0.04444908, 0.005069965, -0.07533608, 0.10860856, 0.14508417, 0.13723876, 0.043200046, -0.035860036, -0.19778474, -0.030027099, -0.06910459, -0.12156587, -0.07415003, 0.16143063, -0.1521076, -0.33481947, 0.04999982, -0.031590153, -0.17409088, -0.17987949, -0.023490584, -0.2767455, -0.25534764, 0.03404658, -0.09854531, -0.2632499, 0.13608088, 0.05335857, -0.051428318, 0.02786679, 0.01218276, -0.08278431, 0.19328243, -0.01856076, -0.068764724, -0.033411905, 0.07592492, 0.090361886, -0.1847472, -0.056659855, 0.120874755, -0.017318912, -0.102880254, 0.16794878, -0.0017358632, 0.059114855, 0.16483542, 0.15940979, -0.055204637, 0.029211663, 0.043275155, -0.15866756, -0.010354012, 0.14492372, -0.16321245, -0.31279203, -0.13730751, -0.13166186, -0.10887311, -0.070418924, 0.07072517, 0.049118713, -0.09405689, -0.119010426, -0.1340265, 0.18610317, 0.02903912, 0.057801697, -0.057077773, -0.018549278, -0.24265665, 0.0029909573, -0.25938898, -0.20691039, 0.0059331404, 0.03879631, 0.03180657, 0.114152424, -0.00669261, -0.037033785, -0.05822143, 0.11312163, -0.307591, -0.07354745, 0.14033215, -0.035786334, 0.10162029, 0.10414234, 0.20696692, 0.23485006, -0.097330965, -0.05704321, -0.031156031, -0.08329986, -0.05311643, 0.00689076, -0.13408542, -0.058540735, -0.10011179, -0.07244699, 0.040971003, -0.05449357, 0.0723709, -0.048819724, 2.5676458e-05, 0.055992324, 0.005017782, 0.039555795, -0.012571051, 0.069507845, -0.06579035, 0.038232666, 0.075557716, -0.16879997, -0.113921, 0.07409524, -0.0049249134, 0.019954732, 0.055112414, 0.0636017, -0.06100552, 0.0062543014, 0.070121914, -0.015336746, -0.0429345, 0.060972102, -0.04555923, -0.09852783, 0.024930442, -0.06285337, 0.0035992733, 0.003937094, -0.1085664, -0.07108117, 0.0031519209, -0.0375992, -0.06421122, -0.040525492, -0.05375412, 0.007021567, -0.011886113, -0.112280354, -0.032497577, -0.07195862, -0.06415267, -0.041675985, -0.0387255, -0.086303785, -0.08203431, -0.08427317, -0.006872685, -0.18555452, -0.13952072, -0.11722426, -0.18262337, -0.15593679, -0.03481031, -0.13182776, 0.0010622037, -0.013921382, -0.058856074, -0.037051756, -0.07374079, -0.057807367, 0.053540625, -0.052596316, -0.024777614, 0.023379376, -0.060003623, 0.02742152, -0.08082385, -0.039384063, -0.023234798, 0.057631698, -0.042850837, -0.09674529, 0.032780264, -0.11492645, -0.005900597, -0.04972905, -0.045908913, 0.009125945, 0.013051396, -0.05699109, -0.15745144, -0.049059737, -0.05424309, 0.047588885, -0.046980213, 0.046193928, -0.052945044, -0.050037842, -0.07800714, -0.17131156, -0.092876144, -0.09922962, -0.15025254, -0.08845284, -0.10173506, -0.04689888, -0.017571686, -0.11113784, -0.108924285, 0.030255526, -0.020004971, 0.029512066, 0.051385775, 0.02925408, -0.0694553, -0.018140532, -0.058479607, -0.09200249, -0.03763733, -0.05195158, -0.01939231, 0.0017160005, -0.13686399, -0.007828649, -0.09722364, -0.056874752, -0.112765014, -0.067522906, -0.07898573, -0.121808596, -0.042707816, -0.018369373, -0.06332664, 0.029865373, 0.09441221, 0.0019697098, -0.097963735, -0.070254, -0.041111533, 0.040590413, 0.018077381, -1.5109777e-05, 0.07090953, 0.021817364, 0.040873803, 0.0017617643, 0.04810016, -0.018651664, -0.007956939, -0.07160962, 0.02793366, -0.031684328, -0.058774874, -0.08121475, 0.019660186, -0.029238623, -0.045817245, -0.04413604, -0.04858017, -0.021857878, 0.13379309, -0.026256438, -0.032855537, -0.05532608, 0.010558394, -0.1090331, 0.103119865, 0.07228648, -0.05189585, -0.042797744, 0.020190677, 0.06828994, -0.036506455, -0.022108184, -0.011911878, 0.068833366, -0.07102869, 0.06957503, -0.032254666, -0.04581594, -0.041000187, -0.04603938, 0.07065335, 0.013889931, -0.08745457, -0.09931742, -0.01870819, -0.11306551, -0.14191659, 0.006733949, 0.00029029476, -0.042528268, -0.06681484, 0.014425864, -0.13304742, -0.07107303, -0.19795117, -0.08984386, -0.026683176, 0.01229809, -0.03762665, -0.044508573, -0.06378763, 0.037391316, -0.07513105, -0.030632528, -0.010422781, -0.0033056065, -0.008989938, -0.020935146, 0.050218713, 0.05125054, -0.056050368, 0.0114523135, 0.06314284, -0.09120017, -0.08861123, 0.008198941, -0.032057885, -0.10890449, 0.10062679, 0.028395422, 0.15234615, 0.019642506, 0.005432656, 0.05873337, -0.01641788, -0.026890175, 0.055612583, -0.06525468, 0.085445054, 0.014751706, 0.02639901, 0.020232871, -0.009991444, -0.08793063, -0.04745872, 0.11743138, -0.21784113, -0.20335431, -0.1708949, -0.07850428, 0.04642849, -0.013052143, -0.0629644, -0.048817236, -0.14021945, -0.061651967, -0.054282315, -0.08391623, -0.15554637, -0.15160882, -0.09296983, -0.053883094, -0.019269697, -0.09272967, -0.019580375, -0.051075, 0.010495976, 0.06644352, 0.061113134, -0.007956192, -0.06589997, 0.02955743, -0.04333292, 0.10496628, 0.021988444, 0.027299007, -0.09353804, -0.0844301, -0.06856418, -0.12802415, -0.08078729, -0.13303177, 0.078145266, -0.07968757, -0.13227274, -0.036428, 0.039032012, 0.09537566, -0.15724677, -0.10078203, -0.11067077, 0.056840822, -0.019426517, -0.021342844, 0.029209584, 0.029826999, 0.054455817, -0.0083240345, -0.02183314, -0.058970578, -0.02798706, -0.04701194, -0.064006455, -0.06500121, -0.08675136, -0.0037594219, -0.16355667, -0.05667404, -0.096231595, 0.011463315, -0.031326056, -0.047334984, -0.067539334, 0.03139317, -0.06283904, -0.016993083, -0.015389459, -0.05453255, 0.008073285, 0.05834247, -0.044662632, 0.007029906, -0.0085666105, -0.020916108, -0.03888203, -0.025661904, 0.021937944, 0.17093977, 0.023190346, -0.064476416, 0.021248143, 0.046029665, 0.059800204, 0.08158102, -0.0021383932, -0.014031702, -0.047636848, -0.108821146, -0.10830894, -0.033811454, -0.1467016, -0.06794232, -0.058426104, -0.060988877, -0.033984154, -0.1125804, -0.09625663, 0.0068991575, -0.061142575, -0.08317385, -0.0044669467, -0.16434765, -0.06831032, -0.017290242, 0.036654204, -0.12056706, -0.07549107, 0.034584675, -0.030546019, -0.030598091, -0.038130343, -0.07854242, -0.071670294, 0.006906828, -0.047281303, 0.0077533415, -0.019440383, -0.0038361233, -0.03431818, -0.08040413, -0.098197766, -0.09303778, -0.024212793, -0.008101365, -0.021397054, 0.052634478, 0.004112756, 0.041676607, 0.043997478, -0.0376248, 0.060598213, -0.06529734, -0.0770966, -0.12532005, -0.12898976, -0.092658825, -0.0906822, -0.11830582, -0.11439982, -0.044732925, -0.01413045, -0.08551595, -0.0012987123, -0.00793153, -0.11662257, -0.045592703, -0.0897217, -0.12467137, 0.010573182, 0.039487395, -0.092569485, -0.045441024, -0.0585502, -0.06359431, -0.07636411, 0.024085548, 0.0017635366, -0.0124989385, 0.035714213, 0.021756321, -0.12217093, 0.004471922, 0.06927234, -0.0058359914, -0.0046683513, 0.06977517, -0.065105185, -0.0046769744, 0.0059048613, -0.010401132, 0.013373821, -0.0867204, -0.12581189, -0.05533184, -0.13919234, 0.11951591, -0.08359601, 0.01124181, 0.07158286, -0.19417313, 0.038234383, 0.01640481, -0.07957542, -0.08069388, -0.030308785, 0.0186466, -0.0809485, 0.0047523566, -0.047741123, -0.078319274, -0.028025592, -0.05879626, -0.11256753, -0.13730179, -0.10740372, 0.032860298, -0.04441777, -0.0845764, -0.10149446, 0.056950253, -0.0087137595, -0.091388375, 0.053594258, 0.06542693, -0.1306848, -0.06130505, 0.003927753, -0.15456527, -0.046456873, -0.05481506, -0.059652597, -0.08984289, 0.011068073, -0.024117557, -0.072804205, -0.0054554986, -0.10475712, -0.06302453, -0.06529485, -0.0007829349, -0.061041865, -0.116327375, -0.091197796, 0.010556255, -0.04658641, -0.045189437, -0.0015164493, -0.03248986, -0.16484632, -0.053892855, -0.024059353, 0.024901615, -0.02369453, -0.08630336, -0.071962394, -0.05459089, -0.023999209, -0.019007085, -0.12796094, -0.025414173, 0.030478418, -0.044447064, -0.08786078, -0.04840341, 0.04612032, 0.0024773276, -0.01991386, 0.0654131, -0.050459336, -0.088177785, -0.0338865, 0.05768851, 0.038997922, 0.025121633, 0.10504813, -0.008495441, 0.014676566, 0.07146423, 0.05592196, -0.047809597, -0.057292335, -0.074531935, -0.10015309, 0.04403498, -0.13743597, -0.106941424, -0.09090512, -0.0018759263, 0.028346712, -0.059060544, -0.0845772, -0.025019212, 0.038036145, -0.06381443, -0.06608671, -0.109956354, -0.12054323, -0.027142787, -0.14004591, -0.066381924, -0.020846458, -0.14538713, -0.12545247, -0.15483509, -0.08626924, -0.056947645, 0.021182569, -0.19686724, -0.15768524, -0.1728346, -0.15045424, -0.07598575, -0.12599304, -0.06311658, 0.024932439, -0.061342515, 0.020638656, -0.018611373, -0.049271446, -0.12010615, -0.020627905, -0.14288512, 0.010530988, -0.0032016402, 0.03572302, -0.12989374, -0.00025982579, -0.023850193, -0.037378233, -0.13971348, 0.0684303, -0.03893682, -0.19481367, -0.060255866, -0.10846953, -0.18884887, -0.1656383, 0.030697139, -0.081358634, -0.14230601, 0.03554004, 0.053023554, -0.07840033, 0.1091369, 0.02306253, -0.016562317, -0.113405526, 0.05689807, 0.013141755, 0.030487278, 0.026962789, 0.06636522, -0.05516456, -0.080078535, 0.0031096912, -0.12391199, -0.14716803, -0.039418243, -0.055754695, 0.09293295, 0.18618736, -0.044611126, 0.09771405, 0.0018835246, -0.058334883, -0.0030516258, -0.051393516, -0.24653167, -0.15689655, 0.10771451, -0.27484408, -0.2934508, -0.15575525, -0.20505968, 0.029312953, 0.038742594, -0.024579698, 0.08182784, 0.15260088, 0.1589878, -0.16516298, -0.050790124, 0.10093027, -0.20763846, 0.008843061, 0.095805556, 0.0030655034, 0.23597741, -0.015606677, 0.010331176, 0.17224228, 0.08850959, -0.1264694, -0.12664574, -0.009072128, -0.009662609, 0.19987534, -0.06832815, -0.006023347, -0.057749666, -0.18947852, 0.02707196, 0.041406047, 0.03322103, -0.09848337, -0.14923646, 0.1501494, 0.20313704, 0.007968895, 0.27556673, 0.14877705, 0.029067215, -0.1040741, 0.09566804, 0.04164044, 0.11833547, -0.110800214, 0.28679848, 0.34810677, 0.091595, 0.20523731, 0.035395585, 0.040976834, 0.030001363, -0.05618259, 0.03440386, 0.01703386, -0.03614896, 0.010970041, -0.053853195, 0.010334714, 0.048487734, 0.24905722, -0.13429259, 0.051897887, 0.052722167, -0.12397373, -0.021923574, -0.2697387, 0.05872665, 0.0021317122, -0.05740312, -0.052477356, -0.27112988, -0.28138745, -0.12746418, 0.018028954, -0.2525376, 0.0282478, 0.024400605, -0.058392145, 0.099240325, 0.013136241, 0.017380154, 0.20509614, 0.042141255, 0.0893362, -0.11615626, 0.022819662, 0.08183861, -0.13597223, -0.21181364, -0.040101003, 0.07831501, -0.059689574, 0.10397487, -0.19893782, -0.015996499, -0.0044586463, -0.037012246, -0.13088685, -0.018218426, 0.19367781, 0.011318278, 0.17399931, -0.013326781, -0.035828944, -0.25149408, -0.100606315, -0.071858495, -0.06567444, 0.08977197, -0.2834671, -0.124398835, 0.008040753, 0.071886756, 0.0007949667, 0.029692953, 0.011195154, -0.17965406, -0.31116432, -0.24623743, -0.46373597, -0.101176456, 0.005601413, -0.100311875, -0.031706877, -0.03747131, -0.058676757, -0.07332642, -0.040112335, -0.028032035, -0.057603564, -0.081242315, 0.2912883, -0.20548108, -0.3639202, 0.0047042575, -0.21588773, -0.26912642, -0.2440227, -0.26261598, -0.10094622, -0.25364706, 0.039827, 0.096884266, 0.082238235, 0.20225786, -0.013025066, 0.01398536, 0.20393467, 0.21483736, 0.121930115, 0.21382067, 0.024559781, -0.18782198, 0.05491657, -0.29299194, -0.36786908, 0.02726668, 0.055414837, -0.09309261, -0.01596776, -0.030573798, -0.013860353, -0.062383253, -0.037367098, -0.098628454, 0.1093403, 0.09635277, 0.071631454, 0.024144148, 0.07549881, 0.06450185, -0.029467462, -0.016110778, 0.0105494, -0.06806689, -0.11080973, 0.027107077, -0.027045036, -0.029642733, 0.08642319, 0.18392631, 0.12551524, 0.12486543, 0.010151855, -0.021515356, -0.048455253, 0.06270148, 0.053627323, -0.0019024145, 0.01323017, -0.0006054258, 0.056265872, -0.040783823, 0.09432745, 0.21172543, 0.07108119, 0.107898116, -0.107461296, -0.23275688, -0.08512846, -0.29467002, -0.094702765, -0.054365773, -0.25467372, 0.035841886, 0.18875675, -0.19084029, 0.22762416, 0.17485449, 0.23133308, -0.035249997, 0.09696177, 0.21183246, 0.24053608, 0.34504557, -0.02275355, 0.18866663, 0.25656357, 0.055408165, 0.08889228, -0.008695274, -0.05855646, 0.411294, 0.18598044, 0.15509729, 0.23088187, 0.098001465, -0.028973881, -0.078022525, 0.027121183, 0.26856488, -0.2829993, -0.21575575, -0.21275277, -0.09225649, -0.061057772, 0.00087499846, -0.10144478, -0.05620944, -0.0073747076, 0.017175814, -0.06315221, 0.04598766, -0.023649205, 0.00860847, -0.00044023973, -0.088894375, -0.1804648, -0.22686136, -0.14704707, -0.16803783, -0.14773984, 0.10541331, 0.03253308, 0.14219359, 0.10474651, -0.16745691, 0.04844216, 0.18806405, 0.15677345, 0.2468017, 0.15674953, -0.022021327, -0.0010561366, -0.02921894, -0.023752492, -0.010479605, -0.017023688, -0.05353039, -0.024287526, -0.05011995, 0.067233525, 0.0038732032, 0.105549745, 0.13902989, -0.05883773, -0.1560806, -0.18732955, -0.1978057, -0.19740266, -0.2897776, -0.055664636, 0.13928317, 0.105686285, 0.17468983, -0.054966338, -0.2857049, -0.29908964, -0.38516462, -0.35178524, -0.29664922, 0.054091617, 0.06662392, -0.030440323, 0.008937645, 0.039197873, -0.05027676, 0.04056795, -0.026197415, 0.0015432027, -0.21625708, -0.24029928, -0.10303745, -0.18891972, -0.07885794, -0.099203154, 0.24588428, 0.016431611, -0.117041886, 0.10781326, -0.024205592, 0.07168976, 0.16929273, -0.082770884, -0.11450097, 0.038676765, 0.11753277, 0.004517783, -0.0019702052, -0.099885814, -0.1112849, -0.19573762, -0.2542867, -0.03334388, 0.21672553, 0.045370586, 0.12497271, -0.045149244, 0.055104908, 0.23495686, 0.07711124, 0.15176944, 0.10495296, -0.03710173, -0.07962447, 0.04432939, -0.00037608962, -0.0447425, 0.01757251, 0.17252618, -0.17860249, 0.019037712, 0.20762725, -0.01594423, 0.04992562, 0.0052863094, 0.059351366, -0.013856664, -0.074734665, -0.043555487, 0.02505876, 0.022689555, -0.08191683, 0.021782553, 0.21529959, 0.007351633, 0.13386084, 0.18459424, 0.11428385, 0.15144487, 0.28483403, 0.07312702, 0.047415584, -0.112572804, -0.17132957, -0.06813225, 0.033580992, -0.1204312, 0.082134664, 0.11806219, 0.1466198, 0.11129417, -0.39620116, -0.32263532, -0.11718412, -0.56292856, -0.28176022, -0.35480624, -0.12355573, 0.13827519, -0.2252562, -0.05262143, 0.19529767, 0.267383, -0.07574148, 0.013747535, -0.035755683, -0.030649677, 0.022532731, 0.03434444, -0.12379652, -0.074090146, -0.24769661, -0.12947685, -0.1468551, -0.03093487, 0.061033126, -0.08787724, -0.10879441, -0.17753306, 0.16255243, -0.0073070093, -0.11866881, 0.11851257, 0.060806368, 0.15419273, -0.14176351, -0.4354212, 0.15781082, 0.07533377, 0.037476536, 0.05167706, -0.09293598, -0.03177934, 0.06500338, -0.010587873, 0.18217319, -0.13484906, -0.06753071, -0.06638088, -0.3770238, -0.1441439, -0.0032534539, -0.01948174, -0.08869967, 0.12215522, -0.15867195, -0.10731936, 0.009716787, -0.4757286, -0.3304647, -0.16490154, -0.40333903, -0.15100965, -0.0090939235, 0.026623767, -0.13341498, 0.047954213, 0.25604606, -0.06790282, -0.01326598, 0.06470538, -0.07742809, -0.04388929, -0.051925957, -0.03279811, -0.15872587, -0.036980048, -0.10941199, -0.054780517, 0.07153446, 0.08460941, 0.1348322, 0.23234186, 0.016549934, 0.014936241, -0.03349515, -0.038615152, 0.055830207, 0.10774227, -0.1381895, -0.088094905, -0.11060551, -0.11435001, 0.015843604, -0.007133379, -0.11744059, 0.04654721, -0.14744449, -0.031596806, 0.04947808, 0.031383246, -0.14342645, -0.054341294, 0.183681, 0.03202192, 0.009490502, 0.14490046, 0.053424142, 0.0726232, 0.07370035, 0.027903365, 0.026419502, -0.1823946, -0.06841984, -0.14264773, -0.2907581, -0.14487061, -0.0109046055, 0.10982505, 0.15545096, -0.031253792, 0.02734992, 0.03874649, 0.014451657, 0.035268188, -0.022532647, -0.044276726, -0.29439273, -0.20235361, -0.12549314, -0.0019568533, 0.06605006, 0.00027805325, 0.14024761, 0.05182133, 0.14662538, 0.19532487, 0.18087618, 0.1015914, 0.14552619, -0.009000591, -0.17391819, 0.08138319, 0.0012428202, 0.1236321, -0.18502364, -0.36236462, -0.3385395, -0.34991583, -0.49144778, -0.36216965, -0.15879825, -0.12992904, -0.22563563, -0.057822734, 0.07374412, -0.11669252, -0.22360627, -0.22098738, -0.19888029, -0.23564866, 0.026622713, -0.088261686, 0.088679895, 0.039389778, -0.036915146, -0.023927089, -0.02607861, 0.02847547, -0.0249605, 0.07241502, 0.040149808, -0.39950234, -0.12670647, 0.32092258, 0.20106076, 0.15584475, 0.015949758, 0.06790953, 0.25713375, 0.10937313, -0.019570332, -0.06000751, -0.017802859, -0.13630162, -0.045347113, -0.108191915, -0.17708355, -0.12888423, 0.04533756, -0.026695292, -0.0775677, 0.04620586, 0.050880212, -0.068292186, -0.07276872, -0.011887761, -0.045195498, -0.073354445, -0.027228314, 0.021319393, -0.05137528, 0.040630285, -0.0064767157, -0.0854442, 0.031225832, -0.0623549, -0.02313735, -0.05335419, -0.04439478, -0.09135159, -0.10814303, -0.072870605, -0.04563206, 0.0063989777, -0.088246964, -0.020126075, 0.034658056, 0.044161, -0.04673574, 0.04135648, 0.06458433, -0.0051268376, 0.016758282, -0.057594903, -0.007383407, -0.024326188, -0.03616348, 0.0030151724, 0.016201137, -0.009618516, 0.033173807, -0.053780653, 0.011093467, 0.04059451, 0.05763212, -0.058629714, -0.05236729, -0.05692449, -0.021044012, -0.047027245, -0.036462378, -0.00058780186, -0.019596942, 0.049937643, 0.016241513, 0.0060047256, 0.011415888, -0.051581632, 0.030027993, -0.044339783, 0.010080663, -0.0349324, 0.0065944246, -0.062885605, -0.04370072, 0.041643523, 0.04673952, 0.043499447, -0.03843085, 0.029458843, -0.026036667, -0.059317853, 0.0096162725, -0.09417953, 0.030907653, -0.067998655, -0.0128139965, 0.0315613, 0.025893562, -0.11613234, -0.042509034, -0.06814464, 0.015563339, -0.008651246, -0.011240512, -0.019278873, -0.0023548543, -0.010553046, -0.09216044, -0.06229385, 0.030098634, -0.048395287, 0.004308517, -0.019283153, 0.016678046, -0.07153754, -0.0068917456, -0.098186836, -0.07028096, 0.035192844, -0.013348107, -0.0634651, 0.029465629, -0.08164531, -0.018498205, -0.058426518, -0.016680757, -0.0780535, 0.024356734, -0.070910394, -0.047558047, -0.07504117, 0.030284116, -0.038394347, -0.062008858, -0.07375652, 0.0034422933, -0.049694512, -0.022399072, 0.025957985, -0.009631917, 0.027010642, -0.077079765, 0.063094646, 0.041530192, -0.05820882, -0.044929568, 0.03394209, -0.02411836, -0.06272458, 0.024887668, -0.07944581, 0.03984658, -0.10218704, -0.024316082, 0.013051692, 0.0022113174, -0.039279707, -0.0043919315, -0.0009403636, -0.032191675, 0.031188011, -0.05734141, -0.010041627, -0.083425514, -0.1077792, -0.05888048, -0.07224914, -0.08357059, -0.029484406, -0.03332139, 0.0008098377, 0.014568859, 0.007323208, -0.0018779845, 0.011919134, -0.084397614, -0.010577521, -0.055610523, -0.06794582, -0.086810976, -0.034801487, -0.056296054, -0.025106346, -0.031540677, 0.011228521, -0.019341588, -0.08708939, 0.0040339725, -0.12946323, -0.00049603434, -0.060068782, -0.0019375054, -0.013874085, 0.0072530317, -0.01818986, -0.02439713, 0.06287042, 0.02996315, -0.060479697, -0.0018790872, -0.12800194, -0.07571261, -0.076650165, -0.015207274, -0.075556986, -0.042651396, -0.00035469868, -0.07970755, -0.0536295, 0.0021538164, -0.06013979, -0.005735521, -0.061533447, -0.060392816, -0.111609876, 0.055616666, -0.056722496, 0.037530705, -0.017448869, -0.002098903, -0.070870936, -0.063702315, -0.032943968, -0.012909051, -0.039610356, 0.009241176, -0.008466467, -0.058398988, -0.0274376, 0.016614754, -0.06426597, 0.014695499, -0.000308816, -0.061397757, 0.01702989, -0.012856515, 0.02004257, 0.01855119, -0.038444545, 0.057354752, -0.06875882, -0.03966974, 0.033238545, -0.038295474, 0.05064834, -0.00790075, -0.061158765, 0.043695237, 0.027071327, -0.018997576, 0.030895384, 0.016329855, 0.039267316, 0.035636157, 0.03190541, 0.018184457, 0.064824425, -0.002083891, 0.0026822963, -0.07069544, 0.05279263, 0.03440401, -0.0043782815, -0.04937968, 0.061757203, 0.044417944, -0.030855883, 0.05006748, 0.0057084034, 0.024343919, 0.07362414, -0.0013220012, 0.06647378, -0.04657963, 0.003290717, 0.033150014, -0.04385522, -0.06145335, 0.024372421, -0.01832743, -0.09627926, -0.042223573, -0.06212778, -0.08415324, -0.036849696, -0.015432347, 0.0056272754, -0.063678525, -0.011096455, -0.060231756, 0.032783292, -0.029908732, 0.053780288, -0.056239396, -0.015367326, 0.041748673, -0.059589256, -0.069868445, -0.06042362, -0.05772148, 0.0046852827, 0.049499825, 0.0644387, -0.03152952, 0.044129506, 0.037970953, -0.013208522, -0.077490956, -0.022350758, -0.031078182, 0.046858627, -0.068262495, -0.022180527, 0.000940899, -0.07317277, -0.021918515, -0.052969057, -0.03352364, -0.022356452, -0.0055381367, -0.032478794, 0.049971987, -0.07057045, -0.06918324, 0.038545843, 0.049273405, -0.025155375, 0.025346106, 0.011814755, -0.049892012, 0.05988049, -0.077280596, -0.065416224, -0.026277361, -0.04626925, -0.09750322, -0.09771376, 0.03683158, -0.004576046, -0.08222474, -0.091486715, -0.092808925, -0.008911338, -0.017140137, -0.009899946, 0.01269137, 0.0047657643, -0.07220146, -0.017459894, -0.030341975, -0.002617117, -0.067290016, 0.03296871, 0.014316026, -0.02624028, 0.041860342, 0.03409074, -0.009280426, -0.018202733, -0.03326525, -0.078443326, -0.079288416, -0.10404311, -0.003015268, -0.049028758, -0.07705891, -0.051601633, -0.03772432, -0.05858006, -0.028162107, -0.051301762, -0.05272935, 0.0004339166, 0.0046038153, -0.053571027, 0.03322066, -0.0037183883, -0.0711112, 0.051624835, 0.013722483, -0.058423243, -0.05674936, 0.039302196, -0.0358422, -0.053639058, 0.016465751, -0.069081604, -0.03801156, 0.038696207, -0.094948016, 0.03803365, -0.014364942, -0.072175026, 0.022648338, -0.097639725, -0.025926972, 0.00012711767, 0.0038097904, -0.030394197, -0.033663318, -0.019505152, 0.009237417, -0.012929947, -0.060219195, 0.042464428, -0.042462517, -0.041252725, 0.008461205, 0.009255437, 0.0027900734, -0.053453192, -0.023196839, -0.02778198, -0.022593252, -0.03637925, 0.022169199, -0.06426886, 0.062269296, -0.030791752, -0.036759127, -0.0053222263, -0.024332881, 0.051824372, -0.0738032, -0.098430134, 0.036333244, -0.030355126, 0.0008781645, -0.04131034, -0.09811304, -0.0740377, -0.0150584495, 0.007044742, -0.09359926, -0.049927056, -0.0070090815, -0.060911257, 0.040325727, 0.009314991, -0.080973625, 0.012453841, 0.027758572, -0.09572961, -0.02384033, -0.057253674, 0.020185644, -0.07951257, 0.042798802, 0.010159426, 0.033958975, -0.037255913, 0.0028833903, 0.002892903, 0.049359076, -0.014214219, -0.09062125, -0.07915509, -0.021695517, 0.05508024, -0.062481172, -0.027085384, -0.07828517, -0.029244013, -0.04762348, -0.098393165, -0.0121789165, -0.018917833, -0.04136577, -0.019700576, -0.0723381, -0.11204388, -0.06405826, 0.007878916, -0.080985375, -0.08698913, -0.07189822, 0.009994777, -0.069972776, 0.009891142, -0.09846756, -0.022493148, 0.020992756, 0.041119073, -0.045376286, -0.09014965, -0.05234081, -0.06385555, 0.01900375, -0.058650177, -0.062296394, 0.033311553, 0.0029644773, -0.07359665, 0.020576986, -0.07544536, -0.040943354, -0.0664194, 0.075306416, 0.02099168, -0.055347115, 0.011236616, -0.047840115, -0.024577323, -0.058326207, -0.013514968, 0.04645233, 0.06060703, 0.060572937, 0.033007514, -0.079677805, -0.02169691, -0.07624372, -0.0124097895, -0.0688786, -0.015725184, -0.003554925, 0.020086514, -0.04079884, -0.044277895, -0.013688363, -0.055371806, 0.010114576, -0.018350612, -0.011713841, 0.033343952, 0.02982849, 0.0023560363, -0.06708943, 0.04870337, 0.021681929, 0.019252945, -0.025951512, -0.022637274, 0.039014604, -0.004013017, -0.03299876, 0.050653882, -0.019389158, -0.094718315, -0.07259212, -0.033506293, 0.008889831, -0.030358566, 0.032740854, 0.059974212, -0.017959636, -0.102739744, -0.07915435, 0.046348803, -0.036858, 0.018792393, -0.06776465, -0.025309246, -0.069422685, -0.03149646, -0.0705824, -0.0033435076, -0.043118075, -0.014073285, -0.07260524, -0.03776391, -0.030427668, 0.02176082, 0.016529325, 0.024937067, -0.01666054, -0.07417023, 0.03323666, -0.04231721, 0.04660143, 0.0011629472, -0.025971519, -0.07323945, -0.0144153, -0.05431653, -0.027280401, 0.02720294, 0.013239069, -0.06367563, -0.06536692, -0.054949075, -0.07571102, -0.07757299, -0.06982697, -0.02817917, 0.06376466, 0.006333737, 0.0015546285, 0.049243987, -0.056734525, -0.059644185, -0.05187027, -0.087413855, 0.0021790962, -0.2675892, -0.13655998, -0.09275216, 0.018969698, 0.011164416, -0.044499796, 0.1934698, 0.025403034, 0.0313584, 0.17347218, -0.073307574, -0.043462772, -0.044018097, -0.1594557, -0.023254456, 0.0832973, 0.062414758, -0.12747137, -0.11091402, -0.17846255, -0.15571076, -0.12229612, -0.11425359, -0.006941226, 0.1807272, 0.09526764, 0.35837397, 0.076332256, 0.16499878, 0.17701446, -0.12270464, -0.041107148, -0.080097064, 0.06321829, 0.14704445, 0.06930017, -0.183018, -0.18291694, -0.23479249, -0.050134536, 0.051393542, -0.11902333, 0.23192991, 0.3468421, 0.07471067, 0.03916928, 0.0044863094, -0.082584865, -0.17041945, -0.11345583, -0.10368259, 0.0881404, 0.03115676, -0.18602669, 0.04796374, -0.008341009, 0.2429261, 0.065378904, -0.04349118, 0.10087513, -0.29208368, -0.24370645, -0.15015078, -0.038777187, 0.037440244, 0.0010508213, 0.083079, 0.075427026, 0.056111783, 0.0069104577, 0.03304683, 0.0438271, 0.17314681, 0.07703925, 0.005785355, -0.11296363, 0.18014728, -0.014224749, 0.02962008, 0.057618745, -0.24523179, -0.20051485, 0.03929179, -0.20006804, 0.2395415, 0.088451155, -0.20701285, 0.45489654, 0.46032786, 0.15183827, 0.11394351, 0.058773424, 0.11965308, 0.062347833, -0.02862174, 0.007244524, -0.21125728, -0.18807158, -0.115750074, 0.23827443, -0.08991682, -0.1418915, -0.18081617, -0.037293833, -0.24916676, -0.109172866, -0.08309025, -0.067896545, -0.5120691, -0.37473673, -0.20248833, -0.090843685, 0.11293886, 0.3151406, 0.05511959, 0.26272768, 0.29039824, 0.28177476, 0.011932722, -0.0734309, 0.13923684, 0.11839983, 0.06677432, -0.20983994, -0.068137944, 0.058459744, -0.50568813, -0.40132263, -0.30721933, 0.33440298, -0.083142385, -0.21153088, 0.35334036, 0.37948233, 0.028585866, 0.020395752, 0.011510986, -0.054063458, -0.050432928, -0.08710203, 0.042160857, -0.025690693, 0.02933014, 0.07693951, -0.14823, -0.20379382, 0.021374572, -0.16551289, -0.16327184, -0.26541156, 0.17805809, 0.3699183, -0.06323189, 0.22240795, 0.21486309, 0.1593361, 0.026446486, -0.22918887, 0.010406811, -0.3222442, -0.3285273, -0.17549892, -0.10011476, 0.05416679, -0.019091116, -0.088975966, 0.055729516, 0.009139373, 0.07415056, 0.01078654, 0.037800007, -0.013930344, -0.023620857, -0.076986484, -0.054590937, -0.057258796, -0.055863164, -0.064627565, 0.0061960453, 0.023250192, 0.018278828, -0.09015234, 0.026382817, 0.1683057, 0.055679604, 0.012954057, -0.37539986, -0.41716275, -0.2513144, -0.17896691, -0.13220799, -0.10634139, -0.113851376, -0.059107378, 0.035921935, -0.09036468, 0.31264287, 0.20417121, 0.032774422, -0.01532309, 0.032477375, -0.053767692, 0.047066905, 0.038744684, 0.013172525, 0.05837995, 0.003997801, -0.24038272, -0.06691712, 0.06047802, -0.057574965, -0.039866872, -0.13883574, 0.19784541, 0.027201913, -0.008946942, 0.13476987, 0.087877765, 0.27510786, -0.071516246, -0.15020634, -0.13838398, -0.32318425, -0.14921145, -0.089193806, -0.38135844, -0.6389728, 0.022043893, 0.11963318, -0.25184357, 0.32461876, 0.8482034, 0.38770378, 0.35667935, 0.27677006, 0.055055786, 0.09874935, 0.058730848, -0.15406168, -0.15498888, 0.15870638, 0.24314739, 0.12583269, -0.30930838, -0.1902733, -0.005582014, -0.024167748, -0.19653556, -0.031541947, 0.18820074, 0.13109069, 0.07568048, -0.034119997, 0.09491982, 0.073147886, -0.04078491, -0.05257482, 0.052997697, -0.0048299045, -0.03358627, 0.07092012, 0.12699017, 0.01207872, 0.33545393, 0.32174715, 0.023368489, 0.36167207, -0.1035201, -0.33066505, -0.004408161, 0.111490935, -0.0072476617, 0.0010105023, -0.04932394, -0.0932972, 0.063869, -0.012980991, -0.05860568, 0.10698878, 0.0041564656, -0.010480565, 0.031020042, 0.03236184, 0.009155883, 0.04934175, -0.014603834, 0.01921438, -0.04598574, 0.046437614, 0.006934776, -0.0063822917, -0.06375987, 0.095754996, 0.016101027, 0.04548952, 0.07353236, -0.11966911, -0.091705635, 0.1637484, -0.25856832, -0.05963329, -0.10355504, -0.11352701, 0.2391517, 0.109981604, -0.007360336, 0.024465535, -0.05682156, -0.014462286, 0.02674783, 0.04816324, -0.0038539413, 0.061853193, -0.05021554, -0.06178844, 0.15768701, 0.08700743, 0.07794565, -0.123338066, 0.09111906, 0.045823485, -0.1198849, -0.13952081, -0.26183304, 0.106589004, -0.0626134, -0.010869785, -0.29278177, -0.2135604, -0.19217013, -0.1938267, -0.09317502, 0.06770528, -0.041224424, 0.034885522, -0.09219634, 0.09940684, 0.0445766, -0.092178725, -0.018461514, -0.121556565, -0.14389233, -0.03274577, 0.16534786, 0.09387917, -0.27500275, -0.17072989, -0.18830003, 0.1681805, -0.14599864, -0.087792136, -0.3042989, -0.14499149, -0.017304055, -0.31527156, -0.25634965, -0.13869542, 0.07661588, 0.2807638, 0.37454143, -0.0364416, 0.031274185, -0.008877283, 0.05888762, -0.007452956, -0.015809584, -0.070631154, 0.061488245, 0.023225147, 0.18179753, 0.05255103, 0.13733834, 0.084950574, 0.06416249, -0.13020833, -0.059356246, 0.004714984, -0.08029921, -0.025568286, 0.073733956, 0.13093682, -0.020594636, -0.12569878, 0.04841537, -0.2180039, -0.017202953, 0.31256887, 0.05153795, -0.09693681, 0.05704194, -0.0462082, -0.12047983, -0.13180721, 0.11812461, 0.27175322, 0.23959675, 0.023695165, -0.17896841, -0.15673108, 0.057082277, 0.014025254, -0.31863105, 0.039759275, 0.004427735, -0.14645776, -0.19153057, -0.13372098, -0.11804828, 0.19334735, -0.02576644, -0.038354646, 0.0033913255, -0.20119847, -0.042297777, 0.22171226, -0.032855853, 0.0373907, 0.07778931, -0.005070829, -0.0016807731, 0.012029762, 0.1939742, -0.10547299, 0.081922606, 0.09635564, 0.11901844, -0.03562208, -0.089579925, 0.07133995, -0.19593082, -0.15572007, 0.10790765, -0.099733785, 0.015884655, -0.21890962, -0.21481632, -0.06766682, -0.054871105, 0.15969908, -0.08533954, 0.021917623, -0.3113787, -0.30345008, 0.18007593, 0.008339238, 0.04137905, 0.038985446, 0.06081774, 0.015041826, -0.054519102, 0.02498349, -0.06883091, -0.04022575, -0.052064806, 0.09192604, 0.04811537, -0.02797708, -0.15992726, 0.104689166, 0.05466843, 0.10045962, 0.11730842, -0.04121345, -0.07061642, 0.0064145727, -0.14213783, -0.24483946, -0.022055095, 0.11415867, 0.1611331, 0.124224536, 0.097163185, 0.20053352, 0.08204474, -0.13865398, -0.13457137, 0.24663714, -0.3297442, 0.0018987161, -0.016772911, 0.094900735, -0.039845653, -0.057646364, 0.2128806, -0.029871468, 0.19902281, -0.055144154, -0.25073862, -0.061604735, 0.18774219, 0.18783832, 0.35933366, 0.06680001, 0.06878479, 0.25153124, -0.075468816, -0.0478216, -0.34401825, -0.0307882, -0.054325484, -0.08935979, 0.24332532, 0.19738472, 0.00811727, 0.14703578, 0.2893625, 0.13121139, -0.15607488, -0.17172223, -0.26652947, -0.24140471, -0.23367944, -0.23079708, 0.009139389, -0.11860922, 0.062076353, -0.04403339, -0.017620929, 0.23502102, -0.2623008, -0.24286605, 0.14163108, -0.048497457, 0.06513239, -0.01891189, -0.35402957, -0.26431733, -0.10874695, -0.17331402, -0.26764542, -0.1359746, -0.00035601654, -0.090418674, 0.01922371, 0.077841915, -0.052730702, -0.05172714, -0.073950976, 0.03121858, 0.035035282, -0.25500086, 0.013765906, 0.022987004, -0.19283481, -0.19702126, -0.25202656, 0.18215476, -0.14528808, 0.009396168, 0.08757723, 0.007627562, 0.2538086, 0.12258611, -0.10843794, -0.16183814, -0.38819572, -0.39319363, -0.24217547, -0.0894418, -0.21031587, -0.13940437, 0.14418134, -0.060736787, -0.25817645, -0.05152298, -0.10061927, -0.046568654, -0.064931445, -0.062283304, 0.00649774, 0.102308184, -0.19150199, 0.04455898, -0.11428732, 0.085923195, 0.27332443, 0.06683429, 0.10132695, 0.1702806, -0.019288702, 0.13616495, 0.2239823, -0.01919169, 0.019162312, 0.043830983, -0.0175334, 0.13050923, 0.36109036, 0.019623369, 0.06376005, 0.29485506, -0.29837134, -0.02176164, 0.047752123, 0.066792294, 0.0701062, 0.33396074, -0.14606097, -0.0013774759, 0.2599501, -0.030390192, 0.0902543, 0.3425857, -0.08999271, -0.026026705, 0.124487996, -0.056746818, 0.068092585, 0.26662078, -0.21509084, -0.10643308, -0.04305529, -0.06975363, 0.073965736, 0.21233647, -0.13301727, 0.1542087, 0.176301, -0.052316077, 0.029854124, -0.03448299, 0.04601902, -0.00094912277, -0.1843847, -0.0996103, 0.09755811, 0.023821188, 0.113682166, 0.09130371, -0.3372309, 0.022183828, 0.016659634, -0.078709126, 0.1444619, 0.016359536, -0.34054837, 0.17423247, 0.011158134, -0.04912384, 0.055645887, 0.0539139, -0.05087836, 0.041561715, -0.0003363698, 0.01328822, 0.024939476, 0.040101614, -0.0033999828, -0.11180695, 0.1383461, 0.10578286, 0.014823922, 0.13032278, 0.28047106, -0.30246672, -0.15925553, 0.030508956, -0.044638645, -0.21242698, -0.2485199, -0.53041416, -0.31899664, -0.14938828, -0.21754314, -0.029755948, 0.19349441, 0.0039055392, 0.0063661826, -0.014897908, -0.05392629, 0.060341805, -0.11399736, -0.025667863, -0.009468175, -0.02430232, -0.012892375, 0.043825027, 0.15062813, -0.0051744897, -0.03068759, 0.098510146, 0.0076991655, -0.012754676, -0.022642769, -0.052447826, -0.05015248, -0.09358978, 0.12182225, -0.020409955, -0.11863675, 0.22760917, 0.09971564, -0.112496585, 0.045278795, 0.12810926, 0.16696882, 0.018413408, 0.08518581, 0.28238887, -0.012759548, -0.10684826, -0.11095211, -0.22483695, 0.008451231, 0.0004014244, -0.24931149, -0.15487397, -0.11760861, -0.248573, 0.05759359, -0.10434369, -0.0064649787, 0.0010808533, -0.04321185, -0.0066697104, -0.03925039, -0.07996772, -0.08301891, -0.02310383, -0.050612543, 0.19837472, 0.02654112, 0.025926514, -0.23720178, -0.098768786, 0.11602021, -0.43861336, -0.25187153, 0.057086978, -0.045011163, 0.2522903, 0.050658237, -0.11173676, 0.10021788, -0.024671111, -0.18572089, -0.019709103, -0.05557911, 0.12972425, -0.016136134, 0.10795945, 0.13328366, -0.10126905, 0.0006932275, 0.17604488, -0.011011868, -0.14766939, -0.14380296, -0.07757289, -0.13077734, 0.034979485, -0.09886086, -0.06289481, 0.027363481, -0.028383842, -0.014222713, 0.14192075, -0.023815023, 0.005366889, 0.021439068, -0.09786803, 0.058803707, -0.008515781, -0.09782372, 0.024304293, -0.015963435, -0.067222245, 0.12601376, 0.03602904, -0.024339823, -0.15341866, 0.21539539, -0.008401528, -0.13246286, 0.0507146, 0.0035759695, 0.08277525, 0.08851514, 0.021611694, 0.0075899963, -0.025406701, -0.0016881741, 0.10018581, -0.21630037, -0.10970677, -0.01602425, -0.1893998, -0.007108713, 0.006987508, -0.20117758, 0.057896297, 0.018569352, 0.14891645, 0.15594845, -0.18090917, 0.20180492, -0.22000897, -0.2465549, 0.049319007, 0.13324006, -0.07331685, 0.15960278, 0.093353495, -0.029192308, -0.09401791, 0.010959785, -0.21349186, 0.08025075, 0.37353778, 0.12406779, 0.105496794, 0.16787335, 0.02297763, 0.06478685, 0.14059232, -0.11510248, -0.074527785, 0.0067727403, -0.016108314, -0.0908995, -0.15063566, 0.081317715, -0.04071216, -0.09025661, -0.122246794, 0.052653264, 0.10509913, 0.14178027, 0.08020467, 0.07287114, -0.054122195, 0.017931905, 0.035108134, -0.011672346, 0.030852549, 0.022235233, -0.029176706, -0.003045138, -0.07185029, -0.15251449, 0.020660356, -0.073283516, -0.5330762, -0.019298557, -0.25080678, 0.011756939, 0.26337552, 0.14833333, 0.11374861, 0.26129526, 0.09185362, -0.033783063, 0.19254443, 0.015521886, -0.14593256, 0.008194339, 0.15143281, 0.06788632, -0.00234878, 0.0964276, -0.005492639, -0.04872354, 0.10757392, -0.014731402, -0.21775292, -0.14913197, 0.11689699, 0.16240732, 0.038856838, -0.07354109, 0.12944849, -0.012418394, 0.04270906, -0.023026878, 0.02921456, -0.03528222, -0.38061032, -0.12618878, 0.117743544, -0.41215914, -0.067498066, -0.043086626, -0.012535035, -0.035224166, -0.025672235, -0.04969946, 0.008983101, -0.060510144, 0.00047618643, 0.033933874, 0.035509117, -0.048779007, 0.13647683, -0.02119992, -0.023545703, 0.25035837, -0.10928908, -0.026958905, -0.10283229, -0.23623376, 0.15067905, 0.055859815, -0.019353678, 0.02135122, -0.017151164, 0.0011051759, -0.012000981, 0.020869289, 0.12372194, -0.0075081787, -0.023950778, 0.0043447493, 0.19617184, 0.21201226, 0.08046421, 0.20180781, 0.10344352, -0.18771228, -0.1004516, -0.0984758, 0.08964151, 0.12275937, -0.23678628, -0.042451724, -0.28469542, -0.36848223, -0.019498805, -0.041964646, -0.0061970404, -0.06797631, -0.15453508, -0.092641994, 0.068057284, -0.048184805, -0.06737119, -0.0063836644, 0.0066440464, -0.051765133, 0.06264232, 0.0254158, 0.04757766, -0.08017014, 0.000925352, 0.04897324, -0.04418543, 0.118447974, 0.03809107, -0.050642364, 0.16349418, 0.06050937, -0.047503956, 0.117926575, 0.09929818, 0.13344246, 0.09834673, -0.105454795, 0.102032565, 0.13744672, -0.3768082, -0.37833896, 0.049514506, 0.052410264, -0.08866595, 0.051164173, 0.1354289, 0.057194613, -0.26543704, 0.017205182, 0.098190844, -0.5296443, -0.370705, -0.058694646, -0.071440846, -0.16540655, 0.27981785, -0.0235698, 0.049144566, 0.24798676, 0.068963036, 0.008817272, 0.01205031, 0.0312128, -0.076581575, -0.26480016, -0.0745178, -0.09497868, -0.33509883, -0.040115442, -0.098515816, 0.012070393, 0.29829562, 0.28363624, 0.08075178, 0.21165025, 0.29174376, 0.10063275, -0.2747511, -0.22599518, -0.23319255, 0.024685074, -0.051968705, 0.055461887, 0.02227255, -0.08722549, 0.032155205, 0.032610204, 0.031406116, 0.06201049, -0.109791555, -0.19381937, -0.13591455, -0.36636737, -0.07601944, -0.064185664, -0.29402724, -0.1288575, 0.12113945, -0.14097469, -0.071520045, -0.33143812, -0.18539964, -0.13164957, -0.052366, -0.028400676, -0.03285356, 0.26422986, 0.20220447, 0.13484614, 0.07342576, 0.23236886, 0.17956689, 0.066275224, 0.003065144, -0.0984136, -0.051372755, -0.18762283, -0.09796923, 0.112422705, 0.03251475, 0.19667232, 0.21425256, 0.0018300407, 0.081904516, 0.14539234, 0.07564755, 0.080382, 0.08676676, 0.0032344474, -0.0057255, 0.18169686, 0.05499031, -0.021663805, -0.13541573, -0.037199408, -0.20803998, -0.082934305, 0.14223514, -0.015046212, -0.028169584, 0.050192438, 0.083494574, -0.0038795262, -0.023728581, -0.04351344, -0.021899989, 0.12728547, -0.046131507, -0.43951446, 0.048998885, 0.0069201384, -0.13864657, -0.3017262, 0.052938942, -0.04624244, -0.22505867, 0.025611445, 0.039016534, 0.11488224, 0.2653805, 0.117179535, 0.011340928, -0.065510325, -0.07748005, 0.07707776, 0.12704188, 0.13731669, -0.0928885, 0.004668388, 0.17530341, 0.038929567, 0.10438995, -0.2059515, 0.11661048, 0.04975857, -0.25730526, -0.040061016, 0.12397167, -0.2149951, 0.105840735, -0.03352693, -0.07563542, 0.09858955, 0.029206911, -0.019880384, 0.23558669, 0.106212646, -0.024851367, -0.11290893, 0.030003384, -0.04478856, -0.09489346, -0.19020896, -0.09425315, -0.28143567, -0.1595906, 0.13499627, -0.33863634, -0.11255185, -0.18032539, -0.3524604, -0.21528333, 0.04694299, -0.27221563, 0.07974491, 0.30452362, -0.25751826, -0.31384888, -0.19458504, -0.21712323, -0.062443186, -0.09658948, -0.1773739, -0.055630174, 0.15382738, -0.20246437, -0.25934464, 0.1105552, 0.054038573, -0.008379854, 0.16404781, 0.22250874, -0.12597452, 0.026149776, 0.054595128, -0.068245515, -0.16949648, -0.13180889, -0.26342985, -0.045332897, -0.02364632, -0.0042233816, 0.3707641, 0.08933665, 0.043789797, 0.01597793, 0.034299467, -0.00825125, -0.040691413, -0.10523114, -0.007079081, -0.0068072136, -0.12338543, -0.14580476, -0.020914642, -0.04071113, -0.23601782, 0.09505196, -0.018104523, 0.06775858, 0.05734462, -0.17169245, -0.2764883, -0.1374517, 0.007475766, -0.16435649, 0.12951474, 0.25530922, 0.06605016, 0.21619824, -0.19111054, 0.043123286, 0.028836569, 0.119947515, 0.2657752, 0.12073959, 0.0104654385, -0.044174355, -0.0796335, 0.14587042, 0.09343162, 0.29120788, -0.008870823, 0.0011339614, 0.07133575, -0.11494904, -0.08864575, 0.005487352, -0.050504714, 0.09531879, 0.0052708257, 0.066590786, 0.01717131, 0.0205215, -0.069639504, 0.03220228, 0.084613815, 0.35539916, 0.34843636, 0.30666485, 0.18692747, 0.20029972, 0.017780181, 0.08449708, 0.045390934, 0.07195987, 0.007420926, 0.05146237, 0.059154734, -0.03661896, -0.024995983, -0.031587657, -0.056723032, -0.036884088, -0.0036822374, -0.083354555, 0.029025516, 0.08416125, -0.015621502, 0.00684859, 0.021872753, -0.17274728, -0.0039885705, 0.052429173, 0.054953348, 0.259247, -0.12458869, 0.1776292, 0.03263837, -0.17113343, 0.12074205, 0.05250615, 0.12375794, -0.07907769, 0.020813212, 0.061750513, -0.15348975, -0.105502285, -0.01775305, -0.050240576, 0.100771934, 0.20799987, -0.07392262, -0.11718605, 0.16891868, -0.1983794, 0.11662233, 0.32073128, -0.16780679, 0.14721298, 0.20231254, -0.04304788, 0.020450868, -0.044355385, 0.20393358, 0.04586745, -0.03664334, 0.20887454, 0.020451847, -0.014992436, -0.0722319, -0.095077395, 0.16361791, -0.13347858, -0.31615588, -0.15317468, -0.2400828, -0.22863445, -0.073696695, 0.057430565, 0.2739333, 0.19375879, 0.12673633, 0.17817785, -0.005319438, 0.12835859, 0.14289524, -0.036184873, -0.008911371, -0.029413246, -0.012400364, -0.035764653, 0.07199519, 0.032080177, 0.07271833, -0.03635047, 0.020099575, 0.02930756, -0.07762177, -0.08022868, 0.11192793, 0.029740104, -0.048641883, 0.01903915, -0.049283314, 0.08438593, -0.08145586, 0.113708556, -0.14332144, -0.14679787, -0.17841676, -0.07358903, -0.116379164, -0.046404433, -0.22402778, -0.15817931, -0.057942074, 0.001949704, -0.20293228, -0.10262661, -0.16130991, 0.022382488, 0.083767764, -0.11559838, -0.07082549, -0.049549118, 0.0470148, 0.051818896, 0.020935949, 0.055050112, -0.06453137, 0.045475062, 0.022594143, 0.06656472, -0.052885886, 0.053501848, -0.12613648, -0.107037745, -0.03237677, -0.0771891, -0.079097725, -0.08006594, -0.31997737, -0.09049179, -0.20961893, -0.21146229, 0.015998475, 0.07305633, 0.054502685, 0.18338661, 0.15987605, 0.038553637, 0.006510374, -0.05289631, -0.084421754, 0.02530265, -0.05011367, -0.009939213, -0.06924208, 0.039446767, 0.0113657, -0.055054955, -0.0034674911, 0.046051025, -0.026290206, 0.02963956, 0.1139811, 0.09844273, -0.01322048, 0.05552929, -0.09412702, -0.124621235, -0.0033383283, -0.0747873, -0.24109265, 0.028148228, 0.21360171, -0.26274985, -0.19708343, -0.16985548, -0.25287962, -0.18214847, 0.066341035, 0.11515826, 0.087620884, 0.079416275, 0.02208546, -0.019013442, -0.058711752, 0.1092814, -0.19125436, 0.09556881, 0.23571436, -0.017323667, 0.016005794, 0.028770288, -0.4379102, -0.033539027, -0.0672451, -0.13495941, 0.08817241, -0.1105404, 0.015875403, 0.028889097, -0.060941443, 0.028550528, 0.14148133, -0.0028784624, 0.05954739, 0.0769311, 0.03725261, 0.02485082, 0.06413639, 0.0020762365, 0.032074813, 0.03422377, -0.250491, -0.091967545, -0.023685839, -0.28739247, -0.07888121, -0.005868432, -0.2623925, -0.24872592, -0.11813816, 0.24647227, -0.077243134, 0.043057095, 0.14697815, 0.022338403, -0.1404191, -0.0052952413, 0.043160185, -0.03168028, -0.0027045086, -0.0024547135, -0.03248767, -0.026025446, -0.074165955, 0.058202833, 0.05640369, 0.16684201, 0.028273711, -0.0010490812, 0.050801825, 0.17492525, 0.03148421, -0.40652132, -0.07758901, -0.17280523, 0.009767691, -0.050472707, 0.13943554, -0.043983243, 0.04316965, 0.11699159, 0.040663972, -0.08644571, 0.07287328, 0.008078194, 0.012050957, -0.02535378, 0.06307913, 0.029123457, 0.06496637, -0.019415848, -0.022687929, -0.0030797683, -0.22239736, -0.25280872, -0.10011446, -0.3409181, -0.07934384, 0.051482294, -0.16264737, 0.2278938, 0.058197193, -0.24302332, -0.20490004, -0.1556859, -0.26607555, 0.015737757, 0.05650251, 0.011767903, -0.04053469, 0.032694764, 0.025830114, 0.027958466, 0.050759442, -0.04958918, 0.10247941, -0.04174381, -0.37143165, 0.010903634, -0.061773196, 0.055478808, -0.10709004, -0.13308655, 0.0079411175, -0.084652565, -0.20624354, 0.024883496, 0.05683546, -0.03910085, 0.04188384, 0.054931667, 0.035008032, -0.075502425, -0.059861287, -0.26932228, -0.34384036, -0.20108297, 0.024112232, 0.041660096, 0.04195039, -0.01720828, -0.005756284, -0.059918594, -0.081252456, 0.06560853, 0.0025064647, 0.031145409, 0.1831043, 0.08897771, 0.2475389, -0.20774862, -0.08308925, 0.14571944, 0.15056199, 0.108976774, 0.17707841, -0.20050548, 0.279337, 0.14665335, -0.034981854, 0.36903253, 0.08025094, 0.16528256, 0.31266442, -0.05564701, -0.0816347, -0.012024483, -0.2672461, -0.052409396, -0.046799622, 0.0086715035, -0.30073145, -0.10160736, 0.12087104, 0.06445585, -0.10116668, 0.070400394, 0.007872089, -0.2530604, -0.10274095, 0.16981527, 0.24611573, 0.21601665, -0.40021706, -0.18876809, -0.23347397, -0.11606003, 0.07865502, -0.31455225, -0.0526575, 0.18201502, 0.01814033, 0.05352458, -0.26024145, 0.06537451, 0.006765281, -0.020104982, -0.08938639, -0.1030265, 0.12137877, -0.11186645, -0.030186448, -0.04785339, -0.057143167, -0.07035481, 0.03481152, -0.13539617, -0.27925736, -0.24207178, -0.20565072, -0.032124292, -0.14352106, -0.107017145, -0.06545931, 0.0034476768, -0.06484043, -0.17340133, 0.057246167, -0.096832894, 0.22426991, -0.026367418, -0.2320554, 0.027441269, -0.22703929, -0.42655817, -0.33381742, -0.1387124, 0.009268777, -0.18528119, -0.15045322, 0.099185154, -0.3664553, -0.10011624, -0.15139672, 0.09884831, 0.19767468, 0.114218354, -0.12127218, 0.07514114, 0.02076206, 0.080998436, 0.19180095, -0.038720403, -0.11717735, -0.0048750327, -0.06774748, -0.18346408, -0.07192003, 0.026490936, -0.29582828, -0.2446466, -0.023370922, 0.091666184, 0.14242157, 0.28388613, 0.023728032, -0.16911282, -0.089501105, -0.122273415, 0.017865706, -0.04977395, 0.13133049, 0.23012255, 0.09483696, -0.019307407, -0.012941363, -0.04015535, -0.041828528, -0.015298816, 0.15370849, 0.17102024, 0.36454985, 0.30634934, 0.10731235, 0.096050814, -0.039491743, -0.096229345, -0.022883058, 0.07594382, 0.012974114, -0.028276574, 0.055652354, -0.035776295, -0.06581843, -0.047348328, -0.14640336, 0.103956796, 0.09618877, 0.10675523, 0.27445176, 0.28974062, -0.05182923, 0.0007272081, -0.035397973, -0.15720282, -0.1964338, -0.051863883, -0.089969814, 0.103160664, 0.2020574, -0.005285919, 0.048708092, -0.2689041, -0.0197401, 0.09405742, 0.049696926, -0.27765858, -0.2407714, -0.3666849, 0.11063711, -0.102589995, -0.23446856, -0.036474545, -0.08124839, -0.28147483, -0.06899657, -0.16956449, -0.2139871, 0.014507323, 0.061575234, -0.20618644, -0.051774897, 0.06545371, -0.0645738, 0.016415732, 0.17269239, -0.0378474, 0.08981487, 0.27429345, -0.07021179, -0.11538791, -0.0048830328, -0.10211347, -0.08572064, 0.11879314, -0.2565296, 0.108217515, 0.2796707, 0.079121076, 0.16400586, 0.16793759, 0.22361419, 0.43650305, 0.4190771, 0.3268932, 0.16914323, 0.11916424, -0.15721957, 0.14408591, 0.25971836, -0.12573668, -0.063961715, -0.19536553, -0.5331434, -0.09882803, -0.0844239, 0.023609422, -0.06909847, -0.051407535, -0.02254511, -0.1579194, -0.054744184, 0.053050876, -0.10852243, -0.05016564, -0.024926225, -0.030660463, -0.064587906, 0.029374035, -0.031132255, 0.025942776, 0.06795171, 0.042651884, -0.09386428, -0.078756474, -0.09587524, 0.026998596, -0.08006667, -0.046118304, 0.022033578, 0.026279893, 0.0038760758, -0.03702116, -0.014933052, -0.14949442, 0.029301299, 0.023011677, -0.06369285, -0.049189333, -0.09264942, -0.05939455, -0.09720972, -0.04716775, -0.13495842, -0.13530014, -0.08996985, -0.1405101, -0.045731723, -0.060132235, -0.0113186715, -0.11259171, -0.03943111, -0.1420516, -0.08525083, -0.059176393, -0.052999374, 0.0027290422, -0.044219892, -0.091740295, 0.037387226, -0.011205433, 0.05839286, -0.012217983, -0.1211515, -0.056612294, -0.0077337082, 0.00022295608, 0.067886874, -0.059876665, -0.025721895, -0.025955468, 0.018950656, 0.019413417, 0.06743996, -0.019314528, -0.001522307, -0.09435562, 0.024678746, -0.05157379, -0.10981959, 0.031621024, -0.0020409764, -0.034458853, -0.06400375, -0.07625434, -0.08233877, 0.019076632, -0.03214089, -0.10325524, -0.07589141, -0.039762404, -0.058286417, 0.022377515, -0.082465984, 0.021672156, 0.035758894, -0.08658068, 0.004415545, -0.009800352, -0.07554808, 0.005855421, -0.09485197, -0.098306015, 0.044391267, 0.051248312, 0.043363128, 0.03154957, 0.02780368, -0.03263957, -0.1298034, -0.05376633, 0.05268031, -0.08262605, -0.11811505, -0.112918355, -0.05374109, -0.03956142, -0.13345087, -0.021136217, -0.08246984, -0.09211291, -0.060288742, 0.020288957, -0.013322782, -0.011535388, 0.0016130959, -0.08349383, -0.08853972, 0.032515276, -0.09004286, -0.072222486, 0.024939632, -0.03335874, -0.03994828, -0.04968067, -0.053565245, -0.08772114, -0.07446203, -0.035936657, 0.033008717, -0.025112726, 0.061627343, 0.007753521, 0.033421136, 0.06973266, 0.010680786, 0.05990786, 0.043242417, -0.019572107, -0.030901747, 0.058394272, -0.04161166, 0.025296777, 0.017409572, 0.007985309, 0.0072959196, 0.041612383, -0.044916764, -0.030769186, 0.05584896, -0.02890209, 0.024488062, 0.016767778, -0.05507761, 0.023786262, -0.09695098, 0.057037156, 0.09975021, -0.06351655, 0.013695702, 0.05094633, -0.04580796, -0.012905081, 0.015160338, -0.06655482, -0.032395758, -0.071200594, -0.038410004, -0.051528804, -0.0435373, 0.03354048, -0.006457694, -0.04208639, 0.05345174, -0.0923834, -0.021988885, -0.093498, -0.057474177, -0.07108614, -0.036986165, -0.09596982, 0.058018148, 0.015922908, -0.01929443, -0.006388603, 0.008681967, -0.09472327, -0.01161893, -0.016287116, -0.009093042, 0.0033618107, -0.06046031, -0.045535065, -0.06460873, 0.0028462932, -0.03771442, 0.04682029, -0.04492759, -0.028670352, -0.006820783, 0.05185724, -0.041596226, -0.01792767, -0.080623254, -0.04490949, -0.059473816, -0.0051145926, -0.11295647, -0.007518191, -0.06948545, -0.015270824, -0.035309147, -0.009494928, 0.08444996, -0.004211366, -0.056223437, 0.06165518, -0.046233043, 0.012077014, 0.011489932, 0.06254175, 0.06606406, -0.040605992, 0.060858984, -0.015925447, 0.03773564, 0.0655457, -0.024613006, -0.06810031, 0.06944712, -0.029659392, -0.025320448, 0.029804928, -0.051901016, -0.057000995, -0.077286094, 0.021434225, -0.04789955, 0.02481942, -0.04163243, -0.010164388, -0.040545642, -0.03012902, -0.10783471, -0.08584095, -0.09692203, 0.041061133, -0.01985155, 0.027112238, 0.058210596, -0.0045409873, -0.06772114, -0.028473906, -0.04011972, -0.030819204, 0.03330521, -0.06294913, -0.11425919, -0.08696826, -0.025166504, 0.0069741057, -0.029074078, -0.07590361, 0.06386475, -0.00047206317, 0.013397769, 0.02382055, 0.034619022, 0.023341632, 0.031144379, 0.027028058, -0.041510705, -0.098760165, 0.008936077, 0.030284397, 0.0516833, -0.056758456, -0.021524046, -0.0028814003, 0.0027822182, 0.011930384, 0.053782612, -0.03141967, -0.0934065, -0.0066075437, -0.037696388, 0.015101795, 0.0043186727, -0.022071067, -0.02945533, 0.04955406, -0.038108543, 0.03999193, 0.043300264, -0.040693574, -0.05178744, 0.055593234, -0.09799139, 0.034811407, 0.050056502, -0.022331031, -0.04404098, -0.034239955, -0.055841874, -0.050149865, -0.026066475, 0.04537319, 0.0526411, 0.043459475, 0.03803388, 0.009968926, -0.0035174133, -0.023298746, -0.047241025, -0.03351074, -0.05668547, -0.11414694, -0.10544605, 0.0026800625, -0.036728714, -0.081474036, 0.0032864532, -0.051445425, -0.08441855, -0.09031102, -0.0067210007, -0.074276105, -0.07435412, -0.020312946, 0.043578353, -0.07387329, -0.091891736, -0.070138104, 0.0043358705, -0.0008537842, -0.0838489, -0.102082044, -0.008321162, -0.071350284, 0.03313611, 4.364072e-05, 0.030295527, -0.034307737, -0.07294931, 0.034897465, -0.080710806, 0.028234582, -0.051766556, 0.010526987, 0.025237238, -0.044615734, -0.08973248, -0.020474708, 0.057793602, -0.0060526878, 0.038714096, -0.015136227, 0.028461017, -0.07251754, -0.07064376, -0.04505007, -0.020751528, -0.04542754, 0.014798836, 0.06803838, -0.0041849865, -0.07766485, -0.071528845, -0.037303697, -0.02305831, 0.088588454, -0.08862721, -0.016673908, -0.06582298, -0.04021306, -0.09443783, -0.019923292, -0.051878605, 0.043529816, -0.10328439, -0.05132073, -0.056170158, -0.021394353, -0.043802146, 0.03228719, -0.08723002, 0.018048583, 0.11128214, -0.04568615, 0.03724816, 0.0053742863, -0.037054103, -0.15779665, 0.011318906, -0.052321684, -0.07675457, -0.074996695, -0.08846161, -0.07550468, 0.04116315, 0.0030451661, -0.020802515, -0.07751616, -0.072526, -0.022367397, 0.0327147, -0.04953969, -0.059658453, 0.012990037, 0.042750597, -0.009840303, 0.011211142, 0.05002571, -0.025952319, 0.029756911, 0.043584928, -0.14415051, -0.05404709, -0.07327138, 0.034877095, -0.035986695, -0.005872937, 0.056051705, 0.009409824, -0.03303997, 0.037122443, -0.076267436, -0.04280143, -0.015923548, -0.012873793, -0.0025783663, -0.085276105, -0.037085738, -0.03499454, -0.004501469, -0.0696417, -0.07677085, -0.081888184, -0.07617672, -0.13943394, -0.059427217, -0.074912764, -0.015102976, 0.04069653, 0.026592182, -0.014500773, 0.03464268, 0.045570444, -0.022383278, 0.04309561, -0.04640787, -0.039343927, 0.044194028, -0.07172036, -0.07732136, -0.027066313, -0.033427436, -0.099791475, 0.024539182, -0.061660685, -0.06276616, -0.009141364, 0.027774418, -0.015738342, 0.017386373, -0.041455586, -0.034421008, -0.016407935, 0.023778886, 0.024397276, 0.0046549137, -0.091500245, -0.0068187397, -0.0020433916, 0.0018264259, -0.10395025, 0.030038903, -0.08419265, 0.007052829, -0.064343475, 0.01255662, -0.09690126, -0.030597666, 0.0010164897, 0.032827225, -0.10799225, -0.016509695, -0.0041394485, 0.029534236, 0.017112575, -0.081246495, -0.07296716, -0.051354975, -0.0663602, -0.10545964, -0.063520946, -0.1079416, -0.06710068, -0.024755875, 0.06358149, -0.09089907, 0.020748476, 0.04768863, -0.0012577389, -0.039841168, -0.0907261, -0.019446252, 0.055874806, -0.09686601, -0.09288868, -0.09747692, 0.02440097, -0.05328414, -0.030705558, 0.027117483, -0.10499505, 0.0019835907, -0.045316968, -0.088024296, 0.029660283, 0.013962927, 0.005547905, -0.075925134, -0.009724358, -0.028316969, -0.016223261, -0.012107127, -0.012299031, -0.10413637, -0.07233723, -0.04200061, -0.028595421, -0.0070250467, 0.022351013, -0.03467391, -0.04747678, 0.094608046, 0.013977273, 0.03825533, -0.00012753859, -0.02850304, -0.0055951634, -0.062867366, -0.046197917, 0.035155226, -0.02932665, -0.016873866, -0.032150205, 0.00480347, 0.021368256, -0.027292782, -0.014682447, -0.07353848, -0.056699723, 0.101793304, -0.06363234, 0.07306518, 0.051825278, -0.027834592, -0.049031153, -0.10213622, -0.0042179907, -0.015122204, -0.08616249, -0.012254243, -0.04469891, -0.053164385, -0.030995624, -0.12721772, -0.057809096, 0.1278268, -0.017295321, 0.057299457, 0.07222387, 0.1050022, 0.110518344, 0.008287009, 0.045544352, 0.09979825, 0.105132826, -0.047874473, 0.2377313, 0.038104996, -0.021155816, 0.09757844, 0.034598693, -0.019400155, -0.22821118, 0.0033140716, -0.036097467, -0.03708308, -0.18246157, -0.042458627, -0.06696817, 0.030942375, 0.0152170835, 0.06823509, -0.13632587, -0.01041723, 0.08249009, -0.009544955, -0.003806455, 0.02259761, 0.03846706, 0.039979786, 0.15893891, 0.005112255, 0.11225971, 0.14857984, 0.048493814, -0.029331852, 0.056709334, -0.13804655, 0.026623521, 0.08361341, 0.04484921, -0.01973828, -0.045988265, -0.023349602, 0.046926986, -0.07049281, 0.0570531, 0.1329317, 0.08240263, -0.13666439, -0.2615936, -0.26023817, -0.15901078, -0.39451766, -0.23313983, -0.15973738, -0.16467597, 0.00170472, 0.018510947, -0.014783142, 0.068195894, -0.065765604, -0.045812305, 0.08224086, 0.0147419, -0.048498202, 0.007279965, 0.052162275, 0.10671823, 0.07753912, -0.08467935, 0.096264474, 0.034187533, 0.0015427829, 0.002659265, -0.012010298, 0.09872722, -0.034789216, 0.07975869, -0.08003489, 0.062868774, 0.18137243, -0.13704196, 0.17909327, 0.33218005, -0.31706852, -0.19610345, -0.28257906, 0.095570795, 0.17468657, -0.19401942, 0.13694783, 0.15036044, -0.22952186, 0.04122009, 0.06677077, -0.026623432, -0.028552724, 0.040814403, -0.10622776, -0.09294081, 0.08999226, -0.06541543, -0.019647155, 0.058754493, 0.030663693, 0.1035799, -0.029799424, -0.1185787, -0.041950673, 0.07973415, -0.23568073, -0.017384194, -0.19723521, -0.12720686, -0.037939146, 0.028932076, -0.20752423, 0.07228447, -0.12388433, -0.13348256, 0.11156821, -0.025125258, -0.0008888942, -0.14857426, -0.21908197, -0.06660399, -0.3105456, 0.08710841, 0.079906724, -0.02191447, 0.032972362, 0.03895715, -0.044897232, 0.03887988, 0.017570278, -0.0044447677, -0.045027155, -0.046435867, -0.12875079, -0.20579739, -0.20416167, -0.0558774, 0.06511594, -0.08004008, -0.27839708, 0.1925046, 0.13233292, -0.12342879, -0.011494168, -0.008337207, -0.29397693, -0.13265032, -0.0713409, 0.029497446, 0.10022203, 0.0062143775, 0.06732647, -0.05036572, -0.07605416, -0.087881275, -0.06330063, 0.075321294, -0.32971117, -0.052384894, 0.29787335, -0.049882907, 0.04391897, 0.02858251, -0.015626758, 0.06956956, 0.037806902, -0.009346322, -0.06928429, 0.026863791, -0.018851705, 0.07579452, 0.034091022, 0.04578329, 0.13758208, 0.166816, 0.16722888, 0.19791947, 0.06238039, 0.014423722, -0.059182044, -0.18681373, 0.104103014, 0.18214174, -0.010254865, 0.0035761413, 0.12707156, 0.0058718366, 0.05718132, 0.0806686, 0.07270483, 0.025523737, 0.009865792, 0.07419271, 0.052770596, 0.03171486, -0.03945239, 0.07227231, 0.031239608, 0.0651555, -0.08736023, 0.14379866, 0.1246723, 0.08163961, 0.014403951, 0.0042220824, 0.14537969, 0.17995031, 0.02854014, 0.13002135, 0.08131449, -0.28343645, -0.14765601, 0.09670518, -0.22181432, 0.3225227, -0.062218014, -0.12580724, 0.13947788, 0.09031169, -0.36069962, -0.40978384, -0.11240691, -0.040428124, -0.035131343, -0.10851557, -0.15854782, -0.18280168, -0.12234037, -0.10713823, -0.009985426, 0.1369996, -0.052856945, -0.05632692, 0.01920598, -0.17129833, -0.06265409, 0.059648704, -0.05712756, -0.14371137, -0.09281837, 0.02452667, -0.050484337, -0.012737325, -0.01778149, 0.008960859, -0.036753368, -0.07342596, -0.0394897, -0.06274224, 0.03533142, -8.464219e-05, 0.090878956, 0.017265152, 0.006989561, 0.04570921, 0.1308409, 0.0015752005, 0.027060715, -0.085169375, -0.3354065, -0.30050445, -0.09519206, 0.015939455, -0.12377653, -0.0662107, 0.19828409, 0.13381483, 0.23027833, 0.06073126, -0.013576232, 0.07786192, 0.115044214, -0.015378661, 0.059963983, 0.094734825, 0.053832613, 0.052344374, -0.18601672, -0.28816378, -0.23372655, -0.11520683, -0.12896791, -0.16140783, 0.02316931, -0.066629566, -0.2163247, 0.124129, 0.0045761336, -0.16088915, -0.015179788, -0.16049126, -0.12629224, -0.20856217, 0.11253942, -0.17562246, 0.055804968, 0.05933176, 0.05800969, -0.052640542, 0.07023764, 0.015602231, -0.07604798, -0.012832461, 0.048407808, -0.1445009, -0.037577376, -0.42241687, 0.07057825, 0.09177849, -0.256684, 0.055071007, -0.06469154, -0.09845576, -0.08919651, -0.05753089, 0.03910063, -0.14386675, -0.10358336, 0.062347807, 0.124254726, 0.27349803, 0.15595435, -0.32927513, -0.296576, -0.16633423, -0.080182165, -0.13798642, -0.09048091, 0.043730732, -0.026171198, -0.07397354, 0.12067523, 0.01613806, -0.14974661, -0.06668853, -0.07318106, -0.35236275, -0.016029373, -0.09399998, -0.017905127, -0.034842793, -0.048445914, 0.09886149, -0.07679489, 0.16002415, -0.032335553, -0.11017166, 0.09602255, 0.085049234, 0.02306924, -0.058058064, -0.031131005, 0.0035899128, -0.014707388, -0.027875451, 0.023348216, 0.0005831622, -0.03233303, -0.05681515, -0.11405016, -0.19522323, -0.0757534, -0.14115712, 0.08194816, 0.051919293, -0.087400764, 0.08106727, -0.17543799, -0.3572028, -0.030827053, -0.12919022, -0.35332924, 0.18654929, 0.11526503, 0.07342536, 0.08095959, 0.056506034, 0.12318314, 0.078180924, 0.028745381, 0.0674763, 0.101975776, -0.23312183, 0.06558509, 0.08322206, 0.2565844, 0.23882589, 0.22668724, 0.1231002, -0.21471222, -0.048223265, 0.11517936, 0.104817934, 0.061196018, -0.041190248, -0.22590661, -0.014301983, -0.15329269, 0.10290882, 0.08433963, -0.12064852, 0.13850097, -0.048868902, 0.21282628, -0.029950479, 0.118171304, 0.16766044, 0.06868596, -0.33147526, -0.084014595, 0.059726823, 0.04966346, -0.015472827, -0.06664826, -0.09290742, 0.07776351, 0.14099209, 0.1354237, 0.094663665, 0.11056151, -0.0033499284, -0.1015619, 0.006046277, 0.066285335, 0.12169712, 0.0837376, 0.17382342, -0.08012705, 0.094318874, 0.18206535, -0.085415296, 0.11229711, 0.097187996, -0.25428227, -0.05621091, -0.1062168, -0.035395756, -0.2055661, 0.16705722, 0.05977509, 0.09759228, -0.22279501, 0.06876015, 0.1134047, -0.08613573, -0.09445732, 0.09155238, -0.10141726, -0.27678147, -0.65909487, -0.22040997, -0.16005717, -0.1447683, 0.023844168, -0.077087335, -0.024098422, -0.060129758, -0.24370033, 0.16552089, -0.037374265, -0.13487293, -0.16290937, -0.14598143, -0.03170414, -0.034309566, -0.13343555, 0.0279291, 0.034208737, -0.15803099, 0.048214305, -0.024986649, -0.07073028, 0.14688721, -0.06863991, 0.01236461, 0.16106728, 0.12848477, -0.019563036, -0.08180916, 0.10742183, -0.037541136, -0.050360173, 0.1271103, -0.1516917, 0.06156291, 0.085439965, -0.14934146, -0.031862974, 0.037224557, -0.044097334, -0.013565501, -0.007915947, 0.10048831, -0.06524403, -0.18372723, -0.2914319, 0.076219596, 0.07381997, -0.23616056, 0.21672864, 0.1474379, 0.014889584, -0.10647019, -0.069148175, -0.1454782, 0.07220593, 0.10314331, -0.23681237, 0.089535095, 0.017614389, -0.19904271, -0.63427716, -0.24052545, -0.13012204, -0.17055537, -0.105716996, -0.1341065, -0.09682597, -0.3213858, -0.4185147, -0.34071267, -0.20920716, -0.024580615, -0.26124763, -0.107219875, -0.01780633, -0.027180033, -0.08574088, -0.029851655, 0.046107143, -0.05298321, -0.01955217, -0.16990744, -0.1211733, 0.12595771, -0.19077054, 0.0033886665, -0.13456827, -0.13088211, 0.0021929317, -0.075933754, -0.12793723, -0.2692359, 0.12519312, -0.18300396, -0.21228458, -0.06726118, -0.33113554, -0.16239165, -0.07994785, -0.07293055, -0.3173778, -0.033449017, -0.45247814, -0.03939653, 0.08433308, -0.09751729, 0.058014784, 0.17615876, -0.072160386, -0.09546332, 0.31174037, -0.079358086, 0.13625929, -0.0012239695, 0.006602877, 0.07656181, 0.08254727, -0.10237927, 0.00044947528, 0.07521618, -0.15133257, -0.18387136, -0.09679867, -0.18928948, -0.107855216, -0.088661715, 0.015466329, -0.26034012, -0.33329135, 0.032657526, -0.14033219, -0.26670468, 0.011982647, 0.06742708, 0.14818951, -0.1832216, -0.03512567, 0.00782193, 0.16096134, 0.10204159, 0.1685316, -0.022376733, -0.09829757, 0.14214268, 0.031204203, -0.081177585, -0.01891457, -0.04066253, -0.10229918, -0.117988974, -0.07395985, -0.0076960567, 0.11868035, -0.015238125, -0.10709047, 0.08257821, 0.0042796833, -0.058212712, -0.12471035, 0.079634234, 0.08113486, 0.124576524, -0.09318771, 0.05453469, -0.099303655, -0.24609606, -0.029537097, -0.11917138, 0.021781672, -0.12649377, 0.16787, -0.08836014, -0.029912272, -0.047962166, -0.2512511, -0.0889625, -0.071571365, -0.058415633, 0.020668566, 0.04207535, 0.032231186, 0.048942782, -0.06979159, 0.032803133, 0.005380801, -0.00086816924, -0.19630012, -0.11505144, -0.039542478, 0.13165362, 0.06950827, 0.033592228, 0.07490002, -0.12889412, -0.073354036, -0.0012049313, 0.24208097, -0.09307706, 0.05553723, 0.119475074, -0.16425186, 0.13561447, 0.06946469, -0.17930189, 0.12583086, -0.0009559323, 0.1124465, -0.08703174, -0.08110504, -0.15805063, 0.12295433, -0.011518989, 0.12302438, -0.18293695, -0.030491246, 0.16832249, -0.2541416, -0.13556497, 0.021699978, -0.019986527, 0.05907554, -0.036575858, 0.051962662, -0.076945, 0.119038984, 0.048070878, -0.050186574, 0.060289804, -0.0834899, -0.032831986, -0.12267451, -0.07444259, -0.104939885, -0.058274712, -0.07028411, -0.0731666, -0.28050497, 0.0785325, -0.2692939, -0.3055023, -0.27238947, 0.23278588, 0.0154033005, -0.14866677, 0.113400854, 0.045352068, 0.15088987, 0.049914725, -0.06069123, -0.09952812, -0.05475892, -0.04069593, 0.023957333, 0.0065603233, -0.08793163, -0.10595871, 0.027973384, -0.04636593, -0.048498776, -0.005337685, -0.0625544, -0.1420051, 0.08445962, -0.14784268, 0.09961709, -0.10275522, -0.05885244, 0.12650363, 0.033478566, 0.054115128, 0.1925396, 0.10133941, -0.002614802, -0.13631988, -0.016426336, -0.17493038, -0.08858268, -0.019280419, 0.17585027, 0.07004544, 0.14329536, 0.021602178, -0.165002, 0.03750758, -0.17221186, 0.03580427, -0.012951498, 0.054967303, -0.012508456, 0.03639396, -0.087123536, -0.008868166, -0.012877991, 0.021811558, -0.06584649, 0.10062123, 0.025043616, -0.033391938, -0.008536167, 0.133216, 0.034306925, 0.012951993, 0.0032468273, 0.106455736, -0.009869924, 0.13389695, -0.090701975, -0.1912085, -0.20720923, -0.22957002, -0.12623203, -0.37980017, 0.064532086, -0.019457098, 0.029512225, 0.053792745, -0.008061007, -0.02355483, -0.00937476, 0.03715963, -0.011772342, -0.029418617, 0.08966883, 0.18594332, 0.053101745, 0.12023766, 0.21463479, -0.13581283, -0.18171267, -0.214228, -0.15451732, -0.25280187, -0.14234065, -0.118944615, -0.18447663, -0.22009616, 0.2763401, 0.30068386, -0.10534738, -0.25881645, 0.17635672, 0.27975732, -0.29392073, 0.07072049, 0.36090967, 0.38779563, 0.16825818, 0.3698657, -0.16714959, 0.02503972, 0.06824709, -0.08241949, 0.092542715, 0.26691112, -0.14896053, -0.16441423, -0.15593027, 0.011837931, 0.16019595, 0.24844077, -0.16311207, -0.21118778, -0.29866385, -0.13070849, -0.14585017, -0.3687703, 0.045768216, 0.052957036, 0.01873202, -0.013298895, 0.063100636, 0.046760757, -0.010804469, -0.029625747, 0.030083166, -0.15460369, -0.1657365, -0.2227224, -0.16287254, -0.13749522, -0.092029415, -0.18624859, 0.02224811, 0.2146626, 0.18086062, -0.031136677, -0.029147713, 0.08973152, 0.0118638715, -0.0038310068, 0.17681593, 0.108226776, 0.098546855, -0.017304461, 0.0735373, -0.03689798, -0.0150142545, -0.019101419, -0.025184328, -0.07187962, -0.09124246, -0.014815373, 0.1435796, 0.18018596, 0.11581005, 0.15198241, -0.065889016, 0.111139275, 0.13176124, -0.05343728, 0.06562591, -0.03839921, 0.152435, 0.049580347, 0.022522911, -0.11674458, -0.04779654, -0.07534218, -0.41757727, -0.01459407, 0.03807605, 0.043194856, 0.01866181, -0.027590595, 0.019052446, -0.06790916, -0.039355207, -0.053776495, 0.053577714, -0.19324738, -0.057252195, 0.04476972, 0.019593857, -0.10248159, 0.025078466, 0.11070265, 0.019237218, -0.24278066, -0.07164175, -0.066559836, -0.095003575, 0.0043941163, 0.05156471, 0.13578732, 0.021800213, 0.08579774, 0.3193884, -0.16993399, -0.32873613, -0.34866276, 0.010188625, -0.097985566, -0.14679141, 0.3543701, 0.23645957, -0.053561892, 0.08224653, 0.109289296, 0.13611767, -0.046652827, -0.036253933, 0.089739114, 0.049948137, -0.10187125, -0.040255584, -0.0077191885, 0.04389741, 0.05148191, 0.0027436167, -0.025852932, -0.035529, -0.028112752, 0.1378622, -0.029275514, 0.024510508, -0.07392356, -0.011229471, -0.004931823, -0.0035505164, -0.0016067654, 0.04651931, -0.061597724, 0.057940945, 0.19324411, 0.026996668, -0.004929882, 0.16761135, 0.13160838, 0.015187577, 0.14794524, 0.0946648, 0.10563982, 0.16902725, 0.15715687, -0.11875127, 0.14800738, -0.15478145, -0.21917655, -0.06454165, -0.084742524, 0.019967586, -0.09086694, -0.023703003, -0.016936889, 0.10384833, -0.1615224, -0.24909805, 0.43085927, 0.1707709, -0.06994355, 0.16020256, 0.17687802, 0.2591228, -0.0034582014, 0.09153768, 0.18775603, 0.01720489, -0.024995515, -0.053919494, 0.19399416, 0.08229367, 0.11745056, 0.09201429, 0.0104830945, 0.04839661, -0.03956695, 0.008931433, 0.017486846, -0.39334163, -0.17107078, -0.1582681, -0.24382886, -0.33722693, 0.12408457, 0.06832997, -0.12078657, -0.2109324, 0.07675248, -0.015019456, -0.05506202, 0.029877422, 0.016728936, 0.10823597, 0.16014193, 0.1223582, 0.2654238, -0.019993901, -0.15799408, 0.13649538, 0.03904766, -0.06615187, 0.082848564, 0.105838254, 0.13007832, 0.0071460274, -0.22945394, -0.19612472, -0.024502918, -0.15369421, -0.20169489, 0.061531935, -0.087644845, -0.25000352, -0.081636995, -0.17024106, -0.21827462, -0.190704, 0.03715728, 0.06122232, 0.14233609, -0.1140556, 0.14767441, 0.16690138, 0.08730841, 0.023165882, 0.11633272, 0.07681654, -0.069104634, 0.029361563, 0.032110035, 0.065251306, 0.30397195, -0.07510226, -0.0572032, -0.16091804, 0.112720214, 0.20624152, 0.20903103, 0.02189186, 0.2305952, 0.083451726, -0.07498289, -0.056295488, -0.08232676, -0.07044582, -0.26344365, -0.16461577, -0.4003913, -0.25620654, -0.089185335, -0.079358086, 0.004296168, 0.16448548, 0.014397069, -0.010489145, -0.08733028, -0.031360187, -0.09713575, -0.23239431, 0.2557962, 0.23549959, 0.07407967, 0.1999071, -0.0034902387, -0.010027492, 0.027888037, -0.042203963, -0.013264575, 0.060674865, 0.010375071, -0.0912635, 0.043021727, 0.02344878, -0.013878327, 0.027629206, -0.008590755, 0.12512693, 0.04149558, -0.049635753, -0.1669295, 0.025706284, -0.022917539, -0.04471162, -0.17786373, 0.044610113, 0.05133651, 0.0023668443, 0.09325133, 0.14125718, 0.034625478, -0.034788147, 0.000841095, -0.08937333, -0.07765324, 0.023788631, -0.17452918, -0.31033581, -0.34370965, -0.05382662, -0.15587407, -0.093430616, 0.13022761, -0.015280529, 0.028270341, -0.28168893, -0.16557725, -0.13356636, -0.28211033, -0.13868026, -0.047841303, -0.33285028, -0.4015139, 0.07477707, 0.0123884985, -0.20179057, 0.006559585, 0.21636456, -0.1071518, -0.016972782, -0.032128952, 0.04601658, -0.08246665, 0.1143777, 0.03501692, 0.12834306, -0.11156498, -0.2545601, 0.010786499, -0.031487983, -0.0709122, -0.14251907, -0.030423153, -0.17339975, -0.08182099, 0.048563283, -0.1766472, 0.014902406, -0.19551548, -0.09351183, 0.15810712};

const float conv2d_5_b[64] = {-0.042509105, 0.028920969, -0.027709898, -0.035693, -0.0063922214, 0.19224657, -0.054650955, 0.20284659, -0.15203734, -0.032961197, 0.11205501, 0.17348646, -0.015457829, -0.015205169, 0.18093474, 0.026164183, -0.04624058, 0.09822031, -0.027364815, -0.04571259, -0.011824831, -0.0265661, 0.25631073, -0.064183384, 0.045248847, -0.06905732, -0.024226928, -0.024416007, 0.030509569, 0.15630202, 0.23440062, 0.02720501, 0.03335489, -0.041613232, -0.2242282, 0.3106137, 0.015266159, -0.027828226, 0.056920197, 0.105929516, 0.13324712, 0.31937778, -0.032793712, 0.079811975, 0.25738502, 0.038913246, 0.18609479, 0.31170022, -0.038377367, -0.04746951, 0.20266487, -0.1410841, -0.104583226, 0.1359913, 0.05124877, -0.035006084, 0.26162842, -0.046516746, -0.14062661, 0.19208296, 0.093006715, -0.045154408, 0.4120102, 0.22876567};

const float dense_2_w[65536] = {0.05976671, -0.03441464, 0.017639406, 0.048832215, -0.031535134, -0.053737376, -0.022818714, 0.056862764, -0.0480667, -0.05934663, -0.06924496, -0.02763517, 0.07377249, -0.020330407, -0.057814363, -0.030425137, 0.05932513, -0.06374324, 0.06476182, -0.035145395, -0.060737107, 0.033395387, -0.02119237, -0.030951414, 0.0046636444, 0.054519072, 0.0026434958, -0.039945118, -0.018092148, 0.04980254, -0.045489833, 0.009671191, 0.044893235, -0.012546804, 0.004851359, -0.08014023, -0.06238246, -0.038984943, -0.08065535, 0.017640388, -0.079029866, -0.026472287, 0.015033435, -0.076608606, 0.0060488675, -0.017628204, -0.07687766, -0.14880022, 0.016742885, 0.041199796, 0.09136509, -0.009102059, -0.036997557, -0.06708603, 0.06596835, 0.025320038, -0.017167173, 0.04885748, 0.023655262, -0.0685657, -0.009397057, 0.04033284, -0.06428797, -0.060183585, 0.023919307, -0.0076361466, 0.002042316, -0.05922631, -0.058995698, 0.008347354, -0.013363812, -0.0018173131, -0.044381868, 0.04130187, 0.0015340648, -0.01940737, -0.033213593, -0.062751696, -0.018799586, -0.09285757, -0.070061535, -0.072982624, 0.007856004, 0.02776289, 0.014353076, 0.021763682, -0.04948889, 0.043430403, 0.03088799, 0.06823991, 0.012840852, 0.05992131, -0.038635917, -0.04871391, -0.012342393, 0.022088382, 0.00984234, -0.013775688, 0.0396802, -0.003446858, -0.1276085, -0.040466197, -0.050868183, 0.025064252, -0.06190605, -0.08684016, 0.06968679, -0.068752065, -0.01619274, -0.0794897, -0.01015401, -0.16549619, 0.011902407, -0.05421483, -0.008067872, -0.020567939, -0.0595697, -0.08007098, 0.034629483, -0.07061404, -0.06225153, -0.023459397, -0.003977276, -0.0471182, -0.067307144, 0.023024395, -0.05272596, -0.016014997, -0.033112034, 0.03347165, 0.053458676, -0.0062980503, -0.14031824, -0.044505447, -0.0009819865, 0.0042047016, 0.015203943, -0.036668126, -0.029822465, -0.017126264, 0.032718398, -0.07849774, -0.019072559, -0.094822586, -0.028507225, -0.051390603, -0.06685877, -0.07095608, -0.06308865, 0.06844935, -0.08480512, 0.06549175, -0.0075364495, 0.01155214, -0.07289547, -0.069594204, -0.064163625, 0.051065825, -0.09000953, 0.017657002, 0.04240262, -0.07101852, 0.026194382, 0.011771104, -0.069488324, 0.057503223, -0.12990521, 0.08671498, -0.09295271, -0.005505095, 0.032851852, -0.0052788025, 0.06949392, -0.005928198, 0.008253657, -0.033279974, 0.0134259015, -0.030498851, -0.05300517, -0.12542059, -0.05806673, -0.020941216, -0.079035364, 0.07162729, -0.00033881405, 0.061546862, 0.02002485, -0.0072823013, -0.03828514, -0.006994337, -0.051906176, -0.029925056, -0.018091176, 0.05656082, -0.01903481, -0.06566315, -0.041861247, -0.08574293, 0.048859, -0.052754495, -0.11115944, -0.056505956, -0.083101034, -0.10954597, -0.03795298, 0.029319128, -0.09430439, -0.098349325, -0.07134518, 0.009652978, 0.012663178, -0.118913665, -0.047795687, -0.01204139, -0.09630353, 0.057398856, -0.057650704, 0.057792842, -0.01800695, 0.06214008, 0.019818928, -0.019396909, -0.06489908, -0.03415539, -0.028420048, -0.027454397, 0.015122664, -0.13852021, -0.115046486, -0.058562793, -0.14900722, 0.015854262, 0.014610972, -0.057111237, 0.016041122, -0.10202681, 0.05648183, -0.049712412, -0.07628133, -0.11569, -0.03851774, -0.018566277, -0.03692113, -0.11081601, 0.056720804, -0.06317211, -0.03709773, -0.0034561455, -0.007840891, -0.0034689456, -0.054295193, -0.045281954, -0.0010044568, 0.056879774, -0.024863692, -0.050584245, 0.013375036, 0.030254481, -0.056375667, -0.06465751, -0.0024690449, 0.011039253, 0.004150562, -0.052357875, -0.09661597, -0.0031078532, -0.14914283, -0.059893917, 0.03582938, 0.024121538, -0.026957525, 0.016122606, -0.059677955, -0.06474374, -0.06254044, -0.06876222, 0.05680637, 0.013447113, 0.0296514, 0.030348517, -0.053557664, 0.022252291, -0.02188905, -0.0054562837, 0.0059710303, -0.020880848, -0.009516504, -0.012781023, -0.024107987, -0.059960708, 0.00465957, 0.063572906, 0.0014163731, -0.010066181, -0.06596292, -0.027551394, -0.06686246, -0.071041785, 0.09013475, -0.061200995, 0.0090858815, -0.009847874, 0.0007152861, -0.1129298, -0.064936385, 0.07104206, 0.025493354, -0.10451061, -0.03183388, -0.076181844, 0.056126956, -0.043957047, -0.09577062, -0.0016870946, -0.064658105, -0.13909943, -0.02584187, 0.05500917, -0.026976308, -0.053474344, -0.07402989, -0.08448599, -0.045476794, 0.023057416, -0.003129268, 0.030738525, 0.011055388, -0.043957155, -0.06467898, -0.046238255, -0.0132697085, -0.15032019, -0.0243252, 0.034200214, 0.0074712285, -0.08199658, 0.047730967, -0.048164647, 0.028553523, 0.024139905, 0.025336392, -0.0070299953, 0.013409874, 0.07173501, -0.07168434, 0.028856635, 0.0072342604, -0.03797139, -0.114651166, -0.068274766, -0.06509611, 0.053997528, 0.0045317, -0.011542387, -0.031636566, -0.0010440907, -0.014478638, -0.020002276, -0.056969218, 0.017666958, 0.044029377, -0.06306894, 0.020198757, 0.011757187, -0.028508676, 0.010404213, -0.008042517, 0.029016607, -0.049580455, 0.04068608, 0.10461656, -0.052519444, -0.12562715, -0.13844433, 0.10452124, 0.061034143, -0.07369346, -0.028325979, 0.07266189, -0.093060546, 0.015086205, -0.06900184, -0.049354956, -0.07144714, 0.06488389, 0.02241504, -0.0641119, 0.019644128, -0.021859262, -0.09143339, -0.030891657, 0.031695955, -0.09178563, -0.06675827, -0.016209554, -0.08257244, 0.04686802, -0.028462254, 0.014257224, -0.09512598, 0.061527684, -0.050409317, 0.057852834, -0.011220815, 0.06567257, -0.057038654, -0.0064892583, 0.017573401, -0.014863218, -0.052031636, 0.009265229, 0.029446892, -0.014404522, -0.036528178, -0.00228505, -0.08633192, -0.0898724, -0.0005627945, 0.031628944, -0.07745517, -0.06419044, -0.01679742, -0.051626444, 0.03711145, 0.085921936, -0.029443583, 0.031746622, 0.01507915, 0.0067277234, -0.06343817, -0.0051082894, -0.054085243, -0.05094239, 0.050358035, 0.09417954, -0.045562517, -0.07483275, -0.08138473, 0.08544893, 0.06328945, -0.09552584, 0.05438271, -0.090849094, -0.039082907, 0.007973252, -0.017382912, -0.08592854, -0.054858994, -0.06770605, -0.08142214, 0.062524736, -0.03869497, -0.030098096, -0.0064983834, 0.04384865, 0.019655172, 0.0031443608, -0.0034040436, -0.024590796, -0.016605621, 0.05482261, 0.012391351, -0.028493723, -0.09838829, 0.03324923, -0.10411641, -0.035963442, -0.024217287, -0.07050436, 0.06894842, -0.035086952, -0.0035313591, -0.038957838, 0.05241002, -0.043539897, -0.0052049872, -0.083375804, 0.04062846, -0.022039525, 0.07094973, 0.09751885, -0.027929936, 0.03859325, -0.115335666, -0.018680405, 0.056026682, -0.005302518, -0.011407204, -0.053143818, 0.0072652525, 0.0064796507, -0.047640603, -0.07566957, -0.03465623, -0.019709775, -0.0566239, -0.0341335, 0.016446464, 0.038039092, -0.019514404, -0.0192604, -0.10122221, 0.085552245, 0.07387161, -0.12576725, -0.019064307, 0.008452214, -0.09254964, -0.008931064, 0.06990555, -0.039352234, -0.021351898, 0.048695303, -0.10471896, -0.01155597, -0.061665684, -0.05708819, -0.014322706, -0.07047279, 0.0048647257, 0.021343827, 0.06212488, -0.107872196, 0.015312204, -0.06903065, -0.059505347, -0.10081403, -0.08984691, 0.0061454102, -0.030286875, -0.024899948, -0.10151835, -0.071100675, -0.06234774, 0.034119107, -0.033134643, -0.014419516, -0.053303845, 0.06417313, -0.033826247, -0.009126282, -0.06109802, -0.07679102, -0.015054221, 0.028259888, -0.062282126, 0.0017499796, -0.13409986, -0.0474142, -0.024984434, -0.049710978, 0.01207742, -0.045489036, -0.12868924, -0.03531828, -0.09260968, -0.0023783173, 0.063123964, -0.04123246, -0.05545793, -0.07743213, -0.014327649, -0.07912312, -0.08490585, -0.0050830385, -0.06283773, -0.02716272, -0.07295166, 0.00092854915, -0.009575993, -0.007961251, 0.09494731, -0.031474542, -0.0002554357, 0.034258615, -0.11515323, 0.04739037, -0.067787886, 0.021518536, 0.057145208, -0.06630952, -0.025003012, -0.010674298, -0.0059331595, -0.04446451, 0.019736432, -0.108316734, -0.023045015, 0.0055049434, -0.0585943, -0.043604936, 0.019576991, -0.0729744, -0.04141025, -0.0048006997, -0.042873386, -0.0037384017, 0.0047153085, 0.006602742, 0.0714912, 0.033464584, 0.02609735, -0.0129426755, 0.012404846, 0.021626648, -0.035272658, 0.00046876728, 0.055352174, -0.020487372, -0.06637437, 0.061621275, -0.061989766, -0.023531953, 0.054346845, -0.10077474, 0.007371449, -0.014567593, -0.0791025, -0.051512234, -0.06823797, 0.00039328408, -0.07153125, -0.07726774, -0.0066397944, -0.019458584, 0.059294894, -0.013717705, -0.041216966, 0.03594885, -0.13464645, 0.03196949, -0.012044966, -0.0031543507, 0.013993852, 0.06307648, -0.07307069, -0.09779471, 0.05011239, -0.11664367, 0.015291829, -0.044139553, -0.10806547, 0.02433575, -0.06005217, 0.013799272, -0.042238917, -0.008499287, 0.03124394, -0.14520112, -0.004420057, -0.022832926, -0.023336165, -0.04021216, 0.004530285, -0.07853381, -0.059127383, 0.0072260275, -0.02262532, -0.018225398, 0.0851584, 0.014415664, -0.066067696, -0.091074556, -0.053414166, 0.02632435, -0.07148397, 0.057433218, 0.044313893, -0.0308958, -0.030528765, -0.11588714, -0.031477414, -0.022578362, -0.03311559, -0.04211329, -0.07237787, -0.11447344, -0.0035719723, 0.0459156, -0.08828966, 0.028235951, -0.040394835, 0.04336123, 0.01854811, 0.046911355, -0.059232768, -0.077095166, 0.056527678, -0.050072923, 0.059796423, 0.05154221, -0.08567412, -0.07827212, -0.03309521, -0.010789811, -0.024915528, -0.089793466, 0.01817993, -0.07448293, -0.0811449, 0.026643407, 0.06957391, -0.117041886, 0.048276745, 0.014414258, -0.016404392, -0.02930915, -0.052943174, 0.03773919, -0.056756914, -0.07411573, 0.005209761, 0.015278738, -0.027098656, -0.05042319, -0.09309256, -0.0042445958, 0.056031182, -0.056843333, -0.045739125, 0.030223995, -0.12254084, -0.025624301, -0.00023155093, -0.035879035, 0.0005798787, -0.015727432, -0.048237972, -0.03530498, -0.015878305, 0.0017433465, -0.058447175, 0.017922431, -0.011562841, -0.07974048, -0.06494949, 0.010317451, -0.03876, -0.056218006, -0.036312953, -0.13029674, 0.0065793097, -0.031126855, -0.10589148, -0.11361848, 0.008947674, 0.057347506, -0.014833638, -0.077253275, 0.030035008, -0.020035382, 0.05417188, -0.045950282, -0.044398755, -0.023021674, -0.061935622, -0.06979115, -0.10184455, 0.07371572, 0.0548082, 0.031311065, -0.05762282, 0.0358843, -0.05818733, 0.033920724, 0.07291432, -0.0047216057, -0.07939412, -0.021409858, 0.010799515, 0.055652827, 0.024847046, -0.09273239, 0.08308516, -0.020465638, -0.056131385, 0.0633378, -0.031170268, -0.10013171, -0.11388563, 0.04364223, -0.049629938, -0.09934837, -0.0062187673, -0.04377824, -0.08630001, -0.004969232, -0.11357569, -0.0030294803, 0.06552595, -0.0066261985, 0.06465098, -0.014171199, -0.070248924, 0.03979046, 0.033260472, -0.042276658, -0.045094326, -0.03234268, 0.03329245, -0.100745626, -0.048440397, -0.06161644, -0.05807666, -0.022336803, 0.07281594, -0.002038532, 0.037745737, -0.040768236, 0.01893238, 0.035211734, -0.05283268, 0.024922607, 0.0064126113, -0.0854349, -0.07113785, 0.023299962, 0.030648634, -0.10806718, -0.07089131, -0.055313114, -0.024614181, 0.0037961265, 0.030899994, 0.058761995, -0.057894684, -0.057368092, -0.0076642632, -0.07456581, 0.018672615, -0.005797769, 0.024186179, -0.06894531, 0.018153284, 0.050512865, 0.025347076, 0.024094086, 0.0065313727, 0.07415509, 0.010135164, 0.08104374, -0.031058017, -0.08832091, -0.066590585, -0.07284033, -0.059232563, -0.051270396, -0.014534475, -0.04524328, -0.10795242, 0.0187798, -0.019520404, 0.0025205063, 0.026329622, -0.103047855, 0.024591684, -0.0779329, -0.07323215, -0.06402395, -0.031677093, -0.0062800054, -0.12980337, 0.020433404, -0.06895844, -0.02802707, -0.040542938, -0.02590936, -0.007215023, -0.09776916, 0.03258966, 0.055626366, 0.00087004673, -0.00052264426, 0.023890505, -0.038714543, -0.06860334, -0.06047157, -0.07957367, 0.024384337, -0.08576734, -0.04235191, -0.058906376, 0.002674819, -0.080519676, 0.0026223536, -0.061543796, 0.019277006, -0.038626608, 0.07162142, -0.001223132, -0.08906423, 0.013487231, 0.011269805, -0.031215008, -0.087942734, -0.02036626, 0.054729506, -0.10622129, 0.014770687, 0.012611389, 0.0518682, -0.10856917, 0.011495523, 0.019766357, 0.08129553, 0.0037226556, -0.07134988, -0.06538213, 0.058004692, -0.043664854, -0.050955206, -0.037784167, 0.013703041, -0.048424374, -0.022186074, 0.020273652, 0.026208334, 0.024265163, -0.03190891, -0.05951921, -0.075033575, 0.020089135, 0.052044526, -0.036609773, -0.039897267, -0.05449464, -0.0744886, 0.0075240647, -0.102725916, -0.0011142045, -0.07306899, -0.038394693, -0.048900105, 0.03908454, 0.03300027, -0.009784893, -0.0807078, -0.13573708, -0.040606778, 0.062189315, -0.078167, -0.026626362, -0.083455175, 0.025027733, -0.0659436, -0.06935522, -0.058469415, 7.8592717e-07, 0.047582377, -0.062880844, -0.03774909, -0.0018105209, 0.059825014, 0.018113516, 0.011979033, 0.061665215, 0.037701555, 0.01437708, -0.011777195, -0.018386465, 0.016614683, -0.077848434, 0.00392624, 0.07169908, 0.032139156, -0.039276287, -0.04409506, -0.09481677, -0.032524094, 0.016160171, -0.079353966, -0.039175812, 0.0067746043, 0.023416497, -0.0979643, -0.04038168, 0.05108075, -0.09964332, -0.040682167, -0.087577, 0.044578858, 0.022220545, -0.054837998, -0.011129692, -0.07943446, -0.031080183, 0.053863734, 0.06837395, -0.023902256, 0.03847432, -0.089025006, 0.030443115, -0.10656354, -0.071414776, -0.09398415, -0.07978419, -0.040076736, -0.052264705, 0.053309422, -0.081529915, -0.0634391, -0.06468015, 0.03297714, -0.03325744, 0.042189904, -0.013048123, -0.04596831, 0.032739766, 0.05806142, -0.0072547123, -0.100821696, -0.092686184, -0.013528691, -0.019073097, 0.033546455, 0.06419921, 0.072978206, -0.07079412, -0.08474697, -0.0009228026, 0.033846557, 0.013877086, -0.036762215, 0.056267027, 0.073316716, -0.07061743, 0.0012705163, 0.04286361, -0.29123497, -0.0018780625, 0.086890526, 0.07848079, -0.108565405, -0.007536851, -0.051502615, 0.06107728, 0.057064086, -0.038269192, 0.28247818, 0.0049077505, 0.05438432, 0.29531673, -0.037426293, 0.10596109, 0.012858076, 0.0965588, -0.079631664, -0.08967992, 0.060238775, 0.0768824, -0.05223313, -0.10280175, 0.15827456, 0.090925746, -0.1054172, 0.025720807, 0.05729872, 0.08795371, -0.019060649, -0.017414013, 0.0035559388, -0.035700217, 0.07585829, 0.060122877, -0.24146694, 0.19564366, -0.035533838, -0.021664524, -0.05747546, -0.23353335, 0.05292298, -0.041194122, -0.028046053, 0.07185173, 0.1047611, -0.19255984, 0.0026158546, 0.19442503, -0.1433705, -0.020324504, 0.1614767, -0.08341305, -0.20863262, 0.04596647, 0.11925247, -0.00084130524, 0.15872741, -0.06899232, 0.028283343, -0.041280597, 0.035901494, 0.012575722, -0.23141418, 0.19577558, 0.02752426, -0.0053376197, -0.3713513, -0.043947045, 0.045388043, 0.12859493, -0.09824314, 0.005422689, 0.090527624, -0.088169076, 0.07305135, 0.18214229, -0.03350376, -0.20410526, -0.000124798, 0.06610594, 0.010004939, 0.0017295555, -0.091888264, 0.04522193, -0.05078108, -0.16510029, -0.082622215, 0.06751581, -0.015589286, 0.1600564, 0.12377929, -0.035891924, -0.044835713, -0.17201185, 0.15051556, -0.05666826, 0.01968008, -0.0686886, -0.10899457, 0.06778739, 0.03368985, 0.074200906, -0.20197658, -0.20401198, 0.04366763, -0.0590347, -0.043174397, 0.09632792, 0.2293549, -0.21972321, -0.0042437133, -0.052841756, -0.14984788, -0.08970907, -0.20491703, -0.05137739, -0.14199322, -0.15317628, 0.074569985, -0.013341069, 0.20845704, -0.14728075, 0.034481302, -0.010387703, -0.033161435, 0.06026302, -0.3010757, -0.0430924, -0.06679703, 0.21166342, -0.28824556, 0.02548716, 0.041870303, 0.03549169, -0.067374386, -0.007308205, 0.0006942871, -0.30805698, 0.0023829266, 0.32545248, -0.012250666, -0.18379138, 0.06537619, 0.027910281, 0.10891267, 0.069514856, -0.008473131, 0.053625297, -0.046364266, 0.1900928, 0.037366703, 0.01010933, -0.008116625, 0.09605878, 0.07545554, -0.10861179, -0.11447431, 0.07503666, 0.18171446, 0.0106258225, 0.14101562, 0.1451643, 0.075225666, -0.019760864, 0.025852498, 0.12293696, -0.20908223, -0.21201207, -0.050792493, 0.043835778, -0.109933004, 0.20348416, -0.0867382, -0.15127014, -0.026625942, -0.27711773, 0.017992577, 0.041554544, -0.28197202, -0.04153918, 0.061286774, -0.022423863, -0.037733633, 0.03351039, 0.02440778, -0.0672542, -0.0640332, 0.025496159, -0.01138954, 0.050985828, -0.36118302, 0.01860777, 0.06940687, 0.035479024, -0.1596221, 0.029096786, 0.3180404, -0.04756461, -0.07656327, 0.03419897, 0.13863508, -0.046704896, -0.025699496, -0.02915001, -0.049915064, -0.35710207, 0.11080288, 0.04833479, -0.029252028, -0.011636236, -0.088625394, 0.005157813, 0.03687592, -0.029699314, 0.058752757, 0.1224542, -0.05095899, -0.09029691, 0.07236567, -0.06308848, -0.18832502, 0.12513155, 0.28839174, 0.059966795, -0.2353285, -0.030827412, 0.05889377, 0.17065032, 0.060398627, -0.11502185, -0.094217956, -0.23928227, -0.07416389, 0.04921386, 0.09599332, -0.14507464, -0.02305386, -0.30259317, -0.18399599, -0.17119771, 0.048247054, -0.03555571, -0.21651846, 0.056101304, 0.023385393, -0.27935308, -0.1065809, 0.043800686, -0.0017467425, -0.07784347, 0.0326725, -0.09036886, 0.019643974, -0.008516997, -0.18232004, 0.08770631, -0.013371636, -0.013873889, -0.10724695, 0.034288537, -0.10362252, -0.041649114, 0.05943003, 0.042516213, 0.2520652, 0.08640257, 0.046753265, 0.18051717, 0.027545843, 0.10119621, -0.016806474, 0.058342896, -0.26511028, -0.07265549, -0.033659287, 0.1623071, -0.005135598, -0.0048188334, -0.085039124, 0.016980534, 0.03195495, 0.08899423, 0.18477385, 0.10034152, -0.20892017, -0.21105482, -0.03951606, -0.028989958, 0.023144223, 0.16349874, -0.08600645, 0.21265087, 0.04460564, 0.09324538, 0.18168323, -0.046526458, -0.0059143817, 0.20354357, -0.029788198, -0.026175044, 0.18405776, -0.0053013363, 0.034004677, 0.10274848, -0.043224454, 0.09725297, 0.18714902, -0.013323658, -0.29232246, -0.0778741, -0.07632718, 0.039486602, 0.19036886, -0.14297177, 0.0189485, 0.09390147, -0.0020000448, 0.06658659, -0.018716197, 0.22136351, 0.106344335, 0.14538634, -0.13588229, 0.04491106, -0.12552059, 0.07040263, 0.021768609, -0.08796651, 0.20785709, 0.015771635, 0.019687817, 0.16078743, -0.01657031, -0.0056873737, -0.0014443075, 0.057364658, 0.052283205, 0.015417906, 0.06972247, 0.0022267797, -0.031365044, 0.19144244, -0.23308703, 0.15201062, 0.0052812044, -0.0283457, -0.058063753, 0.06430024, -0.10290648, -0.035773486, -0.025962954, -0.07242652, 0.014658645, 0.13068874, 0.0053715464, 0.02403087, -0.00954985, -0.06765237, -0.018788882, -0.21964614, -0.04149073, -0.07051518, 0.049537964, -0.068918236, 0.13899793, -0.042456944, 0.011395336, -0.11135167, 0.0632454, -0.03801817, -0.075659096, -0.04661875, -0.104916014, -0.15534084, 0.027980696, 0.013516917, 0.25168154, 0.11094447, 0.010175591, 0.032862466, -0.04150212, -0.031924114, 0.0726283, -0.11218588, 0.09350378, -0.25601128, 0.000103483806, -0.080428995, 0.17036498, 0.077371426, -0.034311116, 0.0009348907, 0.03586856, -0.09323698, 0.022487521, 0.070551395, -0.021687567, 0.08805686, -0.081005424, -0.016169367, 0.041599497, -0.02917319, -0.12592304, -0.118207596, -0.047861125, 0.04904053, -0.107539006, -0.03373068, -0.033497427, -0.14764337, 0.012215569, 0.026644045, -0.0036867014, -0.11461497, -0.010189269, 0.053079516, 0.015693797, 0.0756435, -0.044071317, 0.21495077, -0.008355901, -0.038953494, -0.002036816, -0.06426765, -0.111215316, -0.16562623, 0.02413224, -0.042838287, 0.1944557, -0.30365208, -0.13865395, 0.053177997, 0.10888552, -0.04523793, -0.07615494, -0.05998411, -0.018231165, 0.11189763, 0.034689482, -0.03188806, -0.017114792, 0.07857199, -0.017395217, 0.056663837, -0.05327708, 0.054401983, -0.0648671, 0.015870452, -0.027464462, -0.05638665, -0.231325, 0.010178648, 0.15873197, -0.14971153, 0.0475039, -0.07277192, 0.12432488, -0.065094635, -0.06383546, 0.041212708, -0.00932779, -0.18518117, 0.0018718092, 0.061029956, -0.10679256, 0.051448304, -0.10637796, -0.14253663, 0.058939103, -0.18188697, 0.35148036, -0.010390271, -0.079915985, -0.24393241, -0.029754894, -0.09871802, 0.11281887, -0.21038738, 0.19113748, 0.051734697, 0.095805675, -0.0830227, 0.12604553, 0.0411212, -0.013074734, 0.06761763, 0.0374566, -0.103101015, -0.12885816, -0.05073056, 0.100249924, -0.09464013, 0.16673104, -0.20673725, -0.23247315, -0.124984585, -0.06747257, 0.028704815, -0.14040853, -0.017280003, -0.17319354, -0.033060625, 0.02921347, -0.041611157, 0.08381772, -0.04332449, -0.046786144, -0.088240266, -0.032008763, 0.09209967, -0.14929484, 0.15714711, 0.07035511, -0.2886788, -0.05309675, 0.027536271, 0.0058641466, 0.048076157, -0.007659699, 0.040919274, -0.011987967, -0.2382714, -0.06806913, 0.09427494, 0.073935434, 0.15201578, 0.011317493, -0.00028518037, -0.056747034, -0.03437194, -0.1196733, 0.044665784, 0.05828517, 0.019293444, -0.059430584, 0.024812264, -0.0911045, 0.1555101, 0.09043475, 0.09549947, -0.20390491, -0.27482256, -0.0691873, 0.013045135, 0.11534373, 0.028242664, -0.020812038, 0.057589855, -0.042827558, 0.0010101883, 0.21555673, -0.17902285, -0.015956268, 0.23375149, 0.052010767, -0.017214926, 0.07130506, -0.09002004, -0.098518945, 0.03883247, -0.022876171, 0.115246356, 0.025412973, 0.024931239, 0.058493733, -0.204189, -0.011228222, 0.036547467, -0.026487928, -0.019814502, 0.0035944302, -0.0903714, 0.07423184, 0.047777593, 0.0024263104, 0.012544574, -0.0168746, -0.08084837, 0.10100582, -0.061023124, 0.17646042, 0.0594718, -0.02283949, -0.0019135667, -0.18015417, 0.0320895, 0.056342363, 0.1091894, 0.08187828, 0.010268496, 0.09665272, 0.003639198, 0.018974893, -0.012023855, 0.07335992, 0.0771167, 0.073549606, -0.054884195, 0.12463576, -0.057894327, -0.04183422, 0.13256663, -0.03135065, 0.11801105, -0.105482064, -0.052855823, -0.007130397, -0.027287818, 0.20364654, 0.2774091, 0.11658046, 0.03233727, -0.04402531, 0.024303086, 0.21608509, -0.00929174, -0.026075976, -0.038401008, 0.06949228, -0.14698976, 0.03756808, -0.20540453, 0.16011028, 0.07248569, 0.0466013, 0.02653215, 0.00042905737, -0.03921963, 0.021922423, -0.094359756, 0.09785997, -0.042631995, 0.15365134, 0.05870845, 0.020497946, -0.020133622, 0.008880519, 0.017056383, 0.14377956, -0.03939488, 0.07849256, -0.024409425, 0.102789775, -0.061512373, -0.051264066, 0.09598607, 0.028140642, 0.01758008, -0.0403565, 0.042250294, 0.04058792, -0.0052565043, -0.08327553, 0.05766473, -0.10568606, -0.008814678, 0.010144017, -0.04554312, -0.11077361, -0.15669718, 0.056981746, -0.019295836, 0.2226445, -0.086784214, 0.20826261, -0.17271408, 0.041440047, -0.008380857, 0.035861544, 0.024934245, 0.049363766, 0.00655516, 0.063186124, 0.04172158, 0.00823316, 0.011642917, 0.039199192, -0.11719976, 0.11427055, 0.07000007, -0.08704657, -0.03056635, 0.069694266, -0.085758954, -0.19915287, -0.20658828, 0.052384686, 0.103959404, -0.095903404, 0.045766283, 0.0030593034, -0.053116042, -0.06934011, 0.027975172, 0.26672965, -0.10322981, 0.07159097, 0.04326675, 0.007336721, 0.010354632, -0.053293306, 0.021243086, -0.03881398, -0.20499797, -0.039485905, 0.115268596, -0.13775553, 0.037671577, 0.05097511, 0.11866211, 0.03174899, 0.04221776, -0.0366895, -0.13970052, 0.03888694, 0.057179566, 0.0053617107, 0.10232007, -0.009711878, 0.044165034, 0.09794412, 0.08839437, -0.22090772, -0.0963082, 0.06405645, -0.12002497, 0.09700503, -0.15255871, -0.04779641, -0.051544428, 0.080373235, -0.020639408, 0.13347021, -0.023814822, 0.22712861, 0.0718916, 0.19646057, -0.11513552, 0.17014417, 0.02899426, -0.019218376, -0.0717627, 0.15557687, -0.06409211, -0.09412996, -0.025964959, -0.00028405778, 0.118616596, -0.011262082, -0.15773599, -0.058000613, -0.026713558, -0.08077355, 0.06924086, -0.021111788, -0.020714056, 0.1864449, 0.032727666, -0.048194643, -0.061093803, 0.25366786, 0.22061667, -0.04623935, 0.050888002, 0.006013695, -0.021699648, 0.017641662, -0.07232885, 0.007218036, 0.11458799, 0.07004468, -0.0023316385, 0.09075415, 0.15212923, -0.025328834, -0.0080140475, -0.19472216, -0.22521803, 0.00997209, 0.035450894, 0.03088624, -0.027465453, 0.032283623, -0.023012646, 0.12171623, -0.030185463, -0.11399328, 0.0045953025, -0.023315612, 0.052083157, -0.2592356, 0.08498632, -0.15028372, -0.17092116, -0.17916855, -0.13518897, -0.058050375, 0.13799152, 0.036824215, -0.02275308, -0.017907448, 0.09009452, -0.035147663, -0.13443112, -0.027629279, -0.12096903, 0.2823134, -0.102480456, -0.096284844, 0.16612126, 0.014376595, 0.084973335, 0.16499643, 0.03324481, 0.039098337, -0.2539517, 0.0014414152, 0.09559395, -0.15612487, 0.032582447, -0.05276336, 0.045936618, 0.024535006, -0.0020967752, 0.11946282, 0.17844433, -0.04126649, 0.0038798891, 0.038678616, 0.07943768, 0.023715619, 0.15068083, 0.0832487, 0.25030246, -0.11198387, 0.032103438, 0.03201825, 0.10014485, 0.016330797, 0.050731868, -0.20020163, -0.17743064, 0.037613366, -0.015505859, 0.023177937, 0.060865887, 0.037027117, 0.033511855, 0.009442046, -0.02391616, 0.16299134, 0.13522896, -0.035296027, 0.25086343, -0.06666029, -0.082449436, -0.21644074, -0.04321468, -0.12957084, -0.017973531, -0.1420565, 0.050198674, -0.05306128, -0.06364249, -0.09246169, 0.32879707, 0.081446216, 0.0374313, 0.040183656, 0.07025449, 0.0693432, 0.25678337, -0.13757943, -0.20154132, -0.01060005, -0.10249967, -0.19900449, 0.10139093, -0.004758974, 0.040410783, -0.17840037, -0.09964794, 0.030510748, -0.007959624, 0.13365823, 0.16557339, -0.038198393, 0.0036357925, 0.20002633, 0.21958624, 0.015375208, 0.006681473, -0.037819687, -0.024858378, 0.19342335, 0.040224746, 0.00691891, 0.16006376, -0.038960885, -0.06382108, -0.2224695, 0.08921171, -0.040946193, 0.01997299, 0.16943032, -0.06974062, 0.010330819, 0.17180142, -0.026118826, 0.21244657, 0.1062744, 0.0010856802, 0.06356238, 0.044445667, -0.19837707, -0.073556535, -0.017833604, 0.083228245, -0.20653221, -0.17243147, -0.12458764, -0.13820596, -0.16174024, -0.008203216, -0.18076369, 0.12603384, 0.01704675, -0.010088864, 0.13018267, -0.13832201, 0.13173887, -0.0750262, 0.023184197, 0.14740197, 0.109166466, 0.20873508, -0.02261763, -0.13132799, -0.016756449, -0.14002042, -0.24534711, 0.14769422, -0.27897647, 0.084658764, -0.007743673, 0.026705189, 0.1312297, -0.06125793, 0.25323197, 0.27850887, 0.079363726, -0.030106777, 0.118860446, 0.10865423, -0.02176704, 0.122347474, -0.0700411, 0.02930201, 0.2030774, -0.16627617, -0.06642207, 0.16171734, -0.04283044, 0.05413026, -0.07656173, 0.0934409, -0.07501216, -0.050890997, -0.09071415, 0.046395045, -0.054729402, 0.3268772, -0.07491068, 0.30774638, 0.036096793, 0.106405914, 0.18844968, -0.03011145, -0.42357147, -0.2592706, 0.02331766, -0.13582894, -0.049186934, -0.3046417, -0.0098147355, -0.09067361, -0.07189479, 0.11767943, -0.021229228, 0.071578436, 0.01517923, -0.006158731, 0.092882045, -0.2703362, -0.018435335, 0.05952604, -0.1418825, 0.04208064, 0.13178024, 0.37196139, 0.14529929, 0.10081545, 0.010644042, -0.36300993, 0.06219495, -0.028426416, -0.105511844, 0.09698939, -0.37842235, 0.014974971, -0.11390356, -0.046181317, 0.22442845, 0.20411287, -0.21130538, -0.014501951, 0.2521651, 0.1637923, 0.016742136, -0.058567442, -0.02774146, -0.03383439, -0.047752414, -0.18483688, -0.020078499, 0.12706725, -0.11350297, -0.0011227723, 0.15026774, 0.08222894, -0.060424432, 0.006044883, 0.0430568, 0.054730397, 0.012736782, 0.26947507, 0.054432303, -0.18310507, 0.022453543, 0.05174017, 0.03021424, -0.019107016, -0.0035868816, 0.026882663, -0.0024902972, 0.03179383, 0.046916533, -0.14929292, 0.15567069, 0.16563001, -0.056750096, 0.19888599, -0.004759655, -0.030692076, 0.061283585, -0.011389574, -0.31290492, -0.09920315, -0.13143125, -0.09301971, 0.036770724, -0.19847912, 0.014775701, -0.03047797, -0.016068144, 0.115896516, -0.066328354, 0.004531198, -0.15771747, -0.005383767, -0.42551532, 0.13410585, 0.0163117, -0.012035374, -0.1502001, -0.03552713, 0.18557654, 0.10495305, 0.13585237, 0.087856695, 0.13709587, 0.034026276, 0.0042285617, -0.025023628, -0.036090672, -0.08984817, 0.10752547, -0.24021421, 0.05261594, 0.058288116, -0.017093604, 0.069107085, 0.13271667, -0.1806405, -0.010684397, -0.03688508, -0.13057263, 0.03103646, -0.016155321, 0.110959046, 0.06915763, -0.19073962, 0.0063364883, 0.14676844, -0.124671035, 0.06580275, 0.28647572, -0.037463527, 0.051889453, 0.04232599, 0.10295245, 0.059178554, -0.14640987, -0.005298592, -0.0051347143, 0.053441387, -0.08956273, -0.08038178, -0.052695822, 0.049535684, -0.08026662, -0.14878713, -0.019146834, 0.042718686, 0.08165315, 0.083764106, 0.092062645, 0.116693944, -0.0051319283, 0.09622695, -0.05453396, 0.0700717, 0.06182256, -0.086412445, -0.17440784, -0.0862441, -0.05844516, 0.04773394, 0.015326506, -0.021871606, 0.2549658, 0.15667017, -0.13279773, -0.06237202, 0.11100962, 0.069829404, 0.04226054, 0.08709428, 0.013569461, 0.016803425, -0.067279495, -0.14366181, -0.039597277, 0.10910904, -0.14343756, -0.0071092187, -0.078033864, 0.027528815, 0.05082292, -0.07933712, 0.014144743, -0.02973443, 0.069922596, -0.066957265, 0.04956987, -0.018097539, -0.0931288, 0.017920317, -0.236777, -0.003412527, 0.2540976, 0.08163787, -0.06055962, 0.008928614, 0.003452215, 0.1673925, -0.19370696, 0.13128024, 0.010242155, -0.15303396, 0.029056288, -0.020968884, -0.0034660953, 0.009863284, 0.09197397, -0.20341957, -0.15551326, 0.112513125, -0.013855333, 0.19387707, -0.06817446, -0.063004255, 0.037762605, 0.047084592, -0.0019191013, 0.008283271, 0.03998123, -0.14942802, 0.026377304, 0.011185926, 0.12257942, 0.011686456, -0.26270667, -0.06483764, 0.0555314, 0.17774896, 0.077008486, 0.033805598, 0.11663058, -0.084613964, 0.020554874, 0.047503605, 0.06020365, 0.016640268, -0.22137126, -0.10823841, 0.09543997, 0.051930156, -0.050626524, -0.059505362, -0.17207648, 0.038733013, -0.025831211, -0.0077184443, 0.023586681, 0.016875327, 0.031321928, 0.27269927, -0.11406439, -0.21237662, 0.05238413, 0.08922641, -0.41891378, 0.051716574, 0.23165019, -0.17460796, 0.0038720341, -0.20148702, 0.4643395, 0.10179609, -0.26511735, 0.26273707, 0.21328378, 0.06574054, -0.023730112, -0.042125497, -0.33154443, 0.039949708, 0.06174395, -0.18950695, -0.28402793, -0.041492518, -0.02484466, 0.2845615, 0.020119539, 0.05652981, 0.052650616, 0.104445755, -0.061748184, 0.3247856, 0.07835213, -0.073245384, 0.0301035, -0.20180269, 0.1494061, -0.018914917, -0.0038987969, -0.069192566, 0.005798377, 0.073683284, 0.3483806, 0.06395621, 0.22846891, -0.07721023, 0.07056426, -0.015937226, -0.045549784, 0.02209206, -0.21768202, -0.03370238, -0.0013269922, 0.05967431, 0.15598063, 0.08134603, -0.1016762, 0.09910635, -0.0046074656, 0.00785124, -0.058644, 0.0657922, 0.0026081875, -0.08147067, -0.027160628, -0.09938526, -0.0048260465, 0.047782883, -0.056135505, 0.00236391, 0.028656194, -0.1270309, -0.037539296, -0.02128415, 0.10977633, -0.14857483, 0.077765495, 0.3080066, 0.0003724456, 0.17285906, 0.06810953, 0.09878863, -0.03771985, 0.010475279, -0.3524499, -0.0882273, -0.023247456, -0.015379354, -0.069152065, -0.18486248, -0.28030106, 0.06817172, -0.1728631, 0.13513446, 0.10517926, -0.1647663, -0.055863928, 0.107757084, -0.20045505, 0.22145355, 0.041681398, 0.049562544, 0.0110956915, 0.011182216, 0.08358831, 0.17829265, 0.02549862, 0.0028563759, 0.10482926, -0.08875686, -0.06368989, 0.01683746, -0.03606038, 0.006842018, 0.08895788, -0.19442572, -0.014011201, 0.10612274, 0.025983788, -4.2108266e-05, -0.016455717, -0.14991601, -0.084789395, 0.003953513, 0.0023836622, 0.013961969, 0.011627726, -0.06534088, -0.048375245, -0.21825188, -0.011640947, 0.11681914, -0.0616067, -0.022929348, 0.05481487, 0.019919593, -0.00153612, -0.010191474, 0.1306258, 0.18478313, 0.08972255, 0.037527338, -0.0065869233, 0.15716371, 0.009657763, 0.10267328, -0.2165982, -0.027212912, -0.24990919, 0.0006871208, -0.027614944, -0.115068145, 0.025248585, 0.08945124, 0.19630858, 0.13476035, 0.042608578, 0.088268705, -0.07927212, 0.01065774, 0.24934366, 0.027293354, -0.11530093, -0.1531149, 0.086283736, -0.027525932, 0.16035631, 0.0052843117, 0.20459816, 0.21496347, 0.037233822, -0.048045546, 0.08443684, 0.021139104, 0.07855357, -0.02003275, -0.035118483, 0.049543966, -0.12782432, -0.33685026, 0.027061393, 0.0068919803, -0.040166564, -0.007910917, -0.025079377, -0.02997238, 0.026516575, -0.00051734917, -0.09080428, -0.043655675, -0.030448303, 0.016356166, -0.03782152, -0.26489013, -0.027977021, 0.15500978, -0.18008442, 0.00916668, -0.09903241, 0.055646997, 0.07196264, 0.049465258, -0.16008735, 0.033924114, 0.06509538, 0.2655605, 0.002450257, 0.041087758, 0.1180551, 0.31059548, -0.2369547, 0.01561067, -0.15247141, -0.15609254, -0.15626486, -0.19224349, -0.06401459, 0.30827555, -0.124670744, -0.06293737, 0.033559512, 0.02205316, 0.038113985, -0.01955995, 0.16305259, -0.08016729, 0.0416387, 0.035449583, -0.010536116, 0.053035926, -0.0046833684, -0.046295572, 0.04681422, 0.10200294, 0.05777053, -0.023668487, 0.103923246, -0.016466528, -0.025792766, 0.0634841, -0.020548336, 0.012962868, -0.2225615, -0.13392863, 0.017265467, 0.018055515, 0.0020304632, 0.015795147, -0.03569805, 0.09784426, 0.0409198, 0.019180829, -0.026940972, -0.037399225, -0.0114421025, -0.014121931, -0.085133106, -0.15812652, -0.120035954, 0.050796498, -0.020859895, -0.019837756, 0.072464794, -0.22491513, 0.06514889, 0.15951134, -0.019160513, 0.11911025, -0.07752321, 0.12646045, 0.11130316, 0.07594851, 0.06831238, 0.011554179, -0.027677799, 0.03613461, -0.119558714, -0.24607605, -0.34150612, -0.11548647, -0.008910637, 0.1546403, 0.15066382, 0.052994996, -0.20563443, 0.013736371, 0.058773402, 0.13461202, 0.11949689, -0.0021861268, 0.06813775, 0.025663843, 0.14215957, 0.028731542, 0.015037612, -0.026023949, -0.025532778, 0.02924968, 0.16845015, 0.056509797, -0.0499578, -0.08429684, 0.03897965, 0.15281387, 0.002770044, 0.08832967, -0.1497235, -0.20611684, -0.061992712, 0.1653294, -0.101069905, 0.056740772, 0.081834584, 0.25985566, -0.014352481, 0.058699682, 0.22239387, -0.08953425, -0.033468973, 0.027238289, 0.02934185, 0.13691983, -0.0374141, 0.13216442, 0.09883827, -0.08699443, -0.061595313, 0.11834413, -0.023519723, -0.073967874, -0.060305044, 0.05128576, 0.017879672, 0.0032587114, -0.04984613, -0.11451738, 0.036105726, -0.11487836, -0.059713427, 0.08249473, -0.43173867, 0.021012539, 0.13267492, 0.19752282, -0.053980656, -0.07398322, -0.034588516, 0.11960665, -0.026086764, -0.08783651, -0.05560316, -0.17265005, -0.26521838, -0.1328683, -0.04255628, 0.16762772, 0.22086447, 0.048590343, 0.09418209, 0.057974037, 0.035293046, 0.20589615, 0.18216205, 0.13223347, -0.04767102, 0.020325914, 0.040121403, 0.06319565, 0.058429904, -0.063836746, -0.10788816, -0.25284103, 0.039500337, 0.23727249, 0.05507035, -0.013580188, -0.018338725, 0.043761406, 0.05317144, -0.023633327, 0.16924745, 0.05003752, 0.013002142, 0.15650055, 0.04232013, -0.27795404, -0.06499901, 0.012906394, 0.1340304, -0.056979038, 0.057360858, 0.0736807, -0.025147717, 0.08996234, -0.21544375, 0.108826295, 0.009141395, 0.04165681, -0.119135015, 0.29447532, -0.025855491, -0.050062865, -0.19799918, 0.021072123, -0.19612458, -0.1699453, 0.10491959, -0.024195228, -0.1128085, 0.09096238, -0.22561818, 0.076073974, -0.031270113, 0.17166086, 0.01092016, -0.23349747, 0.05570229, 0.049733464, -0.15174861, 0.11398528, 0.00070545694, -0.02605243, -0.050915435, 0.0029714736, 0.03215585, 0.18887988, 0.2087661, 0.08464023, 0.09889759, 0.06352647, 0.040437326, -0.08428206, 0.02834703, 0.01397914, -0.29928574, -0.060943652, -0.06427129, 0.022617698, -0.1302791, 0.010146036, -0.03080974, -0.0034499892, -0.04551743, 0.041483007, 0.1672039, -0.060726386, 0.08031082, -0.041529972, 0.05899655, -0.270194, 0.039638583, 0.006118145, 0.11616762, 0.03272514, -0.046034977, 0.030066226, 0.019584881, 0.052381717, -0.23745377, 0.0062820213, -0.0042433897, 0.07302009, -0.101087786, 0.086451255, 0.12796785, 0.034833245, -0.13947345, 0.0055443654, 0.019004246, 0.03916258, -0.19354299, -0.09389516, -0.033010323, 0.11485732, -0.1149154, 0.13127273, -0.06718596, -0.09907687, -0.048497323, -0.09249166, 0.150779, 0.06610223, -0.14415413, 0.08310618, 0.21293576, 0.056531772, -0.35602576, -0.07051204, 0.11444662, 0.10240067, 0.027337898, -0.035958022, -0.097791895, -0.04586152, -0.06101553, 0.13576625, 0.036969416, -0.016443843, -0.25178182, -0.08325868, -0.026409177, -0.046400215, -0.1425983, 0.049384452, 0.08617797, 0.05293137, 0.0024887547, -0.0029146634, -0.0279055, -0.0520879, 0.020544764, -0.044644356, -0.031198522, -0.21038282, -0.12190233, 0.027020728, -0.0766153, -0.037954982, -0.007706962, -0.016569074, -0.06412269, 0.043489356, 0.0033188628, -0.16753478, -0.046381436, -0.07212837, -0.0020099683, 0.09723689, 0.0077280034, 0.10179856, -0.03480602, 0.013188237, -0.01973861, 0.0060513527, -0.124471754, -0.05961275, -0.10302362, 0.16948347, -0.40541145, 0.16307084, -0.08269447, 0.22207011, -0.10026962, 0.024279015, 0.0625048, -0.0067494353, 0.022898886, -0.015551916, 0.07633847, -0.09953489, -0.091864005, -0.053912964, 0.17055659, -0.009130255, 0.19352975, 0.0041026254, -0.14700462, 0.040386505, -0.029342724, 0.19724217, -0.015687207, -0.067007236, -0.06563371, -0.21095303, -0.00801981, -0.15720111, -0.06790616, -0.037434805, 0.09691593, 0.17367317, -0.052440148, -0.018866695, 0.25952968, 0.13891304, 0.028209856, -0.18183383, 0.014131187, -0.047042396, 0.0100747505, 0.020389132, 0.01723162, -0.011428742, -0.107023, 0.10591178, -0.024454076, -0.19676004, 0.03140272, 0.017714312, -0.079532035, 0.03487458, -0.025373338, -0.07446387, -0.22730125, -0.0796917, 0.22884834, -0.027105015, -0.032102093, -0.35832533, -0.043927357, 0.32066768, -0.057785936, -0.20864856, -0.48511338, -0.13400687, -0.2627688, 0.09743805, 0.0011595896, -0.34438246, -0.14120696, -0.077950716, -0.23229416, 0.0864868, 0.029333677, -0.033291664, 0.39141995, 0.060327753, 0.115744285, 0.061795823, 0.36803922, 0.03431924, 0.14586493, -0.27103096, -0.06550949, 0.07771955, 0.008926567, 0.021275192, -0.14999257, -0.14843622, -0.03675363, 0.18953338, -0.0026849993, 0.047669876, 0.049125407, 0.23487505, -0.039452106, 0.045401722, 0.17958511, 0.11233575, 0.022536976, -0.14368111, 0.023361754, -0.13455895, -0.03835403, 0.07247213, 0.20939295, 0.068534724, -0.08419644, 0.034258988, -0.04310245, -0.032469813, 0.032384302, -0.14091939, 0.04159285, -0.27872208, -0.08609786, -0.056634907, 0.038255673, -0.098744854, 0.11240369, 0.03751059, -0.14060459, -0.20428844, 0.14715555, 0.23397881, -0.038485486, -0.0018629631, -0.2956585, -0.0809031, -0.054545105, 0.017976794, 0.0074573904, -0.2680541, -0.5071292, 0.11835368, -0.24495506, -0.1480928, -0.10808621, -0.054705173, -0.18250047, 0.06870422, -0.0122065395, -0.006446499, 0.30171618, 0.045971602, 0.023435563, -0.39238796, 0.061480958, 0.13737525, -0.028187469, -0.07854855, -0.089080915, -0.019737123, 0.021472186, 0.066664554, 0.023225477, -0.05809001, 0.1340759, 0.15628763, 0.07157584, -0.057472996, 0.10031386, 0.049375072, 0.016579162, -0.037731204, -0.039784726, -0.012760106, -0.07253576, 0.083261006, 0.03183953, 0.013449601, -0.1424693, 0.3453408, 0.059094645, -0.06597639, -0.07876703, -0.12940046, -0.07146054, -0.08835533, 0.052253198, -0.076622, 0.019963535, -0.15064064, 0.24814528, 0.028570639, 0.07339802, -0.07409876, 0.0022894077, 0.09421561, 0.099190705, 0.069491304, -0.30923313, 0.07206972, -0.21197955, 0.03498977, 0.013252536, -0.32011807, -0.3402713, 0.06068874, -0.010717742, -0.16929588, 0.05968278, -0.10387915, -0.4279217, 0.05641509, -0.011101521, -0.07780709, 0.100178085, 0.04073783, 0.110235065, -0.1826131, 0.026544157, 0.26934674, -0.03152295, -0.008952864, -0.044424783, 0.06027696, -0.0021505498, -0.24387166, 0.111556455, -0.0067786234, 0.08725364, 0.2981579, 0.048326224, -0.051729966, 0.28647456, 0.15878332, -0.025254449, -0.1728012, -0.0003966355, -0.023438608, 0.01535259, -0.005063922, 0.14981069, 0.084506534, 0.0029365732, 0.20433243, -0.012088978, 0.046983443, -0.00092747895, -0.19903807, -0.008942808, 0.06458307, 0.23001023, -0.018869402, 0.31509465, 0.1081437, 0.23789358, 0.06682801, -0.14377555, -0.031012306, -0.081864595, 0.17960215, 0.019439474, 0.08075324, -0.23499942, -0.016210333, -0.5835219, 0.10758624, -0.08990407, -0.23550624, -0.17397936, 0.029110251, 0.085456975, -0.30724466, -0.011836101, -0.053834666, -0.18457188, 0.06372582, -0.27441564, -0.11158677, 0.21364298, -0.04909166, -0.020893577, -0.12955274, -0.05474538, -0.27052292, 0.0038598527, 0.0020311293, 0.062502876, 0.0021037066, 0.10765611, -0.16547333, -0.06751585, -0.0067684627, -0.085035264, 0.048821967, 0.022945127, -0.019962775, 0.07890041, -0.078920014, 0.06000161, 0.036657557, -0.028151276, -0.2441017, -0.006375801, -0.076724365, -0.14702493, -0.04327987, -0.07847753, -0.24435696, -0.00013458796, 0.27884343, 0.033283714, 0.09846148, 0.04160262, 0.14796823, -0.19141316, 0.20749575, 0.07274797, -0.01056995, 0.14399211, 0.054281376, -0.20774229, 0.07053552, -0.09755495, -0.22336432, -0.038881168, 0.08145369, 0.0917909, 0.17038043, -0.1772978, -0.0031907102, 0.102356926, -0.15378389, 0.11515819, 0.08838648, 0.009449333, -0.21527345, 0.16277482, 0.07750972, -0.14436541, -0.027044049, 0.113020524, -0.20668393, 0.016646087, -0.0020369478, -0.18072754, 0.1931972, 0.010171964, 0.015929053, 0.045346178, -0.04167475, 0.10453873, -0.12087319, -0.038335394, 0.10212966, -0.13316314, 0.017427437, -0.0501793, 0.019491779, 0.07805774, 0.06593532, -0.16965473, 0.030973347, -0.03357779, -0.04787126, 0.076175556, -0.21902639, 0.02951632, -0.07510017, -0.06344891, 0.019228112, 0.042189833, 0.09730958, -0.05091176, 0.2369552, 0.13513184, 0.019927615, 0.07511648, 0.19275148, -0.0040183538, 0.051846094, 0.009436192, 0.0498578, -0.28590024, -0.020158835, 0.04855494, 0.11803741, 0.04149175, -0.29867184, 0.0023351174, 0.18296322, 0.023696607, 0.11887498, 0.10615246, 0.11403588, 0.07978798, 0.023508366, 0.09464874, -0.09068085, 0.019204134, -0.052228104, 0.040328864, -0.005240323, -0.051871866, -0.0042650364, 0.035222556, -0.16758189, 0.094230875, 0.077441916, 0.17865925, 0.0973295, -0.019459676, -0.059192974, 0.024385368, -0.045973092, 0.19916151, -0.15981038, -0.033637024, 0.21093683, -0.28410873, 0.026223207, -0.14432183, -0.06360994, 0.037940312, 0.07243344, -0.03783936, 0.052990653, 0.015187271, -0.18280324, 0.090746365, -0.039363813, -0.043636166, 0.026038464, -0.002105525, 0.04687103, 0.085676774, 0.19193807, 0.019328237, 0.25050125, 0.026366625, -0.10402146, -0.118252, 0.2574356, 0.062450744, 0.0053073703, 0.022408636, -0.06484085, -0.080297805, -0.045255594, 0.18714482, -0.17890902, 0.19872479, -0.23380724, 0.008090272, 0.28596002, -0.05526433, 0.037869904, -0.09434279, 0.06802797, 0.08121465, 0.1794119, 0.13910462, -0.055557333, 0.013005946, 0.11412296, 0.0013138234, -0.11125522, 0.011114112, -0.08561866, 0.10153023, -0.29020298, 0.17925967, 0.02984106, -0.0117845945, -0.15724781, -0.001301519, 0.08244329, -0.0064477525, -0.046222903, 0.088378, -0.17121318, 0.0303027, 0.14947474, -0.012008837, 0.069351815, -0.23644526, 0.09845164, -0.026493354, 0.0016713929, 0.006446534, -0.19737515, 0.014602825, -0.3763666, 0.07565273, -0.018041728, -0.089880295, -0.06072544, -0.09111919, 0.003881685, 0.024915583, -0.09204685, 0.00851037, 0.15359986, -0.011944513, -0.18166235, -0.019787343, -0.090777256, 0.20841995, 0.053627856, 0.057030827, -0.24166614, -0.032460824, -0.046527956, 0.043049283, -0.17734584, 0.14703444, -0.13907689, 0.09586915, 0.3220405, 0.062345885, 0.036356356, 0.20181476, 0.12865211, -0.03603211, -0.12205714, -0.084254086, -0.08121358, 0.2718661, 0.02156062, 0.17871639, 0.052942663, 0.04741844, -0.031155296, 0.023867222, -0.04751308, 0.20750222, -0.08925087, -0.008410077, -0.13680424, 0.04284128, -0.07881872, 0.033845983, 0.022370137, 0.037798, 0.015527644, 0.097973466, 0.04834691, 0.022841582, -0.081592195, -0.16540004, 0.07693701, -0.07928037, -0.07158469, 0.014116413, 0.058624517, 0.029449657, -0.28771552, 0.08827852, 0.034663994, -0.02202315, -0.008668998, 0.12984829, 0.039050136, -0.08394287, 0.06126792, -0.020233281, 0.07791933, 0.060309704, 0.20095544, 0.0491446, 0.086753994, -0.31717965, 0.17799473, -0.018769583, 0.25358978, 0.17466652, 0.076665856, -0.038331844, 0.01566113, -0.012060144, 0.0115520805, 0.032211006, -0.12522054, -0.21558502, 0.08637818, -0.29386398, 0.011936661, 0.026300205, 0.082020156, -0.1265113, 0.033475503, -0.01943258, 0.10190235, 0.18193248, -0.084635906, 0.06655976, -0.02159329, -0.028067697, 0.04987698, 0.015777653, 0.021606924, -0.01110546, -0.022402339, -0.07401313, -0.021236297, 0.05004674, 0.038084354, -0.015152363, 0.06826705, 0.06049341, 0.21399172, -0.0884667, 0.045767706, 0.038973235, -0.030771779, -0.01957602, 0.0056416146, -0.18601687, 0.008685473, 0.05279562, -0.33523473, -0.054494843, -0.12958764, 0.0019609204, -0.03779966, 0.018071394, 0.061458286, -0.030354455, 0.020323193, -0.03861017, 0.3731634, 0.20768797, 0.29828647, -0.08404864, -0.067589484, 0.047544226, 0.10539685, -0.039475106, 0.28362653, -0.072176285, -0.0053981296, 0.026095973, 0.18052772, 0.03577892, -0.011871562, -0.0063797724, 0.15703462, 0.065127246, 0.007963198, 0.037066467, 0.19195542, 0.09844091, -0.35394487, -0.028621607, 0.085957974, -0.07798764, -0.04553832, 0.08484853, 0.02221716, -0.13413443, 0.023257134, 0.041604675, -0.29396957, -0.3000531, 0.017384881, -0.043490402, 0.12722899, -0.01042683, -0.027692093, 0.056170546, 0.026848182, -0.03367509, 0.036593553, 0.060896624, 0.15001106, -0.15749356, -0.02026427, 0.10791459, -0.08336214, 0.047680147, 0.03593621, 0.2109636, -0.0032390861, -0.0015409216, -0.3000324, -0.037207536, -0.08565551, 0.08528537, -0.092588276, -0.17160496, 0.025529906, -0.10569902, 0.0017092593, 0.047260784, -0.069420755, 0.14416423, -0.012047433, -0.0504198, -0.061984025, 0.04308364, -0.04703674, 0.13341306, -0.12377389, 0.008914259, -0.044375196, 0.1921087, -0.066284396, -0.04337976, 0.13124266, 0.07956758, 0.042587824, 0.05624533, -0.019854333, 0.0576841, 0.12189211, -0.027753986, -0.17477265, -0.02084132, -0.0041278154, -0.049665883, 0.014238364, -0.030029029, 0.03821236, -0.05024691, -0.06766897, -0.1263697, -0.11807513, 0.07130616, -0.030956425, 0.32234022, -0.017478604, 0.05254464, 0.10638134, 0.063570395, 0.035257895, 0.0032254239, 0.08046904, -0.00079815247, 0.12784019, -0.068588704, -0.06368868, -0.09634442, -0.049504556, 0.03867122, -0.01766687, 0.05252306, 0.04484042, 0.04071345, -0.20043927, -0.07026608, 0.001505073, 0.046222787, -0.10851932, -0.010808361, 0.0058335345, 0.11878071, -0.021452209, -0.02934207, 0.09647574, -0.097223096, -0.13670324, -0.025554875, 0.013495825, 0.28089955, 0.14346752, 0.035951637, -0.027991137, 0.04153079, 0.0014695704, 0.10687876, -0.18899037, 0.010893245, 0.17945437, 0.0006632177, -0.05070025, -0.13264368, 0.015078718, 0.03196012, 0.15503865, 0.004647469, -0.13813618, -0.19895723, 0.1122089, 0.021576151, -0.082219064, -0.2351829, 0.06924856, -0.1557779, 0.008557957, -0.37539044, 0.07436355, 0.16087313, 0.06283559, 0.40502584, 0.035130523, -0.0027933493, 0.02922864, -0.044555582, -0.008855091, -0.0074453885, -0.17129275, 0.060019158, 0.14010866, 0.032262374, 0.06283003, 0.009639837, -0.014002439, -0.013955022, 0.015723351, 0.20676488, 0.15740791, -0.05771209, -0.15529068, -0.09576692, 0.34843075, 1.9551278e-05, -0.08092572, -0.04061141, -0.16177957, -0.10708749, 0.0401357, 0.0036260146, 0.0990496, -0.02928563, -0.17103843, 0.117777064, -0.010877352, 0.002143057, 0.03252947, -0.02185013, 0.18860787, 0.048225813, 0.031447016, -0.20978788, -0.20289108, 0.036866948, -0.0073935194, 0.05293782, -0.077994026, -0.53451496, 0.14419006, 0.04204537, -0.016745873, 0.017309342, 0.0062498106, -0.07554682, -0.071803205, -0.20042044, 0.10077183, -0.011297885, -0.030945739, -0.044569004, -0.03408366, -0.026534762, 0.03212933, 0.018634902, 0.039081637, 0.13022074, 0.07930777, 0.066072315, 0.066233054, -0.04326403, 0.041495286, 0.08725404, 0.03914738, -0.021217741, 0.17246366, -0.05401659, 0.0029602454, 0.024653995, 0.1299727, -0.010066757, -0.044604354, 0.1461941, 0.07978566, -0.031475805, -0.17485163, 0.039008714, -0.059046485, -0.06721542, -0.057758566, 0.09027452, -0.004866168, -0.023474457, -0.22593598, -0.04562312, 0.12292615, -0.10940592, -0.2537922, -0.10591269, -0.19266322, -0.037954114, 0.04522238, 0.17654924, 0.12927546, -0.1694786, 0.02672968, -0.13409331, -0.24750449, -0.04565969, 0.07049622, 0.026642313, 0.03898714, -0.24358088, 0.12815729, 0.17110509, 0.15726127, -0.035245046, -0.04833102, -0.04320773, -0.20115088, -0.12164935, -0.3642058, -0.06868642, -0.07250074, -0.31660408, -0.07692973, -0.042478904, -0.2473201, -0.13719729, 0.022130383, -0.18722437, -0.14172131, 0.00012366685, -0.09051871, -0.03479202, 0.057044927, -0.16443555, 0.062323984, 0.08465653, 0.37293318, -0.012581052, 0.047205426, -0.013117262, -0.13719179, 0.051723074, -0.025604572, 0.14396434, 0.10707286, 0.025142344, 0.025041811, 0.019586105, -0.20982496, -0.15910481, 0.03761484, 0.04647994, -0.0033637085, -0.007812529, -0.27989632, -0.0691543, -0.21150424, -0.1012015, 0.096201144, 0.041863076, -0.079063706, 0.08896062, 0.061693076, 0.13531913, -0.14492331, -0.19266036, 0.009538593, -0.06746959, 0.04998846, -0.16622297, 0.100260265, 0.0040383707, 0.011361015, -0.3649739, 0.10521972, 0.01469705, 0.0014203114, 0.07551897, -0.10959185, 0.050834216, 0.0033373386, -0.108073354, -0.17845102, 0.02977, 0.04683936, -0.28005487, -0.030959269, -0.15143348, -0.13263686, 0.052896462, 0.010009046, -0.15915221, -0.07106968, -0.02508339, 0.11279823, -0.059680693, -0.07933704, 0.01482747, 0.19272578, 0.025903147, 0.13609064, 0.18904947, -0.070054226, -0.020491667, -0.10285956, -0.015965208, -0.04551489, 0.16140497, 0.0812426, 0.007250194, -0.21661766, -0.06531489, 0.035692055, 0.021373745, -0.037003417, 0.06528774, -0.055175897, -0.026866017, -0.12278371, 0.0007912502, 0.05935453, -0.08174395, -0.087639526, -0.035111226, -0.23616865, 0.08131732, 0.13838251, 0.06167361, -0.08675699, -0.12683314, 0.030493565, -0.087370016, -0.12884086, -0.25420162, -0.15847673, 0.0065254793, 0.15047294, -0.32061043, 0.097069755, -0.0044879136, 0.012687085, 0.025039142, -0.20879334, 0.12800556, 0.04333177, -0.1997606, -0.121371165, -0.16253747, -0.0029198756, 0.027043113, 0.04332519, -0.20433049, 0.04140493, 0.116198994, -0.032388244, -0.014685962, -0.051793452, 0.06590948, 0.050298978, 0.05712585, -0.03542694, 0.12303327, -0.004318282, -0.077387646, -0.1126788, -0.03852309, 0.052113324, 0.14750183, -0.06824948, -0.025541611, -0.030741574, 0.06965336, 0.36038995, -0.06082702, -0.12681553, -0.051266465, 0.14107344, 0.054064058, 0.0041910447, -0.22768964, 0.0022292512, -0.17277446, -0.060866784, 0.010576814, 0.20838076, -0.086085364, -0.14807945, 0.03888176, 0.13901752, 0.2059612, 0.008875619, -0.40517288, 0.11906086, 0.12321152, -0.05904731, -0.2684471, -0.6683586, -0.20335492, 0.2352151, 0.12830774, -0.062000506, -0.2777677, 0.022687264, 0.049580093, 0.21740258, -0.04796807, -0.24562353, 0.010288503, 0.059334796, 0.11911269, 0.13147295, -0.058405023, 0.011774947, 0.098389916, -0.027225493, 0.08622131, 0.12604615, 0.03006142, 0.06845203, -0.022443881, -0.0622353, -0.016516393, 0.099146314, 0.022285176, 0.06245142, 0.10433789, -0.030820295, -0.028459847, -0.1945891, 0.06911109, 0.020065105, -0.06932305, 0.08698568, 0.036889333, -0.03396249, 0.084451735, 0.211343, -0.029714864, -0.069060385, -0.027154205, 0.00841851, -0.075426884, -0.08419764, -0.2943015, -0.032259826, 0.066380516, -0.06393182, -0.049628437, 0.12377617, 0.022848437, -0.2965131, -0.039516173, -0.22705583, -0.088396326, -0.044512354, -0.101627216, -0.058229394, 0.1572536, 0.013533294, -0.13192077, -0.2351546, -0.28795126, 0.18302967, 0.076458685, 0.018473184, 0.009552873, -0.07969009, -0.00036799087, 0.29407495, -0.021002179, -0.13353194, -0.0046700486, 0.07132347, -0.10054524, -0.22284512, -0.03170597, 0.12689672, 0.015856232, 0.053748824, -0.40849516, -0.18784262, 0.19760433, -0.015688296, -0.05555966, -0.19063382, 0.008000247, 0.12860486, -0.030219238, 0.019908788, -0.0016342744, -0.13833554, 0.037990928, -0.24332097, -0.019814678, 0.06380189, -0.060091898, 0.05258467, -0.050018467, 0.02488329, 0.013575798, 0.25560316, 0.01682645, 0.17013843, -0.011994695, -0.2203004, 0.008608159, -0.018094668, -0.24445534, -0.036347087, 0.3527507, 0.20554793, -0.0017989007, -0.25851524, 0.15586966, -0.08527288, 0.05179494, -0.054347824, 0.1502894, -0.060404707, -0.030539554, -0.042103115, 0.32249135, -0.052090317, -0.2996716, -0.032015402, -0.40576023, 0.1480126, 0.0747932, -0.26984254, -0.10359967, 0.25297683, -0.043524265, 0.15700622, 0.049038157, -0.14125155, 0.17688206, 0.060142465, -0.17344065, -0.20186421, -0.07960425, 0.08624223, -0.11572661, -0.07487679, -0.13394614, -0.08497386, 0.12263373, 0.026763622, -0.091033265, -0.057089563, -0.028336005, 0.06357914, -0.036683653, -0.018322699, 0.056828726, -0.17093639, 0.009118984, -0.22326745, 0.14836253, -0.07587129, 0.1664832, 0.0879444, -0.046654545, -0.046908904, 0.05763714, 0.2991119, 0.03986043, -0.21996471, -0.0814785, -0.13053647, 0.054857794, 0.03159959, -0.0109284725, 0.12329636, 0.095977485, 0.03763896, 0.06198492, -0.05847131, 0.11504823, -0.1965728, 0.010352783, -0.018799923, 0.10193837, 0.012963527, -0.03594234, -0.0030668627, 0.23649393, 0.022877783, -0.38837132, 0.079298206, -0.09338303, 0.13642874, 0.009817587, -0.1251101, 0.063291624, 0.12418265, -0.09807517, 0.06340362, 0.011695874, 0.025737394, -0.12597762, 0.091714844, 0.013135093, -0.10384689, -0.116470635, 0.06713111, 0.10676216, -0.041030508, -0.04256135, 0.2196619, -0.070291094, 0.10023353, 0.09137967, 0.061735574, 0.02317587, 0.060549937, -0.05534432, 0.06820741, 0.07377905, -0.0018450323, -0.0927617, 0.079154745, 0.26269832, 0.023103327, 0.14340785, -0.22566602, -0.015245245, 0.009454019, 0.09116828, 0.20647795, 0.06619267, -0.040702116, -0.039125916, 0.037949372, -0.0075783017, -0.012689931, 0.04221376, -0.070203364, -0.11271569, 0.0211467, -0.022767229, 0.06090113, -0.01784588, 0.011417353, -0.1600518, 0.0022526162, 0.109250486, 0.08196521, 0.14653029, -0.1822248, -0.1433189, 0.061894365, -0.022208354, -0.06398926, -0.1458553, -0.09187849, -0.002114052, 0.20484178, 0.05690966, -0.20289232, 0.034489915, -0.13596362, -0.025163006, 0.012055634, -0.0898157, -0.13772352, 0.020269169, 0.10661152, -0.2387211, -0.038871508, 0.28187415, 0.09023408, 0.17223863, 0.19312145, 0.049810488, 0.061945338, -0.008096494, -0.09423173, -0.05329442, 0.06855578, 0.06909004, 0.057826176, 0.074746445, -0.023180887, 0.03497335, 0.011151974, 0.10750741, -0.012368988, 0.021939555, -0.10648361, 0.041274093, 0.059998542, 0.2743875, 0.06090063, -0.046184648, -0.2745134, 0.008295774, -0.079547755, 0.020423349, 0.033846386, -0.054466333, -0.035350453, -0.12614115, -0.058997866, 0.033058442, 0.14843196, -0.021936923, 0.042737912, -0.229467, 0.035913087, 0.09991486, -0.046370044, 0.084481224, -0.26507336, 0.02268485, 0.0419921, 0.03801553, -0.08133717, 0.093012005, 0.04651124, -0.070774056, -0.06862766, 0.0065302043, 0.08113862, 0.03280004, -0.1943142, -0.037791543, -0.075816125, -0.016906573, -0.36940798, 0.042871144, 0.25680035, -0.018502323, 0.022052195, -0.19701329, 0.074381694, 0.09405655, 0.20266683, 0.18145509, 0.107296534, 0.01719642, -0.1837513, 0.062123727, -0.023867952, 0.021405235, 0.08407791, 0.075560465, -0.19013363, -0.065442875, -0.04915999, 0.07027586, 0.029041745, -0.051029682, -0.14402486, 0.01702495, 0.091894485, 0.36886346, 0.004640035, 0.07394683, 0.15745722, -0.053942073, 0.0981161, -0.06021239, 0.065394014, 0.1802932, 0.034452062, 0.09230774, -0.12444393, -0.01569596, -0.06731973, -0.15338856, -0.1396827, -0.039192565, 0.029073551, -0.060455553, 0.036785126, -0.07140693, 0.13874099, 0.008227153, -0.013848554, 0.17555876, 0.12827808, -0.027448805, -0.07813907, -0.096499905, 0.030191552, 0.18021694, 0.02531912, 0.051058937, -0.114964694, 0.027855216, -0.020111315, 0.060004115, 0.006293563, -0.016030442, 0.27337578, -0.12646656, 0.027060455, -0.060333803, 0.11665762, -0.00717137, 0.16515811, -0.037795063, 0.026028449, 0.020348765, -0.037813243, -0.021606833, 0.08646803, -0.02582857, -0.02404965, 0.14329846, -0.13267276, -0.01684758, 0.038094826, 0.33189178, -0.030397259, -0.07044442, -0.21845369, -0.012532206, 0.04020674, 0.009485614, 0.00264836, -0.028586812, -0.025999462, -0.032417122, -0.15799195, 0.036355004, 0.012031261, -0.017643739, -0.03524808, 0.090468965, -0.26851004, -0.008143, 0.14723414, 0.0456749, -0.17446607, -0.15933962, 0.11049626, -0.09847067, 0.21083055, -0.09999992, -0.10575633, -0.025847644, 0.053278122, -0.38272485, 0.28538206, -0.11477928, -0.10237159, -0.08143996, 0.21713701, -0.2105019, -0.32446843, -0.038811877, -0.09305782, 0.083707996, -0.13018739, -0.15802062, -0.18717496, -0.19791265, 0.0149645675, -0.030247316, -0.0008283741, -0.12723322, 0.06673544, 0.08793056, -0.0775134, 0.17290808, 0.04341128, 0.06000542, 0.16514362, 0.04425385, 0.005345509, 0.0023478377, 0.075056635, -0.014607852, -0.011631625, 0.008206971, 0.026421715, -0.021060858, -0.058861196, -0.13295169, 0.046101484, 0.042246394, 0.026107237, 0.14415531, 0.08610996, 0.00065471977, -0.084052354, -0.024571292, 0.041899536, 0.014965597, 0.0022099414, -0.025678614, -0.0012035527, -0.074607775, 0.12455035, -0.06375845, -0.0070787054, 0.16476852, -0.099414796, 0.032649145, 0.09730155, -0.035429716, -0.0093484, 0.21744165, -0.12042679, -0.005676625, -0.02134039, 0.06506431, 0.2408426, -0.026743839, -0.059056547, 0.016959626, 0.040625244, -0.033191495, -0.17002413, -0.08737663, -0.031788617, -0.05872349, 0.0900425, -0.109836794, 0.136905, 0.05303233, 0.0052348035, -0.0051935217, -0.051965754, -0.04542208, -0.010424069, 0.20764634, -0.15436874, -0.003676561, 0.0058831754, 0.004406574, 0.12210689, -0.02793191, 0.178715, 0.034611434, -0.07830273, 0.016010577, -0.0058140275, 0.02627252, -0.12202057, 0.17464925, 0.01993572, -0.39126232, 0.015967505, 0.020455627, 0.014759463, 0.24960071, -0.06064939, 0.059401453, 0.030152734, -0.11615771, 0.16425164, -0.03527974, 0.0761672, 0.06525272, 0.07563743, 0.09329615, -0.02129359, 0.016265534, 0.14040329, 0.059357993, 0.058413025, 0.06487093, 0.047377132, 0.00893603, 0.16049558, 0.078771584, -0.097339354, -0.12932867, 0.037693005, -0.059766654, -0.10125761, 0.19185552, -0.042927835, 0.029727679, -0.015408372, 0.082110025, 0.17659073, -0.2151241, -0.3243282, -0.013831155, -0.29902837, -0.100257, 0.063123584, 0.06503518, -0.09178483, 0.27336705, 0.04205944, 0.15073977, 0.0106499195, 0.1308489, 0.20244204, 0.20775157, 0.027302802, 0.20843948, 0.14481334, 0.0498615, 0.056526322, -0.09676002, -0.030695528, -0.1301384, -0.1952992, 0.072280854, -0.25716728, 0.11475603, 0.025073886, -0.081977926, -0.16561787, 0.12141721, -0.06682382, 0.120220914, -0.017697552, 0.030744262, -0.19859433, -0.016674161, 0.0029887587, -0.03723112, 0.08731118, -0.17446296, 0.11074565, -0.166217, -0.18262257, -0.05438638, -0.3738038, -0.14847162, 0.042129487, 0.05425028, 0.005291032, -0.24425873, 0.11211125, -0.11651432, 0.09993375, -0.08675635, -0.012002091, 0.11630331, -0.028723516, -0.10332438, -0.11137553, 0.05312569, 0.1320181, 0.0909916, 0.11856977, -0.15572421, -0.11697785, 0.08258048, -0.04132928, 0.02197509, 0.062911265, -0.033725675, 0.06814189, 0.118104175, -0.04749272, 0.020971563, 0.06261202, 0.027659446, 0.16917841, 0.19851534, 0.028377334, 0.022152392, 0.057838213, 0.03008756, -0.017191187, 0.010770106, 0.023996849, -0.011587076, -0.10629458, -0.004282408, -0.07489041, 0.22282867, 0.009915687, -0.018906765, -0.07626267, -0.045088544, 0.061963007, 0.19568753, -0.022862844, 0.06574403, -0.23577534, -0.033836182, -0.24099824, 0.008184821, -0.03777461, 0.048192803, 0.022992006, -0.25053144, -0.07848311, -0.016207784, 0.025487306, 0.19694716, -0.0017857437, -0.02094676, -0.08591014, -0.19280593, -0.0045847385, -0.05638522, 0.072704315, 0.06843827, -0.06564083, -0.18291192, -0.25293437, 0.1455611, -0.1452721, 0.05024259, -0.086595, 0.120864905, 0.054561716, -0.17613907, -0.010658791, 0.037748516, 0.022504373, -0.058690205, -0.004240842, -0.13391165, -0.002174527, 0.07095843, 0.017852651, -0.0122195, -0.03463528, 0.2242657, -0.0036352812, 0.06646512, 0.072053984, -0.1463349, 0.08778774, -0.021456726, -0.0544426, -0.019988786, -0.05894419, -0.045767535, 0.026512679, 0.021091478, -0.024532119, -0.19906732, -0.05769273, 0.054489143, 0.09452214, 0.053815614, -0.0757333, -0.08725952, 0.025464721, -0.0030733272, 0.18217796, -0.015276381, -0.12537083, 0.015520219, -0.00229465, 0.08223782, 0.02808094, -0.13540922, 0.029334622, -0.059597254, 0.0141888345, 0.07925919, -0.038369182, 0.062446542, 0.17995737, -0.14823844, 0.10030374, 0.14851446, -0.12670097, -0.1770535, 0.023164537, 0.013307176, -0.0687876, 0.002310074, 0.11695887, -0.113864474, 0.20358197, 0.018649321, 0.08385277, -0.08291362, -0.028353782, 0.07175036, 0.24755467, -0.097769804, 0.16763489, 0.08970054, 0.06760449, 0.05914325, 0.032981172, -0.1001923, -0.06440115, 0.14703707, -0.14173558, 0.15937339, 0.08923568, -0.067102924, 0.02742508, 0.01510112, 0.028587779, -0.06500845, -0.06989823, -0.02843, 0.0066751363, 0.059565656, -0.0098802745, -0.0852419, 0.031103767, -0.120524235, 0.024335155, -0.055498354, 0.042000443, 0.12876607, 0.17497863, 0.033632748, -0.05445846, -0.02181553, -0.10998652, 0.02392434, 0.0032870965, 0.11273756, 0.105698355, -0.08872178, -0.019686367, 0.022478528, -0.11236291, 0.14208606, 0.13546064, 0.13831976, 0.30662656, -0.21182346, 0.12530512, 0.0895276, -0.070560046, -0.2370655, 0.05337945, -0.018908165, 0.037068117, -0.02445117, 0.18638484, -0.114957534, 0.14573964, 0.1519787, 0.22941005, -0.11411526, -0.20182817, -0.03144135, -0.13971102, -0.12236879, 0.053994313, 0.051760934, 0.11625645, 0.1870753, 0.06312174, 0.06141064, 0.07199718, 0.18185335, -0.035830993, 0.15953362, 0.0229639, 0.16162694, -0.087515235, 0.042296387, 0.060683765, -0.017124703, -0.03611437, -0.07530985, -0.07097462, 0.017241703, -0.047986493, 0.13145073, -0.04096892, 0.07453719, -0.059576727, 0.059989695, 0.015736196, 0.22167885, -0.034642026, -0.066050425, -0.15110679, -0.0073394086, -0.04182405, 0.0036374244, 0.03439571, -0.12539947, -0.0493258, 0.009424546, -0.009464553, 0.05856008, -0.08479421, -0.19942516, 0.047903445, 0.061275635, 0.030161368, -0.13024755, 0.0135560725, 0.04736683, 0.3102713, -0.11630719, -0.011647794, -0.08822135, 0.13142973, -0.17284647, -0.06482388, -0.060376443, 0.03506315, 0.06637707, 0.26509368, -0.23700838, -0.014773821, -0.027929932, -0.14234804, -0.07633873, -0.027370218, -0.2440036, -0.16247615, 0.12657703, 0.045735408, -0.055224348, 0.061165765, 0.27854168, -0.089879766, 0.26034507, -0.052392546, 0.07637164, 0.0025425125, -0.0073774084, 0.011104728, 0.05444178, -0.10484924, -0.101309605, -0.1461289, 0.0006540588, 0.19797164, -0.18880658, -0.02790939, 0.15483749, 0.10181736, 0.0865615, 0.0031880897, 0.15967, 0.13550425, -0.07248328, 0.15239021, -0.03261516, -0.34948075, 0.0057226536, 0.07490682, -0.18476048, -0.01638877, -0.0854895, 0.2585095, -0.03264033, -0.06716062, 0.0273124, -0.06727884, 0.023475554, 0.15565115, -0.11705491, 0.021976624, 0.047656644, -0.043837775, -0.055658866, 0.040090203, 0.10146249, 0.0044915252, 0.116810136, -0.08125237, -0.0466823, -0.095672496, 0.032947883, 0.04579826, 0.117105655, 0.004366038, 0.046854142, -0.061356552, -0.11551124, 0.115580976, -0.11524321, 0.018795324, 0.060337897, 0.032369707, 0.03271969, 0.064703606, 0.56289905, 0.15010537, 0.0669974, 0.008345189, -0.028319104, 0.25801134, -0.052285843, 0.08230752, 0.053708494, 0.043774325, 0.16739708, -0.08859957, 0.10820459, 0.197232, -0.0008598997, 0.04440575, 0.17442127, 0.24208617, -0.029100299, -0.019851092, -0.08960244, 0.14182228, -0.06092403, 0.017961105, 0.06408766, -0.09321408, 0.042304035, 0.048495084, 0.2717512, 0.027392726, 0.020843418, -0.21990594, 0.0009797737, -0.07134464, -0.012455139, -0.15466587, -0.1055436, -0.14189325, -0.30211034, -0.025302319, 0.49404335, 0.019634519, 0.14940381, -0.008510698, -0.018394556, -0.15119548, 0.08188115, 0.031292144, 0.013462414, 0.14470217, 0.13797316, -0.07588623, 0.09927193, 0.12144212, -0.036162835, -0.05047756, -0.049074635, 0.060929, -0.28371996, 0.05128049, 0.042767897, 0.124543585, 0.1892559, -0.06500968, -0.107574515, -0.11517124, 0.21179684, -0.060932275, -0.025424717, 0.34634978, 0.019861393, 0.12551801, 0.0409732, 0.004882398, 0.040016998, 0.15578835, -0.0017578339, 0.17717889, 0.03145108, -0.00839575, 0.15350705, 0.011378732, -0.047474682, 0.035395384, 0.039633855, -0.038137667, 0.05852385, 0.05856162, -0.019230224, 0.069472045, -0.00227325, 0.034990367, 0.24159494, -0.030478377, 0.089472055, 0.042634614, 0.04648339, 0.082402475, -0.06624664, 0.12405519, -0.029937789, -0.10462046, -0.19039367, -0.07435608, -0.04961102, 0.16892695, -0.03009826, 0.06739305, -0.0855006, 0.0125763435, 0.033189893, 0.25673848, -0.12603518, 0.10358498, 0.15910019, 0.024690963, -0.09166325, -0.1264537, 0.035859477, -0.1627692, -0.04111334, 0.15061869, -0.13894776, 0.07500116, -0.07546427, 0.036660083, 0.027579969, 0.05419557, 0.39511022, 0.12300423, 0.3450929, -0.063647576, 0.10195001, 0.111607075, 0.015306948, 0.14270751, -0.005685143, 0.009872474, -0.116332434, 0.026436104, 0.011746134, -0.07651373, 0.11631415, 0.019531554, 0.100973286, -0.03369928, 0.06748323, -0.033494007, 0.1373697, -0.06161478, -0.021807738, 0.11233266, -0.018429454, 0.060735207, 0.037017528, 0.10892173, 0.18553634, 0.021555997, -0.12393079, -0.10417266, 0.03197312, -0.006254252, -0.12508652, 0.22338705, -0.2710947, -0.12334153, -0.14588694, -0.0066771917, -0.06913619, 0.19093922, 0.08923594, 0.011039569, 0.13233085, 0.010249335, 0.10546774, 0.16025881, 0.0030991165, 0.2283673, 0.0505183, 0.06743424, -0.018146198, 0.07826916, 0.05505762, -0.014792136, -0.14553739, -0.041276667, -0.46351612, 0.0051859384, 0.037730202, -0.0151395835, 0.16742635, -0.034381524, 0.25062507, 0.05361855, 0.19472966, -0.05625944, 0.15107574, -0.1374759, 0.03637752, 0.2275886, 0.039080165, -0.099588, 0.14640813, -0.13320631, 0.015749918, 0.06977624, 0.11597394, -0.034041032, 0.020588353, 0.07299504, -0.025981884, 0.08765037, 0.18366073, 0.24538776, 0.056847513, 0.22381827, 0.12147464, 0.10962715, -0.09019704, 0.051361423, 0.016538741, -0.025946429, -0.065566815, 0.13297193, 0.079150364, -0.08512883, -0.19354948, 0.05766268, -0.058653988, 0.013039472, -0.13307099, 0.1674971, 0.20666476, 0.1239841, 0.044317715, 0.0072437064, -0.079712056, -0.5037928, -0.03747504, 0.12079687, 0.026344083, 0.14434472, -0.041191444, -0.098939754, 0.20898062, 0.0003391003, -0.06087316, 0.06436984, -0.2759175, 0.39628053, -0.23633656, 0.13933055, -0.10687898, -0.090117246, 0.09897477, -0.022772674, 0.30648068, -0.048708446, 0.33441275, -0.028525904, -0.006563585, 0.29169163, 0.10266886, -0.18663944, 0.018205678, 0.09750975, -0.1740482, 0.017789649, -0.020506844, -0.06714249, 0.04202092, 0.008235687, -0.12282974, -0.24713169, -0.07521117, 0.06305995, 0.05000174, 0.010269141, 0.044105805, -0.34037468, -0.0030849383, -0.034694504, -0.079888776, -0.08838205, 0.14548057, 0.032424062, 0.039635535, 0.21236467, 0.026661692, -0.13108568, -0.11803304, 0.32540807, -0.10354317, 0.14825371, 0.09378708, 0.19792368, 0.2135808, -0.37498817, 0.11591838, -0.046382558, -0.11133488, -0.29565904, 0.0591562, 0.0057589444, -0.062338818, 0.025143629, 0.21736975, 0.2182574, -0.11995836, -0.08120431, -0.029032798, -0.072948046, 0.11725901, 0.061872214, 0.0033040214, -0.057767272, 0.16842918, -0.031814728, -0.16795143, 0.007761338, 0.026575359, 0.067109905, -0.25975257, -0.017046623, -0.18635646, 0.14630505, -2.5764306e-05, 0.053266317, 0.0041115433, 0.055777844, -0.28442022, 0.03645669, 0.035021707, -0.12691683, 0.25999033, 0.0041083437, 0.008260159, -0.12576386, 0.079507016, 0.004259283, 0.007594654, -0.055317044, -0.06462221, -0.08894841, 0.1172689, 0.20010765, -0.017356753, -0.014636861, -0.01951253, 0.026455732, 0.10500625, 0.23132336, 0.020284666, -0.06229516, -0.055694412, 0.20848238, 0.05901144, 0.13390091, -0.06825501, -0.004288434, 0.063652344, 0.0053550773, -0.08449838, -0.041191198, -0.20011663, -0.13878368, 0.09504786, -0.047271334, 0.029624555, 0.14125572, -0.10416344, 0.049547903, 0.025121147, -0.17362954, 0.0049227783, 0.079544716, 0.03337611, -0.088467345, 0.03395361, 0.12096257, 0.11745361, 0.12303815, -0.03963369, -0.017142033, 0.040657025, -0.09136658, -0.06351892, 0.011581443, 0.0037694431, -0.120231465, 0.03144847, -0.025733689, -0.024719492, -0.060911346, -0.20208786, 0.088573165, -0.054756522, -0.15955849, 0.09496094, 0.054498103, 0.09782865, -0.17814544, -0.011765298, 0.055596367, -0.015778754, 0.017398957, -0.0006991774, 0.061692454, -0.0061305487, 0.40018293, -0.054618206, -0.04919352, -0.12287057, 0.043834414, 0.070145376, 0.31935674, 0.013442069, 0.14557038, 0.044471852, 0.10765809, 0.082004875, 0.02418118, -0.06416697, -0.011284975, -0.04346465, 0.022332668, -0.051615663, 0.023450894, -0.33748248, -0.012509287, 0.12024808, 0.03493128, 0.06282239, 0.21045123, -0.16188505, -0.06678086, -0.011635445, -0.106810585, 0.027297555, 0.37788767, 0.2904757, 0.053545218, 0.050220735, 0.067505606, 0.13246743, -0.035211068, 0.009835534, -0.031733084, -0.094180234, -0.30487385, 0.07793583, -0.010898443, -0.17508422, -0.011842428, 0.05870071, 0.24358556, 0.04831853, -0.055671744, -0.13450411, -0.042033445, 0.03240885, -0.19005561, 0.22736603, -0.05584594, 0.08403375, -0.029651456, 0.018931553, 0.04646576, -0.18209685, -0.2420738, 0.005566947, -0.21641976, 0.043618258, 0.1195879, 0.058755092, -0.08179724, -0.03650253, -0.040081557, -0.11434984, 0.19364753, -0.041218024, 0.07497647, 0.028387412, 0.22233663, -0.2770343, 0.20198488, 0.0055658575, 0.05115901, 0.14938858, 0.06638816, 0.07069681, 0.018959183, -0.13448718, 0.03163509, 0.08966906, 0.031163983, -0.09280696, 0.4431215, 0.0125779025, -0.031180212, 0.037040167, -0.06836792, 0.020218786, 0.21879435, 0.0649789, 0.10196715, 0.06515767, -0.21519494, 0.2532409, -0.051027935, 0.08481184, 0.034122054, -0.025292067, -0.17294717, 0.05775021, 0.0409112, -0.122974865, 0.14232036, -0.011045046, 0.06633951, -0.03591878, 0.109932184, 0.11090115, 0.016936263, -0.007252242, -0.118282765, 0.15843004, 0.0013403114, -0.13605814, 0.120754935, -0.09270738, -0.06577336, 0.051341295, -0.084266484, -0.037847824, -0.0011874003, -0.0345111, 0.16116846, -0.0054159113, -0.015988626, 0.17724648, 0.066044986, -0.11369137, 0.1605362, 0.004690962, -0.109965965, 0.07839643, 0.17090313, 0.082087636, 0.03973845, -0.10101528, -0.01947142, 0.09534595, 0.022697017, 0.20251651, -0.03151648, 0.1580336, -0.18110254, 0.10141608, 0.07258671, -0.00912835, -0.09420214, 0.16950957, 0.02399548, -0.18410209, 0.022085924, 0.048992947, -0.22144516, 0.03700266, -0.004750742, 0.07728303, -0.038873643, 0.061914098, -0.014626176, 0.077678785, 0.014217722, -0.22158983, -0.17148532, 0.1033363, -0.008158478, -0.08276405, 0.07520393, -0.06437832, -0.13397326, -0.019601157, 0.086957514, 0.10004669, 0.04545897, -0.0725557, 0.0788369, 0.05104675, 0.0027191052, 0.005196219, -0.023882022, 0.015798448, -0.009596233, -0.06365623, 0.06724848, -0.019820657, 0.065994024, 0.006575217, 0.16791208, -0.05644642, -0.03934546, 0.107155725, 0.019629246, 0.017267581, 0.22486772, -0.011070606, 0.035808578, 0.1274665, 0.19342263, 0.032193087, -0.05855817, 0.034996517, 0.06330859, -0.0011584684, -0.10009837, 0.086166225, 0.015599627, 0.034929454, 0.054689303, 0.03230892, 0.009868522, 0.07035369, -0.14789544, -0.1729159, -0.04874258, -0.0012918009, 0.010111417, -0.042891964, -0.20842692, 0.11277241, 0.034994885, -0.009129377, -0.0038676644, -0.03824489, 0.027993806, 0.113274, -0.05091097, -0.035705436, -0.2129874, 0.044511, 0.02765418, -0.06898729, -0.07318027, -0.014384246, -0.008735962, -0.03749009, 0.013239858, 0.064649805, -0.05013066, 0.0012860447, 0.26686406, 0.06887094, 0.042851593, -0.04363329, -0.06808713, 0.0316659, 0.03152924, -0.21199408, -0.065116726, 0.07289964, -0.09219818, 0.0006122155, 0.03659395, 0.0419758, 0.020934485, 0.094280005, -0.0039004069, 0.13515411, 0.16809665, 0.046463598, 0.062370162, 0.34831366, -0.038163606, 0.10039787, 0.02361511, 0.080514155, 0.064163975, -0.01822856, 0.015807234, 0.036934484, -0.049278535, -0.0056689363, 0.056329746, 0.14754908, -0.106975645, 0.06482021, -0.029685369, -0.083985835, -0.042551685, 0.02738848, 0.018709265, -0.02979483, 0.046909943, 0.027174054, 0.05149405, 0.10283883, -0.04045349, -0.03702674, -0.026285954, 0.022661913, 0.019521816, 0.10079254, -0.16409877, -0.05630329, -0.050269347, 0.05541487, -0.08177261, 0.031170234, 0.109229684, -0.049320705, 0.08153807, -0.0982765, 0.025018908, -0.041173626, 0.18459226, 0.16873352, -0.055295072, -0.13184044, -0.04526366, -0.025414664, 0.040233616, -0.31936523, 0.14631864, 0.0724733, -0.16047062, 0.077678464, 0.16167256, -0.028157966, -0.065491244, 0.18225022, -0.03512985, 0.030484803, 0.08459704, 0.033202607, 0.03374619, 0.0819915, -0.08102841, -0.006548067, -0.038367685, 0.07030228, 0.042775284, 0.13576365, 0.16756569, -0.09345982, 0.010869387, -0.13245125, -0.070448264, -0.012087562, 0.09005758, -0.056999173, 0.00019317752, 0.12938148, 0.10172714, -0.03557839, -0.0872673, -0.0012276337, -0.105780445, 0.048188873, 0.07730691, 0.0085978005, 0.07289962, -0.11698331, -0.1715931, 0.09946419, 0.039985023, -0.09498582, 0.020962423, 0.051888872, -0.0564441, 0.1503569, -0.16308658, 0.053458303, -0.0007814322, 0.06484712, -0.014331878, -0.049954496, -0.015015025, -0.012717106, 0.046436284, 0.090047784, 0.036844425, 0.007997097, -0.09528199, -0.03849565, -0.043712635, 0.2542047, 0.101936184, 0.05181755, 0.13156343, 0.024983577, 0.13725972, 0.032614186, -0.021976724, -0.010321364, -0.07727356, -0.017709976, -0.056290276, -0.030204086, 0.16177474, -0.036359616, 0.29220697, 0.10966703, -0.017992506, -0.020495335, 0.100069575, -0.054010686, -0.11160648, 0.12912205, 0.032564268, 0.07435855, 0.044593606, 0.03866091, -0.07285008, 0.017621277, 0.128484, 0.0035881633, -0.02524749, -0.18600899, 0.010340966, 0.024086356, 0.065079406, 0.26409823, 0.03753747, 0.038786214, 0.022073178, -0.1589377, 0.0066322414, 0.058908045, -0.04015316, -0.13594902, 0.03753936, -0.05604031, 0.016113875, 0.04329964, -0.005762286, -0.04122421, 0.046607964, -0.056842603, 0.072224796, 0.09928145, 0.09938658, -0.017412847, 0.0066482276, -0.003975323, -0.07684861, -0.10216187, 0.086824365, -0.019725135, -0.06731608, 0.21983832, -0.011593058, -0.03922138, -0.019428657, 0.03564706, 0.20853668, -0.0058664954, -0.091283396, 0.055664133, -0.04454068, 0.03658289, -0.05062903, -0.013750046, 0.13120824, 0.2110721, 0.11027695, -0.01282448, -0.11528973, -0.012426627, -0.12097811, 0.13288645, 0.19219571, 0.15654224, -0.047379423, 0.009531082, -0.0016576397, 0.060188055, 0.15826617, 0.016097138, -0.1398471, -0.07806198, -0.0034252377, 0.090473406, 0.24378328, -0.06180193, 0.15541708, 0.15631779, -0.008817958, 0.075052, 0.00986505, 0.034920838, 0.078533866, 0.032487843, 0.036844544, -0.008267804, -0.08248929, -0.079786554, -0.03404199, 0.14735544, 0.08148277, -0.025903594, -0.0066287513, -0.0155823035, 0.056604575, -0.08374959, -0.035757065, 0.041879725, 0.2410581, -0.08723281, 0.06055071, -0.02655082, -0.03293731, -0.028842093, -0.01125644, 0.13314757, 0.022466635, 0.05499484, 0.09215088, 0.024041075, 0.019113109, -0.025962498, -0.01340145, 0.012053879, 0.042732865, 0.08800014, 0.23738028, -0.027933331, -0.018835736, 0.05255889, -0.06733996, -0.022573378, 0.07842393, -0.06992564, 0.10512713, 0.0031937577, -0.020152627, 0.027429348, -0.05819358, 0.07050609, 0.038008515, -0.037073746, -0.024536043, 0.024552785, -0.08507893, -0.0012037519, -0.121398, -0.04805468, 0.1030988, 0.07367541, -0.08063145, 0.211926, 0.031583067, -0.034644756, 0.107463576, -0.0658155, -0.026764857, 0.014987459, 0.0674491, -0.00508629, 0.018470038, -0.050270304, -0.0025678566, -0.120364055, 0.08472649, -0.003931813, 0.06942523, 0.07850349, 0.01809918, -0.13241436, 0.015517092, -0.05777998, -0.006759931, 0.12376225, -0.0025267503, 0.045538276, -0.08148415, -0.014597157, -0.017772045, 0.11142268, 0.07245813, -0.047439877, 0.029985398, 0.0046515143, 0.086507104, 0.044240788, -0.100057, 0.17075463, 0.05463333, 0.071303405, -0.09772504, -0.023840044, 0.2570544, 0.026002847, 0.27949077, 0.072634466, -0.17259985, -0.027752321, -0.034676533, -0.0027791169, 0.057429247, -0.18768394, -0.005694883, -0.078244835, 0.00033373095, -0.20958777, 0.14543994, -0.027395928, 0.14462876, 0.19163299, -0.02970192, -0.050467726, -0.09358515, -0.004551424, -0.16693826, 0.0021624975, 0.11404504, -0.13643418, -0.06311021, -0.09264955, -0.026140282, 0.024583252, 0.06131368, -0.18479303, -0.050926212, -0.058903225, -0.021671759, 0.09582406, -0.14925759, 0.05993665, 0.18860579, 0.05843358, -0.020801125, 0.08231257, 0.065361775, -0.106148556, -0.16790345, 0.22610371, 0.038742483, -0.018310664, -0.12767158, 0.041803762, -0.05953009, 0.16460924, 0.16758431, -0.03984693, 0.01578344, -0.09593777, 0.15647328, -0.08799574, -0.01080717, 0.15120289, -0.041182812, 0.12164639, 0.023199068, 0.07135382, -0.05519925, 0.09277516, 0.093126334, 0.0008343718, 0.18885861, -0.047259305, 0.09897926, -0.4631638, -0.085319914, 0.1259406, 0.04626946, 0.08457269, 0.14085509, 0.0019776798, -0.27445233, -0.12138535, 0.14655857, -0.030284327, 0.28056383, -0.16984156, -0.10605809, 0.025848726, -0.0030823145, 0.2928497, 0.002094197, -0.07825012, 0.38931325, -0.03801627, -0.01970744, -0.17820247, -0.027921807, -0.036640484, 0.078004576, -0.15782765, -0.031167768, -0.122105934, 0.07686761, 0.04289262, 0.011577275, -0.05627515, -0.015536073, 0.060102828, 0.00794229, -0.07670125, -0.08698361, 0.07047155, -0.078368835, -0.13071963, -0.109953985, -0.0449475, 0.035213094, 0.03757503, 0.19644466, -0.00857988, 0.14097448, 0.027362943, -0.07594122, -0.06516218, -0.07183677, -0.12381785, -0.04037706, 0.0057371124, -0.10674365, 0.012636937, 0.008324302, 0.04096557, 0.046344787, -0.007821466, 0.041953385, 0.013753577, -0.121047325, -0.061653055, -0.00930392, 0.073536, -0.03419429, 0.13625647, 0.02018499, 0.13239849, -0.12764016, -0.0690302, 0.06253853, 0.019302985, -0.3292794, 0.031485282, 0.22167772, 0.041006252, -0.033077635, 0.42753655, -0.15902637, 0.15811223, 0.0899196, -0.014465594, 0.078548014, 0.15596685, -0.004729257, -0.036142625, -0.15025117, 0.08477466, -0.03391439, 0.017937636, 0.040323265, 0.02327759, 0.039010674, 0.024750201, 0.058055293, 0.013565407, 0.18510641, 0.061187793, -0.03529015, -0.056674365, 0.021329796, 0.043352842, -0.083329074, -0.027403066, -0.0016054106, 0.063225426, 0.020961596, -0.034118053, 0.124048926, 0.10524356, 0.02414943, 0.04406492, -0.048747245, 0.03580969, -0.08310985, 0.1970032, 0.07697475, -0.066415004, 0.10045503, 0.22835827, -0.09649834, -0.07058828, 0.38780472, 0.06406455, 0.041110184, 0.05612192, -0.10233106, 0.060992174, 0.008157344, 0.012027584, 0.27814204, 0.03966619, -0.10599292, -0.043686777, -0.0920491, -0.020097468, -0.26709795, -0.019160472, 0.18682392, -0.045446306, -0.024042098, 0.3917189, -0.07738798, 0.07669721, 0.13401432, -0.112958744, 0.090866774, 0.01311364, 0.035729293, 0.08445879, 0.06425065, -0.11449036, 0.045021277, -0.01199966, 0.0033671944, 0.053773016, -0.063833736, 0.005595184, 0.050086364, -0.12521714, 0.18946743, 0.09563352, -0.22228867, 0.10300374, 0.044912767, 0.026824253, 0.11595359, 0.037693556, -0.060134582, 0.19633852, -0.010644734, 0.012790695, -0.025291055, 0.044662155, -0.0534124, 0.051629115, -0.01942178, 0.19079635, 0.016092299, 0.25796676, 0.09059402, -0.01818202, 0.24441972, 0.07954547, 0.19029774, -0.18377192, 0.030884402, 0.049481165, 0.07591908, -0.2053984, -0.13899381, -0.0028496864, 0.059972167, -0.033995036, 0.23719043, 0.13990805, -0.15596591, 0.06406333, -0.034392633, 0.090988696, -0.26390845, -0.2191809, 0.005874258, 0.046377517, -0.0017440388, -0.07373469, -0.08908592, 0.041048657, -0.034208547, -0.03779889, 0.078195885, 0.2044857, -0.03601256, -0.083882906, 0.045260984, -0.2722737, -0.07167004, 0.00019885518, 0.113002285, 0.024281412, -0.007936083, 0.015909098, -0.039597526, -0.041381206, 0.029455297, -0.015484471, -0.0010237623, -0.07224967, -0.0088861585, -0.05786341, -0.07591145, 0.0002418533, 0.03789983, 0.010713002, -0.010413009, -0.049778663, 0.073045805, -0.07139539, -0.037068084, -0.009261691, -0.06376666, 0.05919334, -0.010790266, -0.02706648, -0.016311958, 0.0419698, -0.01079444, -0.13389666, -0.021104293, -0.06770848, -0.013938944, 0.043827955, -0.0035708174, -0.010244513, -0.0413205, -0.061538015, -0.0061026514, 0.0054718507, -0.07617395, -0.018131327, -0.050235335, -0.03447121, -0.0362639, -0.047613107, 0.03915764, 0.0145839555, -0.0013440233, -0.029992932, -0.044473737, 0.0654103, -0.03775726, -0.018954512, -0.043159883, 0.0038824498, -0.05917215, -0.0136422645, 0.045106508, 0.001494751, 0.037108634, -0.09620101, -0.009154074, -0.002787522, -0.074105665, -0.04847788, -0.10019486, -0.033591617, -0.0631502, -0.002858939, -0.07223268, -0.069944516, -0.10920423, -0.090879574, -0.03188901, -0.104678586, -0.06626197, -0.07287427, 0.01642786, 0.06731236, -0.062262744, 0.045128353, -0.087785855, -0.041129097, 0.038901307, 0.018234065, -0.05990591, -0.10568635, -0.06944605, -0.00028027722, -0.05832083, -0.044052534, -0.008541232, -0.06607027, 0.042776868, -0.049467925, -0.011377875, -0.10326478, -0.00012388115, -0.11675596, -0.07277068, -0.030872002, 0.0346836, -0.043504946, -0.06993619, -0.04023697, -0.054422386, 0.06102787, -0.09317418, 0.037841044, -0.029195374, 0.055677347, -0.016980661, 0.0004196465, 0.018850692, -0.030353153, 0.017025566, -0.048884515, 0.0008698175, -0.014404851, -0.065368645, 0.095451035, 0.065437734, -0.111002, 0.08299407, 0.017058484, -0.054129545, -0.010420509, -0.038229123, 0.016288996, -0.066961385, 0.050145358, 0.009740122, -0.027130155, 0.0036670852, -0.060351126, 0.037067506, -0.11480904, -0.062262367, -0.023200858, -0.0392776, 0.068147495, -0.058904074, -0.11010387, 0.0062797256, 0.019356601, -0.02433033, 0.0071307793, -0.026548233, -0.07711965, 0.029407486, -0.07451678, -0.0071625933, 0.026012566, -0.04548841, -0.045328565, 0.06632127, -0.04375847, -0.014762549, -0.07410614, -0.024795484, -0.04035772, -0.016366785, -0.07341186, -0.039079927, -0.042139426, -0.06390762, -0.08180625, -0.0063779773, -0.07650771, 0.069552675, -0.039400823, 0.07086392, -0.018096805, -0.11039695, -0.03770887, -0.016834952, 0.05019573, 0.03757322, -0.00761505, -0.12715648, -0.03425396, 0.019524438, -0.031173773, -0.0118188895, -0.0022696147, 0.05705315, -0.10374084, -0.07162161, -0.036810454, -0.004231639, 0.08441142, -0.007488642, -0.0052676573, -0.013218544, 0.045634635, -0.05282019, 0.02338376, -0.019337721, 0.06842828, 0.05417034, -0.102053896, -0.035992604, -0.10368596, -0.014342457, 0.047881976, -0.036241043, -0.073845774, 0.031651523, 0.06457934, -0.048275467, 0.030034266, 0.039984953, -0.06229775, -0.011156909, -0.087030515, 0.0037429556, -0.012028296, 0.040863395, 0.011648811, 0.030926753, -0.054014526, 0.018428128, -0.1400937, -0.026047133, -0.049034853, 0.06179879, -0.022559753, 0.011510027, -0.021351675, 0.008917429, -0.06437556, -0.04200044, -0.017067106, 0.025364803, -0.017735884, 0.052560132, 0.03397318, 0.05609866, 0.017186118, 0.0010574972, -0.049367867, 0.052458882, -0.03954214, -0.09938424, -0.05071888, -0.11062802, -0.051013645, 0.004971251, 0.022387154, 0.047110453, 0.010231358, 0.021226875, 0.05349863, -0.027560953, -0.045899272, 0.014798855, 0.009885125, -0.076739416, -0.005613759, -0.02557588, 0.022345368, -0.023654465, -0.05728118, -0.079335175, -0.012559464, 0.00957001, -0.09971301, -0.07453149, 0.042541124, 0.015363403, 0.05410518, -0.01935159, -0.04376994, 0.014429854, 0.03686837, -0.010473342, 0.05811733, -0.026411936, 0.010783414, 0.014974244, 0.019866336, 0.03306844, -0.00062874705, -0.048764028, -0.09735458, -0.08107425, -0.007246425, 0.02293065, 0.03431132, 0.009712607, -0.044668425, -0.046039768, -0.0890116, 0.007429071, 0.05984855, -0.01213992, -0.09720906, -0.049158383, -0.053118207, -0.0044408664, 0.0024604206, -0.012101153, 0.02266272, -0.033088423, -0.009764656, -0.022600286, -0.051236443, -0.095574714, 0.036920205, -0.009111728, -0.093089685, -0.053851947, -0.012878954, 0.03915865, -0.07788232, 0.060459286, 0.013998542, 0.048366815, -0.030398857, 0.0036391441, -0.009961292, -0.073715895, -0.07215764, -0.06819135, -0.08438201, -0.06735925, 0.05060897, -0.0053024776, -0.07025377, -0.009117678, -0.00063453097, -0.059073415, -0.035914008, 0.023884177, -0.015319111, -0.1357257, 0.07127091, -0.008661784, 0.06514253, 0.03329465, 0.015416826, 0.03878153, -0.044385098, 0.001664117, 0.053014714, -0.06117293, -0.059164643, 0.04173543, 0.02133058, 0.017556643, -0.05158562, -0.07922329, -0.001149214, 0.059503544, -0.09741752, -0.052361008, 0.06389801, 0.05593066, -0.075527355, -0.059715167, 0.016518695, -0.1084891, -0.039912414, -0.00924638, 0.050208427, 0.018892068, -0.1426488, 0.015007666, -0.017465137, -0.032277394, -0.033479962, -0.07954954, 0.052487213, -0.063015595, -0.05961374, 0.035772316, 0.07317805, -0.06804565, 0.029302664, -0.06357844, -0.06018109, -0.062878706, 0.04298742, 0.036999445, 0.046471946, 0.0070397537, 0.011720657, -0.044374004, -0.09329394, -0.073618114, -0.017454885, -0.021083962, -0.10631996, -0.032983724, -0.08814191, -0.00085860776, 0.06763053, -0.030510467, -0.009355821, -0.092326045, 0.06014408, -0.066570684, 0.060877338, -0.10264938, -0.007959983, 0.04159508, -0.026793323, -0.07411113, 0.022832125, -0.04783086, -0.0019325092, 0.05722353, -0.07368444, -0.10667852, -0.11129179, 0.04789157, -0.012226371, 0.0111722555, 0.017163472, 0.006273222, 0.008752774, 0.029583171, -0.033921704, -0.035486206, 0.047301054, -0.078808695, 0.044776656, 0.022101143, -0.06910897, -0.14153326, 0.07396547, -0.06005001, -0.03970912, -0.067676336, -0.042160466, -0.08244283, -0.023751032, -0.09129025, -0.08661846, -0.040696207, -0.015137643, 0.015379906, -0.04213755, -0.056377135, 0.009267612, -0.0741905, 0.08420254, -0.08080739, -0.06679839, -0.0075607207, 0.025480695, 0.05433549, -0.019953724, -0.120730944, -0.07142131, -0.049465436, -0.15623817, -0.04817392, -0.030305153, -0.06490444, -0.064132445, 0.020008847, -0.047360186, -0.09657547, 0.0049059913, -0.0075965542, 0.063737854, -0.01308785, -0.019159328, 0.027648136, -0.0033559122, -0.00875891, -0.11505412, 0.03669796, -0.053273782, 0.06585446, -0.101854734, -0.051704343, -0.12772594, -0.0930436, 0.04714497, -0.01814883, -0.12799793, 0.049077168, 0.03755992, -0.053556956, 0.0031592655, 0.04397878, 0.06313671, -0.11140309, -0.06640144, -0.005326852, -0.024283173, 0.027029045, -0.03496087, 0.016270272, 0.020910554, -0.06714472, -0.022349758, -0.019153364, 0.000616555, -0.029884148, 0.12391391, 0.013336446, -0.032133237, 0.0105440095, -0.012339472, 0.027650028, 0.049831733, 0.013347842, -0.09465737, -0.020922001, 0.06956366, 0.011493375, 0.021199115, 0.06325072, -0.031643335, -0.09422033, 0.07339771, -0.03243577, -0.013009517, 0.049201496, -0.12501192, 0.01580974, -0.064332426, 0.039738476, 0.015353883, -0.122423895, -0.010685489, -0.016507495, 0.01081863, -0.035762154, -0.044920526, 0.039077222, -0.10581682, 0.058759183, -0.067718156, -0.07423883, 0.016443737, 0.07270755, -0.13868065, -0.0011535957, 0.013942121, -0.045944776, 0.087701045, -0.031369455, 0.002223091, -0.12061941, -0.12866585, -0.009379484, -0.014927808, -0.06362213, -0.042942487, 0.024524292, -0.060206223, 0.057410058, -0.019650338, 0.0037748613, -0.023729168, -0.010823149, -0.025068324, 0.0109733045, 0.05561961, -0.13607058, -0.013909816, -0.08050912, -0.06877194, -0.046078186, -0.06036782, 0.048431262, -0.101482265, 0.027030366, 0.027940912, -0.060706325, -0.044526294, 0.050220504, 0.0024079978, -0.033389464, 0.0038488507, 0.022265308, -0.03395351, -0.08994055, -0.009773068, -0.0038924085, 0.012655062, -0.06424225, 0.010297693, 0.032171622, -0.029083885, -0.02330228, -0.04884865, -0.14730574, -0.07287413, 0.012743875, 0.06436123, 0.06037512, 0.048760902, 0.0026154518, 0.0038845206, 0.03687758, -0.015350927, 0.06733243, -0.015883155, -0.0802653, -0.0010393875, -0.042062696, -0.0381081, 0.055619385, -0.08808335, 0.020515267, -0.062118016, -0.021686036, -0.13153318, -0.053944245, 0.05823897, -0.012493466, -0.07991104, -0.073707655, 0.00024118274, -0.09246959, -0.063476235, -0.03478474, -0.012579365, -0.004613433, -0.031647388, -0.05509648, 0.015007945, -0.010467821, -0.004287356, -0.0039264094, 0.003770893, -0.062043376, -0.105561905, 0.070502445, -0.034580592, -0.07846226, 0.013509276, 0.036172576, 0.021598797, -0.045124754, 0.042643532, -0.0012408261, -0.02545936, 0.032670908, 0.012620118, 0.012190889, 0.06881055, -0.06741146, -0.047557592, 0.05430171, -0.005162172, -0.08411175, 0.07325524, -0.0115138665, -0.041482072, -0.13982563, -0.015367333, -0.07940337, 0.07087974, -0.12695524, -0.07546202, -0.0014671981, -0.009293541, 0.054555535, -0.061681688, 0.029286005, -0.025096774, -0.062889636, -0.031041332, -0.05217633, -0.05320216, -0.06665326, -0.025999691, 0.0572098, 0.006460703, -0.1391259, -0.09089235, -0.009453222, 0.006190633, 0.055438712, -0.028121535, -0.11411183, 0.029445074, -0.0010872296, -0.07152705, -0.011923897, 0.017811717, -0.04141449, 0.06335178, 0.006972928, 0.009704961, -0.099269256, 0.012711397, -0.11625479, -0.022929454, -0.036551435, -0.10869969, -0.059392087, -0.048583712, -0.11140768, 0.06076087, 0.015531316, -0.044560056, -0.032078482, -0.042650525, 0.009657116, 0.05602759, -0.02344957, 0.10626886, -0.09679146, -0.06205263, -0.009688628, -0.045359045, -0.0351103, -0.06878881, -0.064817265, 0.0385475, -0.048148707, -0.091258876, -0.14534053, 0.055732504, 0.008985965, 0.063547224, -0.12410271, -0.044936977, 0.06976463, -0.033732325, -0.040423457, -0.07551313, 0.015203826, 0.008907445, -0.03614281, 0.045120254, -0.013017572, -0.008965436, -0.0711521, 0.048824217, 0.059742622, -0.14224651, -0.07826706, -0.004726504, 0.015094303, -0.042741574, 0.014337631, 0.014987418, -0.023597943, -0.0331964, -0.11636736, 0.032480348, -0.090704985, -0.060298506, 0.040666588, 0.06973402, 0.01893042, -0.11293091, 0.030917188, 0.036493342, 0.0011956512, 0.0067231334, 0.062007505, -0.047963448, -0.030318115, 0.04017679, -0.07560971, -0.0051207645, -0.0003657192, -0.07952272, 0.05203229, -0.024087686, -0.078556076, 0.014412738, -0.069744095, -0.08114518, -0.0040008547, -0.01433517, -0.06369692, 0.030631864, -0.029846326, -0.13514747, -0.067335464, -0.03911175, 0.035706095, -0.017429333, -0.09760355, -0.019485407, 0.06610996, -0.07110338, -0.046191394, -0.040327255, -0.062008012, -0.09537582, -0.0096677765, 0.05649655, -0.054355532, 0.0147358775, 0.022810457, -0.017876435, -0.01152973, -0.06795, -0.02944788, 0.05726796, -0.010841826, 0.032726932, 0.03148553, -0.048136063, -0.025169738, 0.027220208, -0.0563617, 0.039030537, 0.017849362, 0.02523633, -0.035295, 0.0012089089, -0.0887459, -0.075737, -0.0054608756, 0.06014472, -0.0224371, -0.07511603, -0.009573891, -0.089920506, -0.061806884, 0.027084962, 0.058802664, -0.114555866, 0.07258062, 0.040988225, 0.059003193, -0.05907112, -0.053354092, 0.020037474, -0.057195093, 0.037088133, -0.028996326, 0.064425215, -0.06308849, -0.021446323, -0.10811299, -0.043385893, -0.020471916, -0.03518415, -0.042810563, -0.0015444994, -0.06182536, -0.049547896, -0.007096514, -0.0786642, -0.06462393, 0.028865382, 0.02841269, 0.017443396, 0.058280025, 0.029261319, -0.01277221, -0.06994841, 0.04404605, -0.018881, -0.06516701, -0.028391063, 0.013520982, -0.084673576, 0.033092424, -0.065587915, -0.07169907, -0.058256045, 0.060633488, -0.038892988, 0.053195357, 0.017057195, 0.063692346, -0.0330651, -0.057590608, -0.09312361, 0.007351549, -0.007644601, -0.017000962, 0.055011895, -0.11249547, -0.028994188, 0.08227472, 0.07440295, 0.04752718, -0.0065617743, -0.0031827376, -0.056551173, -0.0036780396, -0.049930956, -0.07324134, -0.02311372, -0.072145276, -0.018286481, -0.0829658, -0.0698721, 0.04324668, -0.0014876726, -0.08621258, 0.02240581, 0.02825383, -0.0068335235, -0.010118872, 0.005065656, 0.034118555, 0.05619201, -0.03177725, 0.0535813, 0.04548742, -0.062158663, 0.05894179, -0.02599682, 0.069542855, -0.027046584, -0.020237138, -0.02713826, -0.014174342, 0.019945338, -0.07773413, 0.018406052, -0.051904548, -0.018245911, -0.003803417, -0.08438694, -0.018073894, -0.050502226, -0.032901555, -0.049984593, -0.091226004, -0.095087655, -0.0178019, 0.027722143, -0.0069353133, -0.04289804, -0.11311617, 0.08958963, -0.049087472, -0.057160623, -0.09232198, -0.04388427, -0.062307514, 0.0662806, -0.11368354, 0.04630246, -0.069645755, -0.08067071, 0.0071612294, 0.043017678, -0.0086405575, -0.06517117, 0.010510566, -0.10912248, -0.15374926, 0.030764053, 0.053783357, -0.055543233, -0.01923056, 0.0509809, 0.0061569177, -0.04592965, -0.06849625, 0.010499934, -0.034976836, -0.035284553, 0.04676046, -0.045481183, 0.04462388, 0.060719714, -0.0052335598, 0.002009824, 0.020817904, -0.08698486, 0.05291289, -0.05682771, -0.1278508, 0.055958897, -0.024112739, -0.071087, -0.09655278, -0.071942195, -0.092495166, 0.053972095, -0.048566617, -0.06910207, 0.062422007, 0.009587613, 0.026795097, -0.13713169, 0.058631644, 0.024412483, -0.024804635, 0.026291458, -0.13311921, -0.029849974, 0.01816773, 0.025690928, 0.020737883, -0.06036492, -0.06633832, 0.00023356659, -0.057726767, -0.1087587, -0.02057382, -0.0023566051, -0.062492862, 0.05086507, -0.09639177, -0.042049292, -0.090983525, -0.034891654, -0.049405474, -0.004527718, -0.011113264, -0.06745607, -0.07548608, -0.0012756103, -0.019044045, -0.022294864, 0.01564309, -0.07561386, 0.016749099, 0.03565026, -0.0003856314, -0.10551731, 0.07134588, -0.043569867, -0.012265304, -0.043867286, 0.1307554, -0.057160135, 0.07395049, 0.0055298503, 0.23466113, -0.026726317, 0.26098835, -0.08575286, -0.045130994, -0.06241194, -0.0803075, 0.05929155, 0.017288273, -0.007193797, 0.049245037, 0.016828157, -0.09309749, 0.10081844, 0.18592888, -0.050749965, -0.029820621, 0.09556684, -0.058448743, 0.33643436, 0.056202024, 0.056463417, -0.26442122, -0.19728926, 0.30997017, -0.36642677, -0.12673059, -0.097705185, -0.035851605, 0.10902189, 0.019257216, -0.09467694, 0.07119708, 0.11783647, -0.1485632, 0.23984472, 0.13634634, -0.04774589, 0.26905388, -0.0900096, -0.04691074, 0.18620911, -0.1446364, 0.03625018, -0.06681441, 0.13750519, 0.057292894, 0.13987751, 0.019534139, -0.10207619, -0.11068794, -0.12893146, -0.08044802, -0.031270366, 0.22974893, 0.055485886, 0.019956013, 0.06471968, -0.074757434, -0.025563711, 0.075515725, -0.016142787, -0.0140663525, 0.026800832, -0.09065056, -0.07058711, -0.0352606, -0.05260514, -0.0784929, -0.09977225, -0.07374524, -0.009925567, 0.04459917, 0.017279377, -0.089033246, -0.06999333, -0.17512381, -0.05170049, 0.19206037, 0.11207118, -0.028229265, 0.025422405, 0.011771799, 0.23490274, -0.07698531, -0.0058376915, -0.0066018286, 0.11143722, -0.014591893, -0.14558633, -0.28750142, -0.20860323, -0.10934123, -0.053298656, -0.06689594, 0.06186886, 0.016778102, 0.056606617, -0.08582928, -0.025095252, 0.25541648, 0.06526913, -0.09535214, -0.048281617, -0.16012517, 0.093676075, -0.119369544, 0.011091001, 0.067444764, -0.1665917, -0.1415399, 0.034536283, -0.012733718, -0.19670428, -0.00848306, 0.03128973, 0.0019502983, 0.13539854, 0.10570036, 0.3201928, 0.061104696, -0.11809294, 0.05340411, -0.038791455, -0.026669305, -0.035376742, 0.10490812, 0.08141807, -0.27520603, 0.0750333, -0.03706302, -0.1021474, -0.059035376, -0.17272128, 0.032844536, 0.0044318824, -0.006837521, -0.039622582, -0.068191566, 0.012413055, 0.10535406, 0.073200144, 0.12944321, -0.045260347, 0.029745689, 0.041850697, 0.03991844, 0.027007349, -0.049875196, 0.039646767, 0.4538914, 0.13642102, -0.15802042, -0.13374403, -0.11557063, -0.19912638, -0.0017472598, -0.040825065, 0.10717606, 0.090952985, -0.009268221, 0.11298853, -0.01598865, -0.09098588, 0.09944749, 0.07138966, -0.05111703, 0.006487917, -0.009625772, 0.15895274, 0.054088864, -0.09470272, 0.26815397, 0.12951559, 0.15186635, -0.04762231, 0.16576846, -0.14352617, 0.10206375, 0.28600407, 0.00024989594, 0.06054699, 0.099634714, 0.050107818, 0.065707706, 0.09888763, -0.020853112, -0.0079138605, -0.0852479, 0.02210268, 0.005541634, 0.24567287, 0.039265167, -0.08698947, -0.062324088, -0.1337212, 0.06428679, -0.39121076, -0.16692084, -0.047384772, -0.07172023, 0.10836805, -0.06322795, 0.012849614, 0.24024844, 0.007315062, 0.026066532, 0.06246213, 0.07323664, 0.25468755, 0.053135943, -0.029547993, -0.31194592, -0.061793447, 0.3596925, -0.22901207, -0.13280462, -0.044163432, 0.22761229, -0.15907063, -0.08482587, -0.12951645, 0.043988064, -0.025448922, -0.016782027, 0.15486468, 0.07349249, -0.15043484, 0.06736743, 0.075775765, 0.18035518, -0.14160034, -0.217913, 0.32539165, -0.004371572, -0.0068904003, -0.16571295, 0.25394684, 0.00041244924, 0.06730965, 0.2224453, -0.08058177, 0.030007757, 0.089408435, -0.051597197, 0.09509214, -0.08524567, 0.009314213, 0.0030307942, -0.0057696598, 0.15431485, 0.024438746, -0.0076502734, 0.08026881, -0.08496192, 0.17642616, 0.1602232, -0.0782392, 0.2705029, -0.005397285, 0.045155972, -0.14131418, -0.3110141, -0.041315913, 0.0052581294, -0.1601725, -0.21271652, -0.014093317, 0.10558667, 0.01937009, 0.07762314, 0.13208707, -0.019651672, -0.2663713, 0.046070974, 0.042225022, -0.05217683, -0.03699388, -0.3368952, 0.012694189, 0.11124119, -0.057464346, -0.07638314, -0.13737649, 0.040409204, 0.13929404, -0.27556792, -0.097015746, -0.033317417, 0.057954684, -0.020222617, 0.07789412, 0.14850271, -0.037419256, 0.08521682, -0.27390918, -0.066370614, -0.07704776, -0.036728702, -0.03668537, 0.23871718, -0.03531768, 0.114571586, 0.015563662, -0.0862836, -0.07426622, 0.024855867, -0.1270247, 0.08994297, 0.111530885, -0.04498769, -0.08171681, -0.05054659, 0.0003736188, 0.05436115, 0.038618248, 0.078766935, 0.05513091, -0.06534618, 0.21083923, -0.27687263, -0.027626857, -0.07347381, -0.039569348, 0.034298755, -0.17621104, -0.045476805, 0.07846412, -0.035393335, -0.08390395, -0.0885832, -0.07121397, 0.057415545, -0.0018927454, 0.17675203, -0.0011442985, 0.020750348, -0.27393702, 0.03825369, -0.08024421, 0.01329445, 0.07287367, 0.061196268, 0.09205491, -0.11778341, -0.17285553, 0.07963089, -0.15867549, -0.03376487, 0.04562195, -0.023112219, -0.029093474, 0.031765305, 0.12609097, 0.08818625, -0.21497571, 0.15000613, -0.009644359, 0.0018161507, 0.053527605, -0.06321782, 0.019624544, 0.03115439, -0.10551462, 0.29751638, 0.09156091, 0.011011168, 0.07103907, 0.06131075, -0.020153785, -0.0014889315, 0.07409716, -0.065343075, 0.08272208, 0.10690152, 0.089749545, -0.049493507, 0.2193315, 0.084371485, 0.010185465, -0.012917481, 0.02263497, 0.06625325, 0.062590495, -0.15950535, -0.034654554, -0.13772231, 0.06940999, -0.07166686, -0.3242319, 0.009758596, 0.024974165, 0.06290279, 0.08211442, -0.18774392, 0.007318206, -0.15061007, 0.01433664, 0.16677618, -0.033519942, 0.0055269073, -0.08932132, 0.020389616, 0.057675757, 0.069764264, -0.031485226, 0.029615674, 0.051641323, 0.08065329, 0.02554287, -0.0037148986, -0.16889755, -0.035023592, 0.10244211, 0.14635344, 0.1462009, 0.04809285, 0.13238567, 0.13177536, -0.10623107, -0.20887788, 0.055313002, -0.049344547, 0.12818228, -0.005022905, 0.019270858, 0.05914358, 0.06278061, 0.16623545, 0.07692672, 0.16133238, 0.06659789, 0.14888355, -0.0105306525, -0.05264202, 0.29296082, -0.006022883, 0.09844416, 0.15349793, -0.0677986, -0.011651903, -0.0018734778, 0.06866266, -0.04982183, -0.05108523, -0.04682908, 0.025360825, 0.08242132, 0.005813895, 0.0019377904, -0.010066083, 0.08981015, -0.024409683, -0.14798056, -0.09148728, 0.03556617, -0.015054264, -0.043995153, -0.054717436, 0.057623222, 0.0030219848, -0.0062804986, -0.021800358, 0.16152985, 0.0029900763, -0.25842047, -0.015860038, -0.09345592, 0.1796875, 0.056908045, -0.08297408, -0.1515926, 0.06556724, -0.11424974, 0.21761656, -0.15203142, -0.08320921, -0.14694759, 0.07449046, -0.049990892, -0.030453576, -0.07864699, 0.079497546, -0.06850145, -0.19306077, 0.094812386, 0.05818975, 0.038815793, -0.12561132, 0.06969602, 0.08176021, 0.02400922, 0.0206185, 0.29612175, 0.048156798, 0.11698289, 0.06625335, 0.00020834312, -0.03828294, 0.1460548, -0.057366792, 0.29604134, -0.0063882396, -0.19338797, 0.0074748364, -0.0073935217, 0.1869825, -0.010446839, -0.014014879, -0.077615455, -0.07313919, 0.15494269, 0.110726014, -0.050342675, 0.24118239, -0.07305252, -0.03421015, 0.05378602, -0.28647637, 0.03621793, -0.0055304575, -0.12379925, -0.084716365, 0.0030241236, -0.053568732, 0.009489279, -0.022102715, -0.034014776, 0.09503951, -0.03347633, -0.029339273, 0.012512364, 0.0065279934, 0.027333457, -0.21723893, -0.028171368, 0.1200227, 0.106489666, 0.12107936, 0.044655725, 0.19186538, 0.22792053, -0.27106836, 0.03619486, -0.07035388, 0.07262645, 0.08222895, -0.01126664, -0.1417893, -0.057525966, 0.12954864, -0.062292796, 0.0423992, -0.116892666, 0.013457989, -0.01867133, 0.2870625, -0.001261594, 0.16265886, 0.031444132, -0.09652332, 0.047640935, -0.028049305, -0.21274552, 0.04658904, 0.14198372, 0.06445774, -0.21250117, -0.020569438, -0.16604017, 0.1583906, 0.068991646, -0.052516263, 0.019287491, -0.10467075, 0.05935941, 0.027165588, -0.06883024, 0.05757994, -0.03323706, -0.005422228, 0.08548737, -0.038067233, -0.07526595, 0.050875615, 0.14121431, -0.01714304, -0.05239369, -0.09535192, -0.0663732, -0.07421943, 0.11164683, -0.015948955, -0.06650187, 0.025529107, -0.1443225, -0.1729115, 0.012525644, 0.17211805, 0.013838012, 0.3136431, -0.083055384, 0.25971502, -0.008039731, -0.059025012, 0.2685051, -0.19077703, 0.0391133, -0.04398871, 0.08849933, 0.16925727, 0.015583688, 0.025654158, -0.015746541, 0.088790976, 0.13294, -0.003457314, -0.08505626, -0.06061584, -0.03811572, 0.2650889, 0.0020304967, 0.06873088, -0.026042871, 0.0010700631, 0.06539678, -0.045724243, -0.068730876, -0.037012514, 0.32671568, 0.08302846, 0.037734997, 0.046773918, -0.00431569, -0.0715843, 0.053627517, 0.119256765, 0.006744246, -0.13142453, -0.012469195, 0.15027712, -0.02223743, -0.18495423, -0.00084203755, 0.03340677, -0.074705094, -0.04862694, -0.077968486, 0.027351895, 0.01571087, -0.013229214, 0.048093375, -0.06936121, -0.056713153, 0.006624369, 0.12410548, 6.597586e-05, -0.04436755, -0.008834376, 0.12738039, 0.15299629, 0.07571203, -0.028112251, -0.034015242, 0.13268037, -0.13188867, 0.20365012, 0.05697405, -0.20371738, 0.08049769, 0.15282694, 0.100943126, -0.05146675, 0.105864294, 0.07040942, 0.05313421, -0.16309518, 0.037061803, -0.13039362, 0.15700518, 0.12578788, -0.019639472, -0.020080933, 0.004473076, 0.29824832, -0.114491165, 0.041959748, 0.078239694, -0.019296503, 0.16425842, 0.064552166, 0.12340487, 0.036271803, 0.29410708, -0.14256881, -0.097945035, 0.047362514, 0.11021972, -0.028215328, -0.0667153, -0.00843362, -0.028940788, -0.06784265, 0.18668179, 0.03243585, 0.0016347582, 0.2766169, -0.07998813, -0.025976604, -0.107511885, -0.018188514, 0.09176526, -0.0077874605, 0.17536841, 0.015731296, -0.0313033, 0.033314824, 0.03718853, 0.025034653, 0.052555572, -0.0036683287, -0.19910839, -0.02674792, 0.118680134, 0.18530001, -0.049257796, 0.15088482, -0.13518615, 0.029762486, -0.09307836, 0.23700821, 0.031155467, -0.022097772, 0.09846136, 0.066807754, 0.05947892, -0.027020274, 0.06398416, -0.008626887, -0.07869067, 0.029859928, -0.060828764, -0.2164499, -0.043151896, 0.10116104, -0.032521047, 0.12774181, 0.0072174026, 0.10840672, -0.13693658, 0.15160166, 0.03880258, -0.0073163267, 0.03784126, -0.05108893, 0.15736638, 0.0119740665, 0.50865763, 0.22932595, -0.13332847, -0.0429271, 0.1787811, 0.09492782, -0.0057686684, -0.14112605, -0.056345336, -0.003324323, 0.14723353, -0.087541096, 0.058142003, 0.28209096, -0.009470309, -0.028754853, 0.29460242, -0.16251828, -0.040315226, 0.008193648, -0.07154877, 0.0032715548, -0.04616266, -0.2533049, -0.011389971, -0.13730684, -0.017092217, 0.0139061045, 0.052816432, 0.017983675, 0.11428786, -0.14805979, 0.06810664, -0.27194744, 0.119617596, 0.18403877, -0.21105045, 0.16078007, 0.06559552, -0.08241472, 0.5677389, -0.4591789, 0.10707335, -0.03766515, 0.1994107, -0.18630162, -0.09397772, -0.14042638, 0.025092097, 0.1571665, -0.027090333, 0.01609563, 0.01968216, -0.01449902, 0.011006848, 0.08767292, -0.3573447, 0.14579457, -0.21593897, -0.021759858, 0.004417494, 0.10290059, -0.057688624, -0.05999301, -0.10517449, 0.09662912, -0.036345743, -0.015936788, -0.36274818, 0.19282164, 0.027543603, -0.08056082, -0.06722432, -0.028443715, 0.33686793, -0.07699986, -0.03987396, 0.14678355, 0.038040422, 0.05493429, 0.10033316, -0.019408884, 0.055349033, -0.03878465, 0.13247524, -0.019312456, -0.045898963, -0.057207316, -0.0042767236, -0.06165718, 0.06737565, 0.012363155, -0.0068837283, -0.018449323, 0.18136571, -0.14220951, -0.06175874, 0.0022142357, 0.09819065, 0.40652385, 0.049322974, 0.20038983, -0.06254161, 0.02715999, 0.3026536, -0.053004373, -0.012042551, -0.05122077, 0.04726929, -0.13569465, 0.10572773, 0.012908808, 0.059309375, 0.06178223, -0.055725, -0.051987827, 0.08657947, -0.055688854, -0.07439263, 0.059310563, -0.16099203, 0.20180777, 0.17170452, 0.04058711, -0.022982145, 0.04569187, -0.05587857, -0.01656834, 0.25315458, 0.090540946, 0.1633538, -0.013070836, -0.16912809, 0.07283129, -0.055048812, 0.0906909, 0.03432757, -0.022588711, 0.1453606, 0.19661954, 0.082622126, 0.040083595, -0.21534674, -0.07807483, 0.21950172, 0.08925766, 0.055900253, -0.026035622, 0.1812677, 0.015227171, -0.042298723, 0.15103416, 0.06662851, -0.16111828, -0.010696814, -0.014542969, -0.03188757, -0.0587303, 0.14752236, -0.17701854, 0.0025576577, -0.17518604, 0.023390122, 0.3796945, -0.1520394, 0.19721694, -0.009981715, 0.07589707, 0.2015413, -0.06893232, -0.03817807, -0.021178328, 0.09541186, 0.16041933, 0.13509125, 0.006891691, -0.10977408, 0.124365136, 0.10662999, 0.031859744, 0.07142227, -0.08585146, -0.0675888, 0.092795424, 0.020590585, 0.14449637, 0.016533114, -0.029308934, 0.099441215, 0.052993216, 0.13118166, -0.02721175, 0.17125355, 0.05346421, 0.072798625, -0.00152054, -0.03471873, 0.05489782, -0.058025118, 0.020712316, -0.06125628, 0.003046293, 0.44301564, 0.10864515, 0.045240663, 0.2650128, -0.12296529, 0.027285203, 0.10929708, 0.07582838, 0.059739128, 0.013339723, 0.1447466, 0.072888695, 0.057023097, -0.0630925, -0.010596852, -0.049562268, 0.08403144, 0.02970639, -0.122335106, -0.029076768, 0.058156636, 0.106369644, 0.021013632, -0.17444825, 0.02349989, 0.0019951481, -0.16982561, 0.04540028, -0.10481123, -0.117079645, 0.19275902, -0.107053824, -0.07344019, 0.030033166, 0.13155912, -0.12170672, -0.18363227, -0.09329601, -0.030644104, 0.13346905, -0.1425321, -0.004968282, 0.19078524, -0.05604361, 0.052975662, -0.05894441, -0.18334165, 0.26224992, -0.12653282, 0.0042626956, 0.27915263, -0.09643005, 0.2607968, 0.025118912, 0.30135217, -0.06610754, 0.24703746, -0.11470283, -0.0027335668, 0.08255818, 0.044064008, -0.018536396, -0.0178759, 0.02746048, -0.07849652, -0.042504765, 0.010887053, -0.06540818, 0.035055995, -0.024186676, -0.10922038, 0.0020593046, -0.012477048, -0.07152255, -0.06469367, -0.015322548, -0.027909975, -0.034618095, 0.024934314, -0.08205439, 0.024260173, -0.021883722, 0.037916403, 0.038704388, -0.012974799, -0.07598469, 0.013525546, 0.06711058, 0.06102165, -0.04389117, -0.07594946, -0.071500264, -0.059837237, 0.061676785, -0.06432316, -0.07474189, -0.055480115, -0.019139845, -0.013032452, -0.09616263, -0.08051055, 0.018172618, 0.006349074, -0.091593035, 0.0025103982, 0.054684907, -0.049577907, -0.011905112, -0.016877484, 0.02224591, -0.047751874, -0.06411462, -0.09078032, -0.053001694, -0.046327267, -0.013381071, -0.05636603, -0.020599492, -0.062390633, 0.03605374, -0.06985224, 0.037385933, -0.109760985, 0.047994833, 0.025496274, -0.11485501, 0.037067752, 0.05714168, -0.07363102, -0.05276149, 0.0096047, 0.057482917, -0.014755168, 0.0023582478, -0.096511275, -0.079307646, -0.07262199, -0.07572596, 0.032122422, -0.010510241, 0.0037491173, 0.04574068, 0.045949683, -0.07594941, -0.07917399, 0.008461289, -0.06527635, 0.021150038, -0.0791338, -0.039402857, -0.030967861, 0.06309363, 0.0025274812, -0.10953497, 0.0305981, -0.12875375, 0.007990664, 0.035724595, 0.06806146, 0.00980789, -0.0664751, -0.027115041, 0.031762626, -0.011752358, -0.09533345, 0.051441617, -0.0064619286, -0.06532814, -0.014246051, 0.049619026, -0.07725117, -0.035146616, 0.059713304, -0.029623326, -0.03715579, 0.07448054, -0.056616507, -0.0014819956, -0.051302988, 0.0066923797, 0.0059920223, -0.030387536, -0.085760005, -0.03339245, -0.010761323, 0.060061485, -0.060666855, -0.082279615, -0.015273813, -0.089722164, 0.059698563, -0.013935444, -0.06043728, 0.0069944435, -0.05679293, 0.054825824, -0.009993863, -0.03097222, -0.03329408, 0.0062242984, 0.059230525, -0.048198387, -0.08205606, 0.06653301, 0.050744697, 0.05336776, -0.043913953, -0.10655238, 0.06497887, -0.0121119805, 0.02015819, -0.02820751, -0.056320988, -0.010715552, -0.044366285, 0.018721428, 0.013605132, -0.083989605, 0.042802513, -0.07255996, -0.03947958, 0.052227963, 0.065205716, -0.014332692, -0.075617254, -0.04434585, -0.070239626, -0.063889936, -0.045589156, -0.05489732, 0.027873605, 0.043724112, 0.023602119, -0.051204983, 0.030850798, 0.026297692, -0.018520843, 0.007002553, 0.016410189, 0.08073853, 0.058280773, 0.00764535, -0.00977367, -0.008386746, -0.020336209, -0.046325088, -0.0013309815, -0.09628418, -0.052350067, 0.03212148, -0.08877838, -0.023973612, 0.048556775, 0.07469126, -0.06958804, 0.037387844, 0.011739201, 0.012623615, -0.07296378, -0.10208497, 0.07153611, -0.06904876, 0.011955812, 0.038429238, -0.023344047, -0.06759907, -0.082751915, 0.059040654, -0.05081495, -0.021792006, -0.054112032, 0.025847, -0.04906439, 0.026091807, 0.007726464, -0.026410166, -0.05313148, 0.035549853, 0.04804545, -0.062896214, -0.0072547123, -0.06910288, -0.078130275, -0.11461157, 0.02537128, 0.011834227, -0.01665602, -0.031222034, 0.08744633, -0.018755116, -0.006297836, -0.06808577, -0.0031234894, 0.052666534, 0.015244689, -0.028087692, 0.03514386, -0.07698206, -0.0609322, -0.04199079, 0.027224787, 0.067017026, -0.05322085, -0.017822193, -0.07391783, -0.109490275, -0.017802069, 0.027775466, -0.100520656, 0.022388745, 0.02396235, -0.016939223, -0.008953692, 0.003156148, -0.01984948, 0.016235046, 0.008031651, -0.07614539, -0.049987443, -0.07294599, 0.03678387, 0.014972523, 0.045183253, -0.046980094, -0.03241024, 0.02912243, -0.053365212, -0.07094791, -0.025410159, -0.062267855, 0.03629087, 0.0403206, -0.035377666, 0.050801437, -0.003882669, -0.080271855, -0.058253903, 0.06993066, 0.062924705, 0.064051315, -0.016552491, 0.0102286, -0.051453136, -0.06509064, 0.035734504, -0.07790106, -0.044431332, -0.015888082, -0.014650887, 0.048125226, 0.07864878, 0.02930416, -0.0856277, 0.014484436, -0.11128735, -0.049334582, -0.07085784, 0.07273419, 0.035718974, 0.032630123, -0.045728926, -0.012659986, -0.02365982, -0.08854463, 0.036491163, -0.067586385, -0.012155446, 0.06412724, -0.087505154, 0.01084928, -0.023431933, 0.0075903833, 0.04879533, -0.037068114, 0.07108969, -0.053694796, 0.02186654, -0.03751888, 0.012582446, 0.025554987, -0.039457373, -0.07491843, 0.03983531, 0.0586946, -0.048726678, 0.021955404, 0.032344505, 0.0041081966, 0.018565685, -0.075329594, 0.00055406184, 0.05342529, 0.0097939065, -0.013448637, 0.00015270602, -0.025834458, 0.07340029, 0.0064799637, 0.046133764, 0.03932662, 0.0015799566, 0.00977622, -0.028082298, -0.030354746, -0.014956828, -0.06404992, 0.041731663, 0.0069714976, -0.04431414, -0.0002863297, 0.058335107, -0.049636625, -0.054787826, -0.08168234, 0.07013684, -0.01458756, 0.045878574, -0.039572373, -0.021979513, -0.07044589, -0.008208393, -0.004516633, 0.007993078, -0.0875392, 0.028406614, 0.08290253, 0.016594278, 0.00365249, -0.010715283, -0.044769194, 0.022671849, 0.028122071, 0.031827, -0.021354342, -0.049013004, 0.034946598, -0.0876291, 0.0053066984, 0.02374575, 0.029219875, -0.049842507, 0.039252013, -0.09569387, -0.110819966, -0.05768773, -0.052274764, 0.028089345, 0.06600416, -0.08219014, -0.010429871, -0.031299785, -0.015163628, -0.035246316, -0.02474831, -0.03525033, -0.05351329, 0.011511883, 0.022594213, -0.08899383, 0.06800357, -0.05034373, -0.008825804, 0.043144062, 0.032369852, -0.029650224, 0.032485373, -0.0713906, 0.022404186, 0.023888111, 0.042148016, 0.072978124, 0.054501414, 0.015176714, 0.0061195777, 0.05135873, -0.01734724, -0.104621254, -0.060777333, -0.043290544, 0.019983472, -0.08462032, 0.012995873, -0.05300647, -0.0682014, -0.007863313, -0.0004006472, 0.07143942, 0.016120613, -0.048236, -0.06956573, 0.047545254, 0.0033230663, -0.061930712, -0.040087294, -0.020359436, 0.002789195, -0.07871357, -0.01261677, 0.028845828, 0.05799547, -0.07505025, 0.04983368, 0.034988295, 0.040928684, -0.040284544, -0.052791156, 0.0040358934, 0.038799804, 0.06604956, 0.011908658, -0.02611472, 0.017140536, -0.06695968, -0.07078474, 0.033698175, -0.058352493, -0.09285507, -0.078958616, 0.030331643, -0.012130488, 0.044766776, -0.04705721, -0.059210297, 0.04749417, 0.04985205, 0.0030021532, -0.023223829, -0.06227591, 0.022459293, -0.0070569813, -0.042071592, 0.05904436, -0.046779223, 0.045625728, -0.036926482, -0.05623241, -0.018685296, 0.010928403, -0.025996735, -0.03221295, -0.06875099, -0.07802612, 0.040468086, 0.034282703, 0.049811795, 0.009783, 0.0105226785, -0.0020648688, 0.015151715, -0.0047545917, -0.042387802, -0.029706819, 0.004010478, -0.012591956, 0.03290432, -0.068768255, 0.019181266, 0.05178619, -0.099770665, -0.037330694, -0.03750331, -0.090136044, -0.027600158, -0.05040499, -0.020211907, 0.0038084835, -0.097720385, 0.0054723313, 0.011575967, -0.01500896, 0.02845559, -0.07053647, -0.06010311, -0.0067330995, 0.07029858, 0.005154489, -0.03420883, -0.002627792, -0.0002684889, 0.027556643, -0.06945472, -0.042903565, -0.05892673, 0.0106477905, -0.030124439, -0.06103226, 0.0065646507, -0.061757665, 0.03531269, -0.028557207, 0.022324301, -0.07701629, -0.0710158, -0.06264131, 0.05827498, 0.009134121, -0.06930885, -0.023792133, 0.04940944, 0.027561365, 0.031190792, 0.053499, -0.07336431, 0.017307878, 0.10374116, -0.041429564, 0.007476857, -0.0944419, -0.021192003, 0.030095698, -0.074411795, -0.024904374, 0.07134558, -0.074061565, 0.044017963, -0.0663908, 0.03426944, 0.07086559, 0.016844355, -0.04587917, -0.042999566, -0.022855975, -0.08637786, -0.06408808, 0.0001660345, -0.062104315, -0.061833467, -0.0063148662, 0.03207084, 0.0018296286, -0.0074966694, -0.054414608, 0.032912057, 0.004335299, -0.04757381, -0.097018965, -0.035305675, 0.068789005, 0.02243284, -0.025794009, 0.031902026, 0.0062512727, -0.049073733, 0.046706565, 0.02824026, -0.05622624, -0.01228204, -0.06616491, 0.054940578, 0.056368053, -0.032679122, 0.047152404, -0.042049203, 0.0668156, -0.03473015, 0.04687482, -0.07136473, 0.061967432, -0.07819451, 0.07131216, -0.042301476, 0.004216469, 0.06991725, 0.028153218, -0.03308553, 0.011968049, 0.0654171, -0.078228295, 0.07193723, -0.079719484, -0.012074382, 0.004851176, -0.09857612, 0.059780914, 0.036814462, -0.055035613, 0.007945202, 0.012693265, 0.023140602, 0.01977682, -0.055643536, 0.08494418, -0.08817248, -0.055748582, -0.06125071, 0.055226002, -0.06614601, 0.060626034, -0.029780293, -0.05357428, -0.09291324, 0.048695512, -0.002580091, 0.03607552, -0.013562798, -0.0035735853, -0.010658965, -0.06475198, -0.012999126, -0.05927744, -0.027533617, 0.0063384348, -0.06302496, 0.041908443, -0.06397572, -0.042419575, -0.042805217, -0.0844685, 0.050128795, -0.016077986, -0.09568737, -0.020015463, -0.05917627, -0.041458577, -0.014262414, -0.08665905, 0.00264927, 0.052370742, -0.023728002, -0.0141412625, -0.05460504, 0.032056592, -0.060996987, -0.040215846, 0.054546397, -0.07875501, 0.063107654, 0.052615296, -0.011447295, -0.083381094, -0.044378866, -0.11079709, 0.04194291, 0.032640215, -0.0015614993, 0.030087687, -0.115414344, 0.055440307, -0.09778127, 0.020589568, -0.029780684, -0.049323168, 0.053972773, -0.015426424, -0.04194347, 0.0459372, -0.014040833, 0.040728174, 0.02417069, -0.011591464, -0.00386638, -0.04799844, -0.04178849, -0.0403881, -0.052523267, 0.008346543, -0.08172313, 0.0335136, -0.027966589, 0.05483571, -0.034901503, -0.048866473, -0.04892017, -0.039728265, 0.017530806, -0.053249437, -0.035189975, -0.013314712, -0.010618855, 0.023129424, -0.01829354, -0.07908013, -0.0006557266, 0.05084165, -0.03508139, -0.063018404, 0.014371694, 0.06497805, -0.03403516, 0.05282842, -0.0073801577, -0.0077884416, 0.056973606, -0.026221095, 0.052817944, 0.06534463, -0.05631476, 0.07340264, -0.062294845, 0.059150737, -0.00784304, -0.03479574, 0.014735549, -0.027045174, -0.039170254, 0.052751362, -0.054798417, 0.038397502, 0.0039794645, -0.078497216, 0.017043833, 0.048285298, -0.01816338, -0.046424966, -0.03591635, -0.006732525, 0.0040819077, 0.03604679, -0.010539499, -0.09376397, -0.060451273, 0.018686632, 0.0013791323, -0.02775982, -0.061454106, 0.07873549, 0.058680773, 0.0120450035, -0.03741758, 0.020512804, -0.06496502, 0.015474148, -0.033566035, -0.013670915, -0.07528718, 0.005572431, 0.019732552, 0.0056010825, 0.03331104, 0.0453567, -0.025531009, 0.023209063, -0.081428915, -0.015908128, -0.0038961768, -0.016907524, 0.05114172, 0.052616645, -0.0591368, 0.011968498, -0.05790923, -0.021457449, 0.009616219, -0.0014521583, 0.035873376, -0.028854689, -0.010312155, -0.10216948, 0.058509752, -0.07168385, -0.015916526, -0.05456251, 0.06622078, -0.04094049, -0.031698097, -0.065950885, -0.05339291, -0.021987628, 0.047519043, -0.009659326, -0.00675218, 0.035939816, -0.029770056, -0.039979473, -0.086025745, 0.044781927, -0.08244129, -0.012328623, 0.00041747114, -0.027303657, 0.025353821, -0.08015639, -0.029972838, -0.064171135, -0.015546862, -0.021672131, -0.06579116, 0.06336427, 0.055082962, 0.013766694, 0.01598677, -0.05693449, -0.0021890332, 0.049123906, 0.04135421, 0.014818811, 0.018517908, -0.06658419, -0.0188341, -0.022559866, -0.05200297, -0.055321362, 0.039362244, 0.031654403, -0.034901068, -0.02222166, -0.037136976, 0.030581437, 0.07453631, 0.033192832, -0.04521503, -0.02067511, 0.011704106, -0.043755103, 0.015788082, -0.030081078, -0.022324573, -0.041253723, -0.060248468, -0.038815554, -0.007730648, -0.082176134, -0.030528443, 0.038156904, -0.05934005, 0.006217368, 0.053264212, 0.066684484, 0.049635924, -0.012002991, -0.0024407334, -0.0343059, 0.06053032, -0.010540981, -0.021588676, -0.08616671, -0.006512869, -0.060355823, -0.054532584, -0.053153332, 0.010242357, 0.027279094, -0.061081577, -0.06290951, -0.009792204, -0.0041394453, -0.072069034, -0.034511633, -0.010916279, 0.011622821, -0.07155499, 0.04013718, -0.03603811, -0.0056176675, -0.013083314, -0.030486073, -0.0010568589, -0.019535054, -0.10058162, -0.048220824, -0.11040121, -0.002394611, 0.07208288, 0.054333135, 0.025023477, 0.038345583, -0.049839623, -0.026460636, -0.055001102, -0.012004485, -0.04983178, 0.05011858, -0.009207612, 0.06976907, -0.042227827, 0.0145303, -0.07344386, -0.07180696, -0.01878463, -0.022853933, -0.015637552, -0.016958438, 0.06701723, -0.009681706, 0.017177321, -0.027156264, -0.065257296, 0.046897687, 0.020078346, -0.017904244, 0.024260044, -0.0658803, 0.07169466, 0.013471086, 0.008732613, 0.05775195, 0.0066946554, 0.044176955, -0.031223176, 0.061932273, -0.074650854, -0.053626336, -0.01774358, -0.03447073, -0.111124665, 0.01957564, 0.04397699, 0.001327603, -0.06945088, -0.07016385, -0.005990376, -0.023657233, -0.009221451, -0.10838173, 0.005905099, -0.004646691, -0.011431559, -0.01469456, -0.08417703, -0.0762268, 0.05404312, 0.00950563, -0.061862215, 0.0014441351, -0.029280815, -0.07679606, -0.03750536, 0.062349543, -0.055605505, 0.009975323, -0.039952394, -0.05595167, 0.034592275, -0.03202599, -0.056038674, 0.060187224, 0.023687582, -0.013220702, -0.08714652, -0.04984649, 0.007772591, -0.042696446, -0.0118931, -0.015279125, 0.020834124, -0.0038499823, -0.05379506, 0.021951687, 0.04721707, -0.02667265, -0.04440725, 0.016936332, -0.016872711, -0.023287885, 0.032115992, -0.06039351, -0.02423101, -0.0713375, 0.008871895, -0.017956492, -0.016090399, 0.03193304, -0.011593426, 0.008838618, -0.026227864, 0.051415037, -0.07362782, 0.028900102, -0.075574, -0.047203377, -0.055439543, -0.026900586, -0.018354578, -0.06836305, -0.049318604, 0.024221037, -0.03839894, -0.03118301, -0.05603551, 0.040256627, 0.0030279672, 0.02310652, -0.0053203134, 0.057834525, -0.0043266146, -0.012350522, -0.06991423, 0.0034559518, -0.017467491, 0.041368585, -0.01176534, -0.037684955, -0.05303612, -0.043912698, -0.0063779876, 0.0740697, 0.06939054, 0.040958352, -0.08212956, 0.04264855, -0.0628169, -0.06653014, -0.08526481, -0.031888798, -0.059063744, -0.04623987, 0.021015562, -0.043193784, -0.062643036, 0.25307712, -0.029400948, -0.039597813, -0.053717315, -0.11221447, 0.03378026, -0.031249506, 0.12317752, 0.055372715, -0.11438054, -0.014387435, 0.019792378, -0.05511481, -0.26247057, 0.02114108, 0.0074204095, 0.0056282626, -0.01821763, 0.07027545, 0.008809712, 0.10024766, 0.016415346, -0.05893775, -0.20011063, 0.030686155, 0.12411921, 0.011483311, -0.005321262, -0.015511209, -0.18939081, -0.017862933, -0.042477574, 0.108593784, 0.043005258, 0.092870355, 0.0875381, 0.025249496, -0.043311503, 0.0011354632, -0.062789455, -0.02107138, -0.030003559, -0.073086984, -0.12560038, 0.08585313, -0.16951293, 0.046141677, -0.022099817, -0.09465481, -0.03189528, 0.097361445, 0.005232662, 0.037808117, -0.039241888, -0.0036822495, 0.06501897, -0.13566202, -0.08697658, -0.04787666, 0.007828232, -0.0033201098, 0.05687387, -0.0089522945, 0.041926257, 0.17883104, -0.027540717, -0.010960458, -0.012293335, -0.18364006, -0.071507186, 0.015224483, 0.0730808, -0.034005634, -0.2407192, -0.06730224, -0.07295765, -0.026125971, -0.079619385, -0.034859717, -0.025844572, 0.0016734393, -0.019590976, -0.0051143332, -0.0929384, 0.012412039, 0.13236944, 0.037653197, -0.17856832, -0.091104, -0.06814907, -0.0329528, -0.036218107, 0.038503654, -0.13692522, -0.1428975, -0.010931741, 0.19480757, 0.013202232, 0.018359989, 0.024328174, 0.039042756, -0.05789406, -0.1370488, -0.107027665, 0.016084755, -0.013675671, -0.03927502, 0.038461566, 0.039119463, -0.104628295, -0.06677764, 0.06434573, -0.1044495, 0.01140777, -0.09401104, -0.015895193, -0.0039817374, -0.07633249, 0.020384563, 0.056559853, 0.14026257, -0.15679611, 0.01027194, 0.015811184, -0.011361485, -0.02304187, -0.054434136, 0.08737024, 0.11337056, 0.0361574, 0.060883887, -0.009702793, -0.11923754, 0.045269955, 0.027930744, -0.13821611, -0.012120072, -0.08565644, -0.0001839487, -0.0038170666, 0.013016052, -0.11049416, -0.114025794, -0.16776152, -0.051700275, -0.17821257, -0.07297324, -0.0490647, -0.028287329, 0.1349566, -0.0009755577, -0.124651596, -0.2918033, 0.018126763, 0.05219404, 0.057326727, -0.016341345, -0.021182593, -0.17956734, 0.045363337, 0.13908707, 0.00525937, -0.06479425, 0.016966816, -0.05355241, -0.05664879, -0.0905011, 0.0030954664, -0.00036478043, 0.0227451, 0.004376799, -0.018882884, -0.096847996, 0.030486973, 0.07202898, -0.109060295, 0.02170118, -0.018983569, 0.06657264, 0.016269818, 0.07057589, 0.03314193, 0.1704322, -0.063199006, -0.17917347, -0.10331618, -0.0070489324, 0.022701751, 0.023323914, -0.04695357, 0.024561392, 0.18226011, 0.14796153, 0.028520718, -0.09368901, 0.028141217, 0.029326065, 0.01737125, 0.010047807, -0.076871745, 0.04378598, -0.08904442, 0.1674538, -0.00877931, -0.078411594, 0.06443283, -0.11345591, -0.059294034, -0.04815698, -0.15135701, -0.012029618, 0.019425772, -0.0026846556, 0.15899388, 0.051974967, -0.0430513, -0.016493341, 0.09501006, 0.059414085, 0.05820494, 0.04973498, 0.11621202, -0.14579615, -0.07738669, 0.14534649, 0.0070721437, -0.12722707, -0.12908165, -0.0020405152, -0.017325692, -0.17538923, -0.05437575, -0.037393935, -0.10410999, -0.0631932, -0.19952519, -0.1626328, -0.04331178, 0.06648491, 0.11040998, -0.07004084, -0.041305955, 0.06195015, 0.06570266, 0.04521376, -0.031225896, 0.018661834, 0.06292863, 0.15324101, 0.040810492, 0.03708327, -0.05056667, -0.1633424, 0.037067644, 0.004809985, 0.0003446035, 0.063416995, -0.070021026, 0.0004085283, -0.010098741, -0.12191367, 0.030085074, 0.05554025, 0.12837091, -0.069481276, -0.17714214, -0.0015658602, -0.0108263865, -0.03419917, -0.11772825, 0.0036778504, -0.070129015, 0.023859235, -0.051603306, 0.16104709, 0.0055588386, -0.08894917, -0.04763665, 0.026244765, -0.067815974, 0.08140848, 0.10306989, -0.0697832, 0.022276506, -0.084223025, 0.03564114, 0.032414723, -0.020515267, -0.058613393, 0.017804874, -0.028360495, -0.07415341, -0.13475604, 0.016753718, -0.16369854, -0.09393211, -0.05250729, -0.07785625, 0.028712614, 0.12578262, -0.009137148, 0.08206638, 0.046532467, 0.008285568, 0.05381062, -0.055133343, -0.08844494, -0.019031547, 0.004759522, -0.033760004, 0.103946775, 0.06113158, 0.05165154, -0.012083875, -0.058235485, 0.06798725, -0.16158131, -0.039330713, 0.0071963985, -0.058205716, 0.118395194, 0.06793928, 0.04433395, 0.00845726, -0.03167069, -0.054144137, 0.06381692, 0.06767242, -0.021406408, -0.050141986, -0.026931852, 0.035535827, -0.07548473, -0.11154774, -0.22032213, -0.026622532, -0.12368287, -0.119425535, 0.12592469, -0.0718945, 0.010630054, -0.028713483, 0.056694664, 0.055799514, -0.099448465, -0.04703808, 0.05360864, -0.004893408, -0.08626646, 0.0040264693, -0.18511978, 0.03265758, 0.13621362, 0.027541565, -0.07673413, 0.034887925, -0.09065938, 0.014034124, -0.2247481, -0.058246613, 0.061153367, -0.13256164, 0.021773437, 0.071996875, 0.03593008, -0.0037218889, 0.025730059, -0.031646777, 0.05021437, 0.022284463, -0.08934528, -0.014213247, 0.048582345, -0.06443752, 0.097522095, 0.016046787, -0.061863698, -0.035628162, 0.03573505, -0.085717134, -0.25222668, -0.027195195, 0.061316855, 0.025991842, 0.0134184435, 0.07384354, -0.09157977, 0.009786224, -0.22933106, 0.047996104, -0.04584428, -0.009028779, -0.06760997, -0.033656087, -0.017467089, 0.013427369, -0.004185712, -0.040698834, -0.0555558, 0.029576126, 0.05887363, -0.13749437, -0.01650082, -0.07326597, 0.061207592, -0.027201062, -0.056814425, -0.037161592, -0.10029748, -0.042745274, 0.08914438, 0.012762332, -0.19453748, 0.05959368, -0.00025112415, -0.09543454, 0.16780119, -0.022462713, -0.082737036, -0.006684448, -0.095192924, -0.0016600473, -0.061123595, -0.11393249, 0.00017489493, 0.00019453891, 0.0009059992, 0.021581827, -0.010288088, -0.14597069, 0.02231405, 0.056136575, 0.061965827, 0.06245102, -0.08205008, 0.05678113, 0.04861525, 0.02860267, 0.114781596, -0.017355092, -0.05781725, 0.10522247, -0.06421245, 0.010270551, -0.08382843, 0.051799618, 0.016999757, 0.0055608153, -0.03571103, -0.03865545, 0.0729935, 0.005322613, -0.030802252, 0.02176994, -0.017043024, -0.06650084, -0.06815229, -0.03525654, 0.041043475, -0.013403472, 0.0062123616, -0.00627406, -0.15887588, -0.09747463, -0.08563548, -0.14025927, -0.03837092, -0.1842872, -0.099101, 0.05932433, -0.041712146, -0.07022406, -0.15819815, -0.14124359, 0.16981585, 0.014740382, 0.023214739, 0.0918393, 0.100420795, -0.020159032, 0.009319305, -0.010669003, -0.25922698, -0.12340561, -0.011211727, -0.010526087, -0.038349196, -0.023884717, 0.021515772, -0.036014825, -0.052273948, -0.06566535, -0.06865862, -0.002770494, 0.020322777, -0.009396573, 0.04186534, 0.03942439, 0.06747826, -0.015486917, 0.0028733744, -0.015844852, 0.10327146, 0.041121855, 0.056688305, 0.037552066, -0.0649095, -0.11367735, 0.08530901, 0.06385975, -0.012043017, -0.10502931, -0.049687132, 0.017364942, 0.11061574, 0.009648344, -0.202211, 0.012062454, 0.04382886, -0.102884434, 0.05230354, -0.17802954, -0.0054338695, -0.061626747, -0.064190924, -0.021978665, 0.004011592, -0.068505704, 0.0008323094, -0.073853225, 0.04130663, -0.027684983, -0.10213766, 0.13299197, 0.07914328, 0.04596676, 0.053937618, -0.06495074, 0.037275642, 0.0318901, -0.0040002516, -0.031417776, 0.045899715, 0.073278904, -0.07627886, 0.0707208, -0.10038395, -0.12508136, -0.05027842, -0.03219805, -0.16328746, 0.0068152905, 0.032764375, -0.068603426, -0.060747847, 0.03564153, 0.07994696, -0.03195486, 0.020307027, 0.082900755, 0.01305255, 0.06513552, 0.016342403, -0.068207175, 0.0711616, 0.08709885, -0.008827706, 0.040836502, 0.076340914, -0.25144282, 0.063557036, -0.0806682, -0.035261404, 0.07423637, -0.008392368, -0.17409644, -0.05152058, 0.023118094, 0.02682801, -0.09652187, -0.0883586, -0.04216732, 0.06780778, -0.11522759, -0.07439296, -0.004463308, 0.070611455, 0.06198889, 0.024876107, 0.06963788, 0.060916193, -0.123165525, 0.041326545, -0.11793749, 0.021228736, -0.074156605, 0.045368962, 0.049471445, -0.009756891, -0.014132692, -0.048576552, -0.13335466, 0.0645823, 0.039900962, -0.1326568, 0.07336995, -0.023720419, 0.027190488, 0.14739785, 0.03886276, 0.008542319, 0.054727703, 0.0562219, -0.16395894, -0.056884646, -0.12363987, 0.027993016, -0.008556195, 0.016054694, 0.084059045, -0.00097015785, 0.012134513, -0.06725211, 0.06260047, -0.023694377, -0.026462328, 0.020758413, 0.059665386, 0.011578318, -0.022056371, -0.0028262245, -0.029908773, -0.011804701, -0.17335989, 0.06561068, -0.002964164, -0.11142969, -0.041688424, 0.047008473, -0.07384003, -0.02546055, -0.0020659864, 0.059815202, -0.0076358765, -0.03683735, 0.01636782, -0.03621466, -0.025997534, -0.035185155, 0.03916942, 0.017694784, -0.06809918, -0.008125414, 0.02177918, 0.012822489, -0.048224494, 0.043099225, -0.18517204, 0.111864686, -0.23190579, 0.19188948, 0.037594244, 0.071912326, 0.03207018, 0.034095872, -0.053434163, -0.034034878, -0.020544482, -0.006098039, -0.0006900614, -0.02490231, 0.06113252, 0.16749984, -0.078403965, -0.011125167, -0.15558265, 0.034698796, -0.18797456, -0.06287765, -0.13208982, 0.06954141, -0.07650553, 0.00030438966, -0.016917488, 0.008020275, -0.030376537, 0.050694875, 0.09462618, -0.032401573, -0.061100796, 0.019834796, 0.010665566, -0.031515226, -0.01960512, -0.05490018, 0.049090043, 0.009772875, -0.14754488, 0.0012315678, 0.07757423, -0.014704806, -0.03486974, 0.0020634905, -0.045737848, -0.06136157, 0.073110074, 0.08187095, -0.09022591, -0.008921643, -0.024924431, 0.057380527, -0.1381189, -0.07381079, -0.072951555, -0.028942343, 0.012464042, -0.115510546, 0.1114639, -0.009187389, -0.14556722, -0.032779083, 0.006738447, 0.19231093, -0.07901687, 0.14592314, -0.06657387, -0.049999014, -0.022741942, -0.12019605, 0.02505614, -0.021048209, 0.0003047584, 0.0067458227, -0.079353586, 0.006361837, 0.08709677, 0.22618744, 0.031105036, -0.08762554, -0.106680416, -0.008029166, -0.06931693, 0.107992776, -0.04219632, 0.040957786, -0.03543759, 0.05724935, 0.0013058517, -0.018141434, -0.047596, -0.0040465444, 0.2097716, 0.07556622, 0.053509817, -0.0046572527, -0.022812152, 0.020103564, 0.029490355, -0.082255185, 0.017165055, -0.04737131, -0.06773028, 0.006263019, -0.12069539, 0.22857353, -0.043919742, -0.045919128, -0.11805101, -0.0293057, -0.07369116, 0.0394447, -0.1023842, -0.019972794, 0.055074163, 0.024752252, -0.023843467, -0.06597694, -0.18017517, 0.07010835, -0.0077830404, 0.02059732, -0.12734264, -0.09061386, -0.025246294, 0.013240089, -0.1426653, -0.060282145, -0.0444597, 0.10449402, 0.052366707, 0.0055618715, -0.01645023, -0.03302825, 0.04418493, -0.091649674, 0.026312735, -0.02547858, -0.0077861403, 0.062708795, -0.035825513, -0.10913251, 0.027745338, -0.07209309, 0.020806266, -0.04613759, 0.028239055, -0.0024314658, -0.01585113, 0.030891731, -0.018991679, -0.03822108, -0.037761506, -0.043625224, -0.095313415, 0.06471084, 0.019685928, 0.02283992, -0.0135636665, 0.064634964, 0.035454832, 0.064250134, -0.009219131, 0.057295952, -0.07089456, -0.011176418, -0.10479573, -0.025614081, -0.008503547, 0.087876946, -0.041710883, -0.040269714, -0.058772262, -0.056046195, -0.0043299347, 0.100609645, 0.06402247, -0.025288949, -0.06291804, -0.012516227, -0.0044930214, 0.042129777, 0.007831883, -0.004383626, -0.063106515, 0.0004032958, -0.06621108, 0.02643475, -0.13738446, -0.02789732, -0.052538846, 0.06696091, -0.013455836, 0.11920163, -0.08380869, -0.05753218, -0.20568803, 0.01591571, -0.22731869, 0.045756113, 0.016320141, 0.03575124, -0.11181782, -0.019631894, 0.13093284, 0.060965803, 0.015978614, -0.03276507, -0.008067529, 0.003628072, -0.17836525, -0.12466569, -0.051462736, 0.013160057, -0.11775846, -0.0162423, 0.0016810773, 0.08896692, 0.04775665, -0.0626846, 0.088081844, 0.019345209, 0.053530455, 0.040108435, -0.070604354, -0.024707226, 0.026995387, -0.04892007, -0.0064926045, 0.1211473, -0.15325512, -0.041184682, -0.09383567, -0.0783812, 0.046026133, 0.07026281, -0.17554684, -0.22376105, -0.01880595, 0.12765436, -0.0302108, 0.094283596, 0.018149666, -0.06566812, -0.18746471, -0.008745217, -0.09368413, 0.16905588, -0.06834213, 0.027259134, 0.04629428, 0.12929776, -0.15641814, 0.075332105, -0.014015174, 0.08213127, -0.09562037, 0.04778152, -0.034845456, 0.02657626, -0.039777078, 0.20890024, -0.14802298, -0.06494972, -0.057002075, 0.10624725, 0.03688095, -0.22773908, 0.06175029, 0.17426102, 0.04130331, -0.011304329, -0.10316726, -0.14330894, -0.067380324, 0.027294764, -0.0651051, 0.0026642308, -0.10699289, -0.00012733506, -0.04072632, -0.113518275, 0.21983266, 0.007639341, -0.09001301, -0.042539705, -0.0021484941, 0.034282673, -0.020505743, -0.043594755, 0.13626973, -0.07934265, -0.01985949, 0.016553653, -0.1960158, -0.008385664, -0.118548214, -0.04172641, 0.047594845, 0.016431268, -0.09417761, -0.15542698, 0.07378186, 0.07833791, -0.08773025, -0.09170734, 0.006953179, 0.05674906, -0.038767647, 0.03469778, 0.06976038, 0.048685323, 0.034714177, -0.05702652, 0.0013077306, 0.044142906, -0.15842852, 0.06470913, -0.06471817, 0.018127076, -0.20427774, 0.11181801, -0.044715613, 0.0052525857, 0.058607556, -0.020809235, -0.055144645, -0.07481694, 0.033149738, -0.00991259, -0.058080036, -0.02611318, -0.015314302, 0.099143356, -0.043492176, -0.13082522, -0.20770553, -0.025176901, 0.015413503, 0.056817237, 0.04487454, 0.026936602, 0.049410556, -0.066491544, -0.017050868, -0.1112169, 0.074342966, -0.07115894, 0.08139453, 0.14598767, 0.046878655, 0.070930675, 0.040564027, -0.060404755, -0.059547313, 0.16971147, 0.0880714, 0.1342839, 0.055181358, -0.023988733, -0.069423, 0.10421012, 0.07604616, -0.010178035, 0.098485634, -0.35500795, -0.025779117, 0.107644156, 0.080511786, -0.053201083, -0.036147002, 0.027586017, 0.09569208, 0.06580106, 0.34148896, -0.15170059, -0.037241377, -0.20367883, -0.10445305, 0.116599455, -0.22608988, 0.14263892, -0.032229204, -0.0422799, -0.05428295, 0.14559938, -0.057326842, 0.023204345, -0.17243423, -0.23905848, 0.17027594, -0.021591846, -0.07896481, 0.010119347, 0.31672236, 0.13165224, -0.025587782, -0.049224414, 0.016257294, -0.06349429, -0.11265753, -0.09561186, 0.07840959, 0.05380443, 0.17828013, 0.004039713, -0.026289467, 0.033989415, 0.13509712, 0.17360123, -0.04510792, -0.015199456, 0.35879555, 0.07473462, 0.034594003, 0.020444227, -0.06626689, 0.04303578, -0.038263623, 0.07929215, 0.0807454, -0.033732586, -0.11982823, -0.002329908, -0.055416092, 0.07399956, -0.035074417, 0.05213292, -0.09685468, -0.032918938, -0.044399537, 0.20824975, 0.1327453, -0.1010618, -0.010242468, 0.0025299452, 0.1398361, 0.048422854, 0.11425763, -0.16141818, 0.053734135, -0.21403868, -0.0045185564, 0.027573925, -0.01342413, 0.15507351, -0.05608744, -0.15653107, -0.008889707, 0.106646284, 0.15993518, -0.00069926, -0.08168882, -0.029084044, 0.12963837, -0.060973905, 0.04275092, -0.072957076, 0.29174465, 0.07979572, 0.02232172, 0.0066998843, 0.008647239, 0.29388967, 0.113627866, 0.033786915, 0.19422118, -0.022309026, 0.13129443, 0.049812973, 0.07464751, -0.007935128, 0.20593339, 0.17909136, 0.16270347, -0.034583192, -0.010698087, 0.12749603, -0.049613886, -0.08061501, 0.08108471, 0.06727804, -0.015257621, -0.01835632, 0.02192227, -0.04359831, 0.064637214, -0.052880656, 0.12188235, 0.078550756, 0.06483397, 0.04421523, 0.0025517826, -0.032884, -0.042013846, 0.27676722, 0.03698012, -0.17046168, -0.09008436, 0.06853231, -0.12928075, -0.036459707, 0.18594378, 0.122312784, 0.01879917, 0.020309543, -0.10229781, -0.13097315, -0.15122843, -0.08374892, -0.08524069, -0.101242326, 0.023857012, 0.2294722, -0.11303379, 0.060957123, -0.10351439, 0.03859544, -0.026432801, -0.070026785, 0.03860602, 0.085542105, 0.023360366, 0.05121143, 0.132459, 0.008170186, -0.0022343413, 0.088202186, 0.20301215, 0.049174502, -0.05399775, -0.060953975, 0.024936134, -0.056256954, -0.06415786, -0.039280765, 0.13921392, 0.1944692, 0.12651303, 0.00921641, 0.17694245, -0.00129021, -0.0053625153, -0.09414843, -0.030106649, 0.058231585, -0.06531549, 0.19553691, 0.009184449, -0.0460283, -0.104838125, -0.018447137, 0.096497044, -0.07347506, -0.019294713, -0.038461134, 0.17079027, -0.07189897, -0.05460334, 0.29612437, -0.12048798, 0.11989144, 0.12689148, -0.010298998, 0.05341624, -0.049079712, 0.12278587, 0.10450931, -0.027423393, -0.060747076, -0.15094052, 0.012881153, -0.14296027, 0.09618615, 0.066340744, -0.013156986, -0.018092234, 0.5319897, -0.053491652, 0.033201333, 0.24806066, -0.025088055, -0.136568, 0.012396928, 0.03800747, 0.13289769, 0.21287058, -0.044748805, 0.33325633, -0.101879306, -0.011046943, 0.046900637, 0.3327921, -0.07874949, 0.10946631, -0.21086326, 0.025029473, 0.06341305, 0.12558387, -0.02653168, 0.13195825, 0.029246233, 0.14663178, -0.010036076, 0.36939055, -0.031761818, 0.01929467, -0.05410742, 0.044082735, 0.048169933, -0.061812732, 0.05047123, 0.028376238, -0.14205238, 0.21129598, 0.031531367, -0.08326364, -0.15262797, 0.027049221, 0.05796468, -0.12701796, -0.053813715, 0.0030924976, 0.012950372, 0.06362129, -0.16083853, -0.016550105, -0.0048349695, 0.0329564, -0.10740155, 0.15785773, 0.058666095, -0.025297241, -0.18513441, -0.23380293, 0.1486141, 0.16041774, 0.09357427, -0.16166149, 0.077173896, -0.118407734, 0.09552202, -0.08165641, -0.05694547, -0.098974325, -0.20492834, 0.013479199, 0.026085721, -0.0084628165, 0.05996864, 0.056408346, -0.019153925, -0.18885177, -0.15250693, -0.065976426, 0.083086446, -0.059117366, -0.067607045, -0.021294521, -0.041981313, 0.09652687, -0.07926691, 0.023384457, 0.022852603, -0.11005388, 0.23560533, -0.10165855, -0.045914643, 0.2509955, 0.03139964, -0.0644724, -0.063778535, 0.059897665, 0.070000134, -0.07864019, 0.16541614, -0.07868235, -0.029712891, -0.014662333, -0.024992317, 0.048178732, -0.113798045, 0.0666686, 0.03052903, 0.040837992, -0.14798929, 0.052670956, -0.24584547, -0.040118903, -0.05155033, 0.064878665, 0.08174484, 0.052647058, 0.056752585, -0.2419162, 0.13301192, -0.021403218, -0.12971187, -0.11429403, 0.00864831, 0.14881007, 0.041784074, 0.07458435, 0.08414429, -0.0127650965, 0.0014091652, -0.018905628, 0.074720465, -0.11183681, 0.12427622, -0.15564634, -0.042537414, 0.027023664, -0.05346478, 0.18778835, 0.051937453, 0.062301528, -0.069467954, -0.074960545, 0.22085078, 0.15275727, -0.048394635, -0.007777881, 0.088617675, -0.022404311, -0.038442414, 0.07559306, -0.017247843, 0.04303965, 0.07202898, -0.1382198, -0.016917154, 0.25066292, -0.024708606, -0.016714387, -0.08124274, -0.01025416, 0.034859482, -0.07183538, 0.22001086, 0.06368148, -0.07870771, 0.07517007, -0.069863014, 0.077401765, -0.045771938, 0.09976032, 0.03230807, -0.072295435, -0.17836383, 0.0550164, -0.05970182, 0.05732029, -0.113490015, 0.05341986, 0.060284488, -0.017330555, 0.01638601, -0.18220598, 0.031311993, -0.021888584, 0.027395302, 0.017317493, -0.22312732, 0.043694843, 0.0381389, 0.0478824, 0.0005175853, 0.0819514, 0.15126173, 0.04751392, 0.041582312, -0.19032574, 0.1420151, -0.09103322, -0.15553997, -0.010928808, 0.026696905, 0.019206107, 0.07219034, 0.0795667, -0.06882953, 0.054018702, 0.17030592, 0.14141446, -0.10084622, 0.06188693, 0.12620375, -0.13153881, 0.03880399, 0.15236776, -0.030121341, -0.20734878, -0.021277009, 0.06862373, -0.05308127, 0.27304277, 0.03555553, -0.024521127, -0.14649653, -0.087880604, 0.011487499, -0.14597695, -0.10867647, -0.052152395, -0.112310156, 0.14356817, 0.042304922, 0.119758256, -0.022631874, -0.036725108, -0.057597514, -0.051015988, -0.089538686, -0.046276517, 0.07968664, -0.053605057, 0.17467406, 0.099550955, 0.068113476, 0.33272094, -0.0027510833, 0.039789956, -0.07685962, -0.028684082, -0.002545289, -0.11226506, -0.17382075, -0.107255645, 0.2024144, -0.029794062, 0.08596903, 0.025393762, 0.41001114, -0.0036821, 0.085180305, -0.12942336, 0.026458366, -0.23011833, -0.07098773, 0.011881013, 0.24358001, 0.026068276, -0.110078864, 0.019284293, 0.012642349, -0.0011257761, -0.20493285, 0.10207469, -0.16761857, -0.055358388, 0.13651434, 0.12191775, 0.0592247, 0.10346171, -0.013182684, -0.12748547, 0.12567402, 0.032607686, 0.016159987, 0.12214797, -0.0047584753, 0.014847033, -0.03163832, -0.03400218, -0.0049739326, -0.19172813, -0.006751297, -0.033261593, -0.07301896, 0.21934085, 0.055319425, -0.07826551, -0.020974034, 0.057942852, -0.02429132, -0.046442416, -0.20083563, -0.058793843, -0.18687633, 0.11319536, 0.08716903, 0.07544883, -0.02935777, -0.014909258, -0.103751205, 0.14313404, -0.13688551, -0.028643906, -0.16498443, -0.26012826, 0.085852295, 0.11225395, -0.031022692, 0.09930367, -0.067221664, -0.08236797, 0.1296602, 0.20822911, 0.041369565, -0.0022808653, 0.07438857, 0.12624913, 0.16487122, 0.020664077, 0.086622365, 0.18901348, -0.09898541, -0.23071663, -0.10594111, 0.093091674, 0.095214844, 0.26995704, -0.2675214, -0.0927657, 0.06025469, 0.25902098, 0.0022541666, 0.17058998, 0.023467563, -0.044448253, 0.22085153, -0.025543863, 0.06284408, 0.13311003, 0.06727195, 0.060980704, -0.06609141, 0.057479624, 0.04400423, -0.0086811315, 0.10516397, -0.02668837, -0.0634486, 0.041720614, 0.061885078, 0.11322349, 0.07447497, -0.06414046, 0.065694064, 0.07325961, 0.09128412, -0.035618953, 0.26037264, 0.01931192, -0.15704842, 0.047846843, -0.0071026185, 0.093936205, 0.016381027, -0.14165981, -0.049878605, -0.07156318, -0.0073680887, -0.13679464, 0.07595608, -0.03651347, -0.17018692, 0.17683563, 0.06445262, 0.035545442, 0.075280756, 0.046914894, -0.025614373, -0.12618922, -0.044230808, 0.08166943, -0.22935426, -0.04273782, -0.08312622, 0.049026467, -0.14989033, -0.056594465, 0.017558131, -0.0043531656, 0.20940982, 0.18600538, -0.14779925, -0.0034219571, 0.0066014654, 0.06388826, -0.10718183, 0.0051424233, -0.016008154, 0.17083186, 0.02291204, 0.033919103, 0.011406574, 0.27801, 0.08757062, 0.039287135, -0.11718172, 0.05622501, 0.12720954, 0.04484935, 0.29644263, 0.01072424, -0.016061727, -0.021661878, -0.032507073, 0.11910291, 0.12791792, 0.0048063137, -0.020872906, -0.115924865, -0.00096121914, -0.036484778, 0.056024548, -0.03184587, -0.17931609, 0.028874975, 0.027898263, 0.031134978, -0.09014997, -0.24359488, 0.07564711, 2.3521616e-05, -0.29704064, -0.046008628, 0.06691225, 0.026538275, 0.057158303, -0.13568303, -0.042451344, 0.082504846, -0.1464768, 0.055908244, 0.06272694, 0.10579827, 0.14234363, -0.19561139, -0.24243365, 0.10026593, 0.015346022, -0.023544708, 0.13148594, 0.011415885, -0.0932394, -0.08771893, -0.0058198883, 0.19347186, -0.09040907, 0.07867069, 0.14821683, 0.34047243, 0.1008806, 0.017070344, -0.05922579, 0.11992311, 0.050885934, -0.0362065, -0.077485524, 0.13678122, 0.086599976, -0.07096661, 0.07474045, -0.04917628, -0.004307503, 0.08509925, -0.06597688, -0.036647785, -0.2050382, 0.15144168, -0.052667808, 0.21162729, 0.12277928, -0.002532043, -0.0043729143, -0.16442415, -0.12058174, -0.030213565, 0.13686618, 0.041178953, 0.40425354, 0.041102283, -0.012384697, 0.074857265, 0.052285764, -0.09648445, 0.1014218, 0.0820727, 0.13875027, -0.033867046, -0.18516642, 0.10527596, -0.15871665, 0.09018504, 0.2187577, 0.0890222, 0.07634952, 0.11955391, 0.060062606, 0.020236716, 0.14975074, -0.22380248, -0.07619853, -0.0048840223, 0.16934817, -0.002378566, -0.043025095, -0.1813154, 0.12663063, -0.041375797, 0.046001658, 0.023809781, -0.029177766, -0.14155915, 0.09009526, -0.07491042, -0.020223266, 0.21799031, 0.0023767666, -0.027461797, 0.05034988, -0.011335291, 0.04599735, 0.016614646, -0.06236728, 0.06232593, 0.02148563, 0.017400982, 0.012614547, -0.08591757, -0.06581433, -0.016635513, -0.2429902, 0.3038553, 0.04377883, -0.074377716, 0.24402732, -0.04079507, -0.0049610594, 0.21768032, -0.02230434, 0.024380108, -0.041735522, 0.037397914, 0.056065362, -0.049769767, 0.033591695, -0.18009612, -0.038105905, 0.014167345, -0.1322865, 0.0053828806, 0.22831848, -0.284039, 0.25414503, 0.30197692, 0.10955102, 0.18071292, -0.025878247, -0.42899367, -0.16090223, 0.1450638, -0.080839165, 0.06788616, -0.10613747, 0.0859818, 0.10118241, 0.11648085, -0.07996182, 0.10518941, -0.20877956, -0.55649954, 0.14770612, -0.037926048, -0.06485507, 0.097586654, -0.133093, 0.07734333, 0.10213284, 0.087994926, 0.0027464712, 0.24024771, -0.06578511, 0.06865559, 0.45930135, -0.0068833064, 0.090512104, 0.19222724, -0.2504382, -0.037543233, -0.22138564, 0.05298148, -0.016186057, -0.10267607, 0.12560974, 0.0030246987, -0.1635982, 0.14689612, 0.007860444, 0.18149251, 0.1867713, 0.017838752, -0.06496922, 0.17043541, 0.08132902, 0.047491997, 0.069787875, 0.08548537, -0.14233121, -0.03576034, 0.06832554, 0.1436913, -0.010120314, 0.117704, 0.20317636, 0.03935031, -0.2032202, 0.03667795, -0.1546674, 0.20793082, -0.0291978, 0.11358444, -0.22993325, -0.084875874, -0.12863101, 0.21555139, -0.050715026, -0.057795256, -0.114080414, 0.11787824, -0.065327585, 0.095977776, -0.15174204, 0.05245448, -0.14112216, -0.19222566, 0.0009698979, 0.037061613, -0.00972213, 0.044558015, -0.16687462, -0.10220914, 0.13120778, 0.11443625, 0.017795634, 0.0020588834, -0.021810034, -0.04587098, 0.067765005, 0.078465134, 0.063771866, 0.20314357, -0.2918944, 0.06220294, 0.032704443, 0.05598218, 0.005070894, -0.12966524, 0.21063435, -0.027280407, -0.17244807, 0.09686743, -0.06562181, 0.29507092, 0.20804913, -0.061876584, -0.024770617, 0.002533104, -0.09921248, 0.042261533, 0.2502569, 0.00820848, -0.08615588, 0.024696559, -0.0037446676, -0.008232821, -0.0864192, 0.1114531, 0.33100876, -0.027911475, -0.30659646, 0.1938513, -0.20436963, -0.087881364, 0.07213343, -0.09652885, 0.03521245, -0.06802988, -0.16519703, 0.33613002, 0.020589668, 0.09908684, 0.08577579, 0.021834876, -0.14861633, -0.025977718, -0.02514392, -0.099581786, -0.0483917, -0.26128718, 0.090962015, 0.013591438, -0.074900225, 0.066061646, -0.08109551, 0.0798725, 0.107581705, 0.019784614, -0.0129680885, -0.22296685, 0.04987421, 0.11828303, -0.012575609, 0.10021563, -0.049593735, 0.0413412, -0.11464751, -0.02639921, 0.2339913, -0.066093065, -0.0538003, -0.1207986, 0.0873171, -0.038702432, -0.43073332, 0.08528733, -0.0117232455, 0.35456234, 0.26355407, -0.014822066, -0.07444919, -0.094511606, 0.006429915, 0.06462826, 0.16120592, 0.08643132, -0.09474528, -0.01928061, -0.010379534, 0.18729691, 0.071554735, -0.081551, 0.15087509, -0.00020626409, -0.25698978, 0.0011784446, -0.021602942, -0.057225086, 0.03937819, 0.05724581, 0.0744438, -0.012963859, 0.024049563, 0.44048128, 0.06084513, 0.02528547, 0.42082122, 0.13315491, -0.013131465, 0.013650789, 0.1334155, 0.048959333, -0.316207, -0.64233917, 0.34806892, -0.00083265523, -0.19481212, -0.15162492, -0.2500344, 0.1279996, -0.24951509, 0.2800674, 0.041721992, 0.21464892, 0.020257512, -0.2543856, -0.21909699, 0.15495385, -0.021721628, 0.23889129, -0.40719396, -0.0077778483, -0.08761205, 0.061376125, -0.0660538, -0.0113971345, 0.1571637, 0.034922473, 0.14161776, -0.007106944, 0.028435457, -0.104226805, 0.03501245, -0.041818626, -0.061621882, -0.0025727728, -0.065050945, 0.05149439, -0.19502223, -0.057793003, -0.038148917, 0.02787331, -0.020564994, -0.01342596, 0.03214642, 0.011186267, 0.040459678, -0.0154601075, -0.05823295, 0.041578762, -0.0499114, -0.03646318, -0.116624, -0.09016417, 0.06506184, 0.0027340422, -0.002542193, 0.054009434, -0.03989787, -0.19015585, 0.0841662, -0.03435442, -0.12243216, -0.04923686, -0.04531385, -0.12551919, -0.10943805, 0.19752203, 0.0510252, -0.005446077, -0.043906353, -0.025084712, -0.017596735, -0.0368264, -0.12649429, -0.11278378, -0.062046237, -0.03751709, -0.03691517, -0.034620967, -0.06795121, -0.15442966, 0.07238172, -0.06151156, 0.062043585, 0.048618883, -0.09419831, -0.0385991, -0.023915159, -0.13203457, 0.03130563, -0.0039698686, -0.008432688, -0.19151974, 0.053916767, -0.094871104, -0.06527146, 0.026752057, -0.04108951, -0.10358851, -0.047222022, -0.023682907, -0.027892848, -0.07063322, 0.105265714, -0.0023012338, -0.066937745, -0.11942525, -0.0020055247, 0.008682379, -0.021946844, 0.060369477, 0.06637503, -0.10164807, -0.08258164, -0.060326755, 0.031671632, -0.12900293, 0.1572123, 0.1353809, 0.042097345, -0.003008203, 0.0008821024, -0.098966226, 0.024766294, -0.040530413, -0.012068755, 0.03423775, -0.035094216, -0.1286058, -0.17843844, 0.04035149, -0.0048634317, 0.031370368, 0.06437002, -0.06833217, 0.10596679, -0.0541966, -0.20120569, -0.0022674317, 0.012427839, -0.05761009, 0.052620072, -0.05389687, -0.088066, -0.10795446, 0.02717498, 0.058594964, -0.11927764, -0.01844018, -0.02042239, -0.02189305, -0.01334773, 0.11319405, 0.042716626, -0.049059335, -0.032493815, -0.10131497, 0.012315806, -0.06357185, 0.005611666, -0.020066824, 0.0320472, -0.14821, -0.13643935, -0.0615958, -0.019490324, -0.041539878, -0.16204178, 0.038779814, -0.053789355, -0.14668478, 0.05470592, 0.0015380608, 0.059888106, 0.066079736, -0.08237704, -0.09342159, -0.036146037, -0.04973293, -0.11384729, -0.044186905, 0.06627241, -0.07456175, 0.06971265, -0.19470696, 0.01558902, -0.05344665, 0.049842115, -0.00021838807, 0.07601078, 0.07438662, 0.04607615, 0.0257234, -0.034366097, 0.12593317, 0.14352012, -0.05932754, 0.058862276, -0.16442479, 0.05715598, -0.032902673, -0.05040448, -0.09802227, -0.0054915063, 0.10228358, 0.067581914, 0.06825217, -0.11021637, -0.22033508, 0.0471775, 0.13869691, -0.028265312, 0.03563165, -0.18513589, -0.026217662, 0.02862824, -0.1005971, -0.033127915, 0.06587803, -0.0050165593, 0.022653854, 0.0016477307, -0.08635536, -0.095649056, -0.03561383, -0.026865145, -0.008090615, -0.06878538, -0.019345146, -0.08414881, 0.003240943, -0.08119294, -0.0372139, 0.024127737, 0.22369255, -0.028947435, -0.12074948, 0.05991183, -0.009022258, -0.14587536, 0.012421719, -0.052703794, 0.017895011, -0.15058592, -0.032019977, -0.020049535, -0.088374645, -0.07938817, -0.008538427, -0.006920207, -0.075920224, -0.07379849, -0.13749598, -0.026226023, -0.038525127, -0.037052374, -0.14002371, 0.066828325, 0.023063393, 0.0028082698, -0.012658554, 0.09859185, -0.068050034, 0.031444468, 0.028070536, -0.05927032, -0.086971425, 0.032212213, -0.028944789, 0.029895663, -0.0993127, 0.12942393, -0.19756639, 0.0051684156, 0.082622014, -0.11408986, 0.035190538, -0.087059565, 0.012020078, 0.0011856469, -0.047380343, 0.10777722, 0.03061562, 0.066732414, -0.01644398, 0.00823435, -0.058007192, -0.064308874, -0.0091862995, -0.043943625, -0.08257392, 0.086702265, 0.005601138, -0.08929434, 0.01772666, -0.0033270037, -0.041633185, -0.021603288, -0.101126656, -0.012814977, -0.084016606, -0.060274087, 0.024897397, 0.016755141, 0.017821528, -0.096330844, -0.085651495, -0.20055784, 0.009860786, 0.04229366, 0.13808186, 0.030540617, 0.08286705, 0.03622903, -0.10218724, 0.09328112, 0.011506751, -0.08053052, -0.0075649205, -0.003497923, -0.11369281, -0.13259964, 0.18856174, 0.00092963537, -0.030247891, -0.071600616, -0.03524162, 0.11383902, -0.03977977, -0.13534659, -0.026726222, 0.03175856, -0.0402036, 0.021194756, -0.026340958, -0.062344905, -0.214297, -0.07054127, -0.17988315, -0.120134555, -0.0043630227, -0.10288643, 0.047109727, 0.07545795, 0.005152983, -0.041778438, 0.01243748, 0.058013935, -0.19310744, 0.06668207, -0.123748906, -0.08404356, 0.04040216, -0.056559056, -0.027473938, -0.022061259, -0.049118824, 0.05771896, -0.07627519, 0.032703795, 0.022500357, 0.07369074, -0.021754893, -0.051518403, -0.07821535, 0.061460372, -0.015426364, 0.04902312, -0.07470599, -0.052462257, 0.09203624, -0.16418295, -0.13234821, -0.109793596, 0.01467842, 0.12928751, -0.0012142002, 0.0049792784, -0.09184516, 0.051453426, -0.003265825, -0.046496853, 0.024416696, 0.056844447, -0.0827737, -0.22215697, 0.020213796, 0.15566903, -0.056969002, -0.06872117, -0.015413537, 0.16239038, -0.029667772, -0.17970036, -0.036715396, -0.006666531, -0.042375088, -0.013224165, 0.037944037, -0.063380495, -0.12601122, -0.044460885, 0.011659972, -0.04213738, 0.028611757, -0.22308236, 0.035214644, 0.043425936, -0.020933785, 0.022144908, -0.06533884, -0.010496915, -0.13194376, 0.053996228, -0.061710976, 0.022317545, 0.026439844, -0.06691481, -0.06676521, -0.19074096, 0.030486725, 0.04094961, -0.0284352, -0.008196604, -0.0030862235, -0.04184981, 0.07509095, -0.031504605, -0.02823753, 0.027440106, 0.014982066, 0.012676821, -0.06059733, 0.013066719, 0.0059302286, -0.10987992, -0.044123415, 0.021042189, -0.041236997, 0.012097912, -0.111723125, -0.005934869, -0.028236736, 0.114413686, 0.0051256726, -0.033086315, 0.03903844, 0.08361578, -0.056133162, -0.2070231, 0.10405882, 0.15018749, 0.033024102, -0.075860724, -0.09335372, -0.054193273, -0.022817157, -0.19768909, 0.06670653, 0.0012876376, -0.05005266, 0.052660648, 0.0124026835, -0.16112255, -0.014441811, -0.07051769, -0.012121325, -0.09656995, -0.057603523, -0.060824998, 0.054766726, 0.05689876, -0.031940043, 0.04563152, 0.042196043, 0.16920875, -0.10633659, -0.066755876, -0.036885794, -0.042647593, 0.050456103, -0.0045137233, -0.09321631, -0.026607068, 0.053066418, -0.13193229, 0.06908895, -0.14845312, -0.008980931, -0.018987525, 0.16313048, -0.015106054, -0.10886053, 0.009864097, -0.046209063, 0.0023264084, -0.0103074, -0.0039733322, 0.008328476, 0.0395754, 0.014062599, -0.036130942, -0.12081878, 0.025412487, -0.12150372, -0.06329779, -0.11624325, 0.18961455, -0.039641175, 0.006672606, 0.052765034, -0.18673605, -0.09445152, 0.08089289, 0.08409073, 0.06118021, -0.028515745, 0.14481214, -0.01604762, 0.0060455063, 0.035253398, -0.22170027, -0.021630155, 0.02781255, 0.19265336, 0.022999361, -0.15976816, -0.13051471, -0.032266244, -0.04087329, -0.0857348, 0.024907732, -0.02464145, 0.056123417, 0.062039793, -0.058854837, -0.036746677, 0.0034666024, 0.074299544, 0.05086732, 0.115280926, 0.025048394, -0.10827783, -0.007947975, 0.05008383, 0.030546205, -0.012130461, 0.08153286, -0.021674074, -0.09830548, 0.03210576, -0.061650243, -0.05445646, 0.0041288515, -0.04034759, -0.0826673, -0.08773306, -0.03747573, -0.069770776, 0.1305319, 0.11200258, -0.2304267, 0.07450046, -0.017388372, 0.06678461, 0.11569698, 0.028758887, -0.09342405, -0.13777041, 0.06758569, -0.031553175, 0.07376679, -0.027511425, -0.10026817, 0.07300789, 0.035656158, 0.00793704, -0.07687122, -0.022601455, -0.011181872, -0.047089692, -0.035897303, -0.032088406, -0.027712313, -0.053136, -0.0031970618, -0.008027449, -0.0036659671, 0.036841616, 0.014996122, 0.09734837, 0.081008874, -0.07121184, 0.0028399355, 0.045925654, -0.028783143, 0.026952803, -0.11529758, 0.06609482, 0.0071355063, -0.11839537, -0.11710169, 0.019506902, 0.13322167, -0.027290307, 0.02069472, -0.14821456, -0.10279005, 0.0571752, -0.02195747, -0.12093608, 0.08966414, 0.0486129, 0.0018028239, 0.05658242, 0.123602316, 0.036994968, 0.065329805, -0.066235736, 0.03307591, 0.09543064, 0.086276114, 0.005265124, 0.17202482, -0.0015220868, -0.05910387, 0.11478323, 0.112282544, -0.1906219, 0.07915825, -0.14169371, 0.07707669, -0.0066897543, 0.04518616, -0.09350056, 0.104014136, -0.12228035, -0.109954305, -0.04709219, -0.1762758, -0.07344267, -0.06667209, -0.0046879053, 0.035187215, -0.04590208, -0.08750228, -0.08390478, -0.023486221, -0.13483953, -0.08699882, -0.049078465, 0.06690426, 0.061857462, -0.04884225, 0.10999008, 0.05374622, -0.05606194, 0.02098155, 0.0427896, -0.025167627, 0.07086179, 0.0378615, 0.076877214, 0.057242073, -0.016758928, -0.050876938, -0.021023093, 0.077880956, -0.09223108, 0.008426561, -0.14524606, -0.0686409, 0.0046131364, -0.06693933, -0.040018626, 0.05137051, -0.0049510794, 0.04216955, 0.060597286, 0.13261855, 0.036773436, -0.012947356, -0.12167256, -0.05036616, -0.07986344, -0.05659853, -0.019805446, 0.008167826, -0.020931574, 0.017350726, 0.089827135, -0.08771204, -0.08107353, 0.031101722, -0.07997197, 0.028059773, -0.17367986, 0.058635868, -0.07204776, 0.052434154, 0.0037333851, -0.06477632, 0.04024106, 0.0029125228, -0.06372065, -0.15791626, 0.035775054, -0.025519865, -0.03352759, 0.015725987, 0.036724698, -0.112487346, -0.07675902, -0.20052956, 0.00078079687, -0.014131951, 0.066438444, -0.036098186, -0.016831268, -0.12969401, -0.09132511, 0.07209562, -0.026076784, -0.0041371314, -0.065632895, -0.18886621, -0.06330459, 0.06008255, 0.016713915, -0.10494168, -0.044582903, 0.2039681, -0.10606379, 0.005162856, -0.15785788, 0.08991319, -0.06859969, -0.069186114, -0.02987721, -0.09205945, -0.038067106, 0.04586424, 0.016886957, -0.118415445, 0.021597994, -0.038060114, 0.105312906, 0.060893316, -0.19898069, -0.051251158, -0.033047386, 0.12194552, 0.061092865, 0.006655698, -0.057726517, 0.01784386, -0.14509013, 0.06222566, -0.031943563, 0.035008103, -0.20308314, 0.0025068817, -0.09357778, 0.15496843, 0.050716717, -0.035971854, 0.038932394, -0.07260662, -0.13809688, -0.00288842, 0.13844368, 0.029372873, 0.03990864, 0.029018974, 0.06381604, 0.0032513589, -0.044594806, -0.04346345, -0.06977356, 0.051744603, 0.040143467, -0.05397483, 0.0758151, 0.06999301, -0.055336088, -0.024819016, -0.112325795, 0.010718711, -0.019830536, 0.08950158, -0.010220199, -0.009598991, -0.043987405, -0.0066647567, 0.069796085, -0.042872187, 0.062221, 0.00071316335, -0.17018755, -0.007008017, 0.04552516, 0.034988616, -0.13559653, 0.05703874, -0.051222045, 0.066161126, 0.009045668, -0.012338556, -0.03661131, -0.042140238, -0.021639224, -0.016086318, -0.05348395, -0.01900281, -0.06768423, -0.11798642, 0.06400429, -0.15063754, 0.08459033, -0.15301229, -0.11330315, -0.059738323, -0.1040852, -0.115742706, 0.057921857, 0.05291936, 0.009898597, -0.076974966, -0.014781528, -0.13425913, 0.062592156, -0.16647549, -0.01252577, 0.061498694, -0.08691498, -0.0052295155, 0.0076690908, -0.046844274, -0.082871236, 0.064329945, 0.090388075, 0.031893216, -0.031133441, 0.031486474, 0.029747149, -0.066508554, -0.04778097, -0.006418414, 0.020342035, -0.027113914, -0.08307605, -0.14175212, 0.04188154, -0.046524905, 0.012795294, 0.06243303, -0.0935177, -0.021433583, -0.051778875, 0.019615054, 0.13750865, -0.019846035, -0.06499309, -0.01912894, -0.07532506, 0.020342814, -0.04847482, 0.07736985, -0.034990612, 0.1529093, 0.007213339, -0.008863034, 0.067059234, 0.025633702, -0.022458969, -0.07611361, -0.018053375, 0.021264477, -0.020932596, 0.17693794, 0.04697412, -0.072534844, 0.12256911, -0.028372047, -0.035695054, -0.057802502, -0.037406836, 0.10109087, -0.032110296, 0.038769986, -0.012172536, -0.013880817, -0.07733458, -0.1010078, -0.00993314, -0.14211039, 0.016179854, 0.10241766, 0.012756931, -0.0664482, 0.01001109, -0.060160067, -0.1576564, 0.023547465, 0.08063569, 0.0953689, -0.16374023, -0.03565261, -0.021511082, 0.069433965, -0.015046019, 0.10721884, -0.0037229655, -9.330362e-05, -0.0009709933, -0.115733355, -0.027050707, -0.028921159, 0.047759105, 0.022181047, -0.078869775, 0.05708415, 0.0759347, 0.06515641, 0.037415437, -0.0676896, -0.07469563, -0.045225456, -0.04766582, -0.07454223, -0.093114585, 0.09942245, -0.02433499, 0.20068416, -0.012878419, 0.03543517, 0.009012393, 0.05671833, -0.111785546, -0.020236768, -0.012403208, -0.007992354, -0.05528497, 0.14945075, -0.024890866, -0.06373019, 0.21573326, 0.15100685, 0.070284896, -0.085028425, -0.029261878, -0.028389834, -0.06667848, -0.01176956, -0.060798593, 0.010395717, 0.053290144, -0.0021318656, 0.03641411, -0.109974764, -0.093101725, -0.027428932, -0.004332268, 0.10703991, -0.03377988, -0.12693767, 0.032099247, 0.019332504, -0.045605753, -0.07207387, -0.044336893, -0.075524874, 0.039480828, -0.0019974557, 0.16618438, 0.12071801, -0.033648476, 0.06908356, -0.04133517, -0.011182759, 0.06598413, -0.2753089, -0.06182373, -0.042160437, -0.02522146, -0.099509135, -0.048420083, 0.15387163, -0.22274885, 0.021555431, 0.029211462, 0.11325947, 0.07644332, -0.02366465, -0.08076261, 0.02296248, 0.014522865, 0.23183247, -0.019890644, 0.08318508, -0.06052614, 0.021945959, 0.03620302, -0.0559191, -0.060096633, -0.05565917, 0.043705612, 0.11376058, -0.05064428, -0.10826598, 0.14643517, 0.04054066, -0.09534499, 0.026486829, 0.112610236, 0.09199604, -0.06483359, -0.0048696785, -0.018305922, 0.03243945, -0.051493753, 0.120225735, -0.02079178, -0.032117914, -0.061980847, -0.020624284, 0.20612565, 0.009890429, 0.0021451616, -0.010695993, 0.13158669, -0.07890016, -0.021139715, -0.06898521, 0.0037483796, -0.026330935, -0.040288206, 0.02393675, 0.08841055, 0.05881943, -0.050830163, -0.020446304, 0.048664376, -0.09467426, 0.044116873, 0.09207308, -0.043384258, -0.029355772, -0.078637466, -0.45748052, 0.027674878, -0.34916028, -0.089505896, -0.057816785, 0.009971479, -0.04921621, -0.074120484, 0.055871725, 0.12122033, -0.20462632, 0.030632704, 0.24786343, 0.041726388, 0.32380477, 0.07661547, -0.03979276, -0.11244424, 0.057960227, 0.06997955, 0.05695474, -0.022578366, 0.25356403, 0.15981264, 0.17576332, 0.03515154, -0.041648686, 0.17124715, 0.21281976, -0.11813091, -0.15377517, 0.33295348, 0.02149447, -0.1393962, -0.2677398, 0.18957777, 0.14507686, -0.07185388, -0.06403416, 0.121085204, -0.24157244, -0.271413, 0.032327417, -0.049223993, 0.16515869, 0.28124297, -0.15518203, -0.01142802, -0.10620077, 0.12487206, 0.036528204, -0.18622656, -0.10781152, 0.24694748, 0.11386142, 0.418753, -0.00031901486, -0.2704182, -0.15059541, 0.032557473, 0.030158693, 0.028157175, 0.04168357, -0.068060026, 0.23895095, -0.06810844, -0.19589694, 0.09960213, 0.042428482, 0.01780619, 0.14050429, -0.020865975, 0.06787981, 0.03397458, -0.19153556, 0.025232382, 0.29876173, 0.014478688, 0.29307103, -0.012342032, -0.053829502, 0.113880195, -0.024866007, 0.16651186, 0.006864486, 0.07372168, 0.13951823, -0.11528641, 0.058627475, -0.16685233, -0.22463317, 0.08650538, 0.055159748, -0.028854305, -0.11952693, 0.23512487, -0.03588128, -0.21547097, -0.11607597, -0.117110685, 0.044941578, -0.00035890733, -0.06683433, 0.11772867, -0.4222225, -0.12520066, 0.09717898, 0.033441532, 0.11045112, 0.19036451, -0.23565641, 0.050782174, -0.08012491, -0.05578197, -0.08517304, 0.05721228, 0.040520288, 0.30262813, -0.044780686, 0.15220658, 0.026267014, 0.092945725, 0.016315399, 0.099037044, -0.0127580175, 0.061403934, 0.043579955, -0.06281301, 0.094724, -0.0027768037, -0.3208465, -0.023019476, 0.060298435, 0.1064923, 0.019904617, 0.0017029737, 0.016542181, -0.0867972, -0.2474861, -0.04114282, 0.13482437, 0.119122036, 0.32724363, 0.011319326, 0.03905089, -0.010091993, 0.03303007, 0.18328859, -0.055110946, 0.04662864, 0.3762737, -0.03918759, 0.24240592, -0.1548462, -0.07760037, 0.032421406, 0.09952079, 0.025632324, -0.4362267, 0.31838584, 0.046213962, -0.18945989, -0.03814759, -0.017611058, -0.07550858, 0.08408342, -0.09136214, 0.124751374, -0.30429298, 0.04256636, 0.06798412, 0.059725348, 0.11218779, 0.26936674, -0.06515469, 0.09308954, 0.06403312, -0.033341218, -0.18828657, 0.10216556, -0.09536012, 0.032449156, 0.10243423, 0.16209853, -0.02138096, 0.17052843, 0.14654276, 0.021271653, 0.13858326, -0.0471883, 0.06120174, -0.1180108, 0.08167994, -0.0455206, -0.52209496, -0.14382574, -0.042691205, 0.1247348, -0.022764914, 0.06036697, -0.071187265, -0.028273728, -0.26749328, -0.0020892695, 0.21316774, 0.12172881, -0.038471058, 0.09129641, 0.0037605464, 0.011119438, 0.08643205, 0.14482978, -0.04442952, -0.0031707585, 0.36469945, 0.033909447, 0.33466557, -0.30920163, -0.057631407, -0.14396924, -0.09578307, -0.02964922, -0.24987257, 0.44032136, 0.053162217, -0.0115510635, 0.044691782, 0.17315413, -0.12371622, 0.0015105741, 0.21248934, 0.43241924, -0.43790278, 0.18326166, -0.019183828, -0.0029845708, 0.12915306, 0.20018452, 0.07493909, 0.04262888, 0.11473062, 0.13357024, -0.1278197, -0.15067193, 0.0036849517, 0.07146302, -0.11293914, 0.26961115, 0.08397288, 0.069229536, -0.09806325, -0.05553031, 0.017846923, 0.0108146975, -0.0030641693, -0.017191878, 0.08143631, -0.059947427, 0.0030704993, -0.17136452, -0.011149476, -0.25955132, 0.09772206, -0.05401215, 0.044771776, -0.11818284, -0.46222374, -0.045694955, 0.23105043, 0.07640706, 0.30657724, -0.04417507, -0.0486975, -0.16457076, 0.014736232, -0.0048910505, 0.046082515, -0.012673553, 0.20328815, 0.09227516, 0.035468347, -0.31391752, -0.1787149, 0.17860205, 0.061293002, 0.0072312155, 0.04400585, 0.15153188, 0.061723236, -0.06206813, -0.003772729, 0.19171377, 0.08469409, 0.061014608, 0.07886487, 0.0332909, -0.061448805, -0.13778909, -0.019386314, -0.013786739, -0.10870519, 0.22430281, -0.19428344, -0.113518946, -0.019280195, -0.024581328, -0.025827184, -0.11676038, 0.07485594, -0.09342983, -0.21424015, 0.38991776, 0.0073887263, 0.08001926, 0.18436264, 0.051434293, -0.2257379, 0.06503477, -0.060732074, 0.20932575, 0.22488993, 0.025070325, -0.150177, -0.30056992, -0.07676074, -0.16485032, 0.15242562, -0.034729853, -0.051319584, -0.14517869, -0.17904314, 0.018091403, -0.0470897, 0.087488234, 0.17574824, -0.04854074, 0.04939795, 0.001952771, 0.009035625, 0.10738394, -0.06758176, 0.026741996, 0.002204499, -0.18249688, 0.033277836, -0.20119675, -0.16466974, 0.23396936, 0.042064, 0.03878271, -0.1022293, 0.17090565, 0.03408006, -0.030834379, 0.21031438, 0.019992596, -0.025862144, 0.0073022153, 0.020205814, -0.05135053, -0.015855905, 0.12244046, 0.060293224, 0.02491184, 0.021062251, 0.04870217, -0.48003647, -0.06255967, 0.14477307, -0.2120329, -0.03754596, -0.06660533, -0.052770585, -0.084040485, -0.10857424, 0.19116464, 0.07277931, 0.030036503, 0.13686152, 0.04003571, -0.051452864, -0.04352175, 0.0033069549, 0.05214003, -0.07183017, 0.031086577, -0.18595882, -0.14974713, 0.027335692, -0.1779243, 0.12662652, -0.0041453806, -0.013898542, -0.030554565, -0.18957333, -0.05917116, -0.3878099, 0.009999847, 0.29782593, -0.067040496, 0.021131923, -0.3368835, 0.009092495, 0.06328146, 0.1758724, -0.009424006, 0.06604406, 0.058919776, 0.08449809, -0.09068009, -0.07323511, 0.13942753, 0.0508878, -0.17890611, -0.11508411, 0.17735684, 0.005618822, -0.021643242, 0.27928743, 0.08276716, 0.15258393, 0.022059146, -0.059803937, -0.15089244, -0.012143841, 0.034012154, 0.02512488, -0.04347754, 0.17644548, 0.17244922, -0.09954605, 0.05873324, 0.032610018, -0.15389569, -0.056314144, 0.18426274, -0.058754385, 0.1565946, 0.014615764, 0.0243438, -0.016179727, -0.09583538, -0.05755265, 0.02126678, -0.0030387817, 0.007373869, -0.033382155, -0.1049531, 0.060407303, -0.011846032, -0.29829395, -0.28920263, -0.06219549, -0.09539779, 0.046239838, -0.0017906612, -0.038893912, -0.019361226, -0.43978202, 0.06663598, -0.2547498, 0.07035348, 0.1740328, -0.02647738, 0.047392916, -0.07744414, 0.042372465, -0.15398633, -0.033802863, -0.043122247, 0.22440362, 0.0038159473, 0.20561321, -0.16034475, -0.2051995, -0.012046057, -0.0516332, -0.18002954, -0.42299816, 0.008552708, -0.060113423, 0.15302843, 0.08771479, 0.2730427, 0.07514614, 0.03803811, 0.10573441, 0.17139438, -0.26787427, 0.060923357, -0.08593645, -0.032209344, 0.29912487, 0.23502836, 0.12928541, 0.07025838, -0.054248434, -0.15084341, -0.14487241, 0.031163953, -0.03338461, 0.05470666, -0.16807532, -0.059991665, -0.025061658, -0.021315366, 0.060818136, 0.0052313954, -0.086560875, 0.02190686, -0.058710486, 0.1907692, 0.14300449, 0.014634447, 0.15608567, -0.29113683, -0.03470991, -0.12541942, -0.28491303, 0.047921363, -0.015415473, -0.08268727, -0.12841061, -0.056903422, -0.044915468, -0.015144736, 0.11592945, -0.03380777, -0.04320407, -0.18769094, 0.03989768, 0.102617785, 0.057632558, 0.05648009, -0.159219, 0.03585413, -0.17307255, -0.152827, -0.11265719, 0.046630643, 0.05923934, 0.039095234, 0.14564073, 0.116737254, 0.0696059, -0.032388203, 0.17297286, 0.023467572, 0.10197068, 0.052636683, 0.30812714, -0.16400193, -0.14398202, -0.10219692, 0.06725591, -0.024628524, -0.16350332, 0.22052762, -0.0735753, 0.0585441, -0.0812553, 0.012363677, -0.02740185, -0.18472081, -0.06920317, -0.11187097, -0.07834382, -0.20653711, 0.029510435, -0.15812878, 0.063765906, 0.061274678, -0.12796572, 0.02482576, 0.012798896, 0.20925821, 0.03820276, 0.027672142, 0.11766962, -0.07404593, 0.006431634, -0.061905522, -0.053033244, -0.06910672, -0.060348168, 0.25783503, -0.0417609, 0.03214726, -0.38910538, 0.06764508, 0.105220765, -0.03346083, 0.0030278875, 0.029529087, -0.030375037, -0.19987743, 0.120374724, -0.02814179, -0.24912299, -0.15379909, -0.008327609, -0.1735889, -0.16415311, 0.14495866, -0.04686903, 0.039485224, -0.020251116, 0.11747942, -0.03556392, 0.0025261154, -0.07224489, 0.048185576, -0.108058594, 0.10948647, 0.005327725, -0.07354459, 0.09351877, 0.109926865, 0.2328048, 0.04220146, 0.1603539, 0.2606217, -0.17028022, -0.00084748416, -0.012569484, 0.01494238, 0.044220988, -0.029520877, -0.026191615, -0.03116956, 0.040774398, -0.21666157, 0.10076555, 0.010298898, 0.04625354, -0.067603976, -0.004857136, 0.06616797, -0.08436286, 0.09129501, -0.13650332, 0.033710185, -0.13475673, -0.14048894, 0.06609997, -0.24611363, -0.25264186, 0.020179315, 0.0055319625, -0.08598619, -0.1354364, -0.0027318299, -0.13868989, 0.053272843, -0.09183121, -0.072043724, 0.058248073, -0.29202306, -0.06620705, -0.15256836, 0.033898335, 0.046845563, 0.08107502, -0.02411244, 0.055728707, -0.16603573, -0.21372965, 0.10364392, -0.027728563, -0.029249826, -0.072619595, 0.03158842, -0.008931898, 0.014632449, 0.03360029, 0.014451125, 0.18426058, -0.036867194, -0.042965177, 0.23467997, -0.03517592, 0.030614877, 0.27376673, 0.08556203, 0.25731793, 0.15005419, -0.16159582, 0.20708828, -0.06588134, 0.17016251, -0.004545116, 0.036014255, 0.042422667, 0.0919575, -0.112213776, -0.15661624, 0.0335589, 0.122636944, -0.01432254, -0.02063175, 0.07230048, 0.061484646, 0.016735664, 0.16332094, 0.03145565, 0.06610108, -0.018604137, -0.1687204, 0.007845858, -0.30598924, -0.037027724, 0.057649195, 0.0066037774, 0.13850683, -0.35565048, -0.064400256, -0.31161663, -0.018615572, -0.05306956, -0.0504695, 0.0896088, -0.2123638, -0.058823835, -0.07061759, 0.18048534, 0.0080312155, 0.17954767, -0.16238636, 0.2338451, -0.13714533, -0.03913204, -0.083441846, 0.027140243, -0.028980175, 0.13827787, -0.1709658, -0.06640479, -0.039026015, 0.1116433, 0.05253466, 0.12163464, 0.023204086, 0.15179995, 0.27210462, -0.1337395, -0.050219953, 0.2318037, 0.063966066, 0.23565765, 0.09245339, -0.052703958, -0.14606664, -0.18041667, 0.24802439, -0.101593435, 0.16553238, -0.025669543, 0.3678518, 0.035394106, -0.22059795, -0.007944338, 0.04243908, 0.040885404, 0.02580794, -0.16523267, 0.06315875, 0.011256525, 0.32275432, 0.074436925, -0.018878972, 0.20659906, -0.17819938, 0.036630444, 0.1124839, -0.25904143, -0.044772446, 0.021759503, 0.048211116, 0.011332005, -0.011783406, 0.026712207, 0.06703127, -0.014291027, 0.054807283, -0.0755986, -0.3447443, -0.02005203, -0.34011135, 0.112507984, 0.026064597, 0.027600981, -0.020504009, -0.15645525, -0.241931, 0.08149256, -0.16963087, 0.17152159, 0.35852006, 0.063066915, -0.03616091, -0.018731153, -0.12263071, 0.08602874, -0.12634122, -0.07890749, 0.041458, 0.25087333, -0.05825156, -0.09357631, 0.29362884, -0.0038006715, -0.061274625, -0.0145889865, 0.036648117, 0.038187888, -0.14029236, -0.122929394, 0.06331534, 0.0051306807, -0.01965127, 0.02970787, 0.033610333, -0.15349549, -0.2261078, 0.0880602, -0.26763612, 0.2890046, -0.031058319, -0.15689231, -0.07512481, -0.06493826, 0.07775899, -0.04150988, -0.004936, 0.29974326, -0.04094106, -0.01767126, -0.04314177, -0.2485241, 0.061289717, 0.044447742, 0.15755227, 0.056591053, 0.036074862, 0.072170004, 0.13517784, -0.16999307, 0.054861043, 0.0040578973, -0.33705595, 0.011658058, -0.30853006, 0.13751361, -0.0690015, 0.10795667, -0.012006282, 0.02987042, -0.25635478, 0.07659899, 0.17574266, -0.0040938295, 0.25122172, 0.13421154, 0.04571681, -0.013054679, -0.118996225, -0.10334717, -0.1304598, 0.013409334, 0.0028562325, 0.10277809, 0.175646, -0.008123285, 0.22565326, 0.3259405, -0.024340112, 0.20812415, 0.31004485, -0.00061700237, 0.094588175, -0.14988838, 0.101820424, -0.06962962, 0.17238094, 0.01363214, -0.10552432, -0.1078446, -0.24735789, 0.019287558, -0.045901347, 0.0031113809, 0.0034447461, -0.13615052, -0.017708333, -0.096910484, 0.10185937, 0.049237102, -0.04299417, -0.07814578, 0.038350638, -0.039841667, 0.10739222, -0.20980762, 0.050358005, -0.067467235, -0.040766727, 0.08968179, 0.058580413, 0.08426913, 0.08719551, -0.20594181, -0.04377715, -0.043516163, -0.18490876, 0.06916082, -0.30101922, 0.15151757, -0.030908816, 0.13189405, -0.033951692, -0.09877286, -0.24441388, 0.08436544, 0.011056016, -0.20827638, 0.102816604, 0.035807285, 0.1063319, -0.02470498, -0.12854464, 0.10164219, -0.00253753, -0.15472041, -0.0950588, 0.019627523, 0.035523385, 0.07401745, 0.16158044, 0.21011409, -0.07705627, 0.19306606, -0.0049356585, -0.1143016, 0.1447349, -0.11414217, -0.05157024, 0.07936146, 0.13280725, 0.061337493, 0.15594296, -0.03468194, -0.14137775, 0.037110567, 0.29065356, -0.120851636, -0.022415906, -0.10762803, 0.051249415, -0.014087006, 0.15002576, 0.030876758, -0.060606085, 0.1300402, -0.02646147, 0.057153985, -0.10984601, -0.10052623, 0.058875572, -0.042828314, 0.296674, -0.104636125, 0.02730412, -0.35372928, 0.104236454, -0.4036255, 0.09916708, 0.033373248, -0.17452982, -0.047919877, -0.29693836, 0.35609162, -0.024585892, 0.14837874, -0.009453988, -0.009514614, -0.14163141, -0.07337344, -0.047865037, 7.3099363e-07, -0.29720283, 0.1485227, -0.000103780956, -0.040089205, -0.07047751, 0.050894752, -0.22353733, -0.2788697, -0.007711136, -0.06597412, 0.05676279, 0.003296773, 0.0585504, 0.13784033, -0.02909077, 0.017695842, -0.18006223, 0.0061128614, -0.13647892, -0.2148567, 0.08829093, 0.009561909, -0.029895013, -0.024498595, 0.111014135, 0.29451278, 0.15295298, 0.03032738, 0.07747868, 0.17036998, 0.00043898076, 0.038542673, -0.027976412, 0.047688566, -0.006690798, -0.042465646, 0.032283884, -0.07665835, -0.02776327, 0.051150564, -0.042477813, -0.08466699, -0.0518831, -0.030439254, 0.020754442, 0.01275076, 0.023902893, 0.025832403, -0.039706573, 0.03167389, 0.043742172, 0.042480506, -0.04039666, -0.030556995, -0.038747907, 0.03850908, -0.003665261, -0.056792725, -0.03770755, -0.087351255, -0.061186515, 0.023153815, -0.047821846, -0.03362678, 0.0077394517, 0.006377408, 0.023720095, -0.031945083, -0.047941927, -0.059361465, -0.07953261, 0.018924858, 0.055022337, -0.04001415, -0.044882003, -0.060807046, -0.06539151, -0.02766796, -0.03006089, -0.022626773, -0.045952234, -0.058920253, -0.00513859, 0.016394591, 0.05156919, 0.062303737, 0.038109444, -0.021459185, 0.05609062, -0.085395366, -0.065214716, 0.030588105, 0.05245094, 0.011559647, -0.032653753, 0.012355726, 0.070146635, 0.0046647154, -0.037415892, -0.006727035, -0.041802246, 0.039336946, 0.020803126, -0.048926026, 0.03214416, 0.039055016, -0.025887284, 0.01217599, 0.04489631, -0.042747963, -0.034616977, -0.020304222, 0.015462801, -0.05415497, -0.048433878, 0.02355688, 0.050962944, -0.05417168, -0.010655827, -0.030306429, -0.0655115, 0.063264936, -0.035214655, -0.011669711, -0.02806435, -0.0410344, -0.032907963, -0.028408868, -0.00063786225, -0.016322564, -0.060512435, -0.069107935, 0.054123838, -0.048224732, 0.009462864, -0.0086449385, 0.01207823, -0.061989542, 0.062174715, 0.026393859, -0.006150782, 0.029023744, -0.05221014, -0.022332795, -0.0914933, 0.040517073, 0.037766334, -0.06440098, -0.041078035, 0.060539946, -0.076302774, -0.018777888, 0.053200573, -0.09412328, 0.051386505, 0.005442865, -0.051381785, -0.074512996, -0.07173884, -0.0014155725, -0.0053127543, -0.0013382686, -0.030386055, -0.0056969905, -0.024281554, 0.023728997, 0.04728272, -0.0073925103, 0.021223722, -0.029628333, 0.059523042, 0.06906976, 0.015417478, -0.054490585, 0.011139572, -0.0033035844, -0.06637973, 0.033849604, 0.0035630104, 0.0020431802, 0.043049634, 0.008608453, -0.0059267157, 0.06458229, -0.032622255, 0.036534145, 0.019095423, -0.080585204, -0.012888553, 0.05768916, -0.026848875, -0.05476827, -0.04774113, 0.020990087, -0.021296278, -0.03157205, -0.037475284, 0.023495685, -0.062418494, -0.0019399996, 0.029072698, -0.066081844, -0.0071929563, 0.06945137, -0.049790677, -0.00013976348, -0.061097156, -0.047549598, -0.034195296, 0.016371617, 0.03215659, 0.045395467, -0.034696545, 0.01386106, 0.004778949, 0.046538398, -0.0551645, -0.015164438, 0.03926716, -0.019083977, -0.032506995, 0.026937883, 0.018721886, -0.08271596, -0.05145517, 0.019164631, 0.04309968, -0.068093084, -0.067266956, 0.020132763, 0.046974882, -0.030334352, -0.059867635, -0.059071537, -0.054166146, 0.060041048, 0.07159056, -0.07717302, 0.04118158, 0.055704802, -0.015300602, 0.02212811, -0.021580376, -0.03869541, 0.0031359408, 0.029788196, -0.07284447, -0.056018833, -0.046471752, -0.02397242, -0.04981471, 0.037107192, 0.04102291, -0.03724937, 0.031178715, 0.02728226, 0.026797486, 0.022634495, 0.011734986, -0.07326747, 0.013433186, -0.083810754, -0.04813218, -0.016007464, -0.04648447, -0.006089407, 0.045265324, -0.04451968, -0.029874794, -0.05566726, -0.008359459, 0.04795157, 0.04188904, -0.016269809, 0.056793496, -0.050752155, -0.068620615, -0.03116655, -0.030211188, -0.042712335, -0.01928605, -0.062595546, 0.02579122, -0.034445398, 0.033557765, 0.0060906527, 0.062947646, 0.04348211, -0.036658794, -0.036743764, 0.022803875, -0.090082385, -0.053021897, -0.021229638, -0.07063165, -0.021992289, 0.00079096446, -0.09939477, -0.044581655, 0.020388091, 0.025364455, -0.08130859, -0.03422948, -0.05716281, 0.0715168, -0.034342557, -0.016972857, 0.0336209, -0.032962397, 0.0040435195, -0.008799818, -0.051460166, 0.00040293485, 0.061121907, -0.025778092, -0.07535211, -0.0049085733, -0.057487722, -0.00960793, -0.044385564, -0.018139813, 0.028284486, 0.03997428, 0.040123746, -0.0644068, -0.07876401, 0.042417552, -0.0031396425, -0.035853818, -0.078632884, 0.03607832, -0.05069263, -0.03083702, 0.0005502803, -0.026934983, 0.06912482, -0.028108204, 0.00042646, -0.022464665, -0.031625923, -0.07044762, -0.059201382, 0.04212973, 0.024916269, -0.05818745, 0.033460878, -0.0056289826, -0.009197965, 0.004556129, 0.0011823693, -0.031380553, -0.001293715, -0.05612748, -0.022376545, -0.007079156, -0.0502356, -0.0006662877, -0.020553881, -0.025518838, -0.061162494, -0.007881852, -0.032985456, 0.07305363, -0.016230635, 0.0536375, 0.022222314, 0.045933142, -0.013256341, 0.031492967, -0.06918671, 0.004905158, -0.042955447, 0.028552085, 0.0203951, -0.06483401, -0.033463642, 0.05449541, 0.033550687, -0.050799888, -0.0545186, 0.03426773, 0.015628932, 0.045122016, -0.037636817, -0.012217001, -0.0464833, -0.10007118, -0.052060142, -0.072309144, -0.06410827, -0.07495815, 0.03941109, 0.014014275, 0.03373937, 0.052676156, 0.047635607, -0.08372675, -0.02655692, -0.022155784, -0.0052066445, 0.03842474, -0.051634554, 0.0450595, 0.010406928, -0.10957856, 0.01794982, 0.05764678, 0.055217832, -0.012405293, -0.062119458, -0.035105105, -0.06575625, -0.11026498, -0.06722367, -0.009972021, -0.013514841, -0.03458642, -0.06780494, 0.001971914, 0.03961995, -0.0052004284, 0.0011722245, -0.022026157, -0.0463937, -0.014665713, 0.044881273, 0.042136364, -0.009963274, -0.037204634, -0.05599744, 0.041722238, -0.047151797, 0.053597808, -0.005436564, -0.07510723, 0.0005612895, -0.0057631754, -0.019234419, -0.063783094, 0.06194921, 0.070139736, 0.030776223, 0.055504847, 0.040278208, -0.089427434, 0.02950141, -0.06663934, 0.021321869, -0.029853228, 0.054500155, -0.061017815, 0.019358695, 0.011039136, -0.04886704, -0.016527258, -0.017342974, -0.07731152, 0.029943656, -0.037524093, -0.039692663, 0.0059822593, -0.0040638545, 0.046052627, -0.012657531, -0.06181044, -0.08283406, -0.038265087, -0.04895377, 0.014899695, 0.04106444, -0.045112077, 0.028765082, -0.00058684975, 0.020218914, 0.06424713, 0.02956681, -0.003424481, 0.009720977, 0.062548175, -0.08843003, -0.002924107, -0.045002405, 0.024678506, -0.07326839, -0.030387735, -0.046096392, 0.05484418, 0.046232365, -0.006630703, -0.044741437, -0.0691586, 0.008852778, 0.0066635814, -0.08637585, -0.03197469, -0.006594059, 0.015497133, -0.09454088, 0.046264544, -0.017301768, -0.07317566, 0.070256844, -0.054863416, -0.026217233, 0.057387114, 0.03380515, -0.043543316, -0.026723044, -0.011784084, -0.045206737, 0.03826396, -0.06471331, -0.074520715, -0.027165318, -0.009845056, -0.019955002, 0.045636516, -0.07332043, -0.02534006, -0.048908424, 0.0107289925, 0.016662553, -0.031194562, -0.07193678, -0.005287809, -0.017575223, 0.02173147, -0.039418597, -0.07584718, -0.05325412, 0.0051738857, -0.062054355, -0.01609731, 0.01240693, -0.0029732764, 0.035720848, -0.08658579, -0.050977968, -0.042485327, -0.06526595, 0.02544307, 0.04659625, 0.039945133, -0.076271094, -0.008514389, 0.062886834, 0.020862132, -0.0867234, 0.0314966, -0.03823109, -0.09698488, -0.042844027, 0.037272632, 0.0067724087, 0.035647668, -0.006078462, -0.0102358535, 0.024545472, 0.051799238, 0.068076275, 0.07085648, -0.026177844, -0.03459663, 0.027067594, 0.011268208, 0.01932443, -0.083356135, -0.062165573, 0.06736274, -0.039941534, -0.07986432, 0.030039014, 1.6673047e-06, -0.04536255, -0.0559707, 0.022913134, -0.016639559, 0.0074209715, -0.079758376, -0.008321807, -0.03215761, 0.05670598, -0.06518193, -0.019082267, -0.053064447, 0.00698048, -0.008706827, -0.023177337, -0.056213964, -0.024155404, 0.008096236, 0.06455301, 0.026971564, 0.030229935, -0.048097137, 0.030276893, -0.0019257492, 0.0328691, 0.018909661, -0.0089834705, -0.009826687, 0.02252713, -0.06260222, 0.06670728, -0.024327656, 0.009650895, 0.020366736, -0.0027707359, -0.02130308, -0.021772549, 0.043428406, -0.070280425, 0.026877334, -0.038432892, 0.033935416, -0.059676263, -0.07376995, 0.04769918, -0.027705587, 0.002887503, -0.027881114, 0.044718675, -0.03708668, 0.07723386, -0.054033138, 0.021941787, -0.04981701, -0.024028353, 0.07005085, 0.05725901, 0.03830231, 0.009634472, -0.0048101917, -0.013838794, 0.05413535, 0.015204182, 0.047475666, 0.045320824, -0.03757485, 0.06821595, 0.07128379, -0.076438926, -0.045378417, 0.06523974, 0.06488097, 0.0074565127, -0.017326953, -0.06939628, 0.05922729, -0.016782636, 0.04921813, 0.03849315, -0.023233423, 0.02594578, 0.06947158, 0.03224439, -0.06818405, -0.050465297, -0.040412515, -0.04878351, 0.031358864, 0.04080201, 0.027494604, 0.039082326, -0.033206318, -0.06099076, 0.044832002, -0.019650757, -0.02604714, -0.025059301, -0.06439152, -0.054777432, 0.00071728975, 0.011973018, 0.04681158, 0.046242747, 0.0030207234, -0.007726662, -0.08317344, 0.05994028, 0.07460711, -0.022292802, -0.024753314, -0.016369926, -0.01895687, -0.016763167, -0.029882211, 7.5124204e-05, -0.07080124, 0.012094635, 0.05405734, 0.038207717, -0.070077606, 0.043420598, -0.018908625, -0.005131595, -0.020831853, -0.03303911, -0.017549396, 0.04985818, 0.013775552, -0.016532768, -0.047706503, -0.049960714, -0.027522767, -0.009969349, 0.06678033, 0.010299802, -0.036635123, 0.0044578626, 0.02850884, -0.039237343, 0.032611977, -0.031176435, -0.03164201, 0.008693723, 0.04716774, 0.02062564, 0.012905723, 0.0661037, 0.0115480935, -0.03692523, 0.02912614, 0.048402667, 0.017811188, 0.008588769, -0.059848282, -0.017556105, -0.031750273, -0.07817175, 0.020956134, 0.023667432, 0.016736273, -0.069085106, -0.022171006, -0.0069373795, -0.02177301, -0.036981046, -0.0055411085, -0.024444817, -0.005528572, -0.050858878, 0.019845454, -0.03775028, 0.02700118, -0.008883582, -0.051571675, 0.05611768, -0.07982352, -0.007491791, -0.056493405, -0.031761907, 0.050116956, -0.102910735, -0.06521951, -0.018227417, -0.011443179, -0.040983897, -0.04605531, -0.00055196136, 0.05741763, 0.0050425846, -0.0012925842, -0.027271846, 0.041048825, -0.0019941102, -0.06297021, -0.05184695, -0.033137348, 0.03472436, -0.01622102, -0.049367037, -0.0827002, 0.04035172, 0.004632183, -0.038583543, -0.071833834, -0.07371218, -0.088697694, 0.025614273, -0.09164039, -0.015050428, 0.03986984, -0.059352282, -0.025747515, 0.05328057, -0.06033005, -0.08016092, -0.0655675, -0.021502297, -0.0736884, 0.06969245, 0.0598393, -0.11184609, 0.061185084, 0.017940186, -0.018142333, -0.016746841, -0.014154863, -0.054201502, -0.06571232, 0.0655683, -0.026779283, -0.025703602, -0.07361325, -0.050232757, -0.018930292, -0.046606086, 0.021055136, -0.032998025, -0.011748053, -0.05489686, -0.04923522, -0.023381757, 0.0069485754, 0.03195004, 0.0025820956, -0.07826423, 0.038453802, 0.011382066, -1.5875581e-05, -0.051017657, 0.0012059413, 0.012924843, 0.0009858981, 0.039274078, 0.035168577, -0.043772355, -0.07156705, 0.039472386, 0.014789706, 0.047514565, -0.054077804, 0.01524988, -0.07633509, 0.0351689, 0.018756894, -0.00016198342, -0.005488884, 0.01681436, -0.0011667358, -0.06662353, 0.054636028, -0.022999926, 0.014960954, -0.08686798, -0.026251942, 0.015456513, -0.07503962, 0.018126903, 0.058287535, -0.050723586, -0.061336104, -0.037547298, -0.058545858, -0.035635278, -0.05110382, -0.088444576, -0.057355788, 0.02224078, -0.0145888515, -0.027872344, 0.028583892, 0.0062438697, 0.061557695, -0.0140217785, -0.08374617, -0.022721594, 0.044562545, -0.08737143, 0.018684203, 0.037886526, -0.066814676, -0.058466252, -0.026664697, -0.011763403, 0.056229867, 0.046145212, -0.057769507, 0.048779808, 0.07140674, 0.02704666, 0.019671623, -0.04860293, -0.06556517, 0.044601142, -0.073215336, -0.060335137, 0.062058017, 0.010684539, -0.0048817317, -0.06555298, 0.0037667444, 0.030291151, 0.07308382, 0.06881778, -0.0095374435, 0.0567252, 0.034245178, 0.004364975, -0.06991996, -0.060834087, 0.0576122, 0.039773617, 0.015720904, 0.038527086, 0.05472729, 0.004529986, 0.0028268776, -0.01627143, -0.04352999, 0.0036050677, -0.07117618, -0.088126555, 0.009255628, 0.021942176, -0.06834153, 0.02142556, -0.029381713, 0.031160563, -0.024718273, 0.017582987, 0.005903727, 0.052249134, 0.05597491, 0.0011101097, -0.044207238, -0.012421162, -0.0143574625, 0.055594955, 0.033362072, 0.07050322, 0.059722606, -0.0634239, -0.024585826, -0.03213684, -0.001284807, -0.044283703, -0.04616271, -0.07021745, 0.020272752, -0.048200272, -0.051260665, -0.086983256, -0.04454902, -0.085328974, -0.025847709, 0.014512755, 0.03418723, 0.057382807, -0.081107154, -0.033808187, -0.051686652, -0.02119908, 0.023837615, -0.046666536, 0.059979893, 0.022747656, -0.043058105, -0.01900874, -0.010211936, -0.03079786, -0.056869097, 0.0125801265, -0.012996405, -0.047350083, 0.031872883, -0.0287142, 0.038461305, -0.018280447, -0.0649683, 0.010075625, 0.010804071, -0.033363845, 0.037517365, -0.0579092, 0.0391013, -0.088738196, -0.07176739, -0.030553391, -0.069610074, 0.048287638, -0.052933764, -0.01523288, 0.012324874, -0.06620142, -0.054781947, -0.051114347, -0.08810969, 0.025843881, 0.046301022, -0.060556468, 0.05547309, -0.06490828, -0.06030911, 0.037142787, 0.023529211, -0.088481545, -0.029723184, 0.06127762, -0.0011858081, -0.046875447, -0.057626687, 0.016925456, -0.01128881, -0.0018807104, 0.052645624, -0.09074335, 0.059972554, 0.023763968, -0.072421476, 0.004207559, -0.049883604, 0.03811466, -0.02410177, 0.009079464, 0.026653029, 0.08015708, 0.03240688, -0.060493115, -0.065624624, -0.049024466, 0.0456748, 0.009513429, 0.0036385946, -0.04162228, 0.034604337, -0.028605845, 0.024864338, -0.052772816, -0.028749889, 0.06560584, -0.017922942, -0.0018552388, -0.031204255, -0.055585492, -0.03609694, -0.03514792, -0.003702741, 0.04866402, 0.032315463, 0.01781023, -0.034035068, -0.044526137, -0.003287278, 0.073507406, -0.05187004, -0.009137852, -0.06225756, 0.03620698, -0.02290311, -0.03497937, 0.021258324, -0.024851305, 0.062257618, -0.18137573, -0.029643863, -0.056376014, 0.31949946, -0.23914114, -0.049468894, -0.29161343, 0.3606009, 0.014845796, 0.20107192, 0.022614403, 0.062861405, -0.038133446, 0.011448837, -0.10630573, 0.05174242, 0.09452906, -0.030306356, -0.21287434, 0.015665472, -0.01920546, -0.10750016, -0.01958815, -0.09944099, -0.0010886501, 0.07110331, -0.09481536, 0.042453356, 0.08976763, 0.05606251, 0.2805272, 0.38325864, 0.20319839, 0.052433703, -0.46736184, -0.38420534, 0.026946226, 0.1716519, -0.014808249, -0.04377843, 0.06533112, -0.07700233, 0.11024269, 0.09624918, 0.18659441, -0.29715133, 0.03630762, -0.05204625, 0.10699434, -0.076678395, -0.25993723, 0.1765967, -0.10822262, 0.04043898, 0.02832764, 0.16373414, 0.04378854, 0.15041548, -0.11540969, 0.07840694, -0.03188855, -0.049718834, -0.060914516, -0.003063994, -0.20826392, 0.021682734, -0.076694496, 0.10047971, -0.2563177, -0.044853486, -0.0906293, 0.24673621, 0.015185199, 0.14916354, 0.023141904, -0.040886946, -0.02775595, 0.082783714, -0.006907845, 0.031579807, -0.12542091, 0.033358295, 0.022864629, -0.06693702, 0.013191319, -0.062078223, 0.023550263, -0.027032228, 0.1704654, -0.0033748583, -0.12889922, -0.033809245, 0.11569885, 0.14835848, 0.34067267, 0.12819178, 0.058225684, 0.0003981109, -0.23766142, -0.07456363, 0.0600189, -0.14011855, 0.017629033, 0.2148169, -0.14507681, -0.07041714, 0.14567381, -0.037996475, 0.26107293, -0.0059804176, -0.03759598, 0.07612846, -0.09492708, -0.09588197, -0.15673028, 0.09431614, 0.22504766, 0.06707392, -0.020187682, 0.09170274, -0.0004642803, 0.07426242, -0.10402303, -0.22058704, -0.018695002, 0.21855362, -0.11976442, -0.028047511, 0.038669933, -0.02722838, -0.0116157755, 0.19847013, -0.090819195, -0.055988148, 0.11571552, 0.021344649, 0.05470145, 0.043385174, -0.18003733, -0.046708327, -0.04858177, 0.022980152, -0.027065096, -0.05835171, 0.08284555, -0.029640645, 0.07780092, -0.061942667, -0.032756753, -0.0012553249, -0.008265234, 0.11638154, 0.10000922, 0.016791314, -0.32579258, -0.2804286, 0.04168676, 0.12640455, 0.22459461, 0.16379495, -0.19094206, 0.097871974, -0.1300411, 0.011801383, 0.050364316, -0.12260266, 0.061579347, 0.18601696, -0.20983644, 0.032272942, 0.028719347, 0.053403612, 0.19772743, -0.039599035, -0.079992525, 0.09455397, 0.2271718, -0.043886602, -0.010601896, 0.089292884, 0.14728786, -0.0632874, 0.006588789, -0.008148147, -0.015726967, 0.051013645, -0.09794522, -0.11876221, 0.0018682317, -0.108392514, 0.04219248, 0.016391719, 0.13613178, 0.058371898, 0.0014212289, 0.1011388, -0.073182195, -0.02084016, 0.14028811, 0.15579969, -0.07335286, 0.049298923, -0.1876171, -0.009259733, 0.0013458617, -0.05132079, -0.15121138, -0.04315918, -0.18655208, -0.0068364334, 0.060331173, 0.029750422, 0.08010587, 0.1992089, 0.077735804, 0.18518263, 0.104654424, 0.031044355, -0.024047164, 0.19167191, 0.13424893, -0.02839345, 0.21624525, 0.15506445, 0.09116582, 0.23851351, -0.123572744, 0.044959698, 0.017512688, -0.10278896, 0.066715956, 0.1178665, -0.1207407, 0.05559243, 0.037843216, -0.08327711, 0.10553675, -0.074570104, -0.109360956, -0.1073084, 0.07935277, -0.021390235, -0.045050982, 0.2389562, -0.3410597, 0.24354628, -0.027605958, 0.0020599796, 0.07174534, 0.042444903, 0.012842775, 0.2261433, 0.01018471, 0.07795072, -0.13543093, 0.0800956, 0.03357817, -0.018345695, -0.042254593, 0.10981996, -0.27158022, -0.032712847, -0.36579332, 0.10287918, -0.0075915838, -0.04750238, 0.23345235, -0.08695004, 0.069813885, 0.2059853, 0.08416853, 0.04589297, 0.026769064, -0.03772093, 0.018106727, -0.0053253802, -0.0028059175, 0.11001688, 0.04057309, 0.034008052, 0.066591725, -0.00881349, -0.00028440022, -0.061147537, 0.01597141, -0.01602757, 0.09249181, 0.20815566, -0.2543429, 0.16323656, -0.20752259, -0.069928475, -0.00022509407, 0.19014838, 0.063162796, -0.07762781, 0.16348448, -0.00173803, 0.15383534, 0.17079541, 0.08840106, -0.16950153, -0.18814947, 0.012138887, 0.0437169, 0.12969866, 0.064961076, 0.019155327, -0.0035335897, 0.06118052, -0.04814459, 0.18255794, 0.0022731668, -0.1029575, 0.036774702, 0.17618278, -0.05492571, 0.056354214, -0.07440653, -0.046706606, -0.08689744, -0.07698465, 0.09030137, 0.111934714, 0.04833311, -0.014103936, -0.023488555, 0.14096318, -0.04600123, -0.021129848, 0.14484797, 0.058652543, 0.012838062, 0.02575578, -0.02276571, -0.06462173, -0.11407603, -0.011198245, 0.06158217, -0.013366033, -0.031814814, 0.15600339, -0.09044366, 0.07733574, -0.17830391, 0.02608457, -0.16041946, -0.03315531, 0.1748484, 0.17947768, 0.041679807, -0.028676074, -0.1249074, -0.09786898, -0.02437559, -0.093688086, 0.07214016, 0.06578265, -0.09983297, 0.15427595, 0.01335638, -0.07936366, -0.10803108, -0.10935416, 0.0659677, -0.114616014, -0.2574559, 0.033767328, -0.34199563, -0.11426252, -0.008731357, 0.028592272, -0.10464673, 0.14589404, -0.14015669, -0.18474826, 0.006355188, 0.041229863, -0.016675739, 0.11163334, 0.033006947, -0.14846335, -0.18597881, -0.059599277, -0.040843464, 0.06564868, 0.05531813, 0.02295527, 0.052590244, -0.08038742, -0.014469321, 0.24288195, -0.024515174, -0.03802637, -0.0074437796, -0.005233985, 0.013147397, -0.121819094, 0.020842476, 0.05527243, 0.022062693, -0.10938837, -0.011057932, 0.037298832, -0.0344161, 0.024471102, 0.02548247, -0.031808056, -0.016744921, -0.032504637, -0.14325766, -0.08747016, -0.06840139, 0.114747345, -0.00021047021, -0.005198013, -0.032325584, -0.20003307, -0.11870339, -0.052380048, 0.031536985, -0.052627355, 0.071682245, 0.19359869, -0.095904775, -0.015853012, -0.0059918454, -0.08264492, 0.052037776, -0.09427014, -0.28160015, 0.06359254, 0.019285543, -0.07874858, 0.16690233, 0.035297826, -0.099032775, 0.26173955, -0.105589405, -0.215366, 0.055994935, 0.04601705, 0.057199433, 0.14409187, 0.028041407, -0.11644034, -0.022136064, -0.06423494, 0.08696191, -0.0416992, 0.005901423, 0.11863245, -0.07283178, -0.02871167, 0.042199265, 0.10863192, 0.0047654114, 0.027303219, -0.14228064, 0.0035442263, -0.03010309, -0.015878756, 0.1323671, 0.026218846, -0.17365834, -0.036593087, 0.08190031, 0.04801591, 0.07646777, 0.16802512, 0.0004551465, 0.061367854, -0.06956215, 0.048822235, 0.19466744, 0.06563254, -0.07874538, -0.0813787, -0.19584265, 0.027704561, -0.14902587, 0.16414692, -0.047049873, 0.14926475, 0.055045962, 0.02772981, -0.0007754738, -0.0032527675, -0.16405967, -0.09404112, 0.01686414, -0.14416365, 0.2005667, -0.08075552, -0.10419744, -0.027011976, 0.15883236, 0.023870002, 0.25276694, 0.005428587, -0.015334107, 0.08336532, 0.060901254, 0.019334238, 0.0077760783, -0.04410476, -0.01982473, 0.11355483, 0.030982, 0.10778577, -0.09385506, 0.0035298541, 0.009545294, -0.032166943, -0.05183199, -0.022744551, -0.25622576, 0.0055577084, -0.110117376, -0.069235265, 0.028152192, 0.072703175, 0.13930085, -0.041018274, 0.052975766, 0.14852001, 0.06282656, -0.04975772, 0.020233568, 0.01906732, 0.06974657, 0.07894681, -0.025718974, -0.18419881, -0.1294041, -0.065736264, -0.09536012, 0.041413736, 0.055653878, 0.018677212, -0.04307542, -0.17475781, 0.041268464, 0.02865246, 0.030256217, -0.06988339, -0.20071962, -0.20169735, 0.0041694124, 0.06676245, 0.0648625, 0.08503028, 0.18549609, 0.12085457, -0.017214697, 0.20946746, 0.004515765, -0.06193832, -0.049538724, 0.0013245924, -0.25600898, 0.19016367, 0.0007018241, 0.13292374, 0.074051544, 0.0732302, -0.022439174, 0.04356596, -0.046686452, -0.14768033, -0.046525724, 0.036414433, 0.026037512, 0.034769572, -0.16739891, 0.053344235, 0.028651386, 0.024520421, 0.025899937, 0.19515473, 0.06489735, 0.0065292483, 0.01753923, 0.002790056, -0.06389719, 0.025692597, 0.020242328, -0.02719198, 0.005668789, -0.004767866, 0.05570506, 0.013295665, 0.058002993, -0.07313266, -0.0151660545, -0.10432195, 0.06606223, -0.09568183, -0.06904725, 0.111690745, 0.16350499, -0.03473275, -0.12482245, 0.08910148, 0.07274395, 0.029281074, -0.09780887, -0.02579129, -0.056439955, -0.09054158, 0.034913003, 0.06814943, -0.057349544, 0.17719534, 0.025424909, 0.09834925, 0.13173997, -0.08479926, -0.18319376, 0.21997464, 0.055431943, -0.071629226, -0.052117154, 0.02804258, -0.121788435, 0.15792239, 0.07615744, 0.24286267, -0.05998424, 0.16620316, -0.12823462, -0.042487733, 0.08259882, -0.16307613, 0.02821188, 0.018063862, -0.04663302, 0.26758012, 0.048670713, -0.061793137, -0.11409552, 0.085400626, -0.012930478, -0.056812197, -0.036433306, 0.037345067, 0.049025953, 0.019226562, 0.019376244, 0.062229715, 0.090535134, 0.04156609, 0.075514, 0.07925107, -0.006415453, -0.011905033, -0.026391396, -0.09518462, 0.046594862, -0.10501182, 0.112796076, -0.07955979, 0.056405842, -0.031787172, -0.03916465, -0.0072631706, 0.1662846, -0.06275316, -0.17290193, -0.062047724, 0.059191503, -0.09170236, 0.23698041, 0.01942942, -0.029670736, -0.11926961, 0.040581975, 0.027949275, -0.05550383, 0.08877274, -0.0064210263, 0.06427909, 0.08918136, 0.059289318, 0.00027801405, 0.026810698, 0.20843051, -0.054479837, -0.1584373, 0.20619142, 0.025594119, 0.019079471, -0.19158015, 0.12447293, -0.090396844, -0.27005437, 0.06682428, -0.24750283, 0.08825019, 0.08120987, -0.014924156, -0.11522501, 0.21245162, 0.026202574, 0.000680672, -0.051217422, -0.0011614528, 0.114016384, -0.30172607, 0.054874804, 0.0033362133, -0.0054434948, 0.011671415, 0.023907177, -0.09750469, 0.030152662, 0.004407978, -0.00047567172, 0.09839341, 0.06252753, 0.19315562, -0.052340705, -0.081680894, -0.09499202, -0.018669097, 0.13055483, -0.03945722, -0.101416096, -0.048272237, 0.018727474, -0.030790396, 0.19957563, -0.010400047, -0.22714217, 0.09130946, 0.059681963, 0.011227152, -0.113059886, -0.18549664, 0.040534128, -0.057167962, 0.11877081, -0.03410185, -0.007632907, -0.0037647071, -0.1044198, 0.0055363122, -0.17513376, -0.15228832, -0.13346414, 0.022717543, 0.004482144, -0.14309569, -0.012790993, 0.1797709, 0.07906121, -0.25692344, 0.10653286, 0.0487339, 0.14625838, 0.04831878, -0.101079255, 0.005980446, 0.127877, 0.007950276, -0.18857393, 0.1526516, 0.024625815, -0.07063162, -0.026411714, 0.010844521, 0.016505845, 0.06354626, -0.06826934, 0.056140292, 0.1330786, -0.015688647, 0.06812654, 0.11681834, -0.028183468, -0.0063746944, 0.17139919, 0.004111144, -0.07956957, 0.11202387, -0.06613021, -0.031798355, -0.003353255, 0.086979024, 0.19201759, -0.058645986, -0.078241564, -0.18956985, 0.026931636, 0.20279653, -0.12597486, -0.06977951, -0.11358584, 0.013286524, -0.029250626, 0.08010985, -0.3285293, -0.10606068, 0.051130738, -0.05342942, 0.14493863, 0.045483906, 0.08843895, 0.11439715, -0.052134447, 0.12287243, 0.18833455, -0.017851742, -0.27137792, -0.05328497, 0.003960936, -0.1903402, 0.20736928, -0.12832263, -0.03891087, 0.011726473, -0.069305696, -0.01142063, 0.115381174, -0.057006836, -0.14502984, 0.26704925, 0.03400965, -0.011706319, 0.035689183, 0.09521166, -0.01799439, 0.11914306, 0.030538874, -0.033430528, -0.117777035, 0.029095633, 0.0421221, 0.26771358, 0.103182025, 0.049809854, 0.045296215, 0.053361937, 0.018828996, -0.048438124, 0.16905212, -0.120507404, 0.014986876, 0.14226918, 0.0037956736, -0.018907953, 0.11684557, 0.04167461, 0.06939248, 0.0014882082, -0.02645963, -0.07522427, 0.027752116, -0.19093536, -0.14425096, -0.08025071, -0.18390834, 0.0130031705, -0.1390722, 0.06586426, -0.2958559, -0.08021802, 0.0113434475, -0.035688523, 0.13072167, 0.08639952, -0.081843734, 0.0065449895, -0.014125242, 0.068167105, 0.1166685, -0.0019269924, -0.124085754, 0.14663298, 0.0070269797, 0.030318514, 0.20564061, -0.044328794, -0.09434992, -0.03382509, -0.0130821, -0.03261732, -0.032587714, 0.023001209, 0.06253696, 0.2163351, 0.07603451, 0.004320503, 0.14536874, 0.006523712, -0.016724315, 0.017104473, 0.044047553, -0.032481845, -0.017412033, -0.08377445, -0.03486876, 0.19127093, 0.27376264, -0.026127238, -0.0024811914, -0.030855289, 0.030429704, -0.0102357585, 0.16512182, -0.22946106, -0.03833366, -0.046431363, 0.03464313, -0.025099678, -0.033705506, 0.026800137, 0.030639967, 0.10227272, -0.022981327, -0.39987838, 0.017269572, -0.07404039, -0.09767235, -0.047638148, -0.16491804, 0.03765121, -0.110124275, -0.073596165, -0.21762064, -0.0357729, -0.0988413, -0.035102226, 0.17129342, 0.00017347207, -0.027514508, 0.09817228, -0.061306622, 0.25095645, -0.015777135, 0.09204762, -0.10782847, 0.34945276, -0.044528462, -0.14107451, 0.054453205, -0.19224167, -0.16077614, -0.12368268, -0.13433449, -0.071555845, -0.25565958, -0.032239065, -0.030205445, 0.23286434, 0.008010999, -0.0016481675, -0.06422381, 0.28169432, -0.05056438, 0.20587271, -0.07068182, -0.023245152, 0.0034494014, -0.16883521, -0.030706167, 0.019402068, 0.11228948, -0.068945765, 0.18123975, -0.1308478, -0.10706515, 0.077067256, 0.05138804, 0.0974523, -0.015667692, 0.038896237, 0.06360591, 0.0035510547, -0.039877385, -0.013045561, 0.24019982, -0.024865545, -0.13866957, -0.16897666, 0.060643967, -0.2248359, -0.15096591, 0.1962329, -0.14759669, -0.06862203, -0.11579347, 0.19552684, -0.45266593, 0.07690853, 0.3034055, -0.023068113, 0.18372871, 0.09490947, 0.22710395, -0.12774538, 0.02059477, -0.3141625, 0.10127741, -0.16365112, -0.3935706, 0.22780354, -0.018866533, -0.20715293, -0.2029111, 0.011899991, -0.16695438, -0.078600645, -0.056312397, -0.074458234, 0.21538158, -0.0044533326, 0.031978894, 0.18360426, -0.19093452, 0.010115844, -0.021740891, 0.23170455, 0.09414156, 0.14231089, 0.064759605, -0.021650743, -0.059691086, 0.113873556, 0.028608833, 0.14673606, 0.092644475, 0.011606797, -0.12659821, -0.038202755, -0.0075476486, -0.04318575, -0.21777773, 0.16440392, -0.02302514, -0.17055261, -0.06913588, 0.017307239, -0.026927443, 0.09842246, 0.16081223, -0.010945932, 0.14825353, 0.024740169, -0.07187862, 0.035799533, 0.09540354, -0.03519882, 0.10116774, 0.07755999, -0.36707082, 0.22029907, -0.064160556, -0.030125085, -0.034865607, 0.056906108, -0.19329818, -0.025442313, -0.0826219, -0.091762945, -0.06394838, 0.07170189, -0.020558178, 0.12927578, -0.03947995, 0.0011370021, -0.08942706, -0.0012622864, 0.13296898, 0.14415617, -0.2477795, 0.4789737, -0.061814416, -0.033013932, 0.044766, 0.05010743, 0.19719355, 0.20814602, -0.13795187, 0.12533054, -0.10885668, 0.0633762, 0.051530838, 0.16513193, 0.04541492, 0.042807758, -0.2700276, 0.0031805409, 0.04070414, 0.02811219, 0.10693945, 0.06929082, 0.0566593, -0.07182935, 0.005231405, 0.066600256, -0.17454073, 0.019903867, 0.07127838, 0.08198132, -0.047783323, -0.046651788, 0.029720532, 0.05134163, -0.07251999, -0.025649756, 0.2199121, 0.1671886, -0.044076063, -0.05545948, 0.17294379, 0.052039806, -0.05771062, -0.021746028, -0.21570978, 0.28194556, -0.08434397, 0.0142878555, -0.11370632, -0.015612566, -0.124076374, -0.29477534, -0.16761039, 0.0485288, -0.015362669, 0.285922, 0.055914056, 0.07932451, -0.07583587, -0.049257327, -0.08819081, 0.16997309, -0.0053461366, -0.032190636, -0.2640181, 0.09193334, -0.01336747, 0.083917305, 0.18740757, -0.06856475, 0.21038537, 0.2380712, -0.04997088, 0.120880164, 0.010834829, -0.044793665, 0.07320216, 0.21269788, -0.04888565, 0.029987572, -0.40714136, -0.023098063, 0.013050706, -0.29065692, 0.041329872, -0.013028146, -0.16180319, -0.024038231, 0.039598428, -0.019925179, 0.10050667, 0.04762444, -0.03389184, 0.012853455, 0.07613492, 0.050128233, -0.09261031, 0.04310234, -0.22913387, 0.07083017, 0.034912713, 0.06356541, -0.014789488, 0.14994362, 0.08610412, -0.014812671, -0.087276235, 0.23333746, -0.3215389, 0.03492725, 0.05254945, 0.112601034, -0.02227777, -0.009254404, -0.12699708, -0.22603953, -0.22854835, 0.20545404, -0.0015481833, 0.22536597, -0.29844922, -0.097691774, 0.18375206, 0.037873406, 0.008071885, 0.3456173, 0.16062331, 0.02699833, -0.06561808, -0.029509207, 0.1322379, -0.068598874, -0.22703648, 0.059723854, 0.14202893, -0.04746114, -0.05235736, 0.0018011645, 0.008347046, -0.33136493, -0.06467862, 0.17489539, 0.012160898, -0.018871246, -0.37187448, 0.17497809, -0.033214163, -0.3460233, 0.076228224, 0.015418287, -0.20928657, 0.16377024, -0.0221825, -0.038688578, -0.12906305, -0.078022674, -0.035237953, 0.103895895, -0.07510093, -0.14669104, -0.04227118, 0.030955609, -0.17568542, -0.08074155, -0.05246658, -0.022678705, -0.066010475, 0.020531723, 0.15041037, -0.16240512, -0.22034396, 0.014122975, 0.0854613, 0.011970092, -0.05416205, 0.27120793, -0.19583601, -0.080041766, -0.01783654, -0.07196983, -0.34293985, -0.09513456, 0.048167177, 0.39096996, 0.027265878, 0.00063506817, -0.11451857, 0.048602015, 0.069571495, 0.4040481, 0.2354466, 0.07032325, -0.021118125, 0.009384191, 0.0077484013, 0.058065467, -0.08938274, -0.010251219, -0.11568981, -0.14356303, 0.1050721, 0.01310987, 0.09059084, -0.08696128, 0.05888258, 0.023579739, 0.009892984, 0.015890894, -0.27648118, 0.12250349, -0.035621997, -0.03744019, 0.13378096, 0.018007684, -0.12799881, 0.01923463, -0.018240968, -0.05065012, 0.11713549, -0.040731616, -0.03623359, -0.066018246, 0.101514705, -0.015444067, 0.04658161, -0.014326803, 0.14026375, 0.021127498, 0.010759727, 0.11722761, 0.07400432, -0.0061674514, 0.018141309, -0.015738245, 0.26506266, 0.22555728, 0.040378287, 0.037659355, -0.0005371076, 0.13021103, 0.0147060845, -0.0037199082, -0.022778481, -0.1497018, 0.019439071, 0.16648036, 0.008223462, 0.006695695, -0.10142676, 0.0015346806, -0.028456846, -0.018291475, 0.030001422, 0.0427933, -0.24844222, -0.0020844385, -0.052137617, 0.27497515, 0.055517703, -0.034344677, -0.11305523, -0.02506166, -0.032673217, 0.11627535, -0.15786076, 0.0794642, 0.01839264, -0.27320024, 0.00709597, 0.039010227, -0.051706612, -0.047892105, -0.3297503, -0.04124556, 0.02146546, -0.073810786, 0.16634172, -0.046582974, -0.23542756, -0.033566125, 0.09358694, -0.06025987, -0.029541072, 0.17147435, -0.00018192083, 0.04012476, 0.050634623, -0.08507438, 0.047332518, 0.0976044, -0.036130916, -0.08502837, -0.22093911, 0.14367454, 0.0042335987, -0.10664725, 0.03638619, 0.16262312, 0.15976664, 0.06700219, 0.11740243, 0.24286796, 0.13936603, 0.0072731995, 0.083004564, 0.03909309, -0.04770916, -0.033073254, -0.06849203, 0.010096835, 0.026068361, 0.09616735, 0.039268468, 0.11190341, -0.17389391, -0.12128951, -0.031115398, 0.042109363, -0.024901705, 0.008195427, 0.00056534435, -0.099408895, 0.059464898, 0.05374633, -0.0016496747, 0.016534524, 0.046135336, 0.038823374, -0.11239959, 0.05115014, 0.13631609, -0.20850602, 0.046906523, 0.028343454, -0.011965024, 0.01655058, -0.19010276, -0.045847226, -0.08144825, -0.2238819, 0.09207947, 0.06172337, -0.14881375, 0.101632014, 0.03898329, 0.03195333, -0.06699929, -0.065348595, -0.050592877, -0.015389122, 0.006422486, -0.09309116, -0.072133, -0.0064481227, -0.0672024, -0.008293592, -0.13123877, 0.07559736, 0.016549092, 0.22864865, 0.05423645, -0.15530708, 0.088578396, 0.12155991, -0.05443334, 0.04382689, 0.07945886, 0.23730066, 0.008056093, 0.06225911, -0.19645083, -0.13423802, -0.082235634, -0.08713735, 0.07181193, 0.22895291, -0.31281954, -0.05451207, -0.06709029, -0.061368372, 0.05143799, -0.008428432, -0.14396912, 0.012404194, 0.0070392694, 0.053911023, -0.0043455246, -0.012069948, 0.087541156, -0.06609222, -0.078699246, 0.01857827, 0.061189264, 0.007147395, 0.06496727, -0.285724, -0.03610018, 0.071155116, 0.06799562, 0.01352607, -0.40020442, 0.1337475, 0.045259524, -0.13374448, 0.121950515, 0.04369221, -0.023963893, 0.13945857, -0.006867725, 0.010786752, 0.032030437, 0.021592459, 0.06282112, 0.09531433, 0.009390336, 0.07971162, 0.0146399895, 0.029292468, 0.21235502, 0.09028759, -0.06483997, -0.14846112, 0.058958426, 0.2004945, -0.10275624, -0.1920195, 0.24680465, -0.09401715, 0.0169846, -0.10162877, -0.019503474, 0.2298229, -0.024835177, -0.028290877, -0.2444791, -0.01131708, 0.012085355, 0.004811272, 0.003255276, -0.04877793, 0.045049958, -0.0023419908, -0.12626708, 0.05752521, 0.053662878, 0.16354069, -0.21528883, -0.07262673, 0.07570995, 0.1031729, -0.17370985, -0.09758683, -0.14811707, 0.044986203, 0.033468585, 0.07988857, -0.054241884, 0.0645055, -0.106671154, -0.13744369, -0.020598553, 0.1708888, -0.06263914, -0.041689634, -0.1193261, 0.02165596, 0.023729285, 0.037727468, -0.006071501, -0.04542934, 0.070824385, -0.0108619565, 0.06525555, 0.01884106, 0.2726705, -0.07685488, 0.059083, -0.00910543, 0.022608439, 0.21538381, -0.056223303, -0.034759775, 0.19287957, -0.028611774, 0.022942599, 0.23662618, 0.017917536, 0.2001543, 0.04883822, 0.1397388, -0.013235936, 0.03689415, 0.057194218, -0.26025838, -0.017776288, 0.18293236, 0.03905274, -0.0069453185, -0.060832825, -0.17011349, -0.20160857, 0.07104922, -0.1256464, 0.04982827, -0.16152944, 0.15307555, -0.025786262, -0.038127102, 0.11382876, 0.47760412, -0.2881296, -0.08242907, -0.029679937, 0.06749503, -0.037566785, 0.0816815, 0.0053200745, -0.01960399, 0.012787864, -0.08653239, 0.068984516, 0.07396477, 0.016699988, -0.16884819, -0.0322735, 0.051950894, 0.0487593, -0.064702965, -0.050941482, -0.077318825, -0.039460722, -0.002408316, 0.19531687, -0.062725276, -0.07794138, 0.0735131, -0.016042888, 0.030686218, 0.164514, 0.115997665, 0.016423978, -0.092831224, 0.06840075, -0.073301286, 0.12725681, 0.058035612, 0.034714475, 0.0042865044, 0.00042022124, -0.034558263, -0.06915294, 0.041560747, 0.08054385, 0.17960687, 0.0034180377, 0.009632568, 0.067802, 0.06633072, 0.17307414, 0.06000772, -0.104660094, 0.05999998, -0.1153829, -0.013255418, 0.097556986, 0.13357261, 0.05048932, 0.15363318, -0.19522022, -0.12771413, -0.03343238, 0.15197018, -0.058683712, 0.1651345, -0.115161076, 0.0022044978, -0.18232174, 0.033442583, -0.1384163, 0.117388986, 0.07721364, 0.057276875, 0.0150262965, -0.103545934, -0.07581552, 0.07128439, -0.118401416, -0.077373296, -0.020488065, -0.04737208, 0.02980064, -0.018556846, -0.07298496, 0.106825426, 0.018518891, 0.18652673, -0.04712438, -0.038332753, -0.011899588, -0.10139758, -0.028529966, 0.01974224, 0.2901806, -0.02073312, 0.03328558, 0.05442944, 0.02091302, -0.20015085, -0.027155688, -0.005329183, 0.15917002, 0.09877902, 0.06390274, 0.19958025, -0.041331064, -0.06278635, 0.061129253, -0.2660516, 0.1575304, 0.037570387, -0.06411471, 0.086041614, -0.039635055, -0.05401573, 0.07242171, -0.02342324, -0.09510418, 0.032590542, -0.12989295, 0.008674537, 0.041050218, -0.01865707, -0.030640433, -0.17926733, -0.10540729, -0.12615763, 0.022237597, -0.0711127, -0.18780275, -0.081210196, -0.04324839, -0.09913165, -0.14225422, 0.029950157, 0.047985993, 0.015411133, -0.12986459, -0.019807674, 0.046237785, 0.043852985, -0.19033848, -0.14334548, -0.036976624, 0.12402134, -0.05842464, -0.014969281, -0.15266912, 0.14554678, -0.00034657822, -0.110040985, -0.09122159, -0.052046202, 0.04757073, 0.11670285, -0.014279114, -0.014921508, -0.054032963, -0.0016597308, 0.009912938, 0.044511296, 0.018798063, -0.13707046, -0.05233916, -0.042437065, 0.14852725, -0.029677693, 0.0614291, 0.00085064233, -0.035229955, 0.20972367, -0.11428278, -0.1763836, 0.2040543, -0.2324783, 0.013009708, -0.0019132976, 0.10362958, -0.0328893, -0.19156711, -0.0013631299, 0.015739, -0.094523385, -0.013137326, 0.14416072, 0.040782843, 0.038993903, -0.17722978, 0.12060227, -0.18135427, 0.012404658, 0.008128008, 0.30907518, -0.14802456, -0.060015798, -0.13148221, -0.15588489, -0.12987667, 0.006809984, 0.04019164, 0.05543005, -0.3730991, -0.018828692, 0.054870747, -0.03486134, -0.23593986, -0.27793834, -0.0027760342, 0.28160197, 0.040070046, -0.011102267, -0.10718094, 0.00055927655, 0.03512574, -0.1583639, -0.110574886, 0.07541447, 0.14105596, -0.09293082, 0.06934757, -0.022944245, 0.23215571, -0.12319287, -0.043625444, -0.06483829, -0.04085355, 0.13074684, 0.09627583, 0.09380647, -0.03393558, -0.08693376, 0.055479344, 0.23760049, -0.05116217, 0.12962057, 0.10965139, -0.08492989, -0.055458255, 0.117855676, 0.06234174, 0.0053876075, -0.10545527, 0.008023348, -0.021509957, -0.052348968, 0.14380047, 0.080006585, -0.24772573, 0.19165228, -0.005092043, -0.038733583, -0.34710324, 0.050149426, -0.17932819, -0.11509455, -0.03537671, 0.036644112, -0.2898366, 0.008635995, -0.04587019, 0.2802986, -0.29174784, 0.072308876, 0.13692187, -0.007831247, 0.23102199, -0.45450628, 0.2045852, 0.1123287, 0.058900576, -0.10718391, -0.0073031336, 0.07661053, 0.05765225, -0.120660864, -0.01112261, 0.06193649, -0.035635497, 0.045605812, -0.19280212, -0.0350669, 0.13706303, 0.057666644, 0.00024331875, 0.0006220574, -0.01334618, -0.0058078975, -0.016495917, -0.13684453, -0.04539789, -0.123291, 0.07081914, 0.06987533, 0.024590582, 0.05807489, -0.059695378, 0.16953829, 0.01509621, 0.35015956, 0.041643426, 0.037171945, -0.13877398, -0.1279714, 0.2767671, 0.050209142, -0.056826107, 0.11274507, -0.14693859, 0.0060321265, 0.0869711, -0.13022771, -0.09658426, 0.2331464, -0.015557104, -0.106930606, -0.49581775, -0.28143898, 0.042546213, -0.0044913655, 0.029078562, 0.0005284171, 0.022965187, 0.06239663, 0.008391537, 0.02858553, -0.24240327, -0.04538854, 0.28258562, 0.0049942224, -0.07470863, -0.38009825, 0.2378176, 0.0061667967, 0.13259268, -0.3702582, 0.048126362, -0.031375907, 0.057445303, -0.10559789, -0.12551928, 0.06981066, 0.09402072, -0.06502019, -0.19586252, -0.016809488, 0.186999, 0.06682735, 0.06041524, -0.057701085, 0.15197016, -0.14064461, 0.02743694, -0.077575065, -0.035605982, -0.021981427, 0.017681224, 0.04324712, 0.026929641, -0.021144813, 0.07676447, 0.29392633, 0.024908856, 0.025339061, 0.08608189, -0.15240072, 0.025959138, 0.15708587, 0.23192093, -0.08057352, 0.09127172, -0.08802874, -0.017461732, 0.030789796, -0.066875674, 0.08211423, -0.16162205, 0.16357726, 0.032409273, -0.22923157, -0.22700843, -0.17211452, 0.03317585, -0.11861738, 0.05865481, 0.25713667, 0.16410401, 0.10187545, -0.02291645, -0.029813422, -0.36199433, 0.01733798, -0.018579885, -0.059993308, -0.23766026, -0.32603478, 0.11562215, 0.045495342, 0.10304055, -0.48381537, -0.025328323, -0.018196564, -0.057232495, -0.072235286, -0.07336252, 0.06069351, 0.10153542, -0.21706913, 0.15155344, -0.0046206377, -0.02736257, 0.1620038, -0.065013915, -0.06793247, 0.28224084, -0.19423783, -0.03309293, -0.16310862, 0.051854428, -0.09237039, 0.008495746, 0.06074427, 0.018488139, 0.038288917, -0.015489909, 0.15531124, 0.05224213, 0.21458782, 0.2191715, -0.19048215, 0.012041309, -0.38963032, 0.20849977, -0.11449971, 0.4273568, -0.15878592, -0.04744257, -0.055246804, -0.23210065, -0.06552389, 0.05909516, 0.044478912, -0.024804654, -0.07620793, -0.013009097, -0.28635746, -0.39311886, -0.19909544, 0.0050877673, 0.34978777, -0.2636848, 0.1525048, -0.01304681, -0.049760494, -0.3376954, 0.08030631, 0.043064825, -0.049012784, -0.38616464, -0.10343215, 0.100135416, -0.044739537, -0.07639903, -0.3086426, 0.00988812, -0.019952595, 0.020577168, 0.08895116, 0.17447507, -0.070209995, 0.12897177, -0.32050318, 0.2083895, -0.05419945, 0.10415253, 0.12521926, 0.054010008, 0.05540412, -0.09898827, -0.17356245, 0.059729725, 0.16120324, -0.048357416, 0.042853203, 0.041026987, -0.026186451, -0.11914607, -0.0006587083, 0.062181335, 0.1352723, 0.03421233, 0.04910266, -0.08057719, 0.0063847196, 0.2082212, -0.08307655, 0.24693172, -0.023035033, -0.2812431, 0.03467173, 0.024793917, 0.01933072, 0.27825046, 0.07630406, -0.016615555, 0.17054597, 0.018534709, -0.07219575, -0.10235755, 0.014458171, -0.25729403, -0.060211502, -0.011983246, 0.07441543, 0.1403512, -0.18296054, 0.1619996, -0.35283214, 0.07989912, -0.014252686, -0.2534812, 0.055915095, -0.22458707, -0.37709084, 0.185137, 0.011350417, 0.12754504, 0.099882506, 0.053749457, -0.10070685, -0.014132314, 0.0059035574, 0.2574609, 0.06287871, 0.023494434, -0.003340273, -0.057742637, 0.029215492, 0.034884732, -0.043611523, 0.008460292, -0.038840894, -0.31347874, -0.27469078, -0.022341792, -0.04455935, 0.02941757, -0.08112308, -0.0014613739, -0.04746532, -0.026724719, -0.032208476, -0.04473963, 0.2220362, 0.003004238, 0.03520889, -0.021002866, -0.107311845, 0.13313921, -0.12358768, -0.03624708, -0.035200085, -0.085633375, -0.04904488, -0.10473314, -0.028186262, -0.08839433, 0.37244, 0.09887007, -0.1421261, 0.021755677, 0.1732785, 0.083337076, 0.009372318, -0.10017968, -0.11964685, -0.029098663, -0.12290916, 0.1738851, -0.19449076, 0.12475008, 0.0076089343, -0.06879592, -0.08065792, -0.18517964, -0.038532093, -0.1307407, -0.45489886, -0.04386081, 0.044780802, 0.4042548, -0.10595247, -0.057486024, -0.33693266, -0.0736112, 0.05575879, 0.1932424, 0.18378727, -0.036279704, -0.043322396, -0.071539454, -0.04664114, -0.18525101, 0.009914653, 0.032775972, 0.037232906, -0.039014105, -0.22353129, -0.015419245, 0.004031685, 0.012627637, 0.02091446, 0.084772035, -0.124280505, 0.11439662, 0.04611174, 0.17120422, -0.011222165, -0.015961997, -0.23964858, 0.029956684, -0.21526733, -0.008028945, -0.08408461, 0.22383335, -0.06446988, -0.23070572, -0.07258415, 0.00040926848, -0.02427908, -0.20391254, 0.07385243, 0.23214297, -0.21187998, 0.02831464, 0.108872674, 0.11510098, 0.09412181, -0.21050607, -0.05542633, -0.02760397, 0.015825603, -0.059363108, -0.0018070114, -0.090444565, 0.17107926, -0.060417462, -0.02189496, -0.13159934, -0.030527115, 0.0012062546, -0.030733997, 0.08234698, -0.042249516, 0.018652441, 0.07846037, -0.06443666, -0.05103983, -0.015486122, -0.008612208, 0.34849936, -0.06142695, -0.05715471, -0.0730026, 0.11320853, -0.053526886, 0.065932505, 0.146234, 0.025969664, -0.020112986, -0.089506134, -0.29318056, 0.06123872, -0.25819358, -0.04666465, 0.39215502, 0.053698044, -0.12468676, 0.29625812, -0.013456508, 0.033970904, -0.0018597245, 0.014045924, -0.059688028, 0.17933087, -0.24605688, 0.028330669, -0.31017688, 0.049573258, 0.06852456, -0.09689968, 0.058287784, 0.022900093, 0.050693773, -0.098888226, -0.18410955, 0.38732868, -0.050434086, 0.10442022, -0.17118177, -0.24401133, 0.18192199, -0.023090959, -4.750211e-06, -0.023298902, -0.10850428, -0.14644325, -0.047325592, 0.093589514, 0.19016957, -0.17493644, -0.021560363, -0.3504355, 0.0026448758, -0.053303342, -0.02445506, -0.12909858, -0.020925464, 0.03637165, -0.020371335, 0.049552247, 0.28829172, -0.08904445, 0.16049191, 0.22707795, -0.05466446, -0.09584034, 0.046273425, 0.19154625, -0.013969809, 0.18316206, 0.09252391, -0.00061090384, 0.0234664, -0.045621645, -0.14040978, 0.025844269, -0.046386085, -0.028946234, -0.091561794, 0.0034869805, -0.08047977, 0.07966059, -0.08389573, 0.07603962, 0.055284787, 0.012209751, 0.29448238, 0.010671886, -0.16408864, 0.009585152, -0.05534624, 0.02431453, -0.20265639, -0.2133044, -0.013476487, -0.00794806, -0.12041793, 0.31006587, 0.25700742, -0.029328233, 0.0010567163, 0.04937455, 0.044220794, 0.28500304, 0.048414186, 0.20983621, 0.16308387, -0.010858374, -0.43311375, 0.08278731, -0.21956712, -0.020031381, -0.06905389, 0.042205237, 0.058588367, -0.13105763, -0.012823026, -0.13886721, -0.35373417, -0.0071882186, 0.076997295, 0.2599078, 0.056967497, 0.035746254, -0.01161565, 0.02838014, 0.02482003, 0.036306474, 0.38620993, 0.03896092, 0.18255165, -0.014839533, 0.0064142644, -0.00988316, 0.039098054, 0.08573494, -0.04944977, -0.43226472, -0.121499605, 0.03569013, -0.19199994, 0.008483547, -0.08920135, 0.04190108, -0.008433184, 0.13323301, -0.0015844787, -0.020665122, -0.08682453, -0.06440463, 0.04754408, -0.061890014, -0.1995073, 0.0656514, -0.24226859, -0.19826241, 0.011422738, -0.19915293, -0.067538545, -0.06615044, 0.031892702, 0.27690357, 0.14251882, 0.094190665, 0.07349611, 0.049735826, 0.036732584, 0.17615193, -0.09377636, 0.034366652, 0.0020756132, -0.0033629667, -0.19792241, -0.34147924, -0.080606125, 0.01727744, -0.023117606, -0.0394404, -0.07489373, 0.051657155, -0.008526653, -0.10093016, -0.29129693, -0.1337515, 0.03274361, -0.10639816, 0.10705029, -0.01630734, -0.19997562, -0.0354865, 0.030576892, 0.123757906, 0.3952877, 0.014034004, 0.14663681, -0.03990092, -0.020065784, -0.13676405, -0.0853639, -0.062015843, 0.010341279, -0.04904841, 0.0073019275, -0.07360072, -0.03765456, -0.031989086, 0.16063957, 0.011398209, 0.003688011, 0.17206389, 0.06532113, 0.026937012, -0.17138557, 0.052861318, -0.17782624, -0.029376578, -0.2368348, -0.10413384, -0.21245211, 0.07474759, -0.06561255, -0.15274379, -0.2249672, -0.24787162, -0.04462616, 0.16169935, -0.038086426, 0.30444938, -0.04446082, -0.060748246, -0.121031694, 0.07139916, 0.017364502, 0.0012246986, -0.116618514, -0.020380603, 0.08872904, -0.22871129, 0.05376318, -0.014528432, -0.0707495, 0.24844708, -0.068068184, 0.19705747, 0.01242055, -0.140079, -0.087607175, -0.13243166, -0.012093864, -0.11057491, 0.08794462, 0.057500765, -0.08272735, 0.009345785, 0.10444205, 0.17126802, 0.21206698, -0.080408104, -0.09044, -0.043427967, -0.06677688, 0.03733097, -0.016193297, -0.028698098, 0.06746061, 0.01247232, -0.043737967, 0.018076017, -0.11365189, 0.02122925, 0.20411281, 0.084890716, -0.065435976, 0.13260084, -0.05294271, 0.09576465, 0.04980061, 0.07087813, -0.052329984, 0.112498306, -0.087566175, 0.009289819, -0.1423579, 0.010277195, 0.035902068, 0.01513721, 0.019300407, 0.097073734, 0.010760845, 0.059282903, -0.1311245, 0.05342216, -0.09645876, 0.06661903, 0.031960204, -0.32289162, 0.14373827, 0.094033495, -0.18813594, 0.037918013, 0.039095502, -0.2324781, 0.18561867, 0.02821781, 0.10108117, -0.028377095, -0.07431154, 0.122333206, 0.061428845, -0.28799722, -0.043419454, 0.006033489, 0.029020038, 0.25462532, -0.1278207, 0.064738676, 0.008765992, -0.031952377, -0.02093609, 0.13243325, 0.068528816, -0.014732091, 0.06968877, -0.111889295, -0.056971896, 0.00973589, 0.040579446, -0.0352522, 0.033061773, -0.084030874, 0.067382164, 0.06601915, 0.19370534, 0.008635128, -0.106582925, 0.0012518201, -0.01297243, 0.0022980948, -0.04337808, -0.07811307, 0.119076826, 0.019896254, 0.12103635, -0.08939443, 0.082753286, -0.07376923, 0.003111712, -0.02625669, -0.031145245, -0.22103027, 0.13675846, 0.027374767, 0.07716078, 0.21898739, 0.10970878, 0.1170216, 0.16082746, 0.112432316, -0.08043577, 0.17257278, 0.09240751, 0.2524667, 0.088930264, -0.021561602, -0.09621574, 0.17474726, 0.086038694, -0.06702525, 0.0025767635, 0.08832704, 0.16544302, -0.23799491, 0.021655783, -0.13637185, -0.08415245, -0.12109019, 0.027865445, 0.16732049, -0.09128888, 0.06024213, -0.20717195, -0.020276127, -0.009846141, 0.13486192, 0.16202278, 0.045195077, 0.20542401, -0.1348288, 0.06614679, -0.08007354, -0.060823113, -0.036498867, -0.033371203, -0.2288591, -0.071437106, 0.07164872, -0.3008336, 0.023255654, 0.16193385, -0.1056728, 0.045743026, 0.0734795, -0.011536685, -0.09079816, 0.37508503, -0.003987089, -0.040251896, 0.025691826, 0.052427847, -0.00018895185, -0.10197218, -0.22503087, -0.16850464, -0.2620894, 0.031338375, 0.09605095, 0.02344407, 0.20955642, -0.14729074, 0.011040547, 0.10165378, 0.0732239, -0.13351773, 0.28748214, 0.18021025, 0.26045766, -0.09102847, 0.02615904, -0.026366115, -0.048463866, 0.085370675, 0.05135274, -0.036732543, 0.18764213, -0.0038580084, -0.17392287, -0.04996579, 0.11689591, -0.02594852, 0.025324753, -0.0460811, 0.32420024, -0.012493982, -0.06456206, -0.33631033, 0.065127425, 0.08984132, -0.041167136, -0.08473885, 0.095788755, 0.1791065, -0.15906316, 0.008621417, -0.05880491, -0.0932958, -0.015029747, -0.008336112, -0.11671289, -0.0017506264, -0.061381407, 0.043750122, -0.068751186, 0.1457209, 0.0034492132, 0.001844392, -0.0576813, 0.042875662, 0.031458978, 0.0045241322, 0.03787888, -0.023735786, -0.041763015, 0.22464132, -0.1982003, -0.19943063, -0.193437, 0.030542959, -0.08807413, -0.14525492, -0.1877291, -0.022881392, 0.22890767, -0.010848603, 0.14180243, 0.10169662, 0.025846247, 0.04741539, 0.28641742, 0.12802225, 0.025229545, 0.027118316, 0.08730846, -0.15850946, 0.12674642, -0.01651978, 0.12087307, -0.16962631, 0.1416759, -0.11245424, -0.036424845, -0.05989548, 0.1019129, -0.060400445, -0.07315638, 0.06801609, 0.215685, 0.031484812, -0.04267788, -0.20285873, 0.033794425, 0.06287463, 0.1535715, -0.069992326, -0.06368659, 0.12802488, 0.06115734, 0.01851309, -0.061168168, -0.055406917, 0.03343443, -0.056550927, -0.10417527, -0.004182338, -0.060949452, 0.21736464, -0.038533647, 0.16871731, 0.036160853, 0.062161207, 0.20473179, -0.07478592, 0.025025591, 0.058952533, 0.0038816035, -0.2777164, 0.019356992, 0.05797327, -0.15082456, 0.09842765, 0.0031991815, 0.14008088, -0.109925225, -0.23324177, 0.0006389604, 0.047025207, 0.15097158, -0.02847207, 0.10456364, -0.093148984, 0.014199363, 0.10852976, -0.018478138, 0.12659967, 0.13829628, -0.16757509, -0.008870436, -0.2554671, 0.113644816, 0.031719513, 0.12859032, 0.14305602, 0.25450236, -0.0055473624, -0.08390567, -0.03622171, -0.052916106, 0.012705781, 0.13349532, -0.060268797, 0.18214649, -0.36619544, -0.044877045, -0.11287975, 0.015239857, -0.040999766, 0.0062850234, 0.18881342, 0.03346184, -0.045826863, 0.17683975, -0.041473553, 0.1708709, 0.043400895, 0.055470556, 0.0054947957, -0.21128151, -0.068109326, 0.037289597, 0.03240764, 0.05684464, -0.10870741, 0.050142076, -0.061548658, 0.055426985, 0.031155244, 0.07567147, 0.063474685, -0.025918335, 0.08672203, -0.2105515, 0.033000726, 0.12376282, 0.02293226, -0.1496774, 0.2377367, -0.3241298, 0.04820201, 0.18590638, 0.057901226, -0.020041354, 0.12009393, 0.08397314, 0.093834, 0.062369693, -0.11968258, 0.20902313, 0.12038145, 0.025560359, 0.14864594, -0.0011177456, -0.1292423, 0.17827989, -0.272431, 0.01928707, -0.052565783, -0.10701336, 0.12320461, -0.26980972, -0.061252974, 0.17344318, 0.2935348, -0.057732582, 0.07489364, 0.08348042, -0.3416634, 0.060837135, -0.05105143, 0.008371063, 0.05830456, -0.13290004, 0.10207231, 0.05452084, -0.1483827, 0.17649357, 0.02130533, 0.13299082, -0.050670296, 0.058551382, 0.022672981, -0.04089368, -0.24101672, -0.03870954, 0.044818286, -0.044633657, 0.15309417, 0.021899967, 0.020465722, 0.004512451, 0.013181731, 0.082067065, 0.014145297, 0.064673275, -0.19243006, 0.17066002, -0.2689887, 0.10853791, 0.11688491, -0.15760791, 0.15337369, -0.029848728, 0.07189015, -0.04329176, 0.020130651, -0.0036432794, -0.041439682, 0.06462057, -0.07866962, -0.009271931, -0.2858819, 0.20132333, 0.17512478, 0.058239177, 0.03606454, -0.059155073, -0.26021862, 0.15474272, -0.107971095, -0.06621891, 0.07058013, 0.16816585, -0.05372857, -0.001624814, -0.04408026, 0.091826424, 0.18609677, 0.03520099, 0.023772886, 0.17403436, -0.00346858, -0.054007344, -0.06915824, 0.020969622, 0.0042341724, 0.13658912, 0.07569352, 0.08789852, -0.098217845, 0.08099359, 0.023640625, -0.01611823, -0.12117137, -0.05467301, -0.029247977, 0.046913378, -0.18234345, 0.013735935, -0.023838675, 0.002143647, -0.05258584, -0.0165898, -0.002675557, -0.06691899, 0.06538506, 0.038147077, -0.21108408, -0.01659181, -0.2487603, 0.09735218, -0.20057334, -0.0049522356, -0.05442233, -0.2751706, -0.051776353, -0.2158232, 0.1700974, -0.13024813, 0.005520433, 0.07729798, -0.0841656, -0.022441227, 0.018571023, -0.028248603, 0.034540184, 0.23145846, 0.36222556, 0.09594572, 0.2269453, 0.014120048, -0.22989936, -0.16791387, -0.10237179, 0.10556333, -0.057905566, 0.24964742, -0.014991366, 0.040181242, -0.007345505, 0.17757338, 0.07397278, -0.071496636, -0.00528434, 0.09157025, 0.17367055, -0.044765875, -0.111654304, -0.04061161, -0.027622458, 0.087842956, -0.046799168, -0.003465491, 0.2406913, -0.10927599, 0.029134583, 0.13102557, -0.16411099, -0.0703341, -0.06827481, -0.4160935, -0.024635766, -0.052246843, 0.10736726, -0.037186064, 0.15026073, -0.055580106, -0.042145263, 0.08185884, 0.06287831, -0.14863959, -0.3818071, 0.0028446764, -0.12762187, -0.07719522, -0.34228164, 0.13110298, -0.08890503, -0.090229794, 0.32612488, -0.3188523, 0.10529466, 0.13201226, 0.08555803, 0.020196483, 0.15116955, 0.19672287, -0.021230089, -0.0042318334, 0.0016742408, 0.15585992, 0.156737, 0.23261583, 0.30960175, 0.009101538, -0.15019429, 0.29874268, -0.163753, 0.051519603, -0.04231725, 0.18502055, -0.05953958, 0.28803238, 0.0015683845, 0.2071208, -0.050093047, -0.15701692, -0.027882218, 0.16814755, -0.20383324, 0.05611199, 0.062868, -0.069990635, -0.032072008, -0.042811487, 0.09490317, -0.057106204, -0.12732483, -0.16492389, -0.06883371, 0.009871419, 0.38633883, 0.03242487, -0.051767908, -0.26416236, 0.05991927, 0.072216526, -0.1320004, 0.07107398, 0.13914344, -0.013879663, -0.0497731, -0.055371914, -0.0067997193, -0.1407043, -0.12057047, 0.019128328, 0.11929809, -0.25498414, -0.31799883, 0.15564954, -0.32964787, -0.023312422, -0.062599614, -0.2031663, 0.22728354, 0.28730375, 0.025855608, 0.017146967, 0.13251701, -0.03246989, -0.050398976, -0.021297464, 0.018042352, 0.09216237, 0.016130185, 0.16894314, 0.06229867, 0.07613457, 0.10786388, 0.096473664, 0.19931805, 0.14757034, 0.20143199, -0.32221833, 0.08406841, -0.18073279, 0.0017580086, -0.26261032, -0.14364572, -0.058184225, 0.040163822, -0.014223144, -0.22382276, -0.050327417, -0.26903662, 0.0045051803, 0.022246243, 0.04462975, 0.09272347, 0.0022174174, 0.012333337, -0.2560943, 0.07335885, -0.111482784, 0.12389189, 0.048671965, -0.0016455838, -0.25085717, 0.09244254, -0.07140909, -0.2696059, -0.09409079, 0.14936061, -0.024367163, 0.033548865, 0.09111621, -0.04244929, -0.31056193, -0.007852582, 0.011402252, -0.040896583, -0.14299926, -0.13877194, -0.081337795, -0.24223047, 0.19588529, 0.06043642, -0.019691601, 0.098366424, 0.3294602, -0.04981878, 0.088438354, 0.0024154885, 0.081500106, -0.024486106, 0.030920371, 0.033179596, 0.20104715, -0.079132184, -0.03709258, 0.057785735, 0.054128002, 0.036736395, 0.028229313, 0.16204302, 0.167125, -0.11621709, 0.00083561236, -0.04851733, -0.013667564, -0.03586085, -0.0019799138, -0.11327422, 0.06035741, 0.021624546, 0.07416516, 0.061903328, 0.04267108, -0.10218569, 0.033299163, -0.025882335, 0.021051368, 0.14703238, 0.023516363, -0.0756425, -0.074809104, 0.02435498, -0.22957131, 0.07434568, 0.04768143, -0.055195045, -0.25124395, 0.12526341, -0.069474265, -0.264854, 0.10400262, -0.044542715, 0.057587672, -0.0030678604, 0.1607635, 0.034144472, -0.08908171, -0.14561781, 0.009756938, -0.29297465, 0.10370697, 0.05013897, 0.06699701, -0.083271034, 0.002857615, 0.051444866, 0.033391323, -0.04794596, 0.28902495, -0.030065646, -0.18073745, -0.17819358, 0.016509227, 0.046784926, 0.011363281, -0.11569976, 0.032174155, 0.048940845, 0.08480262, 0.012374132, -0.056915686, -0.29211774, 0.070928134, 0.10110663, 0.10646513, -0.07483947, -0.060384084, 0.1624389, 0.20721233, 0.05296441, -0.05609696, 0.063941196, -0.0078085205, -0.010862359, 0.1311655, -0.1296342, -0.029129513, -0.24086007, 0.033746183, -0.026376994, 0.15034503, -0.0519942, 0.026610613, -0.05330167, -0.077490285, 0.03464506, -0.12198804, 0.2966093, 0.05876123, 0.041094065, -0.06939506, 0.34801134, 0.052153856, 0.17491165, 0.073115714, 0.07497405, -0.020582171, 0.026818395, 0.033655234, -0.03889451, -0.015200945, -0.034156315, -0.06882221, -0.20194152, -0.01516926, 0.0064060763, 0.27779236, -0.11853849, -0.01905465, -0.17546843, -0.082026586, -0.15264873, 0.16429643, -0.06529201, -0.1290111, -0.060697515, 0.1552329, 0.14375679, 0.03183368, -0.3674623, -0.17847714, 0.06948533, 0.09441175, -0.029019032, 0.12407009, -0.051395833, 0.19156809, 0.009584281, -0.022707291, 0.062257584, -0.114176355, -0.010207401, 0.024444912, -0.010101363, -0.17422174, -0.071025565, -0.13433883, -0.031991582, -0.033895005, -0.2465695, 0.060246766, -0.111304194, 0.055287026, 0.037591472, -0.09192745, -0.029990725, -0.01138256, 0.032601144, -0.043182384, 0.012241863, 0.19865581, 0.04005234, 0.035945173, -0.036304675, -0.2403948, -0.11835299, 0.056271866, 0.15820271, 0.06788914, -0.06397464, 0.013066427, 0.006728793, -0.01160995, 0.044043213, -0.1410369, -0.083423205, 0.052382644, 0.096005686, -0.14148721, -0.30662927, -0.0625258, -0.0649822, 0.12978144, 0.15470874, -0.066696964, 0.050782107, 0.1000978, -0.002328778, 0.08068529, 0.17508158, 0.0024983292, 0.018540587, -0.047166068, 0.10987446, -0.05984705, 0.06507857, -0.04999787, 0.11894487, 0.067383274, 0.026120713, 0.061566167, 0.009466207, 0.10005678, -0.032389168, 0.016430773, 0.06692391, -0.14559814, 0.0012329792, -0.06634999, -0.20212647, 0.10601841, 0.026564185, 0.077145666, -0.097696275, -0.01892641, -0.1360545, -0.041933857, 0.052016467, 0.07336069, -0.17789961, -0.021543631, -0.05921515, -0.04919182, -0.04414109, 0.113731794, -0.045900024, -0.073756985, 0.06217605, -0.058601238, 0.063728884, 0.03081832, 0.031146098, 0.14279695, -0.028203223, 0.08038424, 0.048873246, 0.026344199, -0.008862852, -0.16263542, -0.07095917, -0.009432025, 0.13167903, -0.011053141, -0.028196517, -0.082206905, 0.14611168, 0.045082208, 0.12015637, -0.033881653, -0.17473339, 0.17782676, -0.0030989703, -0.008274197, 0.061642926, 0.19007926, -0.05218032, 0.018924141, 0.09601616, 0.010437921, -0.014048332, 0.07331187, 0.17427261, -0.0011499787, 0.091188736, 0.07851176, -0.03862683, 0.3309464, 0.097532704, -0.0101909395, 0.11022293, -0.006749577, -0.050816774, -0.0060518146, -0.06325254, 0.019509723, 0.037742507, 0.033630703, -0.070446774, -0.070810825, -0.042620577, -0.053044923, -0.095860854, 0.11644089, -0.058110707, 0.060496315, -0.029806457, -0.05079775, 0.0073240623, 0.08332439, 0.12538451, 0.01458846, 0.06228429, -0.15563166, 0.056201313, -0.012234818, 0.15875077, -0.05553359, 0.08679253, 0.0011460155, -0.03776837, -0.01136234, 0.030021774, 0.20273942, -0.020931374, 0.036206856, 0.01792404, 0.11216959, -0.13347146, 0.046956845, 0.24628654, 0.07663935, 0.035064973, 0.092190966, -0.0011382469, 0.025929745, 0.01824667, 0.03374196, -0.015348494, 0.19032422, 0.24984471, -0.017375223, -0.0018251317, -0.12513274, -0.053501863, -0.0035864662, 0.07090819, 0.03824933, -0.02448164, 0.056369606, -0.059492305, 0.13140067, 0.15349524, -0.063483946, -0.03095845, 0.1756848, -0.04143961, 0.10493398, 0.07445449, -0.3816942, -0.019260025, 0.084263794, -0.013569485, -0.012474053, -0.06082495, -0.011186849, 0.11814432, 0.10724975, 0.14041726, 0.0047802418, 0.0066107474, -0.13685086, -0.05624222, -0.029016266, 0.13262425, 0.008827406, 0.017323054, -0.22950932, -0.11399697, 0.002069421, 0.19540456, -0.017747367, 0.1564611, -0.15132198, -0.08863615, -0.11507531, -0.046558388, 0.08433616, 0.02090418, -0.058475126, -0.2145977, -0.022839097, 0.18384574, 0.14758867, 0.09569361, 0.10370553, -0.023030933, 0.06166603, -0.29426512, -0.02853158, 0.009716531, 0.10765395, 0.013290618, 0.14814328, 0.1601778, 0.012901156, -0.13999496, -0.108130515, 0.064798445, -0.0052687917, -0.11514316, -0.105528235, 0.1142422, -0.0032027129, 0.11668928, 0.247733, -0.050529566, -0.18868445, -0.09638458, 0.026668273, 0.044296786, 0.26661745, 0.022206653, -0.2917392, -0.048884403, 0.102789044, 0.083256096, 0.067975596, 0.034823027, -0.01140611, -0.021376288, 0.073882945, 0.18958616, 0.016653556, 0.12957433, 0.0848506, -0.07207168, -0.110168055, 0.11767218, -0.08547985, -0.03503949, -0.22451624, -0.07773501, 0.04089617, -0.1767771, 0.00830122, -0.11560565, 0.0730229, -0.09206364, 0.09694042, 0.10684228, 0.01601742, -0.024419578, 0.029620675, -0.07410696, -0.12664203, -0.23791438, 0.08581986, -0.04109936, 0.09986517, 0.0016510966, 0.22474346, 0.14863671, -0.021800486, 0.016135199, 0.019512838, -0.009845107, -0.0012800158, -0.025728198, 0.120418735, -0.028418027, -0.13022166, -0.06968379, 0.0823041, -0.036618073, -0.04071984, -0.15023826, -0.037693758, 0.0634682, 0.03613273, -0.09550691, 0.030461742, 0.06265672, -0.25891876, -0.057999883, 0.04458067, -0.20751873, -0.0012952103, -0.1397107, -0.010720575, -0.19557776, 0.07411064, -0.044278685, 0.03219386, 0.007895843, -0.13474417, 0.123459466, -0.06877905, 0.08859079, 0.045921147, -0.030217726, -0.17398836, 0.044608828, 0.0038909921, 0.012215182, -0.094636604, -0.12820701, -0.004466705, -0.084130675, 0.024526592, 0.17002003, 0.031273782, -0.10779587, 0.08190351, -0.08120345, -0.08922335, 0.2285654, -0.010352541, 0.087191045, -0.03281372, 0.039016206, -0.021419737, 0.1738747, 0.21812643, -0.24327354, -0.031374987, 0.10879484, 0.11487527, 0.05140741, -0.043256313, -0.0038641244, 0.094964184, 0.039017156, 0.080579184, 0.020209238, -0.110447444, 0.016015172, 0.048484083, 0.12174518, -0.008519758, -0.1844064, -0.024508836, 0.0016238184, 0.08571519, 0.030042714, -0.021410676, -0.019973744, 0.042360693, -0.041917067, 0.107387625, 0.016609699, -0.2143974, -0.031116197, -0.0120388195, 0.004308083, -0.07272287, 0.16883075, -0.021235762, 0.045352604, 0.09167898, 0.04964595, 0.023035074, -0.066114254, 0.0753477, 0.0567574, -0.0065603913, 0.03519384, -0.048318915, -0.0016035243, -0.20575213, -0.0024910867, -0.038013436, 0.16030169, -0.022340428, -0.05286302, -0.024635287, 0.038936492, 0.008065611, -0.008148885, 0.017397, 0.0025775277, -0.014931683, 0.09133676, 0.08847319, 0.14693506, 0.024344426, 0.18677934, 0.30795985, -0.046366215, 0.07692471, -0.087225296, -0.0779688, -0.034822345, -0.08691413, -0.04434211, 0.023839286, 0.29461595, -0.018925617, -0.07983568, -0.18522178, -0.044573605, 0.08024054, 0.09825972, 0.0050248997, -0.025871096, -0.11994215, 0.11277667, 0.054529518, -0.019191971, -0.12756395, -0.04248456, 0.23536512, 0.013456002, 0.097525455, 0.012750359, -0.28065196, -0.0047473805, 0.19880806, 0.042161703, 0.06011623, -0.06875487, 0.048167452, 0.05365937, 0.1175967, 0.24654347, -0.026140714, -0.027442591, 0.001230394, 0.000868004, -0.02507247, 0.1468076, -0.014381208, 0.051507525, -0.12969078, -0.087564416, -0.03286297, -0.026248591, 0.06016553, 0.20301211, 0.04713193, -0.07997385, -0.02133075, -0.005495736, 0.07501171, 0.1385324, -0.013497466, -0.0769996, -0.061378196, -0.19508536, 0.20441714, 0.043601383, -0.0864557, 0.03276654, 0.1442706, 0.072752185, -0.28349578, -0.06379151, 0.008597541, -0.03780976, -0.08286385, 0.16686542, 0.10098723, -0.14380895, -0.19660747, 0.1554618, 0.044277016, -0.0032863382, -0.010335465, 0.0021576043, -0.32222864, 0.040988926, 0.1778572, 0.028067423, -0.060469408, -0.043445494, -0.22608846, 0.056300208, 0.32260844, -0.017848399, -0.13077353, 0.059143763, -0.000725137, 0.093800545, 0.029774142, 0.11832673, -0.07105437, -0.049862705, -0.018372385, 0.19089037, -0.04010425, 0.25399253, -0.2200897, -0.038914796, -0.24896914, -0.011322544, 0.024115501, 0.066834345, -0.23585097, -0.1857503, 0.054252252, -0.035566784, -0.04276592, 0.11884253, 0.05638182, -0.06753142, 0.0064520272, -0.066345535, 0.18300796, 0.13651563, -0.053989038, -0.05151958, 0.2773637, 0.06107128, 0.021596093, 0.1217426, -0.028676033, 0.14435157, 0.12643541, 0.16187793, -0.2819782, -0.040852368, -0.0022391968, -0.0025087595, -0.085011944, 0.026742345, -0.036417954, 0.08945669, -0.38125437, 0.23982085, 0.09798863, 0.06178352, 0.069104165, 0.11624643, -0.022199593, 0.25658476, 0.27211022, -0.23263423, -0.018237652, -0.0140687935, -0.32920069, 0.0042441813, -0.038910452, -0.034869317, 0.10953457, -0.11875528, 0.06666806, -0.086672686, 0.049258363, -0.0019474251, -0.0083252415, -0.09418499, -0.01908533, 0.02556239, -0.0034803147, 0.016524315, -0.1302995, 0.011580211, -0.14969006, -0.17319132, -0.06059401, 0.0024483395, -0.098830104, -0.022124607, 0.06761993, -0.1300516, 0.054657727, 0.18819045, -0.029561674, -0.03540422, 0.06949176, 0.00151159, -0.12903403, -0.072098635, -0.016599562, 0.07304394, 0.15459853, -0.114514925, 0.039594054, 0.07148788, 0.2566224, 0.04920447, 0.08292116, 0.015240563, -0.2653042, 0.03384103, -0.18107703, -0.10533935, -0.0074513447, -0.03001854, 0.082240164, 0.17695695, -0.09998959, 0.21691509, 0.064056344, -0.042178053, 0.004653029, 0.0030843562, -0.05187388, 0.16427739, 0.29559207, -0.014723102, -0.12475016, 0.027828712, 0.0783338, -0.09027018, 0.028802939, -0.07633497, -0.108593486, 0.054574102, 0.1440057, 0.06825577, -0.055859488, -0.01975926, -0.024975177, -0.14806189, -0.0075243358, -0.083980516, -0.03142386, 0.045744475, -0.27028126, -0.07474032, -0.13473392, -0.12568896, -0.06542599, 0.019686237, -0.016478105, 0.10639981, 0.06437878, -0.26214263, -0.009031598, 0.021003973, 0.00065077737, -0.07948529, -0.19542462, 0.045881692, 0.10922489, 0.18324278, -0.050450247, 0.11342389, 0.103477746, 0.12589666, 0.12772669, -0.12139944, 0.2406946, 0.174213, 0.103428654, -0.07100994, -0.23666236, 0.03411864, -0.3428101, -0.10418675, -0.07690795, -0.015625615, 0.075704575, 0.15454416, -0.09748594, 0.26756546, 0.018744323, -0.18763477, -0.06702022, -0.11685127, -0.009890467, 0.13040558, 0.30123937, 0.11975835, 0.17474794, 0.07258505, 0.17004508, 0.042286385, 0.019279687, -0.22582892, -0.058985516, -0.03767109, -0.11460777, -0.100614734, 0.021233043, -0.14768118, 0.0244411, -0.07512283, 0.043383174, -0.036108598, -0.07929547, 0.13985889, -0.12245599, -0.060736205, 0.08363194, -0.05480674, 0.03177109, -0.044618506, -0.05274168, -0.04210921, -0.056314364, -0.047035594, -0.027514758, 0.003919481, 0.01539279, 0.004549533, -0.24055512, -0.058775928, 0.31592062, 0.061578944, 0.059585445, 0.030384112, 0.23025486, 8.244728e-05, 0.32238215, -0.074211195, 0.036911357, -0.16826016, 0.088990666, -0.07812388, -0.45129636, 0.017825868, -0.06797534, -0.12796472, -0.16619003, 0.016580444, -0.040687546, 0.34058577, -0.31922445, 0.2989457, 0.11233298, -0.22423558, 0.09178962, 0.09258443, 0.11410622, -0.06984002, 0.06760959, 0.19807269, -0.003153427, 0.06492818, -0.10749868, -0.06446931, 0.31404975, -0.051852092, 0.120417565, -0.061184816, 0.06648633, -0.07411721, 0.048573717, -0.0034367498, 0.051949218, -0.030763727, -0.093597986, 0.018772388, 0.04823638, 0.024004754, 0.03206621, -0.05078931, -0.093112975, -0.11508928, 0.04517546, -0.055660956, 0.009562429, -0.047353614, 0.027807109, 0.046947718, -0.058583595, -0.037960712, 0.016252102, 0.04756038, -0.056879528, -0.021078542, -0.045545947, -0.067477584, 0.07052925, -0.07325933, -0.0075570457, -0.052578136, 0.00816517, -0.15638451, 0.009104393, -0.012991183, -0.05324631, -0.025972761, 0.05790786, 0.075180925, -0.053434715, 0.05417497, -0.063000895, -0.07472125, -0.026108095, -0.012651663, -0.06138788, -0.052472852, 0.049321484, -0.056287512, -0.0024663568, 0.052979164, -0.035951633, 0.001660563, -0.035681702, -0.029592078, 0.007771841, -0.0586641, -0.04452621, -0.029578334, -0.05154741, 0.010301546, -0.018610558, -0.038371388, -0.025043214, 0.0020937757, -0.009514749, -0.073278695, -0.06635449, -0.011848571, -0.005591766, -0.096714035, -0.057631463, -0.002523284, -0.096272245, 0.016172344, -0.027180232, -0.009634142, -0.05521963, -0.04545648, -0.08250774, -0.113564074, 0.05423835, -0.04584744, -0.062994264, -0.029284537, 0.061623782, -0.026399102, -0.045847904, 0.030992806, 0.030125475, 0.06489117, -0.06883431, -0.015231674, -0.019021945, 0.009290738, -0.06060307, 0.04532755, -0.025011422, 0.030666852, -0.11330326, -0.07392626, -0.02109524, -0.037455842, -0.04399429, -0.090989515, -0.049240354, -0.04088774, -0.017732447, 0.02934079, -0.06449314, -0.05380348, 0.061547726, -0.09167697, -0.0023891255, -0.0020451224, 0.02944286, -0.065403216, -0.063064545, 0.024968578, -0.0054075546, 0.04965792, -0.04709204, -0.02442264, 0.057910778, -0.08684845, -0.044671357, 0.0046891943, -0.11765709, -0.1060575, 0.060025513, -0.009267348, -0.036215693, -0.043307625, -0.102271184, -0.072956026, 9.1567665e-05, -0.082504794, -0.11613412, -0.010119176, 0.045621026, -0.020422565, 0.046914656, -0.051770836, -0.014860461, -0.050431795, 0.023117937, -0.017288381, 0.012989767, -0.04742367, 0.030631332, 0.0076856613, -0.095785126, -0.028231695, 0.013679652, -0.021799505, -0.071572356, -0.03388967, 0.031176802, -0.07798794, -0.04422081, 0.002788691, -0.062754616, 0.011000251, -0.07154707, -0.0023460474, -0.073003255, 0.053145483, -0.0106948875, -0.04513515, -0.11165149, -0.017893344, -0.004880093, 0.020285754, 0.008014062, -0.009383933, 0.01370388, -0.078718595, 0.0049410197, 0.04858931, -0.05873876, -0.07415589, -0.015239402, -0.08147112, -0.097913235, 0.018549867, -0.0317728, -0.01650126, 0.024812197, -0.023510667, 0.03319685, 0.032713912, -0.009657089, -0.06273442, 0.052397445, -0.11740049, -0.035009027, 0.044102978, -0.04093859, -0.030802127, -0.018886864, -0.14981925, -0.11347625, 0.0019245403, -0.072496496, -0.08102192, 0.040431175, -0.018266387, -0.08801384, -0.041260153, -0.06524177, -0.024235442, 0.030475423, -0.051609807, 0.0023451168, -0.0015686676, -0.027284602, -0.03118112, 0.00016764432, -0.010576863, 0.02470363, 0.047754206, -0.0772822, -0.04661075, -0.10659728, 0.028286371, -0.045853734, -0.07272752, 0.02629589, 0.046933398, 0.014752738, 0.04404287, 0.010076797, -0.10951969, 0.027757352, -0.116204165, -0.05829756, -0.027280096, 0.0067194286, 0.03138448, 0.020673167, 0.011977637, 0.056617785, -0.036872044, -0.011157086, -0.12624243, 0.0700181, -0.004579134, -0.06035944, 0.017318077, -0.12781146, -0.031968173, -0.097834006, -0.019419258, 0.04153281, 0.054440632, -0.08995612, -0.06099493, -0.0009764284, 0.046709675, 0.019562354, 0.009395612, 0.005434853, -0.043668, 0.056270212, 0.005812538, -0.060006157, 0.0028146352, 0.0037610622, -0.097149074, -0.030346712, 0.013695657, -0.018531578, -0.10801409, 0.063529894, 0.06930671, -0.05695397, 0.05625162, 0.05694131, 0.046554364, -0.06331782, -0.04536571, 0.021391438, -0.023745503, -0.057311684, -0.016458292, 0.025704792, -0.1088143, 0.0042994875, 0.0028414393, -0.08886804, -0.029453943, -0.023554375, 0.016276384, -0.009633067, -0.05884115, 0.06301468, -0.015416525, 0.02061043, -0.08290266, -0.054846738, -0.04246256, -0.047353577, -0.055198345, -0.019364573, -0.05712685, -0.011537411, 0.068072595, -0.007023318, -0.03710748, 0.019881317, -0.08191943, -0.04509944, -0.05130728, 0.045368843, -0.029990256, -0.038868412, -0.093968935, 0.030358536, -0.064248875, -0.09376167, -0.03318441, 0.020534903, -0.044927094, 0.033889323, -0.06887576, 0.034355424, 0.040110167, 0.0058846734, 0.00622468, -0.03492737, 0.062648416, 0.011070003, -0.115989275, -0.04878986, -0.024501793, -0.097366035, 0.004213931, 0.01568792, -0.0019626664, -0.049564682, -0.07706212, -0.04831836, -0.03831066, -0.0054615024, 0.045413762, -0.08984105, 0.0593447, -0.006789066, -0.06817179, -0.035310574, -0.065167084, -0.12448676, 0.013609624, -0.05498023, -0.0491326, -0.030243233, 0.04684086, -0.08803129, 0.0046384167, -0.047934506, -0.02469253, 0.0034549031, -0.010190953, 0.07987396, -0.038330793, -0.10198961, -0.13936573, 0.010814756, -0.14804694, 0.058648802, -0.02090387, -0.006206577, -0.016471835, -0.018082276, -0.10971384, -0.004144214, -0.048385583, 0.016723085, 0.039114855, -0.02285228, 0.03973922, -0.0073978077, -0.062929146, -0.13715938, -0.11156739, 0.04226519, -0.002644158, 0.012510309, 0.05325911, -0.10202334, -0.08326627, -0.066363454, 0.011092277, 0.029484091, 0.043433525, 0.05537792, -0.056658085, -0.023957193, 0.015868194, 0.0070886537, -0.058043845, 0.006258987, -0.059433423, -0.061234277, -0.033020478, 0.026932945, 0.07000713, -0.029926077, 0.017020665, -0.017318845, 0.049972247, -0.058233563, 0.016316034, -0.06432699, -0.024837045, 0.004247957, -0.026101613, -0.07548196, -0.05226947, 0.037261713, -0.08278243, -0.09093609, 0.05926211, 0.038400598, -0.13260347, -0.015677849, -0.025397679, -0.03592792, 0.04394574, -0.052450173, -0.0022666838, -0.014775884, -0.11276651, -0.039866284, -0.067255676, 0.05476121, -0.056385998, -0.06391772, -0.07476627, -0.005914514, 0.01213441, -0.04736489, -0.07504536, -0.05866588, -0.042544015, -0.040287666, -0.0004836172, -0.039677095, -0.12115077, -0.07075119, -0.0069113895, -0.028228663, 0.034293666, -0.047152117, -0.08954983, -0.062536746, -0.044201262, 0.0445053, -0.04099004, -0.012922339, -0.07857458, -0.059559982, -0.031292364, 0.054857403, 0.022676554, 0.06465025, -0.011014533, 0.014502272, -0.004717434, -0.04473936, -0.0016042516, 0.004144914, 0.05908096, -0.03773299, -0.014013648, 0.06647837, 0.06168404, 0.025629263, 0.0071968473, 0.02575015, 0.014121945, 0.03356466, -0.07383723, -0.0408697, -0.048599165, 0.051202677, -0.072662465, 0.0057601393, -0.009488193, -0.053265054, -0.063113354, -0.040841904, 0.029532345, -0.018179609, -0.09294889, -0.05490743, -0.050274864, -0.060116723, 0.024081778, -0.025554711, 0.044771038, 0.018898856, -0.06381043, -0.07438973, -0.029693369, 0.03449541, -0.03353548, -0.09886829, -0.04961471, -0.024080964, 0.05989017, -0.076730974, -0.058671307, -0.004464917, -0.070665404, 0.037053872, 0.054438833, -0.08417956, -0.051459815, 0.04227305, -0.06748504, 0.0015949561, 0.007333416, -0.02339792, -0.03780648, -0.031134792, 0.051255062, -0.05184688, 0.0009517124, -0.061751537, 0.08305967, -0.027877308, -0.029150091, 0.0583887, -0.016519181, -0.111077614, 0.021144636, -0.022066217, -0.018388277, -0.05284921, -0.03201525, -0.07069481, -0.07232418, -0.019049456, 0.031742163, 0.046662096, 0.04783966, 0.01498659, -0.031235967, -0.01132025, -0.030086424, -0.04725194, 0.0046261107, 0.03677108, 0.005095185, 0.015271682, -0.043836627, 0.02476802, 0.0007825614, 0.022929827, 0.035452247, 0.06493804, 0.06413473, -0.083481364, -0.037847556, 0.061896183, -0.057157263, 0.047982838, 0.025693014, -0.035230238, 0.030758845, -0.01781534, -0.15567577, -0.0001027504, 0.0039137527, -0.081127875, 0.003623006, 0.03632909, -0.048341617, 0.039021615, 0.048937786, -0.08944199, 0.03937348, 0.02020625, -0.05035954, 0.05875035, -0.028613396, -0.06844982, -0.057496868, 0.02633052, -0.018988352, -0.029364321, -0.093063265, 0.027782075, -0.07492973, -0.0072323903, -0.08435519, 0.025587967, 0.044235446, -0.043628003, 0.008762404, -0.0074842656, -0.06784304, 0.027211592, -0.0026094883, 0.0113725215, -0.09439438, -0.025765559, -0.040638372, -0.030798575, 0.034810793, -0.038577966, -0.0672158, -0.057149004, 0.001397923, -0.055750802, 0.019632481, 0.025956392, -0.10182999, 0.016388336, -0.032697354, -0.034833733, -0.07525951, -0.00047894038, 0.01966621, -0.038262863, -0.04990604, -0.045123067, -0.11508732, -0.030593911, -0.09437324, -0.054736774, 0.034648426, -0.06742273, 0.027430853, -0.07184726, -0.11724561, -0.030505473, 0.048016608, -0.0012552855, 0.02079918, -0.06658055, -0.101896144, -0.0026118772, 0.04961261, 0.033288553, -0.07489971, 0.052487183, -0.07480766, -0.019910576, 0.033646155, -0.060967732, -0.120592065, -0.050844673, 0.012170575, -0.08611908, -0.051923428, -0.015578557, 0.06092176, -0.011072345, 0.06814399, 0.002468801, -0.06621169, 0.023325473, -0.036407012, -0.07176339, -0.00026184588, 0.06502758, 0.020091157, 0.020261282, -0.046710555, -0.105299525, -0.10644338, -0.08701103, 0.045377646, 0.12648985, -0.10638027, -0.093143, -0.04123698, -0.08285807, -0.047655135, -0.064018704, -0.07336523, -0.010245543, 0.027178977, -0.08564468, -0.09414372, -0.0006660365, -0.08102377, 0.045537166, 0.0057187187, 0.09439226, -0.024776146, -0.014316512, -0.054010894, -0.082308285, 0.06514767, -0.046009652, 0.03932646, 0.0026581492, -0.013282761, -0.02539748, -0.06678906, 0.015490462, -0.08384583, 0.06487006, -0.013886135, -0.0393244, 0.044371005, -0.0066445526, -0.04156151, 0.03972965, -0.0064422456, -0.15323445, -0.035805814, -0.103333384, -0.035438906, -0.06919482, 0.0605994, -0.10419889, -0.05988429, 0.06034462, 0.014137111, 0.015824266, 0.047147997, 0.038158063, 0.071575865, -0.10888971, -0.023925062, -0.058123868, 0.06468125, -0.030358963, 0.05858376, 0.03151465, 0.005875264, -0.003560909, 0.023213642, -0.048001636, -0.032107953, 0.028595114, 0.05980225, -0.020717634, -0.0068790037, 0.05472119, -0.08069896, -0.06731866, 0.034411244, 0.0060787424, -0.016431572, -0.1000493, -0.014115318, -0.022483658, -0.08314304, 0.06651491, 0.0031931573, 0.030136596, -0.018915387, -0.15962327, -0.07159107, -0.057545908, -0.055760287, -0.07002192, 0.012606666, -0.035510022, -0.08507415, -0.0024131055, 0.0007405728, -0.013740382, -0.04925514, 0.012316085, -0.025739977, -0.06109698, -0.061954174, -0.09609798, 0.013702189, -0.026447255, -0.0026829937, -0.01782294, 0.027576666, -0.12257863, -0.01984198, -0.073108636, 0.04119774, -0.10283231, -0.091638826, -0.04141054, 0.090591684, -0.062870435, -0.05692802, 0.01508358, -0.016259551, 0.036677472, -0.0035309717, 0.050868526, -0.049902678, -0.04643716, 0.031090006, -0.041573867, 0.035016973, -0.0327535, -0.060553815, -0.023927907, -0.047155954, -0.098145746, -0.020225458, 0.017953143, 0.00078906235, -0.046598908, -0.04975972, 0.0088845985, -0.04947456, -0.05719105, -0.10529425, -0.010224334, 0.001924851, 0.011596439, -0.031212036, -0.021876095, -0.109003976, 0.05312037, 0.011597649, -0.061850622, -0.031374615, -0.097112544, 0.029024199, 0.0023645721, 0.0067857984, -0.03492628, -0.111549236, 0.01172495, -0.058345813, -0.060504004, 0.025799919, -0.043748215, -0.07357357, 0.0023048476, -0.06357911, 0.00012599272, -0.09367502, 0.058096305, -0.04381669, -0.07158699, 0.05606507, -0.11083656, -0.041023307, -0.02633599, 0.025013952, -0.0054990523, -0.06843348, -0.07075271, 0.059396423, -0.06114221, -0.092995174, 0.06409334, -0.037449673, -0.06345203, 0.016374774, 0.014103419, -0.052008938, -0.040208694, -0.033767518, -0.02296577, -0.07349398, 0.04474989, -0.023032391, 0.0027378872, 0.052217532, 0.00093115354, 0.024870917, -0.04283107, -0.0035433238, 0.016094329, -0.007296764, 0.0059025665, -0.016473975, 0.06764183, -0.17778923, -0.009529486, 0.0015310403, -0.0064426265, 0.056203257, -0.037621368, -0.0043677045, 0.054186016, -0.07337452, -0.13073619, -0.11864636, 0.0050368607, -0.042455148, 0.023762614, -0.046195403, -0.022807052, 0.02411213, -0.0751895, -0.07157802, -0.0052377842, -0.04945859, 0.0357354, -0.0957671, -0.033355232, 0.025929404, 0.041879352, 0.054236796, -0.006512688, -0.08649692, -0.10941872, -0.06634673, -0.11018127, 0.026016328, 0.06065488, -0.022295317, -0.07280621, -0.059170075, -0.062898725, -0.05273219, 0.0005314946, 0.06387333, -0.018254539, -0.0036252886, -0.086929366, 0.055006385, -0.065480255, 0.038412526, 0.0101693645, -0.006680914, -0.063738465, -0.076695554, -0.06778348, 0.012666665, -0.13719603, -0.0023401927, -0.04332484, -0.028353855, -0.025363088, -0.07154624, -0.034935337, -0.049709234, 0.075624295, 0.06125774, -0.07006788, 0.004213099, -0.061144903, 0.0052334988, 0.013850748, -0.03704711, -0.011560184, -0.049871013, -0.06407042, -0.08405396, -0.03443384, -0.0402296, 0.055720158, -0.0070239455, -0.014618794, 0.011971402, 0.024456061, -0.075799085, 0.012745175, 0.014622867, 0.056530267, 0.026892023, 0.026463248, -0.09817482, -0.055962447, -0.077015996, -0.089256264, -0.08936734, -0.0029140215, 0.07463402, -0.06438676, 0.039025087, 0.062423985, -0.06135875, 0.057387304, 0.053431958, -0.044547074, -0.07016138, 0.030293845, 0.06516792, 0.027538538, 0.043647517, -0.061142854, -0.040765487, -0.02474285, -0.0028818399, 0.013237364, 0.039694216, 0.047426596, -0.0044578966, -0.06884828, 0.027793128, -0.052336093, 0.038995557, -0.029125782, -0.011935402, 0.037484065, 0.038375717, -0.04347, 0.022516433, -0.044146735, 0.030297425, -0.00489874, 0.0027690092, 0.025292493, 0.017977104, 0.028926542, -0.046722203, 0.05546009, 0.010116756, 0.06022054, 0.06342376, 0.042835504, -0.019824164, 0.059589684, -0.073863715, 0.016032698, 0.049566217, -0.1160476, -0.030261587, 0.03147508, -0.016625427, -0.033877134, 0.036769256, 0.0016135945, 0.041412555, -0.049746856, 0.1316302, -0.020325946, 0.031275008, -0.07165882, 0.27128857, 0.041478343, 0.09303053, -0.048938908, -0.03219158, -0.14538117, 0.034454294, -0.02498681, 0.051104497, -0.2861806, 0.10432375, 0.02676604, -0.04129862, 0.06696929, 0.07357021, 0.08552892, -0.090082236, 0.20261545, -0.025828142, 0.28317022, -0.26942074, 0.039435033, -0.0061323647, -0.081485555, 0.15911172, -0.023575447, -0.210206, -0.30716926, 0.044161472, -0.15455653, 0.09823183, 0.18670662, -0.07790079, -0.028947018, 0.07883848, 0.13823774, 0.07275114, 0.09178848, 0.20062627, -0.24892493, -0.24541561, 0.109721415, -0.094530895, 0.121321306, -0.03564554, 0.016052706, 0.17585619, 0.3825063, 0.034324512, -0.14492294, 0.06479031, -0.08648175, -0.052795973, -0.32105362, 0.06883266, -0.052057672, -0.023786776, -0.010098228, -0.12807737, -0.04542977, -0.045743097, -0.030096639, 0.042861234, -0.009407317, 0.1902106, -0.036834326, 0.062568076, -0.21871035, -0.050944928, -0.10978602, 0.103995085, -0.031082064, 0.016888984, -0.2813236, 0.05382374, 0.048252672, -0.15844584, -0.0086643305, 0.07248736, 0.036834817, -0.031367935, 0.14774218, -0.061141297, 0.03235136, -0.10047689, -0.033706985, -0.07405178, 0.008836501, 0.109326504, -0.0006186811, -0.04437908, -0.14860536, 0.03406525, 0.002404273, 0.0049416656, 0.23554145, -0.025301468, -0.065892905, 0.015904745, -0.09453698, 0.018175835, 0.096134245, -0.0048035807, -0.018954478, -0.11371577, -0.056757398, -0.14804478, -0.010007314, 0.067684874, -0.15248899, 0.024236567, 0.3219484, -0.06549732, 0.04192952, 0.039452657, -0.014748541, 0.07526883, 0.03839495, -0.015882416, 0.2476662, 0.0697356, -0.11009482, -0.019761551, 0.07095011, -0.028693939, 0.019976377, 0.02561702, -0.10381055, 0.19742574, -0.039451566, -0.17112283, -0.18116355, -0.047703255, -0.06580738, 0.11031705, 0.07489858, -0.05260957, -0.17156728, -0.08653671, 0.011767723, 0.115943015, -0.06518819, -0.18756373, -0.005330051, -0.006144694, 0.0614082, -0.027756637, -0.03318229, -0.18366879, -0.031905316, 0.09604439, -0.01641218, -0.030874636, -0.06705017, -0.18488994, -0.041582488, -0.015677167, 0.15352143, 0.05347366, 0.0073695276, -0.020676091, 0.19647263, 0.15960477, 0.025571723, 0.025721628, 0.04015486, -0.07767031, -0.09764301, 4.577551e-05, -0.13766181, 0.04219747, 0.02907367, 0.08131003, -0.08414217, 0.19641843, 0.022066988, 0.11344207, -0.13661423, 0.16230403, 0.28144225, 0.035651863, 0.045197956, -0.07178073, -0.009401025, 0.07824813, 0.08391088, -0.10831165, -0.050474662, -0.17719527, -0.053726573, 0.07366318, 0.14146167, 0.17696695, -0.055646818, -0.21109833, 0.0058591524, 0.021896232, -0.09443211, 0.14463058, 0.07339535, -0.08361115, -0.052552182, 0.14269045, -0.026747983, 0.0458076, 0.018919205, 0.15825339, 0.073573634, -0.051104378, 0.23438537, -0.022895025, -0.12829079, -0.1359615, 0.045450464, 0.14049552, -0.219272, -0.107228935, 0.04018332, 0.03360957, -0.15490484, -0.007873414, -0.13503997, 0.15870637, 0.15562372, -0.004077161, 0.28540102, 0.118168265, 0.07796212, 0.21486191, 0.10148955, -0.08222447, -0.42560324, -0.0869476, 0.1484443, -0.045482323, 0.016884759, -0.1716364, 0.07918132, 0.06944181, 0.0015686036, 0.35380176, -0.20518672, 0.053283326, -0.013708018, -0.018791532, 0.102730796, -0.14032105, -0.08787184, -0.043983538, 0.08959444, -0.031649195, -0.001431674, -0.12738279, -0.040128034, 0.07665069, 0.13758488, 0.01119811, -0.0032193195, 0.104450375, 0.028642016, -0.01817135, 0.058415145, -0.16805902, 0.094931036, 0.07311942, -0.20494962, 0.07418645, 0.03186681, -0.025809348, 0.059388027, 0.044026148, 0.09256163, 0.017768571, -0.085844725, 0.056511212, 0.02338355, -0.07399351, 0.05703759, 0.21990378, -0.19890499, 0.15978087, 0.1843189, 0.09104285, -0.1040232, 0.16806723, -0.024362596, -0.030367857, 0.24686556, -0.03144484, 0.15179771, 0.04065387, -0.084737055, -0.0020364276, 0.08171079, -0.011249134, -0.3008964, -0.0037925716, 0.14859293, 0.05945667, 0.019817596, 0.06768031, 0.10182636, -0.010253931, 0.24822213, -0.05342276, 0.18806277, 0.09547689, -0.14960538, 0.014324977, 0.014386008, -0.008619504, -0.21896434, -0.043062855, 0.09011094, -0.061361104, 0.028558359, -0.020351242, 0.01892171, 0.004414858, -0.089878514, 0.004260091, 0.09328839, 0.0021986999, -0.1119105, 0.010487968, -0.029257152, -0.06215564, 0.057339393, -0.0036647313, 0.00062684866, 0.052711282, -0.0018195808, 0.16617419, 0.046865728, -0.008377903, -0.04329726, -0.081179954, 0.008469696, 0.0556651, 0.038336944, 0.11990159, -0.015345899, 0.18992075, 0.027702985, -0.052717146, -0.06636796, 0.1533688, -0.074901044, 0.015913768, 0.051440995, 0.04080535, 0.13961402, -0.052360695, -0.043781314, 0.08070636, 0.026034042, 0.05848236, 0.022690132, 0.07624075, 0.0044527277, -0.16124141, 0.06358656, 0.05471563, -0.048455138, 0.4463602, -0.100093625, -0.039831087, 0.15421084, -0.10069083, 0.13361497, 0.059291802, -0.08425539, -0.03823321, 0.16188991, 0.0033190788, -0.23356743, 0.04994555, 0.12169786, -0.17829086, -0.042487036, -0.009650459, 0.01755496, -0.09125316, -0.017128516, -0.005105649, 0.009886986, -0.12879086, -0.18480317, 0.059193537, 0.11024621, 0.07986224, 0.09291963, 0.06254843, -0.02814748, -0.03649232, -0.071866654, 0.2418513, -0.008989764, 0.027922925, -0.029377628, -0.084839165, 0.023307715, 0.0018439795, 0.05011684, -0.025123779, -0.0056918333, -0.29402065, 0.09567546, -0.0290034, -0.007082715, -0.021255739, -0.08735956, -0.19891717, 0.12291324, 7.641705e-05, 0.029595578, -0.07276139, 0.16303606, 0.026862346, -0.012736135, 0.048882354, 0.085889824, -0.06995375, 0.0272389, -0.093128294, -0.0524312, 0.21945131, 0.009120819, 0.18318135, -0.13206387, -0.08940603, 0.14343713, -0.02959253, 0.041106705, 0.09104892, -0.0019278413, 0.023061737, 0.17616814, -0.031863518, -0.31546926, 0.06583207, 0.09024837, -0.06350961, -0.04923474, -0.03919806, -0.09701526, 0.06420279, 0.11756846, 0.18656854, -0.015718155, 0.027373971, 0.18250158, 0.07067667, 0.13558327, 0.10783651, 0.030184653, -0.056313213, -0.029039668, -0.06795393, -0.0024669543, 0.048783243, 0.091863275, 0.09690869, 0.101739764, -0.08849555, -0.13251422, -0.06799719, 0.08148817, 0.16418052, 0.06006748, -0.09231561, -0.14303224, 0.036147796, 0.036498047, 0.1095609, -0.06103748, 0.02409064, -0.048892967, 0.07005665, -0.02016949, 0.021484021, 0.15144901, 0.0801006, 0.10818478, 0.22332989, 0.053561203, -0.023536853, -0.2924766, 0.23358412, 0.14312801, 0.0500817, 0.023269955, -0.12818581, -0.32981515, 0.15458545, 0.11491014, -0.088146806, -0.05666001, -0.13670282, 0.057097975, -0.06329494, 0.47934747, 0.02009988, -0.3353242, 0.032551017, 0.11588348, 0.012216753, 0.039938793, -0.11478402, 0.013280502, -0.029742585, 0.20573904, 0.2782035, 0.112914816, 0.07085494, -0.08226123, 0.030227875, -0.080974616, -0.1288603, -0.048768505, 0.039924756, -0.47602153, -0.0065642144, -0.035245284, -0.13722439, 0.035481118, -0.016275277, 0.017596545, -0.071733326, -0.017797796, -0.057395227, 0.11788752, -0.019855155, 0.042447306, -0.05067206, -0.4945345, -0.059034143, 0.22715074, 0.048470277, -0.0354654, -0.022336336, 0.14427626, 0.3426025, 0.04070039, -0.013922519, 0.036856078, -0.054976016, -0.14786121, 0.05387865, 0.08817058, 0.08331245, 0.03697057, 0.05941456, -0.077729374, 0.18503049, -0.07913114, 0.32303634, -0.12823805, 0.20389162, 0.038630426, 0.12883836, 0.15945843, 0.054677516, 0.053288244, 0.017623197, -0.057611063, 0.10918609, -0.20760396, -0.0769998, 0.09049967, -0.10283688, -0.03169429, -0.09914226, -0.049193405, -0.02362963, -0.03885505, 0.09621806, 0.034603365, 0.11342726, -0.11473057, -0.02463025, 0.06154206, 0.026632832, -0.031564564, -0.013160634, -0.121415064, -0.079496585, 0.025813997, -0.10484636, 0.073792644, 0.13910921, 0.1322101, -0.018399129, 0.13072595, 0.027330115, -0.070219874, 0.091891915, -0.009129155, 0.025429, 0.020592865, 0.03241715, -0.013187469, -0.019540887, -0.015574413, -0.21818535, 0.10448931, 0.065705605, 0.04943735, -0.0669211, -0.21686462, -0.09793058, -0.0006769238, -0.01596169, 0.07740529, 0.01808057, -0.16713104, -0.040327627, -0.04218878, 0.1659983, 0.06791754, 0.3249213, -0.19576299, -0.07229506, 0.13119934, -0.000167637, 0.0946552, -0.12621196, -0.0341669, -0.025452882, 0.3072877, 0.112421684, -0.14047581, -0.039788578, 0.23506948, 0.037253447, 0.044165187, 0.075653955, -0.02310546, -0.10066341, -0.13406534, 0.14924736, -0.005070737, -0.27349094, 0.024882682, 0.056232758, -0.08081361, 0.038702868, 0.04860575, -0.041182727, -0.17148107, -0.11246861, -0.06601126, -0.0026125368, 0.07756243, 0.16968358, 0.059680883, -0.11497689, -0.078365356, -0.08140731, 0.113968685, -0.01160021, -0.00392546, -0.35620648, 0.035307527, 0.10420751, -0.04204276, 0.0020857516, -0.061776243, -0.10400668, 0.0064382567, 0.07577964, 0.052017517, 0.039093237, 0.045818932, -0.1729217, -0.027230583, 0.063851364, -0.015628567, -0.0971646, -0.16636021, 0.036965128, -0.032356527, 0.17355937, 0.06498816, 0.27779374, -0.31339923, -0.05280466, 0.22270507, -0.17538515, 0.039809566, 0.0033117337, 0.17282595, -0.06145922, 0.08827017, 0.035542436, 0.0009842647, -0.011237348, 0.38747764, -0.2035156, -0.000632979, 0.03241465, -0.06208919, -0.007484509, 0.11750959, 0.17046489, -0.032831103, -0.09016184, 0.10251415, -0.03364585, 0.12835182, 0.30279037, 0.034596223, 0.0024290814, -0.11990344, -0.022617867, -0.020486362, -0.031231726, 0.0460385, 0.32239413, -0.04304878, -0.10142715, 0.07769706, 0.05958938, 0.06330448, 0.17278759, -0.032578863, 0.12583973, -0.23606649, -0.055941936, -0.020191599, 0.03922538, -0.09505789, 0.07806275, -0.081001736, 0.21369022, 0.09146937, -0.010555397, 0.07416237, -0.022014208, -0.07893395, 0.09633009, 0.13271828, -0.09797327, -0.22056893, 0.28031707, 0.055894066, 0.09685906, -0.038163055, -0.035938904, -0.39976373, 0.03651338, 0.25385496, -0.005263387, 0.10419439, 0.11873494, -0.0070136352, -0.07840055, 0.3277088, -0.053665373, -0.11121686, 0.0021940696, 0.30194116, -0.17839475, -0.06264707, -0.092464946, -0.03671502, 0.050562702, 0.10852353, 0.1690182, 0.05522354, 0.27273035, 0.11326711, 0.0024744743, 0.1290919, 0.033986483, 0.05974256, -0.051082913, -0.019231182, -0.06132616, 0.004926987, -0.040600084, 0.015409538, 0.062512614, 0.037998565, -0.10589295, -0.055522606, 0.024651166, 0.36134255, -0.030829728, -0.036978517, 0.057839137, -0.23025666, -0.0012398305, 0.17348519, 0.27601352, 0.18263263, 0.030263912, 0.07633479, 0.23418406, -0.19282156, 0.018518625, -0.009536778, -0.1485824, 0.03156598, 0.14334789, 0.004024475, -0.008470561, 0.0132405665, 0.051896002, 0.027988916, 0.11052208, -0.027638672, 0.012132144, -0.18458843, 0.017621065, 0.31290254, -0.033140015, 0.07764518, -0.0012735637, 0.061620593, 0.06586348, 0.10767291, 0.2908366, -0.118967056, -0.035352234, 0.17077005, -0.23353994, 0.0456245, -0.15543951, 0.052910373, 0.003091645, -0.0062481975, 0.09836118, 0.008899078, -0.2428859, 0.10094683, -0.055650916, 0.18814792, -0.10510764, 0.056882452, 0.049474217, -0.0401163, 0.044478893, 0.059990384, -0.0141037, -0.06442118, 0.2652716, 0.07395344, -0.016631331, -0.12197828, 0.028858365, 0.07828502, 0.12847793, 0.073658094, 0.042814247, 0.19005218, -0.29749906, 0.3121897, 0.10546586, 0.10577634, -0.08913467, 0.08913062, 0.17889687, -0.08337096, -0.055959582, -0.16140237, -0.11947818, -0.012250035, -0.0749707, -0.0054448554, 0.034831185, -0.045550685, 0.19447044, -0.1344392, 0.019850552, 0.07135494, 0.21414895, -0.16602373, -0.03017834, 0.3978165, 0.035810973, 0.020179596, 0.07222352, -0.06723926, -0.040285103, 0.039399866, 0.17726253, -0.13023195, -0.020342182, 0.11079841, -0.17192481, 0.051262595, -0.12795126, 0.053001054, 0.043200813, -0.052616943, 0.08776598, -0.019619752, -0.22382063, -0.017256152, -0.003191286, 0.16159333, -0.04404707, 0.045594305, -0.003094729, -0.1542097, 0.01802969, 0.0030441657, -0.047380667, 0.07488209, -0.033265557, 0.018675402, -0.083699696, -0.15654552, -0.041089512, 0.1416777, 0.104984395, 0.039409988, -0.083722875, 0.29195735, -0.16561626, 0.06457833, -0.21365166, -0.062452715, -0.009855823, 0.0004313654, 0.21659832, -0.0760461, -0.048306208, -0.23955551, 0.014484933, -0.11483333, -0.08038046, 0.07531382, -0.053686015, 0.09410029, 0.2411686, 0.010959765, 0.09834172, -0.014509856, 0.16447069, -0.03350661, 0.023859536, 0.052552663, 0.014470221, 0.16618237, 0.0161172, -0.07544912, 0.064102136, 0.15394303, 0.0005744776, 0.04773956, 0.0075329784, 0.13012002, -0.19801964, -0.009763901, -0.27664006, -0.07871954, 0.0043707513, 0.14042106, 0.012734895, -0.028338771, -0.06470182, -0.097521976, 0.03862053, 0.38649282, -0.08907374, -0.012114833, -0.033721164, -0.16715479, 0.03145658, 0.010725619, 0.18572067, -0.015129556, -0.05228186, 0.02472452, -0.058532488, -0.21643251, -0.030283324, 0.18520817, 0.025734195, 0.012189267, -0.0029991549, 0.14410855, -0.2540851, 0.29375896, -0.047856215, -0.045117848, -0.07534358, -0.05312596, 0.07207436, -0.18843974, 0.04512269, -0.1781537, 0.16190127, -0.19247717, 0.013506363, -0.060773738, 0.20878269, -0.1876787, 0.12575029, 0.006503038, 0.31733206, -0.032600563, 0.16972743, -0.016244868, 0.0072708866, 0.018305581, 0.04227963, 0.4222494, 0.092129946, 0.10184204, 0.034782413, 0.2587573, -0.06399069, 0.044686474, -0.015578026, 0.16801049, -0.4334825, -0.06398721, -0.0415382, -0.009485714, 0.036694452, -0.010498456, -0.12586847, 0.07145399, 0.0027552908, 0.060517866, 0.03926768, -0.050136812, -0.051248945, 0.063870266, 0.016164988, -0.04020161, -0.032242015, 0.02276875, 0.030445846, -0.03333123, -0.015510763, -0.004637119, 0.026111536, -0.10552058, -0.0193137, -0.098732464, 0.10176798, -0.057925582, 0.109619565, -0.0979828, -0.0837379, 0.15220325, 0.012924576, 0.09619591, -0.03898992, 0.03634309, -0.10001802, -0.0077919783, -0.065994695, -0.043137137, 0.01815233, -0.14871031, -0.014243018, 0.023915745, -0.019929184, -0.050246887, 0.065853834, -0.08098276, -0.0864849, 0.036836714, 0.025883323, -0.03285444, 0.050619967, 0.008741769, -0.05969284, -0.118197195, 0.007856339, -0.0021612856, 0.008750327, -0.040299706, -0.04043202, -0.009152686, 0.07091209, -0.005154324, -0.15144625, 0.027519524, -0.148202, 0.06338993, 0.051200926, -0.012397264, 0.025935408, 0.05475965, 0.0172882, -0.005185877, 0.012819022, 0.057890348, 0.1010304, 0.06990112, -0.026781056, 0.039875254, 0.032235477, -0.055419564, -0.03942062, 0.04287497, 0.07497134, 0.04677441, -0.0005881166, -0.09870076, -0.007874891, -0.033381414, 0.022965001, -0.0560853, 0.12964663, -0.12229297, -0.04012247, 0.026511813, 0.03727272, -0.044580713, -0.010319973, 0.11983786, 0.06670899, -0.06515018, 0.02816803, -0.005893598, 0.1521963, 0.029492004, -0.14808328, -0.044436432, -0.05489579, 0.04231352, -0.06279355, -0.106493786, 0.04925701, 0.042891562, 0.06391633, -0.033189707, 0.0069979224, -0.13289258, -0.07026418, -0.104486205, -0.025355343, 0.012504325, 0.065102056, -0.023207264, -0.07632696, -0.072577074, -0.018697172, -0.13842806, -0.15739542, 0.00743559, -0.067446075, -0.06802853, -0.06796509, -0.12997249, -0.09006748, 0.062629625, -0.04645941, 0.036244653, 0.008750856, -0.016800731, 0.03745749, -0.058095355, -0.033997897, -0.06688981, 0.050086807, -0.0677146, -0.012258795, -0.08180882, 0.17424838, 0.045218967, 0.04930248, -0.070819415, 0.024380475, -0.15410475, -0.06792962, 0.025038473, -0.0019408658, -0.01825041, -0.13206387, 0.034795053, -0.13601783, -0.05402483, -0.09662025, -0.0046011796, 0.0046580755, -0.019009281, 0.06341146, 0.033122003, 0.06958791, 0.13451965, -0.093032, 0.0006983802, -0.053936407, -0.09042594, -0.047443613, -0.057939485, -0.17201738, 0.05661297, 0.037498184, 0.049763415, 0.0046250224, -0.08724636, -0.04412198, -0.018708708, 0.04082556, -0.017537953, -0.06301985, -0.13548842, 0.06309637, 0.089770116, 0.07029612, -0.092246376, -0.09929948, 0.0347054, -0.07860576, 0.000767082, -0.052472956, -0.15301193, -0.101640806, -0.027162071, 0.032141812, -0.10033282, 0.036892824, 0.005451189, -0.15972075, -0.07206076, -0.06574898, -0.058309563, -0.0024244739, -0.061018042, -0.033844657, -0.04616354, -0.13835889, -0.012238324, 0.044788618, -0.022631533, 0.0033155158, -0.030793987, -0.010306818, 0.013869382, 0.08644949, -0.11167394, 0.07370382, -0.10933224, 0.020596653, -0.029950522, 0.0060131084, -0.097267844, 0.1272739, -0.086307, 0.071492836, -0.008956705, -0.029109892, 0.094711, -0.1952528, 0.028616913, -0.08713286, 0.06880552, -0.054004733, -0.13426225, 0.058296066, 0.049056932, 0.077875614, 0.0025727472, -0.07392595, -0.19616435, -0.04219988, 0.03574313, 0.060475275, -0.026126932, 0.046212815, 0.037745237, 0.023408392, -0.15212393, -0.008393317, 0.06566164, -0.009804232, -0.018367253, -0.10528875, 0.03541065, -0.011286281, 0.033022285, 0.053815763, 0.012441471, -0.050449055, 0.042745665, -0.06559293, -0.14347231, -0.012086963, 0.019518994, 0.035018355, -0.0056498745, -0.06560177, 0.01937905, -0.14020061, -0.06536815, -0.03130357, 0.036464885, 0.013075143, -0.10014872, -0.07013819, -0.04801917, -0.008833704, -0.00618273, 0.12481025, 0.04705512, 0.026414806, 0.03873991, -0.06368726, -0.029320838, 0.034367748, -0.13025379, -0.10935066, -0.0107450485, -0.047450833, -0.004803118, -0.0018586395, -0.11066744, -0.04112738, -0.05688745, 0.026882747, 0.044056445, 0.021408191, 0.030060437, 0.0110506695, 0.03025841, 0.021576347, -0.075405985, 0.008787427, -0.122545645, 0.0995932, -0.088120215, 0.06817897, 0.053638984, 0.059077814, -0.18478991, -0.064034864, -0.0061776526, -0.07156396, -0.034461215, -0.10449696, -0.06288527, -0.03171216, 0.045857668, -0.013814531, 0.0445137, -0.020114558, -0.03346513, -0.11644689, -0.004061591, -0.03204793, 0.13364649, -0.13609464, -0.07171506, 0.047879815, -0.03976128, -0.10064015, 0.013006233, -0.027502129, -0.04565646, -0.050831817, 0.052167512, -0.008933611, -0.046347585, 0.016966522, -0.060040213, -0.054161657, 0.020090908, -0.03592695, -0.1103123, 0.037665706, 0.03784065, 0.047241215, -0.15971453, 0.13489482, -0.16457029, -0.09260209, 0.01574184, -0.045570984, -0.0952603, 0.06840405, -0.071671404, -0.09968263, 0.038286895, -0.008740785, -0.0056183743, 0.0032579633, -0.045271866, 0.04774332, 0.019578092, 0.022731632, -0.09510297, 0.031036263, -0.016819715, 0.056665275, -0.14702368, 0.055834293, 0.052689567, -0.06341016, -0.06487808, -0.010169301, 0.07139733, 0.05073253, 0.045858137, -0.079756886, 0.026084267, -0.0561626, 0.0043592006, -0.04092409, -0.10454616, 0.03522811, -0.009845167, -0.09943002, -0.07715714, 0.010163382, -0.06579158, -0.016638976, 0.05582151, 0.01113908, -0.04529669, -0.12812285, 0.030419603, -0.033209395, -0.070953965, 0.0045971377, -0.03615956, -0.034919914, -0.017466152, 0.0008957982, -0.13159133, -0.016134752, -0.046552047, 0.042352144, 0.083116956, -0.025856424, 0.064297184, -0.15663189, -0.117308766, -0.03199177, -0.077901945, 0.022329925, -0.07768085, -0.025082752, -0.089809276, 0.028150432, 0.121780366, -0.03302465, -0.028268293, -0.049969286, -0.04298383, 0.03645016, -0.023007212, -0.17370358, -0.03501903, 0.041861042, -0.020295575, -0.12614867, 0.035796, -0.0046967645, -0.10812476, 0.026904263, -0.12027833, 0.046749637, -0.102219716, 0.10742822, 0.068163745, 0.0014656037, 0.0915837, -0.07644349, -0.020188395, -0.07149053, 0.011924818, 0.00022676587, -0.20790623, 0.027538113, 0.026257105, -0.0033351784, 0.011816364, -0.06393101, -0.097808294, -0.053856228, -0.047059126, 0.028622732, 0.013297916, -0.14597419, 0.07217343, 0.038176417, -0.013541914, -0.11197823, -0.047596566, 0.00025277585, 0.17133267, -0.0043456927, -0.04212099, 0.008340244, -0.034474503, -0.0036648973, 0.07401091, 0.1362676, -0.08004732, -0.118899934, -0.109350935, 0.10187276, 0.038937137, -0.0464646, 0.010269907, -0.022645876, -0.04013172, 0.16098592, 0.042417426, -0.040176548, -0.026383962, -0.12952963, 0.004039402, -0.021230787, -0.1650722, -0.10077187, 0.0017086267, -0.073992416, 0.008111032, -0.12341576, -0.07141531, -0.14501248, 0.09388712, 0.06692819, -0.11214299, -0.040490966, -0.01779949, -0.07548849, -0.080580525, -0.061287872, 0.0867403, 0.005045445, 0.06372817, -0.11948258, -0.065773845, 0.032321498, 0.013827509, -0.02178483, -0.04342132, -0.18564796, -0.054141026, 0.05473396, -0.027897295, 0.03135928, -0.009392284, 0.067842156, -0.01721983, -0.07056438, -0.010980867, -0.08658651, -0.06481809, 0.0020906485, -0.04484463, -0.060358062, 0.008410591, 0.03772497, 0.006655594, 0.04371854, 0.054155022, 0.098873615, 0.046723288, -0.05639744, 0.16389655, -0.07810874, 0.010836709, 0.06782021, 0.050527487, -0.0054860297, 0.027296811, -0.069055855, -0.08278838, -0.00967835, -0.16172072, -0.09237054, -0.06496735, 0.12263243, -0.047426227, 0.039354794, 0.067759156, 0.0060903723, 0.035526425, 0.047195803, -0.058798518, 0.008983898, -0.07204212, 0.059674215, 0.008433835, 0.05953391, 0.042527046, -0.036368415, -0.060493335, -0.06095591, 0.07617938, 0.057719707, -0.06310706, 0.02603639, -0.069877364, -0.10097027, 0.013941586, 0.018771566, -0.03611895, -0.05023458, -0.029661428, -0.09959173, -0.13806535, 0.023113705, -0.14554963, -0.07423533, -0.024309069, -0.038374398, 0.053583663, 0.018974343, -0.00032186508, 0.009671228, 0.010913837, -0.045142397, 0.022956865, 0.009034425, 0.11587911, -0.03082937, -0.02511404, 0.016431903, 0.07163645, 0.005077055, 0.08167339, 0.025967354, 0.12568405, 0.007114086, -0.071912766, 0.072922364, -0.05369372, -0.0923323, 0.048459724, 0.014312848, -0.04636082, 0.05442994, -0.08449225, 0.0069272695, -0.018454824, -0.05219886, -0.07503123, 0.11991464, -0.09375383, -0.12308934, 0.051914603, -0.08832518, -0.0054959874, -0.017709186, -0.063059, 0.012657239, 0.010892642, -0.028699148, 0.076887354, 0.021025918, 0.01931697, -0.015542115, 0.00060400355, 0.06411001, -0.020827897, -0.05035136, 0.03955558, -0.023310745, 0.03695511, 0.059541836, -0.06017166, 0.07129351, -0.0028747767, -0.08821197, 0.0501561, -0.0022426993, -0.18732998, 0.040080655, -0.06921637, -0.052103534, 0.004703653, -0.1270166, 0.07107814, -0.09687691, 0.039273586, -0.11254348, 0.024527958, -0.07102659, 0.05943547, -0.024168525, -0.05174785, -0.07214602, 0.04890068, 0.0648305, -0.030942759, 0.11467498, 0.11262586, -0.21754189, -0.030385802, 0.031205595, 0.042948972, -0.012468328, 0.05662984, 0.016270213, -0.07185984, 0.026776038, 0.016319772, -0.14850904, 0.0023820773, -0.08590967, 0.03545906, 0.24446867, -0.15505171, -0.13121992, -0.0041185543, 0.22240977, -0.12638661, 0.10684028, -0.036199275, 0.091605745, -0.12374829, 0.008039586, 0.0064785485, 0.024095207, 0.01910741, 0.12856154, -0.08752933, 0.005669102, -0.041972112, -0.15932813, -0.04434766, -0.1802692, -0.053271145, 0.0057763085, -0.0400986, 0.018622303, 0.0731837, 0.021415418, 0.016066419, -0.057297185, -0.04543807, -0.06824184, -0.009489536, -0.044254728, -0.031126194, 0.0108918585, -0.010248631, -0.0273165, 0.04589108, -0.03352764, -0.04697739, 0.023194402, 0.042248417, -0.051374115, -0.06550865, -0.020053392, 0.041561216, -0.0039194925, -0.027794616, 0.00925974, 0.117129184, -0.07932125, -0.07188761, 0.10686999, 0.03135175, -0.19869405, -0.0469856, 0.041143864, -0.124590866, 0.026218437, 0.088839434, 0.0027417925, 0.00875923, -0.008583558, -0.08160388, -0.019705765, -0.005068586, -0.33162448, 0.057760224, 0.16887575, -0.078339905, 0.109821714, 0.048579942, -0.11023549, -0.10343166, 0.020746566, 0.019589573, -0.058832884, 0.06214983, 0.16227432, -0.05928502, 0.041383237, 0.10665016, -0.11788932, -0.0009755716, -0.13544033, -0.0051498786, -0.058836266, 0.06318095, -0.045063574, -0.06569941, -0.15986806, -0.09351805, -0.031416174, -0.15751497, 0.044495836, -0.045720823, -0.018399563, 0.055047326, -0.055716585, -0.058390677, -0.09896239, -0.060835067, 0.015434177, -0.044349995, 0.038802475, -0.089061774, 0.055740103, -0.07199587, -0.07907551, -0.034933247, -0.045887474, -0.037015516, -0.19762087, 0.049480624, 0.041659985, -0.032392476, -0.065736294, 0.070568316, -0.13044237, 0.030738955, 0.05949387, -0.04324967, -0.121999584, -0.04914938, -0.2026807, 0.034309402, -0.011064047, -0.018780243, -0.054247368, -0.039167784, 0.048241414, 0.05483757, 0.012259323, 0.05057141, 0.022703782, -0.05518332, -0.065141365, -0.07251693, 0.0069160834, 0.0067674746, 0.051751375, -0.053360935, -0.002018474, 0.058839913, -0.06887737, 0.022415288, -0.01770092, -0.051952846, 0.015166902, 0.0336363, 0.008567326, -0.012122812, -0.1409253, 0.058087513, -0.14330104, -0.025268681, -0.02273104, -0.118909255, -0.07561267, -0.0547178, 0.013529599, -0.0326489, -0.05167705, 0.005110875, -0.043673784, 0.048182424, 0.10311675, -0.029680893, -0.042023405, 0.075948, -0.07307114, -0.047456786, 0.15756916, -0.055877827, -0.08271569, 0.09556174, -0.02613326, 0.08695573, -0.045139957, -0.021901662, -0.10018682, -0.00985331, -0.06589333, 0.08312039, -0.02524389, -0.042412642, 0.006711363, -0.08836665, -0.14596727, 0.010365732, 0.029256478, 0.08926171, 0.070391774, 0.049266182, -0.1029666, 0.033694327, -0.024812542, -0.060946446, -0.15183996, -0.052686006, 0.058094054, 0.017964145, 0.035860874, 0.100122556, -0.06922877, 0.005300878, -0.027794477, 0.0646845, 0.03060434, 0.05790472, 0.039660316, 0.055611715, 0.040169608, 0.01931052, 0.018394858, 0.0064142244, -0.11500712, 0.043560028, -0.020969078, 0.028434625, 0.06335689, -0.11374995, -0.038009346, -0.013073709, -0.068574294, 0.08082997, 0.02556873, 0.005091049, -0.015504536, -0.004137972, 0.0017268667, -0.016967876, -0.036452122, 0.0052568596, -0.009546757, -0.05758678, 0.059231617, -0.03503388, 0.12205425, -0.03395056, -0.05516807, 0.10612925, -0.0577022, 0.08482074, 0.04245362, 0.079220705, -0.0191914, 0.043814532, 0.06333287, -0.007535108, -0.013651946, 0.034638215, -0.055263843, 0.06585704, -0.14928488, 0.07850947, -0.0089347325, -0.027014358, 0.030959966, 0.04761762, -0.025224382, 0.031250272, -0.04679718, -0.041267075, -0.032185752, -0.039535724, -0.057730414, 0.075479366, -0.06268561, -0.022318548, 0.01891008, 0.10527475, -0.00653746, 0.034663305, -0.05869997, 0.06479336, -0.1258412, -0.071496435, 0.072114006, -0.0035516927, -0.03189611, -0.011092447, -0.05807175, -0.053263593, -0.06676987, -0.14297405, -0.017981801, -0.03805533, 0.006958224, -0.082431465, 0.034865875, 0.055233017, -0.06664113, -0.024211634, 0.025299491, 0.034732576, 0.015788682, 0.048684992, -0.011214785, 0.06825829, 0.041297127, -0.036323123, -0.01224436, 0.086656824, 0.10789809, 0.18052635, -0.06419222, 0.054057628, -0.027992038, 0.02270222, -0.025979018, 0.021320969, 0.04965333, -0.076036245, -0.110044815, -0.025737543, 0.06837677, 0.045429714, -0.067373954, 0.035258755, 0.1654424, -0.013807979, -0.108917296, 0.040733702, 0.19917324, 0.0050192927, -0.0026121163, 0.06535839, -0.05496795, 0.07530567, 0.073026314, -0.006989127, -0.02307567, -0.14614303, 0.10025302, -0.0745495, -0.017951217, -0.026031088, -0.0744534, 0.06044008, -0.17302085, 0.05998215, -0.017762972, -0.022798445, 0.113673285, -0.12989551, -0.12110219, -0.0076434724, 0.03165908, -0.071280815, -0.2352301, 0.020505287, -0.033670925, -0.11312971, 0.36240986, -0.07222286, -0.29762983, -0.00030658764, 0.09945474, 0.037842125, -0.037602257, -0.027138049, -0.03069955, 0.009267256, 0.06383785, 0.015023785, -0.053849466, 0.10950337, 0.1293877, 0.103762306, 0.033635117, 0.1430637, 0.12194339, -0.003621411, -0.21381068, 0.20988996, 0.04666333, 0.11539709, -0.095568225, -0.26951846, -0.10157729, 0.00042379432, 0.071807615, 0.1940367, -0.06204733, -0.16661063, 0.11535612, -0.06936554, 0.055102564, 0.17515719, 0.07999409, 0.055160195, 0.13995297, -0.14780214, 0.056200918, -0.07943817, 0.045066833, 0.10203639, -0.013157968, -0.13944155, 0.03299725, -0.1414651, 0.026628673, 0.012575138, -0.03482851, -0.028086983, 0.06190376, -0.09696448, 0.15327135, -0.037236437, 0.01994653, 0.27628195, 0.044831306, 0.1086564, -0.14644928, 0.05186632, -0.05438438, -0.0054515637, 0.04524874, 0.054476544, -0.2807754, 0.07048094, 0.19874643, 0.13372552, 0.0316916, -0.0003700062, -0.04592312, 0.0557496, 0.13775177, -0.052527227, 0.0282722, 0.04615705, 0.07715439, 0.009164454, 0.094576426, 0.07482799, 0.06852633, 0.023823317, -0.107021235, -0.122851446, -0.028344762, 0.017432582, -0.10862421, -0.047913745, 0.043391623, -0.022495938, 0.067329295, 0.025032334, 0.1264759, -0.14596733, 0.009974916, 0.001476726, -0.26374638, 0.08964931, -0.29479465, -0.017040947, 0.096156836, -0.009219954, -0.0040490455, -0.08938841, -0.09987578, 0.10605562, -0.16042203, 0.026015185, 0.055535402, -0.07912493, -0.16996706, -0.030896738, -0.026405286, -0.016522598, 0.058301505, -0.02209074, 0.17597266, -0.04549741, 0.027094498, 0.17927529, 0.05558017, -0.04376388, -0.14140502, 7.094779e-05, -0.03777048, 0.13823065, 0.12150769, -0.05321178, -0.113016106, 0.065757155, 0.29344594, 0.033738736, 0.011344748, -0.05659042, 0.09036468, 0.016439283, 0.08330401, 0.07413143, 0.1088221, 0.09780142, 0.061629783, 0.15967415, 0.00812296, -0.18177767, 0.020872973, -0.1106931, -0.055565044, 0.13967374, -0.054241516, -0.08704411, -0.10749451, -0.016433997, 0.15967052, 0.030980019, 0.2926959, 0.047519438, 0.038837135, -0.05676714, -0.020861581, 0.025527019, -0.17790577, 0.1624556, -0.0638787, -0.016129073, 0.10818737, 0.07842666, 0.008638325, 0.06760777, -0.009821944, -0.14226647, -0.34459367, -0.23221704, -0.06606372, -0.10447001, -0.0900342, -0.040473185, 0.08994259, -0.059627045, -0.09285779, -0.11122349, 0.0055233184, 0.052652396, -0.048101727, 0.24281724, 0.019848453, 0.08560828, -0.13145168, -0.020567033, 0.025634447, -0.16078895, 0.047610577, 0.05344905, -0.22171915, 0.03376628, -0.0070812185, -0.087164715, -0.011602259, -0.24506244, 0.021101194, -0.0031560683, 0.010709827, -0.012138151, 0.12613657, 0.023277469, 0.0900297, -0.08587434, -0.111455046, -0.09347683, 0.12762803, 0.055095114, -0.12674947, 0.12442781, -0.042071745, -0.30167598, -0.010914542, 0.13519216, 0.15402722, -0.037145834, 0.21763134, -0.110407, -0.11338747, -0.13725702, -0.12526223, 0.087490745, 0.09858751, -0.04784865, -0.013747437, -0.22717203, -0.0022471296, 0.049044516, -0.1211907, 0.08973943, -0.047749445, -0.01830306, -0.19258344, -0.0070327283, -0.06831353, -0.21404183, 0.22273251, -0.025900034, -0.05572829, -0.056609344, 0.007979423, -0.23571953, 0.14401497, -0.053234085, -0.02628588, 0.115609944, 0.035023212, 0.07264931, 0.0039701085, -0.06107761, 0.023966923, -0.08334784, 0.020819534, -0.016304895, 0.040846456, -0.11588434, 0.07052414, 0.019513141, -0.054086592, -0.08960746, 0.018035593, -0.10834254, 0.22069387, 0.0154745625, -0.11151081, 0.2087972, 0.01797647, 0.00576718, 0.09596602, 0.15328428, -0.05187006, -0.02409408, 0.04048891, 0.30170235, -0.050884053, 0.34798813, 0.12569737, -0.13941589, -0.06736042, -0.10060071, 0.008218973, 0.24067262, -0.23746008, -0.11182365, 0.10797702, -0.07161574, -0.21609817, 0.11040523, 0.18667963, 0.15499389, 0.14417087, -0.10849793, -0.040058143, -0.011720412, -0.06722217, 0.011281776, -0.4745367, 0.30623466, 0.08237709, -0.0066803447, -0.004296901, -0.046438854, -0.055152208, 0.069317624, -0.0030547802, 0.06911792, -0.008661251, 0.048613425, 0.12805863, -0.067359224, 0.030721126, -0.2744655, -0.057428237, 0.028036635, -0.004160932, -0.22573274, 0.06408591, 0.0629863, 0.12663195, 0.030494137, 0.13749798, -0.056035478, 0.0012904363, 0.029934958, -0.10908803, 0.14782287, -0.010055851, -0.012821677, 0.14886756, 0.09416167, 0.021614421, -0.026426176, -0.026600294, 0.09851745, 0.12955071, -0.06912773, -0.13644655, 0.044671148, -0.010598811, -0.030680927, -0.046563093, 0.11379473, -0.008551593, 0.082554154, -0.018218866, -0.13180885, 0.031439595, 0.029932719, 0.1331007, -0.009936356, -0.51717967, 0.15661821, -0.092377275, -0.009607957, 0.12014415, -0.033518232, 0.042822756, 0.15129496, 0.054306895, 0.083914205, -0.25604305, 0.057068285, -0.07432668, 0.16242513, 0.102471575, 0.009157628, -0.02331657, -0.056489717, -0.017319402, 0.12253756, -0.081181124, -0.006201822, 0.10877231, 0.037008308, -0.057545714, -0.18700431, -0.14346278, -0.00882207, 0.049914654, -0.032916855, 0.059748616, 0.027344987, 0.08072202, -0.04580374, 0.0616732, -0.13979682, 0.0037246156, -0.039879836, 0.014223166, 0.08252817, -0.010593517, 0.020978998, 0.04937059, 0.16563782, 0.01995884, 0.05092775, -0.046501134, -0.035137266, 0.20468754, -0.043281693, -0.041401885, 0.07524414, 0.043613087, 0.036688935, -0.0028638486, 0.0319966, 0.04782261, 0.053728595, 0.093197, 0.017614972, -0.05063716, 0.017695673, 0.0153319305, -0.0070252772, -0.16534792, 0.056181192, 0.007760265, -0.021825971, 0.20385478, 0.02335906, -0.009418749, 0.24708568, 0.048578024, 0.30791333, 0.033958305, -0.06758244, -0.06374849, 0.12465949, 0.034162544, -0.047609508, -0.04629132, 0.027320556, 0.04196696, 0.09735875, 0.060767084, 0.022695914, 0.106664106, 0.041008446, 0.06481967, -0.11515393, -0.093169, 0.0550612, 0.01804006, -0.044054493, 0.12708496, 0.019706406, -0.04414679, -0.007114834, 0.08047021, -0.037364773, -0.040324017, -0.12278468, 0.07615952, -0.14340633, -0.04717133, -0.070432805, 0.003441793, 0.15336247, 0.049429607, 0.18950878, -0.022776982, 0.060405105, 0.06515923, -0.026685107, -0.27314025, -0.044147927, 0.04510565, -0.08966684, -0.21495722, 0.062390935, 0.12429823, -0.058174558, -0.11552397, 0.35549632, 0.18701524, -0.24352857, 0.05775697, 0.008079041, -0.08038945, -0.004665842, -0.024281602, 0.0050365976, 0.12865509, -0.15914257, -0.063663244, -0.01642855, -0.077406034, 0.06262994, 0.014875747, 0.12978224, 0.038711328, 0.25706974, 0.06651182, 0.0674649, -0.045056574, 0.048602946, 0.0603863, 0.026223091, 0.14951187, -0.03696798, 0.23527624, -0.22298764, -0.022422582, 0.18752846, 0.15763475, -0.004057187, 0.0072517865, -0.032629527, -0.035337713, 0.02593103, 0.17403553, -0.03038125, -0.13352518, 0.02426263, -0.059647206, 0.16544747, 0.019500121, -0.07100557, 0.1444395, -0.029531771, 0.17939475, 0.32373154, 0.050888486, 0.006551637, 0.047245413, 0.01454403, 0.1524217, 0.17096494, -0.03159552, -0.096106954, 0.07908673, -0.009150544, 0.012811152, -0.18294789, 0.013013256, 0.028863743, 0.089757904, -0.2146931, 0.10113795, -0.17190911, 0.048531745, -0.051124718, -0.16465147, -0.04135425, 0.1450688, 0.009341932, 0.023235653, -0.17057617, 0.027525155, -0.103389464, 0.01223905, 0.19514757, -0.28840056, 0.27364272, -0.0072268015, -0.04163899, -0.005540049, -0.051364623, 0.06994741, -0.07663754, -0.025938082, 0.12666194, 0.105031006, 0.017405147, 0.036998924, -0.07894078, -0.047263738, -0.1924083, 0.046602253, -0.0032456345, 0.03390185, 0.011450767, -0.09148434, -0.048476376, -0.17229745, -0.07134251, -0.05583589, -0.01663396, -0.027404474, -0.065346085, -0.0029446608, 0.23988031, 0.068012424, -0.0028174561, 0.044674434, 0.24201326, 0.034057617, -0.04556565, 0.24471068, -0.021643514, 0.024799503, 0.028466165, 0.06351351, 0.028236385, 0.048103277, 0.14385183, -0.036458753, 0.16878073, 0.16466239, 0.040913563, -0.025961844, 0.008300656, 0.09163153, -0.10372336, 0.1295483, 0.020862857, -0.37813088, -0.08705628, -0.06938542, 0.016332103, 0.18649511, -0.14719765, 0.038294468, 0.10233741, 0.012631803, 0.008846761, -0.23050763, 0.008215463, 0.051728312, 0.057387248, 0.03655733, -0.032885313, 0.03621218, 0.06093466, -0.053790912, 0.04770151, -0.27434382, -0.009715633, 0.06772681, -0.017571993, 0.0009566877, -0.20268257, -0.2213809, -0.043802164, -0.060896054, 0.07502531, -0.107945, -0.06736089, 0.048630618, -0.04774473, -0.10161261, 0.011113914, 0.039952543, 0.030234272, -0.029538793, 0.16742595, 0.05538402, 0.025108216, 0.2619795, 0.28575942, 0.050172992, 0.116086744, 0.06721175, 0.06667612, 0.16983792, -0.04564911, 0.07615381, -0.043556157, 0.043495134, -0.089512095, 0.09436999, 0.025828727, 0.09662685, 0.047525946, 0.049197935, 0.14222327, -0.0026682634, -0.10097264, 0.15590368, 0.018835848, -0.18546331, 0.03623255, -0.028296834, -0.009759302, -0.09790226, -0.10465771, 0.00829791, 0.14743543, -0.0079772845, 0.24299537, -0.025935994, 0.07982531, -0.10130304, 0.016718514, 0.062295586, 0.031568013, -0.015924253, -0.06455304, -0.13644667, -0.10571405, -0.03585355, -0.0013651835, 0.06320499, -0.03810762, -0.03791509, -0.10995466, -0.00625332, 0.044017367, -0.04769892, 0.17736113, -0.036539324, -0.08481278, -0.13518915, 0.100437246, -0.22601633, 0.038091842, 0.048304807, 0.12437915, 0.077706955, 0.058780085, 0.00804227, 0.041086785, 0.049406815, 0.24351415, 0.17253889, 0.1303287, 0.13276078, -0.1032654, 0.041137945, 0.05790268, 0.024478616, -0.22119682, -0.029137231, 0.04109317, -0.051708058, 0.039434657, 0.04812968, -0.009067965, -0.05509523, 0.21432257, -0.03522034, -0.15869346, -0.10225039, 0.009425892, 0.012202787, 0.0047482783, 0.13876782, -0.16909383, -0.090392, -0.08254757, 0.11767073, 0.0029762876, 0.016444966, 0.26894096, 0.0506415, 0.18987808, -0.0050471984, 0.16039713, 0.15491576, 0.07790433, 0.3184433, -0.0005329773, -0.096620694, 0.060731355, 0.18563318, 0.038792644, 0.32817835, -0.048441663, -0.028098747, 0.039892953, 0.044763792, -0.011700439, 0.019720739, -0.09521302, 0.10105431, 0.023121059, -0.04668622, 0.0003370181, -0.0055781538, 0.044471312, -0.018621793, 0.39950493, -0.0413871, -0.16779955, 0.023422925, -0.023806967, -0.23627734, 0.16027553, -0.24007268, -0.12188495, 0.020324329, -0.14147808, 0.11657194, 0.057246115, -0.018831316, -0.071858525, 0.050074767, -0.032186467, 0.26747403, -0.22325511, -0.16544238, -0.059271593, 0.29969016, -0.009779557, 0.2752571, 0.12791671, 0.118910834, -0.0066339136, -0.037548114, 0.07542542, 0.1108148, -0.16942735, 0.12024225, -0.16968057, -0.08127846, -0.2831376, 0.0041962042, -0.021134375, -0.34849066, -0.045077275, 0.025617462, -0.2159894, 0.31644353, 0.056593373, 0.056263406, -0.006717682, -0.07437745, 0.1902557, -0.03713385, 0.06349424, 0.24134894, -0.22597599, -0.057403687, -0.23321278, -0.19207247, 0.07027841, -0.06140128, 0.11835602, 0.023522587, -0.043441515, 0.09028274, -0.100896955, 0.059297267, -0.055757176, -0.017615346, -0.118910424, -0.05166131, -0.19552182, -0.064983964, 0.064088926, 0.07744182, 0.010504216, 0.022282897, -0.37279823, 0.21771872, 0.024465019, 0.05801976, -0.266189, -0.09482728, -0.24572693, 0.059141345, 0.060937762, 0.0063696555, 0.080831, 0.09076765, -0.052508272, 0.1620435, 0.08489417, -0.014549892, -0.025613341, 0.114799775, -0.069116935, -0.28653523, 0.099129796, 0.103530705, -0.028923383, 0.082290694, -0.14210111, 0.016005822, 0.21642667, 0.016890768, 0.21160513, -0.10100643, 0.046992432, -0.060970422, -0.047485854, 0.2937567, 0.0528964, 0.08606213, -0.031948075, 0.0010608255, 0.08957787, -0.089675814, 0.041400854, 0.15498707, -0.20357107, -0.025581742, -0.14618288, -0.17872456, -0.036698483, -0.023650467, 0.19136027, -0.023352832, 0.0016203381, 0.061121788, -0.04516401, 0.033663988, -0.051101297, -0.058990043, -0.03057412, -0.053955268, -0.091876335, -0.06695479, -0.0143784955, 0.39468318, -0.09256584, -0.10459782, -0.12711424, 0.2673637, 0.16773558, -0.028013254, -0.070087984, -0.041262195, -0.009952949, 0.019246146, -0.00028958666, 0.2156134, 0.075537495, 0.07003334, -0.03668842, 0.10454939, 0.143456, -0.16405155, -0.08631494, 0.022774998, 0.025338273, -0.05831523, 0.08359727, 0.024475884, -0.04403161, 0.1134246, 0.00239011, -0.015965529, 0.2783045, -0.042654864, 0.19660832, 0.020000415, -0.04294185, -0.03913647, -0.071104474, 0.00062070886, -0.013071824, -0.079764396, 0.04375147, 0.050153892, 0.03313046, -0.11478777, 0.024751002, 0.25832564, 0.06534972, -0.039089046, -0.18442126, 0.11646255, -0.01563239, 0.03224357, 0.39987797, -0.07322852, 0.031584557, -0.16966692, -0.0075805234, 0.18249856, -0.09933761, 0.023711715, 0.19423415, 0.0031108686, -0.09211731, 0.22613014, 0.013712739, 0.4904374, -0.012616266, 0.047349613, 0.004278701, -0.13899747, 0.009743588, 0.16307992, 0.013645826, -0.02467841, -0.2053805, -0.071310356, 0.23041226, -0.14075588, -0.00915328, -0.006458164, 0.06698086, 0.08380013, 0.1831203, 0.031751953, -0.10972722, -0.29674122, 0.030403035, -0.029576596, -0.1714951, 0.14220539, -0.22452256, 0.25128216, -0.31037605, 0.032282196, -0.15815009, 0.04888445, 0.22204515, 0.1965348, -0.029772392, -0.019431703, -0.14630435, 0.27212912, -0.04247138, 0.17070225, -0.03478996, -0.0063421386, 0.18862231, -0.05855272, -0.054516137, -0.057593744, 0.023571167, -0.0645813, 0.03261144, 0.2625249, -0.030904867, -0.003089796, 0.04273455, -0.095972516, -0.06392099, 0.3174312, 0.0040755826, 0.13656242, 0.00065945304, -0.0061906516, -0.04751745, -0.014175317, 0.047764093, -0.08402063, -0.061329897, 0.11705142, -0.020469896, -0.1497018, 0.0029021166, -0.15136391, 0.14333932, -0.07248159, 0.13732485, 0.14062925, -0.122123875, 0.030063864, -0.031048534, -0.1897563, 0.08439093, 0.07869403, 0.118715815, -0.016392278, -0.22541054, 0.09954334, 0.03510895, 0.07370939, -0.05516066, 0.012082326, -0.21775836, 0.046351336, -0.039947968, 0.1518465, 0.024532998, -0.03221915, 0.11297138, -0.049132623, -0.010948133, -0.07105166, 0.09967038, 0.067182265, 0.26102862, -0.15673068, -0.03281304, 0.28888795, 0.023173084, 0.025131524, 0.14407162, -0.08721171, 0.0019817122, -0.23852876, 0.057011757, 0.061753187, 0.012537766, 0.13721062, 0.02685467, -0.042684406, 0.09593736, -0.04000835, 0.07368535, 0.20533216, -0.056017112, 0.09587244, -0.05714271, 0.019080618, -0.042277306, 0.031712286, 0.12418336, -0.06059782, 0.0141038885, 0.15440843, 0.0291155, -0.10038185, 0.035878506, -0.069920085, 0.16028516, 0.23245288, 0.08322427, 0.058123767, 0.110557154, -0.01985236, 0.15941687, 0.011904039, 0.14262107, 0.022028284, 0.061509077, -0.09583526, -0.13179104, 0.24143296, 0.03600887, 0.005658126, -0.004156256, -0.026593702, 0.08684498, 0.15873238, 0.024130277, 0.05680771, -0.00018445696, -0.0860502, 0.15017472, 0.048804663, -0.04639996, 0.052631725, 0.033715617, -0.07835724, 0.12772526, 0.04129774, -0.009913403, 0.37503758, 0.05731759, -0.03819212, 0.13632391, -0.043754105, 0.053334955, -0.10067597, 0.0014220023, 0.057244133, 0.11433998, 0.053299204, 0.05790934, -0.0014330772, 0.091509804, 0.120127685, -0.02747726, -0.11093958, -0.05825672, 0.017191187, 0.028865302, -0.0040729907, 0.10916652, -0.0051797065, 0.01589233, -0.06512771, -0.051655047, -0.15246196, -0.11610662, 0.13371497, 0.19781643, 0.08377317, 0.17272721, -0.038113806, 0.06213843, -0.068181194, 0.034409374, 0.05578536, -0.073126875, -0.04321413, -0.060838897, -0.045440298, -0.05768091, -0.17770141, -0.18474266, 0.30790195, 0.07840957, 0.08799102, -0.06510317, 0.04202145, -0.109494455, 0.07964942, -0.011884962, -0.04461342, -0.017461168, 0.037044067, -0.07795819, 0.029886998, 0.11755325, 0.1589338, 0.04581508, 0.033199474, 0.15256137, -0.105748095, -0.04862241, -0.07513528, -0.00509141, -0.058124915, 0.1734741, -0.026604826, -0.03270247, 0.102888055, -0.022233417, -0.05356312, -0.18191461, 0.018106788, 0.04703964, 0.023085639, 0.19301844, 0.11568033, 0.052496627, 0.3873003, -0.020074053, -0.20781069, 0.020920992, -0.005533176, 0.110488266, 0.0024205695, 0.24340715, -0.038366057, 0.018264532, -0.03645954, 0.088446654, 0.05494243, 0.16760123, 0.1647998, 0.09286378, -0.13003491, 0.083564945, -0.18373835, -0.09171146, -0.064031705, 0.007761166, 0.0318675, -0.09731896, -0.00180042, 0.010923038, -0.023238786, -0.060560938, 0.2962159, 0.08034079, 0.03316938, -0.015968952, -0.016307682, -0.043437466, 0.025547508, 0.20679092, -0.120400846, 0.03891284, 0.086616606, 0.13875642, 0.034924738, 0.0142567605, 0.03751478, 0.08538997, 0.04988145, 0.3762581, -0.070779495, 0.013929086, 0.09175125, 0.0046729064, 0.01103195, 0.084814034, -0.022662964, 0.111781366, -0.15962727, -0.11395038, 0.02592916, -0.008052399, -0.015863989, 0.025551608, -0.032340247, 0.053951543, -0.09611397, 0.062321514, 0.12768053, -0.013021256, 0.007353712, -0.069787465, 0.0028753052, 0.014183982, 0.043953843, 0.104643315, -0.088444814, 0.076245055, 0.08634173, 0.06318007, -0.053191178, -0.09908226, -0.023068288, 0.079586856, -0.09183464, 0.21186455, -0.10584381, -0.16390426, 0.07451561, -0.23893386, -0.12045126, 0.16741094, 0.027568322, -0.011086464, -0.008791429, -0.17129546, -0.09206647, 0.09757882, -0.254612, 0.0146244215, 0.20523074, -0.075126216, -0.034528546, -0.0821851, 0.014776005, -0.025593402, -0.07211781, 0.035507884, 0.040376518, 0.0565339, 0.3016028, -0.08974719, 0.06810592, 0.030628223, 0.06487011, -0.011063403, -0.07674317, -0.010926711, 0.023997787, 0.03925917, -0.0843699, 0.039391227, -0.2633761, 0.07117746, 0.077439666, -0.0058461996, 0.09425506, -0.016814977, -0.0644257, 0.14175741, -0.053028204, 0.0042195767, 0.041899137, -0.12344129, -0.021697737, 0.072319865, -0.053204384, -0.13777794, -0.062289625, -0.08099681, -0.15685108, 0.030100318, -0.13740645, -0.06329125, 0.038252555, 0.08520149, 0.15199097, -0.008675939, -0.15330586, 0.030693615, -0.07032021, -0.11721083, -0.021568567, 0.0073512457, -0.13819599, 0.111667134, 0.03173978, -0.06265717, 0.015747465, -0.021212917, 0.034451243, -0.044468243, -0.06925127, 0.008739033, 0.22548929, -0.05934953, 0.17353804, -0.09932965, 0.030515984, -0.075753026, -0.09611529, -0.080807574, -0.038867377, -0.15263638, 0.22872956, 0.19620106, -0.07105089, -0.2418353, 0.029947175, -0.06926759, 0.042962313, -0.060190406, 0.06136065, -0.106477834, -0.041214988, 0.07318365, -0.1096797, 0.12373794, 0.014453827, -0.022877757, 0.08206011, 0.019703262, 0.052462704, 0.020700624, -0.061138097, -0.021971043, 0.018419692, -0.03144473, 0.0036902805, 0.11529933, 0.094137326, -0.11372806, 0.02389578, -0.1686947, -0.06714737, 0.027887203, 0.16524291, -0.09011551, 0.059262972, -0.010000316, 0.1661035, -0.04243057, -0.052894134, -0.021358911, 0.04382069, 0.106382445, -0.025429903, -0.08725081, -0.14823812, 0.092614315, -0.13924088, -0.012580403, 0.16602875, -0.1893628, 0.06626818, -0.09110586, -0.0036350992, 0.029333225, -0.16695508, -0.13286315, 0.20365286, 0.040721446, -0.018046085, 0.012567189, 0.0506019, -0.23816259, 0.033538792, 0.09368361, 0.1775576, 0.12729321, -0.01680299, -0.111510016, -0.018865133, -0.039231718, -0.03901925, 0.030904157, -0.021815607, -0.07869971, -0.089039534, -0.086840875, -0.2187173, 0.02226248, 0.06844809, 0.11834162, 0.13224667, 0.043087944, 0.017245978, 0.016042834, 0.019893473, -0.07041318, 0.17124853, -0.039995402, -0.14766957, 0.028243726, 0.0049647014, 0.13304104, 0.051897485, 0.0827137, -0.2990671, 0.0116197085, 0.017219119, -0.15930887, 0.14975704, 0.06148204, 0.061868433, 0.0016011498, -0.1461694, 0.08107755, -0.09006742, 0.029812519, -0.032660276, -0.22070418, 0.032589387, -0.21510763, -0.20594524, -0.009734005, 0.11278293, -0.15556401, -0.10775827, 0.0941134, -0.12334027, -0.027198154, 0.2132516, 0.21131559, 0.058595248, 0.13467892, -0.048052434, 0.17240244, 0.18178846, -0.070237294, -0.016228165, -0.07474128, 0.013643467, -0.0345578, 0.09583369, -0.2738556, 0.10273288, 0.06351933, 0.032170292, 0.013307618, -0.0667643, 0.08664294, -0.15895402, 0.04176668, -0.120721996, 0.07810339, -0.020804962, 0.05188835, 0.0232002, 0.029729348, -0.0022296435, 0.13593858, 0.00993727, -0.024448216, -0.1701883, 0.042437803, 0.0046389066, 0.030029768, 0.021936635, -0.21774371, 0.05574708, -0.13435774, 0.07131419, -0.03669835, -0.08513122, -0.039704055, -0.09409322, -0.1058478, -0.08931337, 0.050735787, -0.0883425, 0.10868832, -0.055897955, 0.051073402, 0.054297227, 0.08063374, -0.097746715, 0.008626882, -0.076726794, -0.011223819, -0.1923032, 0.14601506, -0.07977475, 0.102313176, -0.0025815386, -0.007146037, 0.06828066, -0.10808166, 0.04298754, 0.0696632, 0.110125974, -0.05844668, -0.009880174, 0.19588804, 0.030615881, 0.13255094, 0.16867946, -0.00040225062, 0.14669627, 0.037199438, -0.013727405, -0.007851952, 0.017446391, -0.0055744643, -0.005052471, 0.03942423, -0.13082834, 0.037722874, 0.028939482, -0.034879226, -0.045282032, 0.018123219, -0.026777053, 0.015567013, -0.02824002, -0.0052892086, 0.12459919, -0.044396084, 0.18276924, 0.011729499, -0.15288788, 0.005516946, -9.711239e-05, -0.046796378, -0.035930216, -0.07118407, 0.04466009, -0.02350064, -0.11938895, -0.12136391, -0.020092908, -0.022750655, -0.015910883, 0.17003942, 0.0051539396, -0.0076099806, -0.061852887, 0.020562751, 0.006481839, 0.053561218, 0.07885264, -5.121142e-05, -0.047860183, -0.094546504, -0.008391091, -0.024345905, -0.042156305, -0.08163551, -0.12221888, -0.019148925, 0.039581753, -0.12111064, 0.18802431, 0.0416825, -0.007657948, -0.077974014, -0.0781733, -0.07343552, 0.011684734, -0.072543584, 0.11444177, 0.07880031, 0.018309614, 0.049596176, 0.028097672, 0.004552446, -0.15175001, 0.06693042, -0.05167892, -0.091302395, 0.08759878, 0.065739624, -0.07015139, -0.23395328, -0.03504886, 0.09782145, 0.04931899, -0.032768928, 0.030711284, -0.06253637, 0.03624847, 0.033203937, 0.03382285, -0.01936406, 0.02743516, -0.015288365, -0.025842998, 0.08049869, -0.05032947, -0.11515724, 0.015556288, 0.059520904, 0.030423136, -0.1539094, 0.0026536637, -0.15252887, 0.08732687, 0.12421005, 0.044151265, 0.019177241, -0.0884468, 0.18292715, 0.029240157, -0.06930577, 0.045083445, 0.053065043, -0.09351969, -0.011441301, 0.15283126, -0.006947833, 0.038228508, 0.13633618, -0.04034843, 0.029158343, 0.12303792, -0.040588748, 0.16392806, -0.053417012, 0.15868363, 0.007573819, -0.052849155, -0.28625783, -0.06278321, -0.10791685, 0.15583117, -0.20864755, 0.018089619, -0.039643556, 0.0052393153, -0.04840311, -0.098362885, -0.03322193, 0.019856367, 0.09228695, -0.05230724, 0.0270415, -0.048143227, -0.069119155, -0.06406705, 0.060942005, 0.028322555, -0.06358611, 0.027875036, 0.036301374, 0.012603729, 0.046657532, 0.18046468, -0.081634335, -0.076922975, 0.03285275, 0.021359466, 0.07836304, 0.04284432, 0.110122055, -0.05042824, 0.025999019, -0.22689216, -0.1664752, -0.17940314, -0.030668827, 0.07263644, -0.036728226, 0.10009645, -0.11075391, -0.08417922, 0.20920284, 0.052200053, -0.101423174, 0.01724177, -0.102438994, -0.083764374, 0.12020085, 0.10325081, -0.23340146, 0.11035099, 0.09176788, 0.118311286, 0.008008756, 0.09573991, -0.041223112, -0.028639475, 0.20679379, 0.0007939794, 0.0020140253, -0.0910689, -0.13322103, 0.010683541, 0.04122945, -0.09898024, -0.0082915025, 0.04876466, -0.2527255, 0.012622874, 0.07168252, -0.262881, -0.023653511, -0.00998663, 0.11774106, -0.12708929, -0.05081193, -0.10022933, -0.04143124, -0.014912188, 0.07327275, 0.1495201, 0.045945223, -0.008764506, 0.24157563, 0.011619542, 0.0621391, -0.09810069, 0.020189242, 0.019583974, 0.008053814, -0.015101158, -0.1702374, -0.0822409, 0.101885475, 0.03683981, 0.052629188, 0.10708656, 0.150856, 0.041243605, -0.13747527, -0.032887347, 0.30405077, -0.086405866, 0.39812067, -0.16012202, 0.28728014, -0.011232484, 0.16618584, -0.17076309, 0.086101174, 0.2060915, 0.12586811, -0.13493335, -0.06341751, -0.22097136, 0.07006597, -0.044770133, -0.06171598, -0.1058888, -0.37269938, 0.08343786, 0.065061055, 0.041847162, -0.08729458, -0.09371321, 0.19384289, 0.023347491, 0.021460366, 0.07522668, 0.25052983, 0.012446912, 0.013257915, -0.27048168, -0.07862458, -0.019756896, 0.06846159, 0.031266317, -0.05421762, -0.04032321, 0.03901051, -0.003707694, 0.13383171, -0.042413633, 0.13091615, 0.26670587, -0.013939605, -0.011699019, 0.06994988, -0.103076175, 0.058266565, -0.1787456, 0.021871781, -0.2056075, -0.01041997, 0.056767393, 0.13969518, 0.02499319, 0.022777488, 0.020177469, -0.023448277, -0.0014076756, -0.0102040125, 0.017350031, 0.07947647, -0.078156255, 0.08985101, 0.15263215, 0.30700883, 0.059924766, 0.15223804, -0.015276745, 0.037142534, 0.018068623, -0.13442582, 0.053933896, 0.023946898, -0.094356515, -0.10391764, -0.04413987, -0.0075312075, -0.07449999, -0.02857628, 0.009217098, -0.2932446, 0.19030623, -0.12317514, -0.08310154, 0.03791919, -0.10530899, -0.15689468, -0.011221146, 0.125383, -0.0219814, 0.2402082, -0.03011929, -0.070118085, -0.19597927, -0.0488029, 0.08743568, 0.008657067, 0.007928689, -0.021025097, 0.04808858, -0.083587, 0.053220663, 0.12546152, -0.052020337, 0.19978717, 0.29241046, 0.014094408, 0.024580963, 0.0677232, 0.07230705, 0.0803531, -0.059211206, -0.04451301, -0.10020702, -0.008535142, 0.01912802, 0.05011318, -7.881732e-05, -0.07250875, -0.07088908, -6.849838e-05, -0.2634221, -0.07142444, 0.16511053, 0.07592301, -0.062847905, 0.05757685, -0.00018707034, 0.1124066, -0.19711588, 0.14701885, 0.028690524, -0.026160225, -0.018735366, -0.048783746, 0.08079891, 0.08208204, 0.017783634, -0.14565206, 0.020305201, -0.053401988, 0.021657998, -0.011894342, 0.19791596, -0.22575888, 0.0331356, 0.08601467, -0.04260952, -0.0362969, -0.034847878, -0.27133268, 0.029641911, 0.111733474, -0.07486837, 0.07321165, -0.029231243, 0.048818775, -0.18227018, -0.0067775915, 0.22787993, -0.046217933, 0.014868158, 0.023656774, 0.042352464, 0.020068312, -0.11678847, 0.0015552426, -0.048054114, 0.06706676, 0.1416868, 0.0648357, -0.039022293, 0.053445477, 0.26253238, -0.055105474, 0.14685313, 0.09387013, -0.18420707, 0.013829617, 0.10601374, 0.09975187, 0.005206707, 0.068333946, 0.11238266, 0.030348571, -0.32274368, 0.03071189, 0.068793, 0.029389042, 0.10242583, 0.10305019, -0.14594671, 0.11485664, 0.00046836972, 0.36906862, 0.018265711, -0.08657271, 0.08365179, 0.09581128, -0.037982687, 0.016092801, -0.11205457, -0.16597629, 0.021476507, -0.14466178, 0.043115456, 0.04894242, -0.08766625, -0.09512893, 0.19265823, 0.0014680376, -0.16176237, 0.11144171, -0.055412285, -0.024913007, -0.03360305, -0.0320871, -0.1599592, 0.27388898, 0.06514229, -0.082355335, -0.27715465, 0.01930602, -0.05253619, 0.03526484, -0.008401872, -0.03475001, -0.12914427, -0.0312346, 0.020697575, 0.007777439, -0.03486106, 0.02848113, 0.023206983, 0.011390594, 0.019828262, -0.051042352, -0.080379106, 0.07270235, -0.024118349, -0.04677742, -0.05938357, 0.034447033, 0.005231137, -0.09473712, 0.051423594, 0.064078696, -0.003281559, 0.0074947253, 0.016714107, -0.06832151, 0.08831048, 0.06777149, 0.0071081216, 0.032647662, -0.051018372, -0.052156113, 0.059101533, -0.011351357, -0.073858455, -0.057481214, 0.14563975, 0.018091012, 0.0058453064, 0.051633377, -0.043989897, -0.040489916, 0.0155043965, -0.01742457, -0.06154153, -0.059846338, -0.037834793, -0.043991584, 0.042373177, 0.061360404, -0.16276033, 0.00037474264, -0.025682358, -0.13736808, -0.047769144, 0.06627206, -0.049464855, 0.006423037, 0.007416524, -0.023113662, -0.036630157, 0.036203757, -0.13121906, 0.06874875, -0.05378187, -0.0852945, -0.047935575, 0.052296214, -0.00010890265, 0.017076157, 0.013130049, 0.0067570475, -0.034615263, -0.019232094, 0.070663415, -0.063526385, 0.087272614, 0.0007178262, -0.06398426, 0.053089663, -0.05722404, -0.0108772, 0.04629544, -0.09493225, -0.0390077, 0.076299846, 0.082589984, 0.031576477, -0.05914775, -0.054931305, -0.023297532, -0.025250016, -0.027976533, 0.014004112, 0.07028013, -0.03384511, -0.03187984, -0.10953872, -0.042808883, -0.035943076, -0.019977763, 0.06815793, -0.024220219, -0.012195867, 0.009649599, -0.022651263, 0.011376351, -0.13037641, -0.08738838, 0.036803655, -0.04864092, 0.043728616, -0.0019515376, -0.012287666, -0.12438789, 0.0074624047, -0.074607685, -0.081169955, -0.0077334354, -0.071025155, -0.13165838, 0.0040960764, 0.070344836, -0.102227814, -0.11828726, -0.0028843582, -0.03542753, 0.041980978, 0.006978763, -0.01669316, -0.13292417, -0.0476738, 0.015726984, -0.069955915, -0.02840624, 0.024133567, -0.121400125, 0.010698151, -0.05413557, -0.06857246, -0.12069739, -0.05050564, -0.004687735, -0.028170101, -0.03841772, -0.0800755, -0.05185722, -0.13549536, 0.018686755, 0.0118479505, -0.04603185, 0.06827101, -0.089652546, -0.12632804, 0.04486783, -0.059015986, -0.012777387, -0.04670487, 0.021259993, -0.11252108, -0.06616465, -0.059896022, -0.052027296, 0.07604072, 0.0048273616, 0.041545436, 0.050803848, 0.04537701, 0.021035515, -0.052143745, -0.02148486, -0.117531806, -0.113645345, 0.038455397, 0.006454887, -0.06887496, -0.057586923, -0.00882466, -0.03992325, 0.04971252, -0.038744822, 0.016418474, 0.0014028427, 0.05354568, -0.06881269, -0.08300317, -0.06118996, 0.014539351, -0.11328585, -0.060263127, -0.05869649, 0.05871563, -0.0309587, -0.0712392, -0.13559973, 0.0726421, 0.06147903, 0.0018695132, 0.057877325, 0.08095089, -0.045488406, 0.035058834, -0.0030220225, -0.026985874, -0.12783793, 0.011453062, -0.015959714, 0.026544727, 0.01633162, 0.017000012, 0.038457166, -0.060689338, -0.0203413, 0.08369963, -0.007491924, 0.0031427443, 0.0186828, -0.086555235, -0.01486515, -0.039170567, -0.023092452, 0.060140677, -0.02764933, -0.032720223, 0.066848, -0.01386834, -0.008910067, -0.06750247, 0.034094695, 0.097506545, -0.049057636, 0.030411933, -0.009963082, -0.058974825, -0.050753012, -0.052346285, -0.030304283, 0.06499067, 0.050807703, 0.0350448, -0.0518057, 0.0056173815, -0.097931035, -0.042373154, 0.036919728, -0.09704595, 0.0041686036, 0.029457632, -0.064557426, 0.08425656, -0.05140041, 0.074097514, -0.055773757, 0.026135698, -0.006370187, 0.026276102, -0.00024185542, -0.1244586, -0.108429946, 0.033861756, 0.10953992, 0.025765747, 0.0006202134, 0.02344582, 0.0727534, -0.014793551, 0.0061733536, -0.09852107, -0.05897804, 0.064099476, -0.06871057, 0.05193931, 0.048761927, -0.01866186, -0.04075105, -0.0706754, -0.02470392, 0.034159098, 0.06638798, -0.0051470324, -0.07660395, -0.11512724, 0.0062656053, -0.060804825, 0.017954683, 0.025698114, -0.01558592, -0.03500407, 0.023000114, 0.017560137, 0.042110994, 0.0094079655, 0.036858648, 0.1238461, 0.06991125, 0.06939436, -0.12167796, -0.0012374276, 0.034406625, -0.061115008, -0.034273863, 0.05767765, -0.098347, -0.0346031, -0.047701485, -0.11509193, -0.022040922, 0.0402222, -0.051741514, -0.08847471, -0.012505337, -0.050535325, -0.17914511, -0.04553432, 0.043124124, -0.12805146, -0.10783191, -0.057021197, -0.056477588, -0.05949936, -0.033887878, -0.018506538, -0.039405074, -0.04996129, -0.07984947, -0.04327887, -0.057089884, -0.06284764, 0.035838664, -0.0004410621, -0.023192829, -0.10475273, -0.12725389, -0.07297137, 8.9650566e-05, -0.054294456, -0.06740059, 0.029742042, 0.0025025643, 0.029289126, 0.0017333273, -0.006276733, -0.021193538, 0.06048791, 0.053904813, 0.049633894, -0.026824461, 0.0672927, -0.013350449, -0.0578526, 0.09075001, 0.022039209, -0.012685464, -0.007566291, -0.02553079, -0.1330689, 0.057876244, 0.022641439, 0.021775689, -0.025645934, -0.09461748, -0.12937461, -0.101402774, 0.09143373, -0.07382725, 0.05539684, -0.045674745, 0.09871297, -0.07072028, -0.058468584, -0.0005756224, -0.080012314, -0.07946192, -0.087523505, -0.037959743, -0.05940264, -0.055414245, 0.005083029, -0.03063371, -0.0400338, -0.010222971, 0.00070755184, -0.04083099, -0.03842741, 0.024944248, -0.0893525, 0.03710301, -0.04052455, -0.01705009, -0.016931605, 0.051453494, -0.06994357, 0.019989543, 0.03637439, -0.02433592, -0.08114581, -0.029398967, 0.050308727, 0.015190292, -0.013341751, 0.062485468, 0.023471998, -0.020052876, 0.037673872, -0.0340884, 0.039077383, -0.023100266, 0.0669563, -0.074692644, -0.05236687, 0.061292507, -0.036879715, 0.06487194, 0.0148751475, 0.14777756, 0.0404205, -0.014225316, -0.028047454, 0.0025506741, 0.017592842, -0.030464526, 0.02061744, 0.0012275731, -0.07805795, 0.002788777, -0.05178931, -0.06401278, 0.030429127, -0.0013875769, -0.057538945, -0.05330896, 0.04715989, -0.06081693, -0.070522085, -0.10422924, 0.037925225, 0.02771928, -0.003477418, -0.022364158, 0.06637917, -0.08136489, -0.02288181, -0.0326247, -0.010627496, 0.018907208, -0.005707912, -0.04578811, 0.045770332, -0.033744864, -0.010434009, -0.045421395, -0.056771304, -0.005141846, -0.023972841, 0.017352423, -0.063196935, -0.05645154, -0.008287151, -0.022135142, 0.019764533, -0.08025824, 0.028684616, -0.015348471, -0.0718931, -0.027058175, 0.017233714, 0.012461517, -0.024152454, -0.04452441, 0.014528923, 0.015608047, -0.014838424, 0.013140154, -0.038450543, -0.029478619, -0.0389792, -0.071935356, 0.012219905, 0.088799834, 0.0004527254, 0.007528667, -0.03694686, 0.047084175, -0.017272925, -0.06839937, -0.0044127195, -0.02031335, -0.035472877, 0.048188794, -0.0053929137, -0.15688904, -0.1267362, -0.07157323, -0.040816665, -0.040766805, 0.04847938, -0.053235646, -0.115872584, -0.1253564, 0.04179671, 0.013246515, -0.08902004, 0.03510171, 0.077542596, -0.016886447, 0.030760536, 0.009258375, 0.058290113, -0.0034015365, -0.02424806, -0.06724723, 0.07016172, -0.06966186, 0.011215312, -0.1060555, 0.04579397, -0.058997635, -0.011527367, -0.067822516, -0.10504898, -0.10966017, -0.020453677, 0.061203163, 0.05100802, -0.02717603, -0.0044510365, -0.033565216, 0.03897673, -0.07744354, 0.045616712, -0.04762459, -0.08317871, -0.056907266, -0.06092841, -0.0912138, 0.014490485, 0.041915927, 0.0009207605, 0.04717313, -0.09120923, -0.06340712, -0.07587742, -0.0047013727, -0.07824486, -0.056663312, -0.00039895115, -0.020748025, -0.035273574, -0.03241065, 0.006394507, -0.095798634, 0.06822282, 0.021499014, -0.0069650114, 0.023925161, -0.07187828, -0.042995162, -0.030300083, -0.06143863, -0.06376997, 0.01048099, -0.047280002, -0.066111065, -0.065239176, -0.04686081, -0.082792595, -0.04542851, -0.09078501, -0.056625713, 0.014352467, 0.03167012, -0.12259916, 0.0032046833, 0.062893, 0.007376622, -0.033070598, -0.04873485, -0.040855736, -0.08432435, -0.03471475, -0.0002766259, -0.07997138, 0.006681923, -0.018356381, -0.04566655, -0.02103883, -0.0010723365, -0.08349838, -0.055607695, -0.03610358, -0.011992975, 0.022403225, 0.026171068, 0.024320621, -0.0018650768, 0.0038139, 0.00089121785, -0.046281863, -0.02990552, -0.051431537, 0.1423411, 0.05387514, -0.0041237823, 0.043862563, 0.04280233, -0.0023291495, -0.099701636, -0.054508585, 0.041342698, -0.10805679, -0.06365702, -0.074441195, -0.048006244, 0.102484755, -0.07841999, -0.04834966, -0.07843291, -0.079588726, -0.03502335, -0.07920167, -0.021913812, 0.0013786064, 0.0031204969, -0.01733233, -0.0022191512, -0.064089835, -0.085532434, 0.072959766, -0.05178257, 0.019538358, 0.034913942, -0.096626714, -0.018303804, 0.040723044, 0.018186465, -0.037014596, -0.019387027, 0.047217946, 0.028884321, -0.011381072, -0.021901587, -0.065363646, -0.11256802, -0.03778773, -0.013562786, -0.079084024, 0.0700319, -0.11241142, -0.10601603, 0.07434406, -0.018891113, -0.048563123, -0.038975004, -0.051235072, 0.007988871, 0.02781421, -0.023287788, -0.049039673, 0.037723184, 0.01874091, 0.036791284, -0.14664556, -0.028097145, -0.04304087, -0.082799345, 0.049174912, -0.0052060746, -0.0129951155, 0.036973648, -0.01942891, -0.050253287, -0.084591284, 0.006948097, -0.07433446, -0.016590554, -0.061949477, 0.01534934, 0.026242945, -0.12548453, 0.0736338, 0.013261746, -0.10146659, -0.077386975, -0.08207603, -0.08105434, -0.012558948, -0.10165319, 0.029516837, -0.14565663, -0.059921537, -0.02768633, 0.03681752, -0.048093427, 0.048104513, -0.009147644, 0.020623218, -0.05584164, -0.011097925, -0.049301792, 0.056399766, -0.009670866, 0.044763908, -0.011914025, 0.07900877, -0.035912666, -0.12581226, -0.102552734, 0.004348023, -0.079503365, -0.119489744, -0.0013478312, -0.075111024, 0.017366916, -0.019703465, 0.015648745, 0.018249078, -0.13409792, -0.0026923418, 0.03050367, -0.05241233, 0.046512607, -0.0457219, -0.02531805, -0.053219758, 0.058483947, -0.09344408, 0.009129094, -0.0020522287, -0.028859204, 0.063648, 0.009162475, -0.048456755, 7.459685e-05, 0.017261188, 0.09217755, -0.0073486534, 0.024281528, -0.09932425, 0.06447721, 0.039784353, 0.03225276, -0.022103725, -0.08141262, 0.035832882, 0.068228446, -0.06273596, -0.13978758, -0.10582992, -0.07092516, -0.043822046, -0.01573649, -0.00051098934, -0.07216773, -0.0012035338, -0.015048111, 0.041213088, 0.017202156, -0.044300944, 0.0028258313, -0.03635819, -0.0069616153, -0.016405428, 0.06804226, -0.030781057, -0.048113264, -0.057946578, -0.097841054, 0.05665661, -0.04190695, -0.004068954, -0.018193876, -0.057446934, -0.047849685, 0.05753843, -0.054488312, 0.07854017, -0.05728041, -0.011964532, -0.003074795, -0.0044587413, -0.08766736, -0.024793468, -0.034946647, 0.04985767, -0.037071977, 0.046550065, 0.034456413, 0.011555821, -0.04426257, -0.100265615, -0.08994675, -0.012595866, 0.030338634, 0.006258197, 0.07067929, -0.08787112, 0.05508307, -0.098196544, 0.07529707, -0.15137337, -0.031151475, -0.058579482, -0.05646263, 0.06597722, 0.0465443, 0.060690932, 0.06758828, -0.074085, -0.14846514, 0.023929158, -0.054178383, -0.14488168, 0.042104527, -0.051226977, -0.029654043, -0.07615032, -0.12536515, -0.030987283, 0.007859321, -0.069164686, 0.064423114, -0.024879102, -0.012782249, -0.008910379, 0.10341739, 0.027800037, -0.015253983, -0.01648869, -0.023672715, -0.021330468, -0.0783173, 0.06795654, 0.059292525, -0.011103663, -0.07260826, 0.056127008, 0.04787114, -0.12143359, 0.037736308, -0.01450435, -0.021201525, -0.06377986, -0.016967932, -0.023991391, -0.04863985, 0.06342347, -0.093518004, -0.042215776, -0.055763174, -0.04604868, 0.012806194, 0.04613992, 0.048104487, -0.027745975, 0.007919062, 0.012780584, 0.027804933, -0.015158438, -0.04977219, -0.13744274, 0.03206817, -0.11390716, 0.017489983, -0.07769822, -0.078087814, 0.0013881823, -0.010310696, -0.07760142, -0.050483666, 0.070614405, -0.12660505, 0.01990519, -0.13315804, -0.011148918, -0.02240686, -0.034644898, -0.01606768, -0.016038224, -0.0104359295, -0.006417003, -0.050449125, -0.022998888, 0.023380792, 0.019063706, 0.06830883, -0.07104678, 0.05348522, 0.036218464, 0.078657955, -0.0065030325, -0.056621008, 0.0044950447, -0.0003129291, -0.005695522, -0.08547179, -0.05918463, -0.052160423, -0.10070493, 0.098307915, 0.010199399, 0.09607124, 0.040967792, -0.02673719, -0.0051506674, -0.08577855, -0.04739967, 0.067421876, -0.0612896, -0.121294565, 0.00029640645, -0.031912986, -0.050544873, -0.01151181, 0.00010489441, 0.049500655, 0.034468718, 0.008329168, -0.038547732, -0.026186273, 0.0034310967, -0.009126972, 0.026271181, -0.035347696, -0.09518223, 0.064671434, -0.101721935, -0.011906249, -0.097938605, 0.033934157, -0.08179957, 0.044304993, -0.050815668, -0.11029834, 0.035696227, 0.046578154, 0.05193842, -0.1291098, -0.05334319, 0.015606236, -0.12562619, -0.07291434, 0.00023149975, -0.008070884, 0.039202157, -0.12824978, 0.008151951, -0.0047734664, 0.03061319, 0.03696786, -0.017871512, 0.053276714, -0.092217594, -0.045634445, -0.098366514, 0.07022591, 0.050480906, -0.0037345705, -0.040822588, -0.00063863036, -0.063159674, 0.062892765, -0.09282047, -0.13051194, 0.045341138, 0.07966363, 0.0516332, 0.047785785, 0.00048217818, 0.0014334876, 0.05964811, -0.04520485, 0.06495127, -0.10990252, -0.04197063, 0.021795297, -0.06977889, 0.025949996, -0.039345287, 0.0705145, 0.0177891, 0.07655342, -0.055639796, -0.078801945, -0.04940133, -0.033767276, -0.06634455, 0.03977488, -0.01251758, -0.026695421, 0.0018087017, -0.021738527, -0.11355253, -0.010941016, -0.065836884, 0.033026423, -0.028271524, 0.030403044, 0.0346562, 0.024019903, -6.00947e-05, 0.017140118, -0.057675075, -0.093094416, 0.07956943, -0.06900547, -0.033069562, -0.022473766, 0.07567026, -0.033061553, 0.04675403, -0.046704702, 0.056622744, -0.06406027, 0.035642672, 0.0066563003, 0.037971556, 0.09301082, -0.08517068, 0.04693485, 0.077487, 0.062232994, -0.016354382, -0.16889176, 0.040003825, 0.025592864, -0.01761697, -0.052337635, -0.009039306, 0.0076669133, -0.12485156, 0.04833192, -0.0705473, -0.17262283, -0.03736455, 0.016919272, -0.079266645, -0.15040864, 0.049132265, -0.07463456, 0.0321275, 0.013392089, 0.021289442, -0.06789403, -0.009388371, -0.054052863, -0.12968233, 0.038004983, 0.040554777, -0.04841172, -0.039553072, -0.12177279, -0.1799474, -0.010931296, -0.04384952, -0.040420365, -0.042036816, -0.018079493, -0.13925344, -0.00203065, -0.12084515, -0.062305503, -0.097824246, -0.15659261, 0.036407977, -0.01546742, 0.027472237, -0.011752088, -0.047273096, -0.033380553, -0.015400756, 0.041451246, -0.009540146, 0.032145, -0.043795153, -0.105769075, 0.16864681, 0.0419671, -0.05767535, 0.04593557, -0.018611068, -0.12068694, -0.112647295, 0.043237753, -0.13854712, -8.570447e-05, 0.0736576, -0.07149866, 0.02816118, 0.06809427, -0.07131215, -0.023313647, 0.046413586, 0.027325194, -0.038722083, -0.015434467, -0.08503374, -0.04530608, -0.038372654, -0.034685966, -0.07470699, -0.12037718, 0.019267455, -0.02732987, 0.04011801, -0.07927331, -0.07849266, 0.04905673, 0.014757472, 0.012412757, -0.09067825, 0.03315105, 0.020480104, -0.0047342726, -0.099023364, -0.11938936, -0.13310836, -0.05074121, 0.013143519, 0.049434613, 0.07567241, -0.032422684, -0.06180311, -0.050345547, -0.027323168, -0.07039005, -0.03302274, -0.086860575, -0.030162508, -0.015010238, 0.008255217, 0.038992643, -0.05853497, 0.04395465, 0.0066083814, -0.061734147, -0.08340158, 0.031062145, 0.0565157, -0.010020701, -0.010653801, 0.06433287, -0.07608307, 0.06482866, -0.072568245, -0.051223956, -0.069219775, 0.034435622, -0.028384553, -0.063745596, 0.041660912, -0.065516785, -0.01814479, -0.07509401, -0.11379359, 0.0034014196, -0.036239453, -0.066175, 0.030772725, 0.055411097, -0.06271828, 0.0071032303, -0.015686063, -0.024168663, 0.036193125, -0.019964525, 0.044038296, -0.036910594, -0.0050299987, -0.034416046, 0.06076376, 0.002437994, -0.11111569, 0.011568412, -0.0929115, -0.011001265, 0.025903605, -0.018344367, -0.08969575, -0.04382134, -0.09832162, 0.00082261517, 0.023754712, -0.018182563, 0.0058309217, 0.044417974, -0.037893374, 0.03861906, 0.069935285, -0.101500474, -0.12971917, -0.025260929, -0.03867734, 0.04735716, -6.180439e-05, -0.080482736, -0.17509796, -0.04791567, -0.021810716, 0.02240285, -0.10961143, -0.022971187, -0.088450015, -0.02072138, -0.08176344, 0.04004533, 0.034559753, 0.02837366, -0.11172822, -0.04480502, -0.0075686867, 0.025677025, -0.055259924, -0.005949899, -0.0053660944, 0.0149148805, -0.03577457, -0.07303894, -0.028969144, -0.03898658, 0.049084656, -0.13313076, 0.027199432, 0.004757547, -0.07260276, -0.022342464, 0.04929848, -0.0647133, 0.030106826, -0.040865682, 0.01721824, 0.080543466, -0.0070025204, 0.031066487, 0.035358734, -0.05501493, -0.015847433, 0.054312453, -0.05950957, 0.0079842545, 0.023554914, -0.06298845, -0.1011886, -0.10940556, -0.018304374, -0.091921814, 0.006057461, -0.014674844, -0.089260705, -0.090939015, -0.046797544, -0.05291982, 0.033624418, -0.006978764, -0.10523212, -0.0023567318, 0.0454049, 0.05675325, -0.08097231, -0.09684878, -0.06809383, 0.00697873, 0.031664517, 0.06518976, -0.03424547, 0.028246773, -0.0017375647, 0.022544336, -0.054786216, -0.052079476, -0.03387802, 0.04893292, -0.07381278, -0.08157599, 0.012812548, -0.045054242, -0.050197605, -0.03159188, -0.06709225, -0.14676905, 0.061625827, -0.023549354, -0.097252354, -0.029672178, -0.016402123, -0.02216686, -0.033041887, -0.05418186, -0.04681698, -0.013321447, 0.042586938, -0.0371217, -0.06849567, -0.027950866, 0.06514722, -0.00947632, -0.058399267, -0.041177925, 0.06635811, 0.053334817, -0.041756917, -0.012454949, 0.015106624, -0.023192914, -0.04927603, 0.01638108, 0.018083502, -0.109214224, -0.094562836, 0.016501877, -0.057176035, 0.027206995, -0.052494086, -0.05257798, -0.11846904, 0.05704128, 0.02003178, -0.047799144, -0.06340773, -0.05509478, 0.027281338, -0.09135873, 0.031057026, -0.03891668, -0.06589505, -0.06996151, -0.032137845, -0.013106002, -0.07561305, 0.038775615, 0.050195366, -0.015034407, 0.08623452, -0.056544907, 0.02040206, -0.027378257, -0.029491886, 0.010497075, -0.05410269, -0.06907427, -0.09305279, -0.09973639, -0.03396902, 0.014047762, 0.056822572, -0.034679227, 0.02612786, -0.09727712, 0.036865965, -0.1653425, 0.052210364, -0.06692275, -0.012044461, -0.0051491084, 0.06275216, -0.06847621, 0.008491716, -0.034463793, -0.04676821, -0.10897432, -0.057541262, -0.0010411326, -0.023820294, -0.02436725, -0.08345463, -0.023240402, -0.13657787, -0.04310698, 0.002303198, 0.02071688, -0.0010745897, -0.10036259, -0.081670865, 0.026562292, -0.027284333, -0.021554185, -0.035370525, 0.03259592, -0.0072003906, -0.013225187, 0.021918535, -0.039360244, -0.02824263, -0.09650831, 0.04205045, -0.07424812, 0.023650257, -0.032866497, -0.16248813, -0.0070711276, 0.04927152, 0.003088822, -0.085356794, -0.032483976, 0.01929597, -0.17514676, -0.018737316, 0.06196837, -0.046538536, 0.005703331, -0.029019594, 0.03888495, 0.023129418, -0.06465006, -0.085600145, -0.0153341405, 0.028605439, 0.06598542, -0.07010153, -0.017430572, -0.023572974, -0.028185511, 0.009204228, -0.057728536, -0.0016762455, 0.057804648, -0.014764024, -0.0494882, 0.061492916, 0.016085794, -0.0019949258, -0.1442158, -0.03640462, -0.10808821, -0.029946446, 0.009480621, 0.024517577, 0.043798, -0.056980144, 0.019432135, -0.0462839, -0.06708327, 0.05733031, 0.0035518005, 0.053135544, 0.0051374254, -0.1611962, -0.081690915, -0.022473186, -0.0663021, 0.041374918, 0.038929325, 0.002854194, 0.005983216, 0.05038578, 0.029153492, -0.016332017, -0.094744936, -0.053988483, -0.052628405, -0.06507538, -0.008540755, -0.09123165, -0.039379854, 0.03492934, -0.06655732, -0.08920623, 0.004748667, -0.0021793956, -0.08927202, -0.019867921, 0.04068698, 0.0033122923, 0.060178477, -0.064125344, 0.00464778, -0.020651242, 0.015477493, -0.076028414, 0.0014886988, 0.05597113, -0.021397095, -0.013401607, -0.048549183, -0.062479675, -0.027747104, 0.06206139, -0.10851285, 0.04822803, 0.019017633, 0.0017243598, -0.084172346, 0.045821916, 0.017587606, 0.06192634, -0.06893277, -0.016202364, 0.04056294, -0.047459953, -0.010345155, -0.004790835, -0.023278203, -0.11891161, -0.00429824, -0.122584425, -0.046683405, 0.013688877, -0.0047134925, -0.024100445, -0.16873924, -0.09064921, 0.02013415, -0.008756927, 0.03494814, -0.14928399, -0.032258235, -0.1043403, 0.0029698403, 0.048587263, -0.023313569, -0.13568148, -0.077597514, -0.016643777, 0.009455095, 0.02216435, -0.14498408, -0.06313281, -0.08064484, 0.0027216556, 0.064016305, -0.032418847, -0.060610127, -0.14340994, -0.10619824, 0.04974092, 0.023374535, -0.015121031, -0.0152948825, 0.060836494, -0.03567877, -0.04093647, -0.04139362, 0.02219819, -0.037608467, 0.049298696, -0.10096449, -0.04241152, -0.07192365, -0.044618096, 0.007361635, -0.029960878, 0.0048757475, -0.005726682, 0.0256097, -0.026955916, -0.13243772, 0.011920443, -0.043376584, -0.05372156, -0.029689193, -0.057340015, -0.04055614, 0.05579631, -0.04644338, 0.05149671, 0.013256572, -0.07841349, 0.039787874, 0.011952633, 0.055436056, 0.0059640184, -0.020545533, -0.015747476, -0.03574934, -0.10395431, 0.069442354, -0.08048174, -0.069680765, -0.02045327, -0.008950322, -0.06240797, 0.050735287, 0.054327615, 0.036164843, 0.0020975876, -0.050056078, 0.06911026, -0.14869374, 0.040213697, -0.0672192, -0.011206173, -0.05167703, 0.0050203977, -0.056693718, 0.007931135, -0.06783335, 0.021820696, 0.008994303, 0.07737054, 0.04737612, -0.040375363, 0.024249526, 0.12185268, 0.0151681015, 0.048045196, -0.034063388, -0.17279883, -0.07694532, -0.023860615, -0.040466223, 0.05201932, -0.012207708, -0.08717712, -0.005923186, -0.043870457, -0.04391553, -0.09740407, 0.025488308, 0.05163305, -0.13246544, 0.013231942, 0.07929554, 0.020137496, -0.11765436, -0.036583144, -0.09358228, -0.07201931, -0.060482603, -0.056969453, 0.007749468, -0.04605343, 0.055836335, 0.011144299, 0.061490588, -0.03804538, 0.0061261724, 0.04688348, -0.06892188, -0.05393206, 0.07828147, -0.021301005, -0.04306557, -0.111593015, 0.009770073, -0.092719205, -0.06654795, -0.029115696, 0.13049345, -0.009743401, 0.022754103, -0.06809783, -0.20666713, -0.04911739, -0.11957529, -0.1759079, -0.008691189, 0.022900986, -0.07863912, -0.08671709, -0.017672746, -0.07115549, -0.13473298, 0.115507804, -0.07271903, -0.0406422, 0.016276423, 0.0030237876, -0.017852709, -0.06813698, 0.033403233, -0.21780816, 0.0009228915, -0.014877148, -0.08248047, 0.037070084, -0.066223405, -0.17456472, -0.059140556, -0.078640506, -0.06682648, -0.09196711, 0.06779051, 0.029920235, -0.057161644, -0.016433116, 0.01653175, 0.10934551, -0.059193976, 0.018310025, -0.002927257, -0.047012404, 0.02370389, -0.061678935, 0.033035368, 0.00038332742, -0.06166678, 0.011621843, -0.015275614, 0.038355224, -0.029725837, 0.030324077, -0.07813532, -0.10592099, -0.013436484, -0.072848246, -0.061822236, -0.01673446, -0.009207157, -0.07903309, 0.023017867, -0.026225703, 0.081271134, -0.104414165, -0.1295499, 0.07360141, -0.133856, -0.010929854, -0.04079583, -0.06819344, -0.039774735, 0.067996375, -0.011430289, -0.09204732, -0.08519966, -0.05927949, -0.035178777, 0.007482002, 0.04708951, -0.06851085, 0.024879085, -0.02068153, -0.024754027, -0.03113135, -0.00959754, -0.05287018, -0.048076335, -0.016019613, 0.01017264, 0.06832099, -0.07732612, -0.054575764, 0.017853016, 0.0505519, -0.14494017, -0.08263794, -0.06378178, 0.03834053, 0.014590745, 0.009891703, -0.046496537, 0.038148973, -0.06768876, 0.02043768, -0.08635114, -0.028018773, 0.010533015, 0.06601525, 0.030030668, 0.017203089, 0.07104793, -0.05882651, 0.01605354, 0.06524615, -0.08409382, 0.0071940767, -0.061741445, -0.13305758, -0.002531429, -0.067474075, -0.019458132, -0.13548675, -0.014103842, -0.030042505, 0.05018711, -0.018815335, -0.06423352, 0.021044627, -0.06441301, 0.043280497, -0.03600262, -0.009278123, -0.024530862, -0.048889577, -0.025595358, -0.053341497, -0.042274397, 0.033347644, -0.010345089, -0.050784465, -0.03330533, 0.0031737331, 0.0052196756, -0.100358844, -0.010730618, -0.015911538, 0.032397818, -0.0678869, -0.055954475, -0.075571045, -0.04203474, -0.008538976, -0.011846644, -0.048870422, 0.06173245, -0.07316075, 3.968369e-05, -0.043757167, -0.11061951, -0.033783834, -0.017539095, 0.005451458, -0.18265402, -0.0059574186, 0.054547895, -0.014977125, -0.011586377, -0.057739288, -0.021627218, -0.07315442, -0.08995242, -0.027343206, 0.07310824, 0.04744286, -0.036497094, -0.033803385, 0.059445336, -0.0639285, 0.05912125, 0.055774234, 0.05835248, -0.03373915, -0.019173246, -0.1177076, 0.028611619, -0.12847818, 0.0042079743, -0.0076702884, 0.054372646, 0.082458995, 0.050790455, -0.06789085, -0.029039595, 0.02922719, -0.06166103, -0.0025696561, -0.049329877, 0.021392627, -0.084151454, 0.008949969, 0.012178208, -0.108827405, -0.063588776, -0.13581654, -0.005766068, 0.14790815, 0.015184134, 0.032092504, -0.0654847, -0.028848073, 0.006966665, -0.10238317, -0.0077467933, 0.051038597, -0.06488518, -0.03758048, -0.0379161, 0.028782073, -0.043826003, -0.10041708, -0.013506721, -0.013436916, -0.055495378, -0.0008907666, -0.08095236, 0.031780906, -0.08117367, 0.016407546, 0.027710008, 0.020277731, -0.053565703, -0.032818448, 0.0238791, 0.04007498, -0.08518516, -0.020040939, -0.003520541, 0.028342996, -0.020908572, 0.0864797, 0.0062300805, -0.033258934, -0.030887254, -0.062184714, -0.031886768, -0.054248806, -0.020604294, -0.082236305, -0.007001312, -0.13514557, -0.014799906, -0.108427405, -0.062595315, -0.021791086, 0.05613951, -0.032037586, 0.0116564045, -0.04604659, -0.045225095, 0.0183587, -0.036777955, -0.07427332, -0.03712513, 0.013347605, -0.023720697, -0.021466816, -0.060669765, -0.051879, -0.044892196, 0.08515599, 0.06882197, 0.013108045, -0.026386153, 0.015820734, 0.037218157, -0.07982163, -0.058279578, -0.09194893, -0.066618405, -0.027104903, -0.07097838, 0.041791756, 0.05642377, -0.15739116, -0.105338894, -0.02200592, -0.0077897958, -0.1142726, -0.050164044, 0.047382344, -0.042400688, 0.06572688, -0.033709712, -0.024940351, 0.007368586, -0.05240587, -0.023863565, -0.04800154, -0.021622691, -0.04714294, 0.002550505, 0.053144414, 0.032427393, 0.053877834, 0.04996101, 0.011642262, 0.013623229, 0.037715603, -0.018380286, -0.06889645, 0.03414155, -0.08466844, 0.06326913, -0.058058817, 0.028830497, -0.036165275, 0.000904751, -0.075272076, -0.087130986, 0.011148884, 0.015559781, -0.04024627, -0.06603272, -0.08031173, -0.06587165, -0.053198647, -0.09579451, -0.06931652, 0.0037371682, -0.08573598, -0.06735809, -0.098074116, 0.0454902, -0.016850073, 0.03669125, 0.011931312, -0.02130996, -0.060533095, -0.041768607, -0.06702402, -0.050744466, -0.0050312406, -0.088821135, -0.014469128, -0.020180043, 0.027580218, 0.005417596, -0.18891197, -0.01953625, -0.0516849, -0.1272051, -0.023075763, 0.059873376, 0.020164842, -0.077248015, 0.051094938, -0.03218879, -0.050222624, -0.06312704, -0.05880578, 0.014259857, -0.039517127, -0.02921591, -0.06740985, -0.06711133, 0.024388582, 0.0629186, -0.025650157, -0.039429285, -0.03203237, 0.054032203, -0.06731868, 0.02936817, -0.07350384, -0.113984056, -0.057456188, 0.080587365, -0.0730745, 0.08529981, -0.123281755, 0.060859047, -0.041149005, -0.08578543, -0.007593564, 0.009157597, 0.040534303, -0.14002536, 0.042358506, -0.033079397, -0.1334515, -0.053685434, 0.020305319, -0.05237364, -0.05575151, -0.02966825, -0.026092377, -0.13274756, -0.043961603, -0.030992579, -0.08377044, -0.049112767, -0.064953774, -0.028774314, 0.023230063, -0.016224373, -0.013709772, -0.12884128, -0.022317462, 0.03210867, 0.0052268133, -0.050914314, 0.061979283, 0.037491962, -0.056970596, 0.044191662, -0.05996824, 0.0025728196, -0.0035762277, -0.057149474, 0.048249394, -0.030395187, -0.042524923, -0.083219804, 0.048347197, -0.078573056, -0.0027675703, -0.064758174, 0.036843076, -0.037373077, -0.06873643, -0.0025452673, -0.04955365, -0.046664774, -0.049399383, -0.019362409, -0.011942139, 0.025093833, -0.06977853, 0.0558548, 0.025171978, -0.048325777, -0.008254177, -0.04115848, 0.04160381, 0.006212428, -0.0679572, -0.05803514, -0.09984395, -0.038385466, -0.043259338, -0.08081302, -0.052166317, -0.016255544, 0.002084892, 0.00721836, 0.005827002, -0.015194885, -0.024998376, -0.045963533, -0.02818832, -0.055038396, -0.10532841, 0.036750153, 0.003568045, 0.022736795, 0.028147478, -0.038152352, -0.009573766, -0.04988394, 0.017456945, 0.02656927, 0.04827468, -0.00039060574, -0.030013375, 0.025476255, 0.0066574197, -0.06932828, -0.05900225, -0.002933316, -0.045663655, 0.029095143, -0.0903684, -0.092965186, 0.006514214, 0.0031515807, 0.03605238, -0.011082017, -0.07411036, 0.02086028, 0.033555552, -0.06992511, 0.0068550557, -0.015406355, 0.027140649, -0.027832214, 0.007688144, -0.028183963, -0.01799282, -0.056698605, -0.030069854, -0.087382354, -0.0049085706, 0.021416806, 0.013051775, -0.012150031, -0.06053251, 0.021235786, -0.0009761032, -0.0529354, -0.043545995, -0.064685516, -0.011946454, 0.027060525, -0.011655346, -0.05958922, 0.02199845, 0.029790383, -0.09875085, -0.012763674, 0.022292852, -0.050215542, 0.0063303453, -0.049201876, -0.016234223, -0.015334505, -0.0064396835, -0.05034498, 0.039224435, 0.040961042, 0.056040272, -0.08254238, -0.053034723, 0.009486176, -0.041314296, -0.057705894, 0.023221955, 0.032997053, 0.056473464, -0.06472026, 0.012642683, 0.062242784, 0.004677862, -0.055691462, -0.08347426, -0.015768941, -0.003054702, -0.07868167, -0.035955757, 0.067033395, -0.059699327, 0.023338342, 0.005409263, 0.015217469, 0.03393469, -0.048179206, 0.039030164, 0.033987135, -0.010586866, -0.014236979, -0.065162696, 0.04146681, -0.020886846, -0.036336616, -0.015554622, 0.034414608, -0.06731908, -0.061857227, 0.014231974, 0.03917011, -0.06392567, -0.025883522, -0.07384836, 0.061493546, 0.021843832, -0.040316418, -0.004475719, -0.033875503, -0.02353831, -0.05131904, -0.069810934, -0.0146149, -0.09405203, -0.017585726, -0.010404244, -0.0711301, 0.049582817, 0.0045751883, -0.113751195, -0.03289979, 0.005702133, -0.021146297, 0.05577835, 0.055816054, 0.01980322, -0.05838747, 0.04126233, 0.026218243, -0.02652564, -0.018108984, 0.00040934235, -0.04207088, 0.044761024, 0.0037689433, -0.0052331616, -0.043634262, -0.057673775, 0.017224386, -0.1080516, -0.02784875, -0.03125442, 0.012716494, 0.039484, 0.025552027, 0.05250838, -0.048693627, -0.05488777, -0.03306239, -0.01557868, -0.008758742, -0.047255706, 0.060881972, -0.09144312, 0.05601859, -0.051170733, 0.007636316, 0.05341004, 0.046810754, -0.0042801755, -0.016234253, -0.051833075, 0.028982567, 0.0049148095, -0.058057714, -0.025133688, 0.002544806, 0.016326511, 0.009954035, -0.061372038, 0.017237157, -0.07915355, 0.00052872463, -0.03000452, 0.047198344, -0.016195051, -0.07367839, -0.053469114, 0.06999769, -0.055360273, -0.06512877, 0.027451497, -0.11261125, -0.078718856, 0.02240152, -0.04380316, 0.048556156, 0.002801032, 0.043467708, -0.0050663324, -0.05174202, 0.06505616, 0.049374826, 0.007471702, 0.001832925, 0.062812686, -0.10705978, -0.033862416, -0.00054133683, -0.0036306016, -0.0011682431, -0.07142965, 0.026327481, -0.077721484, 0.050395973, 0.016500212, -0.021988325, 0.06830846, 0.07203193, -0.06611337, -0.08769402, 0.029757194, -0.0012799145, -0.015718285, -0.027059982, -0.068886936, 0.02335228, -0.0887251, -0.05174292, -0.0043179654, 0.0350345, -0.054996483, 0.004307039, -0.08842864, -0.10936602, -0.047501236, -0.045255646, 0.029736418, 0.0025287643, 0.04262057, -0.060067277, -0.049354874, 0.010828972, -0.015543251, 0.017822595, -0.066781886, -0.0048662983, 0.006681435, 0.013847667, -0.0058851438, 0.016358053, -0.078716405, -0.048476573, 0.07406615, -0.06698984, 0.022441225, -0.0042629093, -0.08025434, 0.012034498, 0.017888393, -0.022353832, -0.006038141, 0.06008181, -0.03141593, -0.033878434, -0.09807278, -0.037713055, 0.02890812, -0.046528272, 0.057999447, -0.040137634, 0.026959985, -0.021260586, 0.022226823, 0.046079043, -0.023447022, 0.0017205363, 0.011539997, -0.027034454, -0.016707174, 0.0058006137, -0.031009432, -0.010261074, -0.05898617, -0.029737122, -0.04792328, 0.048779294, 0.036395893, -0.10012701, 0.054293945, -0.0526976, -0.014512557, 0.051147014, 0.016686084, 0.019422218, -0.049052574, 0.03707505, 0.001999587, -0.06912358, -0.04435996, -0.063123405, -0.043025892, 0.038112268, 0.0058887764, 0.036493998, -0.06107314, -0.032678682, 0.06300905, -0.011448624, -0.0091817025, 0.05977193, 0.011262044, -0.061191138, -0.009417015, -0.06420082, 0.049036097, -0.071033865, -0.06813186, 0.062427238, 0.016913263, -0.0063289655, -0.0091937, 0.012528717, -0.023728207, 0.009064771, -0.02441202, 0.0623118, -0.07152497, -0.006042415, 0.030225262, 0.03129141, -0.116778836, -0.048513923, -0.021526411, -0.061343912, -0.006177865, -0.0629119, -0.05169629, -0.09134234, 0.073947355, -0.040029798, -0.031113435, -0.01730432, -0.10240039, -0.006811738, -0.06240066, -0.026143704, -0.03977084, -0.06381558, 0.023239799, -0.0585562, 0.043606803, -0.043230545, 0.004840143, -0.057815686, -0.020916196, -0.020836245, -0.00857782, 0.046927825, 0.006615624, 0.012301125, -0.04649051, -0.07928273, -0.021106914, 0.025035711, -0.023010232, -0.036427937, -0.04937059, 0.018144812, -0.07472665, -0.006107062, -0.07637656, 0.011392063, 0.013730913, -0.0017185481, 0.015259422, 0.043901984, -0.060034476, 0.012428056, -0.010929717, -0.068548456, -0.0077523217, -0.06259951, -0.07305075, 0.0034929416, 0.003351191, -0.030733366, -0.058313802, 0.06691232, -0.044237707, 0.025269188, -0.07536669, -0.04464267, -0.0012397966, -0.06082566, 0.00543086, 0.047568288, 0.06600349, 0.039996263, 0.059119537, 0.024084583, 0.04289657, 0.04266075, -0.03385392, -0.057350915, -0.048946444, -0.04918632, 0.0691777, -0.05409174, 0.050379902, 0.009604923, 0.068009205, 0.040844616, -0.06640671, 0.014351887, 0.05243604, -0.081221715, -0.011734739, 0.0039306134, -0.028456664, 0.063839376, -0.080874994, 0.013530135, -0.042086262, -0.058483064, -0.0149032865, 0.04737438, -0.05410441, -0.048225965, 0.019535512, 0.024375625, 0.01237726, -0.07803555, -0.030010125, 0.05191861, -0.08596326, -0.032001656, 0.024565578, -0.034320496, 0.017806672, -0.008755327, 0.057983052, -0.10176654, -0.009632406, 0.049662054, 0.013006166, -0.049861684, -0.031233177, -0.08444531, -0.082670785, -0.068386436, -0.010375439, -0.05585184, 0.04547405, -0.04330925, -0.0882763, -0.033707928, -0.032348577, -0.07204124, 0.01943712, 0.0066370927, 0.026868999, -0.0860809, 0.029366545, -0.0074098483, -0.12675563, -0.028338196, 0.06884502, -0.007101312, 0.014725013, 0.0062869266, 0.011304136, -0.057322532, 0.019188687, -0.067726165, -0.12734668, -0.060345635, 0.019616194, -0.02690597, 0.039546445, -0.037274867, -0.057358377, 0.05634904, 0.071743965, -0.04287476, -0.04285843, -0.028535128, -0.032743074, 0.035974987, 0.008612128, -0.03077618, 0.0569497, 0.018455187, -0.0044911304, -0.037587967, -0.08611982, -0.03402459, -0.08910856, 0.023190454, -0.07893719, -0.0747926, -0.072262764, -0.060372572, -0.0012432784, -0.054058135, -0.014655632, -0.057794552, -0.058508053, -0.0065972893, -0.06447196, 0.010302812, -0.041513525, -0.12983544, 0.020487262, -0.045957807, -0.13498764, 0.04014297, 0.035349745, 0.012497246, -0.082420416, -0.14260563, -0.06424533, -0.067635015, -0.031128144, -0.061092146, -0.043258205, -0.04099355, 0.024323925, 0.070776254, -0.09767162, 0.0008542109, -0.071263365, -0.09551356, -0.019609459, 0.027686626, -0.04560921, -0.022689136, 0.032531336, -0.046626553, 0.0016698652, -0.07853748, 0.020774275, 0.021707714, -0.035822473, 0.026690751, -0.06583346, 0.014745824, -0.046016432, 0.07309359, -0.034474704, 0.0686996, -0.030815914, 0.0049277022, -0.028461233, -0.056976628, -0.0006559675, 0.0029582048, 0.017336432, 0.07130268, -0.08017192, -0.013008764, -0.090847254, 0.0053198487, -0.05118073, 0.03325259, -0.10184233, -0.0023749159, -0.06443158, 0.00012671348, 0.01751033, 0.015105985, 0.026924614, -0.008317686, 0.023912244, 0.033021934, 0.042139776, -0.0121835675, -0.07662167, 0.05417998, 0.027178977, 0.015913911, -0.025844183, 0.052038297, -0.035794985, -0.14445323, -0.022735266, -0.028259955, -0.031963162, -0.03689271, 0.015146516, 0.047918744, -0.030187521, 0.03934916, -0.07065176, -0.054546267, 0.041818082, 0.037064355, -0.11159867, 0.068220794, 0.026605649, -0.051470764, -0.063446015, -0.0140529685, 0.040255092, 0.013499155, 0.05473447, -0.07739822, 0.06964445, 0.0077342116, -0.0041326433, 0.06852175, 0.043346483, 0.040871225, 0.021594573, -0.004937522, 0.020115942, 0.026914835, 0.0033539801, -0.059042744, -0.023568554, -0.041689824, -0.036108155, 0.015561067, -0.06563567, 0.016201736, 0.026562793, 0.046857975, -0.047342435, 0.02511272, -0.033998173, 0.06685177, -0.05067212, 0.022810167, 0.0032194394, 0.071436614, -0.013463732, -0.04677832, 0.0021041036, -0.036053136, -0.09193773, -0.089706436, -0.037383217, 0.0027290364, -0.083678, -0.07120363, -0.02084129, 0.055296317, -0.068306826, -0.081075415, -0.077409655, 0.018815227, 0.015141834, 0.009002287, -0.015108962, -0.063102774, 0.07341927, -0.004616067, -0.052119344, -0.026864195, 0.06907798, -0.04151746, 0.005476418, 0.007554695, -0.035092056, -0.033408847, 0.0030846745, -0.0069106817, -0.047349907, -0.05496767, 0.05072885, -0.024717083, 0.02217134, 0.039307233, -0.06434763, -0.017479159, -0.05259535, -0.030699983, 0.008553226, -0.06622133, 0.055369467, -0.02878518, -0.079891026, -0.010963744, 0.068327844, 0.008938221, -0.058358602, 0.0038144514, -0.0681503, 0.004669644, -0.031171087, 0.01738339, -0.089096695, -0.007800757, 0.005807287, 0.0748892, -0.07310794, -0.054480426, -0.017793316, -0.0831611, -0.10723518, 0.04992944, -0.010056332, -0.06381512, 0.029178299, -0.0063689714, -0.0035778305, -0.061060768, -0.050933413, 0.060832158, -0.046192992, -0.03520479, 0.052949976, -0.09156096, -0.013798254, 0.043630436, -0.011465593, -0.063809186, 0.019268662, -0.012669463, -0.05744205, -0.0068880543, -0.09661565, -0.008087531, 0.0018827915, 0.011678683, -0.0018654912, 0.022962391, -0.052307233, -0.07962845, 0.0072589964, -0.050518103, -0.03232904, -0.05217197, 0.058509633, -0.09207969, 0.060244396, 0.0035002322, 0.025517486, -0.0443443, -0.08081589, -0.052951597, -0.031660475, 0.037920788, 0.019099414, -0.0015597045, -0.034341425, -0.07483217, 0.036868002, -0.09293344, -0.104573585, 0.04351291, -0.07420159, -0.041541915, 0.0030228226, 0.06535451, 0.008867553, 0.037571795, 0.050824087, -0.06719997, 0.024787486, -0.043549497, -0.0924744, -0.0014166457, 0.033230316, 0.037935883, 0.062174976, 0.059883118, -0.02853303, -0.055640515, -0.08424904, 0.04276348, -0.044923518, 0.059834808, 0.006847155, 0.0011592284, -0.062473997, -0.09360402, -0.06133708, 0.038903162, -0.10711434, -0.046962943, -0.057795074, -0.011370372, -0.019719347, 0.015769988, -0.09572181, -0.046452794, 0.047159977, 0.10281134, 0.011879725, 0.010044239, -0.08197349, -0.038369697, -0.003571853, -0.029998802, -0.019692162, -0.008662684, -0.006004587, -0.05215643, -0.0016999319, -0.0315273, 0.03000895, -0.024417657, -0.023469191, -0.0059334114, -0.017027903, -0.011662833, 0.028312556, 0.007626608, -0.022339482, -0.038068563, -0.06042733, -0.07638485, -0.0906906, -0.01701213, 0.046337724, -0.068621784, 0.0031000616, -0.0067405924, -0.10359507, -0.029943008, -0.046684287, -0.050462924, 0.060258597, -0.053488143, -0.060827795, -0.08641684, -0.093204506, -0.06629947, -0.026781075, -0.07310718, -0.024154859, -0.034896962, -0.064504646, 0.03635868, 0.00081642065, 0.07201153, 0.003074322, -0.007940739, -0.018306885, 0.050759688, 0.010894136, -0.009320326, -0.009930496, 0.07450999, 0.003358163, -0.04988262, 0.060167074, -0.016895894, -0.10162426, -0.08164211, -0.052890144, 0.057386052, -0.10367257, -0.07219156, -0.11383418, -0.08367407, 0.06441933, 0.028640904, -0.07576632, -0.08424182, 0.034250908, -0.06235308, -0.06341542, -0.04459873, 0.07284723, 0.049961276, 0.031365346, 0.05593434, -0.059733387, 0.040758833, 0.049208432, 0.036572836, -0.03492274, 0.057308685, -0.027317105, 0.02475889, 0.0038426314, 0.0421798, 0.01965038, -0.06472873, -0.011698021, -0.0009638369, -0.06738009, -0.0033627688, -0.009355007, 0.004537244, -0.030090764, -0.06546739, -0.007509339, -0.022031125, -0.068373896, -0.0830343, 0.0236248, -0.064886406, -0.08000552, -0.024715932, -0.08276013, 0.062906116, -0.0010358331, -0.020971954, -0.008342545, -0.062748305, -0.011331532, -0.08748052, 0.019533943, -0.026553258, -0.034467783, 0.08817046, -0.0006200522, 0.033550773, -0.0621936, 0.0668627, -0.014151937, -0.055370584, 0.06710456, 0.07943936, -0.04156416, -0.02734293, -0.013044593, -0.031932056, -0.031517733, 0.03608352, 0.019735646, -0.055217165, 0.0038027763, 0.04585626, -0.06216766, -0.06524018, 0.03622707, -0.054034926, 0.022940792, 0.005925335, 0.043962535, 0.037032433, 0.02390647, 0.057834506, 0.0305499, -0.041183375, -0.053672366, 0.03235782, 0.03941769, -0.039373696, -0.086076334, -0.015567278, 0.036143675, 0.06535454, -0.08147963, 0.003498915, 0.0008099852, -0.06256149, -0.018458594, 0.044274658, -0.0062827435, -0.087843925, 0.052599113, -0.07935483, -0.0031712875, -0.008677065, 0.040694643, -0.044734225, -0.020547405, -0.059363652, -0.11262844, 0.06960106, -0.018772382, -0.02276475, 0.01867503, -0.109442696, -0.051450808, -0.022712484, 0.039716836, -0.01422378, -0.0058815703, -0.027768873, 0.025648467, -0.010270655, -0.07805697, 0.05939095, 0.06506772, 0.03706587, -0.055237774, -0.043824986, 0.038699877, -0.07389748, -0.07131805, 0.059512824, -0.037739925, -0.08211509, -0.059306674, -0.06859543, 0.0032841265, -0.027068552, -0.031455074, -0.010656695, 0.058691256, -0.072470665, 0.048534703, 0.035709143, 0.020205535, 0.010082714, -0.048436724, -0.029578405, -0.09117298, -0.0067501534, -0.09811552, 0.05664958, -0.010330512, 0.03930198, 0.0078846775, -0.03733448, -0.085005574, -0.009007378, -0.026219428, -0.029341929, 0.0611424, -0.03778355, -0.030010417, -0.0025394356, 0.021745173, 0.022652764, 0.010881081, -0.038147446, 0.030525088, 0.00062108226, 0.03294492, 0.0053446935, -0.078917556, -0.01703773, -0.087132, -0.054229844, 0.046081085, 0.038996592, 0.0025996477, -0.010713354, 0.010759447, -0.05954957, 0.0582401, 0.039086204, -0.05189178, -0.02480271, -0.060213264, -0.056250487, 0.04177396, -0.04174508, -0.052223288, 0.0055172294, 0.052346315, -0.027452989, -0.0001020357, 0.0033940747, -0.048119884, -0.055598438, -0.003441207, 0.048637405, 0.035776213, 0.043711424, 0.011287503, 0.014273407, 0.028071174, -0.01858529, -0.018311596, -0.048607357, 0.024630807, -0.036994185, 0.04739093, -0.082073644, 0.015962712, -0.0856935, 0.016561655, 0.04752741, -0.007399997, -0.090460196, -0.02979992, 0.073798224, -0.0050209356, 0.053812474, 0.0043534236, -0.035292782, -0.06523018, -0.037425056, -0.047208328, 0.015507145, -0.046990547, -0.05752376, -0.00988505, 0.05310218, -0.04141281, -0.03466393, 0.012429006, -0.009437432, -0.023779575, -0.00032246858, 0.027529623, -0.059059776, -0.07686927, -0.02324975, -0.05452367, -0.046307594, 0.055926178, -0.019665828, 0.054114163, -0.016645947, -0.0127360895, 0.07208215, 0.012802367, -0.033756055, 0.015244812, -0.069489054, -0.070197456, 0.053463712, -0.05897822, -0.02512103, -0.04596165, 0.0015986189, 0.023324577, 0.028948631, -0.0056345463, 0.020250097, -0.010771342, 0.040439315, 0.04924076, -0.01728354, -0.056038473, 0.010585368, -0.07877751, 0.068193346, -0.0653679, 0.01621975, 0.0064573116, -0.005363494, -0.025036724, -0.031440236, 0.05011856, 0.0347614, -0.029036492, 0.042721618, -0.037410155, -0.0077375025, 0.04303988, -0.0059535345, -0.0048973914, 0.054489933, 0.011681765, -0.09760509, 0.04663516, -0.044458356, 0.014339909, -0.04926649, 0.05296862, 0.0073997476, -0.06596802, -0.007502736, -0.078360125, 0.0035308318, -0.07495236, -0.077552214, 0.022553317, -0.008721009, 0.027598878, -0.030306112, -0.05003644, 0.062214777, 0.061606064, 0.038969636, -0.032664943, 0.013816322, 0.011324614, 0.06434192, -0.06569, -0.03591102, 0.045636125, -0.025395503, -0.05433856, -0.01381864, -0.054476272, -0.01027403, -0.04664553, -0.018135775, -0.06909188, -0.005730285, 0.056065395, 0.013353504, -0.013081856, -0.0065503404, 0.0063230842, -0.025960457, -0.053399064, 0.05954672, -0.025147406, -0.04096081, 0.0022649765, -0.07024397, -0.00427369, -0.080836155, 0.0163671, 0.022658294, -0.077738926, -0.015171256, 0.02188308, -0.026710449, -0.06091639, 0.053052064, -0.086414605, -0.058365706, 0.00021029147, 0.025622614, -0.010335885, 0.042262442, -0.06502406, 0.022803878, -0.00950304, 0.039505366, -0.06499639, -0.048339643, 0.034881286, 0.0078100427, -0.029651575, 0.0039320663, 0.039121017, -0.00017435849, 0.028071731, 0.030293845, -0.048389953, 0.047025632, -0.0008379395, -0.011960849, -0.026373535, -0.05350572, 0.029012889, -0.014575728, 0.069513634, 0.06082137, -0.02721926, -0.01912233, -0.00057178736, -0.016506221, -0.014840411, 0.06967467, -0.020418221, 0.040219747, -0.06195589, -0.041924525, -0.048254084, 0.0076023648, -0.055505507, -0.033813905, -0.066935375, -0.09897014, -0.048804097, -0.074897215, -0.053979926, 0.029698431, 0.024210101, 0.016159214, 0.014128268, 0.013085961, -0.07986581, -0.023416312, -0.066240735, -0.06338381, 0.00779554, 0.023321807, -0.0022439572, -0.026972903, -0.0658554, -0.029199552, 0.042333014, -0.013292372, -0.042275928, 0.021360673, -0.022119042, 0.04258463, -0.008969851, -0.0753607, 0.03961598, -0.02097618, 0.060591653, -0.026651084, -0.017481327, 0.03687949, 0.0015804467, -0.017203754, 0.030892722, -0.037286926, -0.047385268, -0.007792242, -0.065497324, 0.058360994, -0.046431035, -0.06424781, 0.039890848, -0.0028279119, 0.020543896, -0.022914054, -0.0036014393, -0.048955478, -0.068022594, 0.025530316, 0.0050644875, -0.023466107, -0.06340271, 0.0043672025, 0.03388882, -0.054901402, 0.05872123, 0.0016250908, -0.017939022, -0.0649524, 0.06084144, 0.042349875, 0.015635937, -0.070808604, -0.02449324, -0.028080799, 0.06079357, -0.052789755, -0.060423657, -0.021195129, 0.019523509, 0.032492988, -0.070234716, -0.018695105, -0.035160247, -0.0065791253, -0.0648706, -0.022641469, -0.025368929, 0.018711874, 0.0032521645, -0.06853502, -0.022057775, -0.05360616, -0.018098554, -0.023361567, -0.019311737, -0.04655083, -0.018850215, -0.10683157, 0.034728527, 0.02699885, -0.05361944, 0.03086648, 0.040400833, -0.04765271, -0.0706591, -0.06451278, 0.06132174, -0.040314678, 0.03550444, -0.047642052, -0.030132247, 0.02011835, -0.07580713, -0.01564759, -0.076928705, -0.0479121, -0.0692563, -0.09774118, -0.045086782, 0.0677852, 0.022449048, 0.039938275, 0.06620939, -0.090578794, -0.036809087, -0.050101645, -0.071882956, -0.029459324, -0.039831236, 0.04462082, 0.060444232, -0.0077123037, -0.04721346, 0.020882718, 0.019384772, 0.053221986, 0.023885049, 0.023857817, -0.018067384, 0.056274846, -0.07704504, 0.055918336, 0.07005645, -0.0034478083, -0.032342017, -0.016856916, 0.04007898, -0.060571384, -0.04428576, -0.03240085, 0.027344804, 0.02779823, -0.003970141, 0.0652366, -0.055525396, -0.0071623106, 0.05000923, -0.006105668, 0.0014652312, -0.01572763, -0.0072397143, 0.0038054115, -0.05109632, -0.065318145, 0.029744558, 0.03614004, -0.017741008, -0.02675675, -0.034915093, -0.048622046, 0.056288358, -0.0415917, -0.06860059, -0.051310025, 0.047744997, 0.019202942, -0.044070587, 0.06285897, 0.050746225, -0.020663787, -0.067790695, 0.051457487, -0.010098226, 0.056384325, -0.06608847, -0.051403087, -0.0061752647, -0.0641416, -0.047767125, 0.022119693, -0.05910299, -0.07207813, 0.06293073, 0.00035366416, 0.016233794, -0.013384659, 0.028339133, 0.03292723, 0.062653214, 0.030444002, -0.039155748, -0.056310706, -0.09446408, -0.03085438, 0.0064349594, 0.046258405, 0.0697882, -0.012932707, -0.0067117433, -0.040450096, -0.031375404, 0.009772519, -0.018507786, -0.06410624, -0.049304467, -0.050324112, 0.028795283, 0.06751635, -0.049699735, -0.06073265, 0.0049039884, 0.02780305, 0.006215468, -0.09189342, 0.07267316, -0.058329757, 0.036302913, 0.051878914, -0.026655756, -0.023822358, 0.01021457, -0.060890146, -0.11201638, -0.06496155, 0.006625837, -0.029726107, -0.035225257, -0.010069028, -0.084108464, -0.081871256, 0.016393507, -0.040510267, -0.038333893, -0.07011094, -0.045790724, -0.06876708, 0.010672562, 0.07013038, -0.01627933, -0.04822269, 0.035117224, -0.032607872, 0.026980123, 0.06109667, -0.029007973, 0.034086283, 0.065364584, 0.04643038, 0.033787936, -0.074827105, -0.061587796, -0.043948866, -0.07125031, 0.01710711, -0.036845658, -0.05964752, -0.065852836, -0.044930257, 0.029869098, -0.015811399, -0.07262879, -0.012528356, -0.017598206, -0.042516064, -0.025237782, 0.05439593, 0.014399973, -0.023182418, -0.01568139, -0.01927443, -0.035979144, 0.048470885, 0.03908746, -0.06767769, -0.0021617112, -0.06172415, -0.049151264, -0.02842654, -0.025771786, -0.022466255, -0.020956798, 0.051972695, 0.006719269, 0.05563969, 0.06344464, -0.057230454, -0.08110188, -0.035288602, -0.024756365, 0.030331887, -0.0707987, -0.071156956, 0.0013945485, -0.07397422, -0.06225232, -0.058648396, 0.023011953, 0.01683268, -0.025823008, -0.03309207, 0.0590654, 0.030831158, -0.08615995, -0.06858525, 0.008660153, 0.010974272, -0.04223759, -0.026189275, 0.043682985, -0.10756061, 0.016876452, -0.026737042, -0.05896466, -0.0012371005, 0.011138052, -0.015660744, -0.05840812, -0.024808481, 0.04395383, 0.021182574, -0.080125615, 0.04759445, 0.023775866, 0.022206627, -0.04030531, 0.041510485, -0.0834283, 0.06197644, -0.06994682, -0.039879326, 0.030081663, 0.014750518, 0.024044676, 0.04138057, -0.0686987, -0.043231294, 0.02761472, -0.080236904, 0.03670804, 0.015740152, -0.022891503, 0.0028885785, -0.013032544, 0.025309404, -0.08698884, -0.08167927, 0.008095801, -0.011024193, 0.033494405, -0.026042018, 0.002646281, -0.032517143, 0.01303525, -0.031689707, -0.055725936, -0.00411544, -0.012856804, -0.07028027, -0.018094428, 0.027680248, -0.018547745, 0.058377765, 0.028774075, 0.027199263, -0.04570719, 0.006611109, -0.081493564, -0.05885287, 0.06655115, 0.034084313, 0.013470076, 0.061811373, 0.05401345, -0.0051170303, -0.004538201, -0.05482998, -0.034539003, 0.014820145, 0.020235293, 0.0042537153, -0.009426929, -0.07938487, 0.036284402, -0.05512424, 0.058761068, 0.021687172, 0.05125052, 0.023809716, -0.061710052, 0.04319723, 0.035031393, 0.021347525, -0.06887104, -0.067612804, -0.08134049, 0.0037231445, -0.07468477, -0.08371637, 0.062819, 0.058627274, -0.09859491, -0.026177365, 0.007423253, -0.047300767, -0.07012901, -0.039551612, 0.046504565, -0.093501456, 0.01815983, 0.019948455, 0.042714424, 0.05805783, 0.014900385, -0.091448665, -0.06990571, -0.032706376, -0.045190684, 0.06834255, 0.028230473, 0.044767752, -0.08014522, -0.06526783, -0.078079075, 0.050598644, -0.055432208, 0.0058145537, -0.047978714, -0.032106247, -0.058065947, -0.021755908, -0.07466813, -0.05128114, 0.016463585, -0.103503436, 0.0013142495, -0.02846624, -0.028618779, -0.042947676, 0.0117714405, 0.031060226, 0.010852289, 0.011068214, 0.028556518, 0.0653186, -0.057655312, -0.00568147, -0.005174212, 0.022483312, -0.04385371, -0.06228118, -0.08094512, -0.0037276223, 0.04988893, 0.020999096, -0.08852391, 0.01749364, -0.09919831, 0.005273736, -0.047947824, -0.072311744, -0.0104070585, 0.017532868, -0.03893618, 0.05726564, -0.029026777, 0.0027739669, 0.04217172, 0.019412648, -0.021704242, -0.032566257, 0.019621506, 0.012106599, 0.0058633345, -0.02577633, 0.012725219, 0.023786291, -0.069281586, -0.020767082, -0.021403456, -0.0294098, -0.04435103, 0.017289959, 0.026878165, 0.039941914, -0.045724086, -0.0016276068, -0.048690774, -0.03838222, -0.0661314, -0.052053533, -0.040098533, -0.012897911, -0.030459777, 0.0731449, 0.054239083, -0.031433687, -0.009617262, -0.046902474, -0.06318247, 0.02502969, -0.041219644, 0.044802308, 0.042302072, -0.030320328, 0.0038735904, 0.015113689, -0.03473939, 0.003001757, 0.018605776, -0.045923814, -0.020965457, -0.046636224, -0.068682924, -0.07297222, 0.05468295, -0.015424434, 0.0349646, -0.06498343, -0.063726015, 0.01553668, -0.03100451, -0.07990245, 0.030201362, 0.07153809, 0.014884117, 0.03206194, -0.043368015, 0.058350593, -0.05731987, 0.05119416, -0.052054495, 0.006635528, -0.0038361698, -0.023610162, 0.04251565, 0.015098424, -0.085691795, -0.0008884938, 0.03855329, -0.00854786, -0.07376433, -0.031411912, 0.04530817, 0.02120367, -0.043309007, 0.06598437, 0.016210064, 0.054637328, 0.01161827, -0.07573898, -0.036760006, -0.0029942393, -0.017560216, -0.04128389, 0.018395051, 0.031282075, -0.02187154, 0.053272396, -0.07708885, -0.023798784, 0.060796887, 0.002457636, -0.05758309, 0.0043771937, -0.08423443, 0.016448352, -0.038939174, -0.038017105, 0.029621687, 0.00042696175, -0.067044176, 0.030900016, 0.020631097, -0.08649173, -0.03232215, -0.018515306, -0.050415155, -0.026442846, -0.05527097, -0.053626135, -0.0035216063, -0.048434503, 0.008803159, 0.029651387, -0.045175787, 0.007162097, -0.038537744, 0.0072985664, -0.07065604, 0.03095688, 0.023809997, -0.07112119, 0.024042234, 0.03602793, -0.059175532, -0.007633682, -0.07360639, -0.033728246, -0.007884257, -0.034587916, 0.039485082, 0.04811989, 0.037833683, 0.008333631, -0.0044916254, -0.053900182, 0.03431857, -0.10819701, -0.050625335, -0.059520625, -0.018333841, -0.060570136, 0.016638774, -0.038775265, 0.002688548, 0.019471563, -0.055064492, 0.056517057, -0.00397142, -0.06483087, 0.04247567, 0.028570525, 0.025661036, -0.048969295, -0.027716123, -0.0553905, -0.058174435, -0.06863865, 0.05510353, 0.032712623, -0.017992627, -0.041351616, -0.004756826, -0.05999535, -0.045659065, -0.014772914, -0.009470895, 0.033041585, 0.06803152, 0.06395469, -0.05540472, -0.061268892, -0.037962902, 0.017417155, -0.05175168, -0.0087702945, -0.051902387, -0.07862791, 0.0234711, -0.07299785, 0.011661546, -0.056009218, 0.011047413, -0.096441396, 0.0013520947, 0.035813462, -0.026587153, -0.121926546, -0.0684204, 0.012373965, 0.017049134, -0.03796321, -0.059886113, 0.0005673451, 0.00084795506, -0.009367277, -0.052266974, 0.030118441, 0.0075691105, -0.0039603463, -0.046423562, -0.05096462, 0.062198628, -0.061720427, -0.06564059, 0.029266976, -0.04621498, 0.025958925, -0.02520569, -0.06767537, 0.0154868765, 0.04576113, -0.0066173226, -0.02614088, -0.0018596351, 0.023012608, -0.07025569, -0.062343106, 0.06904465, -0.0011094672, 0.04163597, 0.0635702, -0.08710056, -0.027457746, 0.07097849, -0.0736059, -0.0131142605, 0.03429933, -0.063782215, 0.028018259, -0.026525497, -0.062212706, 0.04965894, 0.017940804, -0.0781684, 0.00024036047, 0.0003290578, 0.073205754, -0.040623475, -0.05214109, -0.019339709, -0.047520485, -0.0060757296, 0.030563688, 0.011586415, -0.02337429, -0.024997547, -0.016784582, -0.027757067, -0.030934151, -0.09377532, -0.0970839, 0.012305859, 0.046543088, 0.074170545, -0.0437209, 0.033451356, -0.081391655, 0.0063953376, -0.056510437, -0.06373195, -0.058944587, -0.07098404, -0.07032218, -0.0019887818, -0.10107705, 0.032881342, 0.017814584, 0.05484333, 0.031514406, -0.026801458, -0.035059847, -0.0029870046, -0.03885575, -0.037504304, -0.061025675, -0.07349137, 0.05598503, -0.064136826, -0.058494776, -0.35113612, 0.109509416, -0.041561145, 0.08026247, 0.06975698, -0.011955862, 0.06241234, -0.055233967, 0.057314068, 0.05315026, -0.15662318, -0.009872301, -0.056817446, 0.057416905, -0.06932652, -0.19333538, -0.03275046, -0.022656402, -0.052584104, -0.06845552, 0.044960838, -0.041021235, 0.003831908, 0.43701524, 0.07212749, 0.13810134, 0.21292761, 0.23755996, -0.04810125, 0.2003103, -0.14413546, -0.09528021, 0.01211062, 0.018013196, -0.12102528, -0.033292726, 0.22097827, 0.06640545, 0.055327054, -0.1709204, -0.31329152, 0.091913335, -0.13724445, 0.08950493, 0.040391266, 0.29355994, -0.24561244, -0.13164134, -0.083124876, 0.010573301, -0.013810242, -0.09179503, 0.0055315876, 0.054613657, -0.11853739, 0.041270122, 0.080755204, 0.062792644, 0.11865471, -0.103398845, 0.036017053, 0.025243426, -0.07826119, -0.02807245, -0.091124445, 0.018845608, 0.0049804035, 0.19180003, 0.19635475, 0.047373507, 0.15754433, -0.2588571, 0.009187943, 0.06500486, -0.10544495, -0.041694723, -0.04200565, 0.07431463, 0.08281076, -0.14305548, 0.050787643, -0.002363593, 0.23825236, 0.04088883, 0.05330633, -0.101306975, 0.04967144, 0.3637614, 0.06962569, 0.2532598, 0.015958246, 0.19014582, -0.07557003, 0.27474457, -0.2199583, -0.15666075, -0.09621195, -0.058549125, -0.24452658, -0.39563298, -0.0853252, 0.14724213, -0.012831732, -0.105755664, 0.0026682997, 0.07692237, 0.19515045, 0.080823496, -0.0237647, 0.049017157, 0.18505026, -0.09622333, -0.065136775, -0.24033639, 0.122962564, 0.041642055, -0.18407455, 0.03262784, -0.36304674, -0.059696995, 0.13944094, 0.025302792, 0.26466963, 0.044523414, 0.06653917, -0.060908455, 0.041993603, -0.08243029, 0.09271271, -0.28599015, 0.06402609, -0.061928794, -0.08155938, 0.057333045, 0.12060388, -0.12150324, 0.06262625, 0.0711408, 0.14588766, -0.052817103, -0.072397225, 0.27149224, -0.13106085, 0.072697714, 0.053974833, 0.0263343, 0.0013015101, 0.022925215, 0.20907359, 0.25821835, -0.045739803, 0.11223049, -0.061007794, -0.019516487, -0.11984833, 0.025856022, -0.20268616, -0.10796753, -0.24713483, 0.01566736, -0.14983524, 0.023791594, -0.035069704, -0.3789082, -0.14442223, 0.15519235, 0.010299025, 0.095718, -0.1490757, 0.025524555, 0.05201874, -0.01755392, -0.005176012, 0.046348583, 0.22216325, -0.06337321, 0.031828705, -0.16920868, -0.012158913, -0.017681006, -0.28597638, -0.06476137, -0.2661226, -0.49191406, 0.03296662, -0.051037952, -0.048513584, 0.081850015, 0.009630896, 0.050629407, 0.045767434, -0.033813484, -0.06660701, -0.00840176, -0.041588817, -0.0035728177, 0.15065327, 0.06708957, 0.11697503, 0.054087806, -0.0641421, 0.041115224, -0.053097922, 0.069150545, -0.009648249, 0.12897797, -0.038859103, 0.024932053, 0.026962457, -0.010017919, -0.16745114, 0.0032117728, 0.040956262, 0.21993063, -0.04340576, 0.18232165, -0.012172954, -0.06165995, -0.09675098, -0.18206392, 0.117352486, -0.119835824, -0.16653153, 0.16221198, -0.12445929, -0.05433435, 0.10853406, -0.08009221, -0.075577535, 0.124515526, 0.050004046, 0.20283043, -0.08735896, 0.06545029, 0.113047, -0.16623189, -0.020549139, 0.02380944, -0.13004811, -0.07174613, 0.17543639, -0.31611627, 0.0493656, -0.005414355, -0.08954196, 0.05348403, -0.038260963, -0.12592772, 0.29324648, -0.09013557, 0.046679456, -0.038745385, 0.04511874, 0.14360346, -0.014914749, 0.06332507, -0.35187513, 0.00669411, 0.009594869, 0.21033615, 0.043827444, -0.07019492, 0.08062295, 0.10628663, 0.040116683, 0.074645035, 0.04085026, 0.18753475, -0.030760605, -0.088438116, -0.015752595, -0.123601146, 0.12407977, 0.048801403, -0.059288204, 0.0010987959, -0.15061244, 0.034693502, -0.04629387, 0.28310484, 0.032839734, 0.23854336, 0.18525045, 0.15497816, -0.17560859, -0.1837593, 0.2335298, -0.0059222435, 0.026506972, -0.08142026, -0.062144704, -0.13987537, 0.26196295, 0.07942289, 0.05611154, -0.15140687, -0.23945014, -0.09192659, -0.052152164, 0.105035685, 0.07059592, 0.21296665, 0.07657733, 0.018156784, -0.032202147, -0.07012478, 0.077276126, -0.118196175, -0.12495418, 0.06316127, 0.034984056, -0.01700709, -0.018433576, 0.07822916, 0.16316418, -0.122801214, 0.036593392, 0.0067347744, 0.03393386, 0.022025654, -0.14230235, -0.0015910091, -0.062071644, 0.31210506, 0.055513535, 0.045182936, 0.01004678, 0.0597747, -0.039036624, 0.029954571, -0.114895694, 0.1265589, -0.009617388, 0.043673802, -0.08367592, 0.11812936, 0.041344564, 0.09454722, 0.062221274, -0.06550828, -0.026823493, 0.1295704, -0.067824304, 0.063835435, 0.2982153, -0.05422078, 0.030904997, -0.06133612, -0.09318614, 0.00024373333, -0.016174825, -0.15481566, -0.06489135, 0.043023285, 0.06743561, -0.051019587, -0.104465894, 0.015137282, -0.073941685, -0.15703037, -0.39022058, 0.14110593, 0.08507006, 0.062318645, 0.009318002, 0.017527765, 0.16169304, -0.16328079, -0.1374838, -0.27266383, 0.020141773, 0.0067901346, -0.07974642, -0.045106232, 0.034155805, -0.08540269, -0.07214889, 0.054883204, 0.16613027, 0.10295524, -0.00043600798, 0.009310833, 0.024168855, 0.0010188224, -0.16684541, -0.032249633, 0.015955495, 0.012923477, -0.10122816, -0.0040787524, -0.059953894, -0.09630407, -0.061019182, 0.03082824, -0.105009645, 0.016703216, -0.021117847, 0.21004486, -0.05408745, -0.049639598, -0.10859428, 0.0141323935, 0.16071355, 0.10219734, 0.06583912, -0.039730486, 0.02421773, -0.12870255, -0.0048034275, -0.25786886, -0.024473941, -0.19624871, -0.2629847, 0.004003659, -0.030434895, 0.03406966, -0.09814056, -0.07966588, -0.016782183, -0.23494947, -0.34502223, -0.109317325, 0.039457783, 0.098427854, -0.35908678, 0.052275185, 0.071370006, 0.045521837, -0.016890394, -0.06571382, 0.2613473, -0.089446984, -0.057555106, -0.09408706, -0.24541548, 0.029739153, -0.08399219, -0.05864529, -0.28777757, -0.1926031, 0.031688947, -0.07366726, 0.11615077, 0.17463, -0.053728648, 0.10473001, 0.055615682, 0.01642178, -0.2710653, 0.09713555, -0.05014502, -0.25822717, 0.040352777, -0.060841665, 0.11891261, 0.20108671, -0.06345885, 0.07619326, -0.06828634, 0.2159449, 0.057639644, 0.1665645, -0.063786894, 0.18652192, 0.07113245, 0.08633029, 0.048707854, 0.04580179, 0.09393663, 0.06939961, -0.014243495, -0.046930414, 0.042342607, -0.31105322, 0.03458786, 0.036562983, -0.23131111, 0.0384326, -0.046124723, 0.12348132, -0.10185788, 0.064129844, 0.023915669, -0.15068834, 0.121671475, 0.1287181, -0.04376212, 0.039919898, -0.2002228, 0.058995422, -0.15249173, -0.004919358, -0.02538208, 0.116455734, -0.10892228, 0.015005871, -0.12781738, 0.14196812, 0.13450517, 0.0052236603, -0.2645607, 0.008934919, -0.2853313, 0.054174557, 0.11637772, 0.036485862, 0.019518152, -0.15675811, 0.041460082, 0.1984759, 0.028529998, 0.028275002, 0.023547802, -0.008790052, -0.033168785, 0.1379852, 0.095029734, -0.060421046, 0.14684463, 0.18599026, 0.075673364, 0.018239347, 0.16991659, 0.09362875, -0.015518695, 0.110115476, 0.09031236, 0.09634575, 0.1384346, 0.10401261, -0.0888021, -0.012940621, -0.13154216, -0.004136781, 0.044836782, 0.20475726, -0.11969449, 0.3163766, -0.13416854, -0.18244891, -0.07547045, 0.10865717, 0.07728285, -0.052362707, 0.0012198351, -0.021222478, 0.035526183, -0.06644415, 0.0109244855, 0.07972755, 0.056700177, -0.17263253, 0.21636535, 0.0150429215, 0.237279, 0.08148801, 0.047551088, -0.2095602, -0.09255826, -0.08736294, 0.06363204, -0.18816681, -0.18822834, -0.07860508, 0.12258949, 0.047200304, -0.28714323, -0.055436183, 0.16274782, 0.07916593, 0.29162583, 0.21403797, 0.019701347, 0.20080899, -0.051062528, 0.070512325, 0.06589464, -0.118971854, 0.022606542, -0.056958526, -0.07079642, 0.03356014, -0.16161937, 0.18940042, -0.010571191, 0.045854125, 0.23374213, -0.059015553, -0.04709836, -0.056531537, 0.040406067, 0.28345737, 0.009661215, 0.03999588, -0.08345856, -0.0050740754, -0.03658316, 0.030731916, -0.049488775, -0.16503419, 0.036396567, -0.054415993, -0.12574533, 0.057406347, -0.10064954, -0.0152058555, -0.05839655, -0.061433475, 0.07460869, -0.036974993, 0.29237065, -0.04706146, -0.24738425, 0.072346635, -0.039996386, 0.1374532, 0.12150576, -0.08009481, -0.016018199, -0.018675666, 0.0059644324, -0.21531215, -0.076954335, -0.04210954, -0.17188215, -0.08039535, -0.41082183, -0.0148249045, -0.024570508, 0.03902257, -0.057381753, -0.03132076, -0.06068274, 0.08560378, 0.12710515, 0.047623996, -0.0112123545, -0.17547214, 0.033703256, 0.01768501, -0.16815902, -0.08664092, 0.01969863, -0.024611091, -0.26589727, 0.029601326, -0.22363524, -0.009053096, -0.02529198, -0.05668497, 0.3573738, -0.16199936, 0.02756922, 0.02744243, -0.09397279, 0.18467602, 0.07281014, 0.10128236, -0.09234939, 0.029947676, 0.09599588, 0.010217278, -0.030242268, -0.23945375, -0.1617042, -0.10761318, -0.037007023, 0.0033764015, -0.5723819, 0.11761424, -0.30005842, 0.12633136, -0.1778713, -0.06636046, 0.11004411, -0.18026754, -0.34264788, -0.097180694, -0.06441998, 0.018479532, -0.07656526, -0.10662139, -0.054675225, 0.18724534, 0.07570158, 0.068785235, 0.11438056, 0.06259251, -0.16805868, 0.010275623, -0.3628408, -0.08837798, -0.23212521, -0.045897044, -0.30441576, 0.014330307, 0.032480918, 0.024521379, 0.0871491, -0.018777106, -0.05597806, 0.04063877, 0.038447395, -0.08972285, -0.08332418, -0.00413011, 0.00776666, -0.14844926, -0.15020424, 0.024076307, -0.09928654, -0.088519685, -0.03480885, 0.03157493, 0.23756288, -0.030224897, 0.017478488, 0.16154966, -0.051630888, 0.10252014, -0.08720746, 0.09844735, 0.02766014, -0.063764244, 0.020561727, 0.13428509, -0.0155718895, -0.052242894, 0.09783553, -0.071402065, 0.16773655, -0.006293216, -0.33047724, -0.19178484, -0.24602237, -0.058520563, -0.16922155, -0.065072745, 0.16324356, -0.27219924, 0.13085316, 0.11318314, -0.0491357, 0.07522975, -0.008593784, -0.09035565, 0.14022659, 0.176035, -0.0948999, 0.08806692, 0.02084046, 0.086054936, -0.15022792, 0.063728966, 0.044773415, -0.019909354, -0.14869043, -0.06715404, -0.20916235, 0.10881425, 0.0017972309, -0.011998697, 0.024322812, 0.20820396, -0.06238062, 0.033336647, -0.039105278, -0.049708247, 0.027979797, -0.09809348, 0.075227976, 0.2407124, -0.033208437, -0.041247595, -0.08661113, -0.12041106, 0.031271942, 0.034307107, 0.025536532, 0.08693811, 0.016022548, 0.012743529, 0.0058140345, 0.14831151, 0.119580954, 0.072057046, 0.17824373, 0.016901977, -0.1640856, -0.1803549, 0.048735015, -0.10249969, 0.07234275, -0.15647542, -0.024283761, -0.20532912, -0.24161841, -0.019353878, -0.35258237, -0.38139707, 0.10691068, 0.07318577, -0.026226103, 0.26133314, 0.18829158, -0.19205526, -0.04322655, 0.18837267, 0.06561685, 0.21815346, -0.005133627, 0.16106935, -0.0028974926, -0.021881107, 0.10233311, -0.15669912, -0.010521493, 0.1868454, 0.25283384, -0.040031392, 0.32936892, 0.04098259, -0.2853217, -0.023170833, 0.033386488, -0.027269557, 0.34576443, 0.33535492, 0.029542647, -0.016294548, 0.042380873, -0.007857387, 0.13893999, -0.30367002, 0.060459442, 0.032379624, -0.16528524, 0.080886714, -0.08999912, -0.11463828, -0.036785472, 0.059098054, 0.161573, -0.04930023, 0.07041204, -0.061952334, 0.036799278, 0.09590109, 0.10039886, 0.02202281, -0.016946504, -0.0068212897, -0.05112105, 0.09163426, -0.049426172, 0.06486285, 0.04602397, -0.33994213, -0.0060425587, 0.21277995, -0.26990527, 0.1311178, -0.26969117, 8.468698e-06, 0.15240526, 0.09811448, 0.13547722, -0.0334888, -0.08156992, -0.2478128, -0.07293609, 0.07764815, 0.0124970805, -0.06904565, -0.023228299, -0.074504994, 0.042307205, -0.10850635, -0.10737686, -0.21159418, -0.23769133, 0.082526594, 0.021508748, -0.009850626, 0.2702882, -0.03294643, -0.09371576, 0.01364082, 0.069900915, -0.020464322, 0.2025515, 0.12773404, -0.055668995, -0.13387798, -0.067723505, 0.08232862, -0.0071931747, -0.2614262, 0.062311783, -0.044648413, -0.16046798, -0.05482976, -0.3535334, 0.021703372, -0.007815485, 0.03840386, 0.022006955, -0.2255302, -0.07704549, -0.029334722, -0.04827749, 0.05986797, 0.0059442553, 0.058380805, -0.16815291, -0.021315724, -0.14096428, 0.073232055, -0.033213645, -0.23844013, 0.08823245, -0.49485987, -0.17585433, 0.11364957, -0.3195514, 0.042958934, -0.1633655, -0.053046133, -0.09817338, 0.026444167, 0.23720379, -0.022922875, -0.28208244, -0.2267545, -0.05625552, 0.08360933, -0.04311771, -0.3323602, 0.014201489, 0.2495043, 0.053370435, -0.06282689, 0.08406969, -0.02159593, -0.21980028, 0.026448434, 0.31367663, -0.04858692, 0.13316165, 0.024249269, -0.05873632, -0.05410377, -0.09305364, 0.035653576, 0.053159982, 0.03791879, 0.046291165, -0.008413601, 0.0055084503, -0.00505294, -0.05793619, -0.06716736, 0.016057901, -0.30551884, -0.16385412, 0.025538808, -0.91511273, 0.11995317, 0.009453324, -0.015992684, -0.2715981, -0.20579512, -0.0045806766, 0.058998134, 0.08214093, 0.018423965, 0.064822845, 0.052440178, -0.13365316, 0.00768093, -0.10742896, 0.13147388, 0.032823123, 0.038875815, -0.007870173, -0.20290948, -0.31662858, -0.17266732, -0.2050158, 0.1856306, -0.08347963, 0.12167451, 0.17217983, -0.008931383, 0.13112971, -0.080146775, 0.02184545, -0.107893445, -0.010955035, 0.20190452, 0.19405183, -0.25394925, 0.249476, 0.26327252, -0.001358342, 0.04432646, 0.123222254, -0.103866935, -0.30634588, 0.03202474, 0.12560578, -0.021869607, 0.24838758, 0.07791676, 0.040575992, -0.14102426, -0.052175462, -0.068272576, 0.2811291, 0.43027166, -0.026574206, -0.10946323, -0.063654035, -0.033964075, -0.0012977216, 0.031392813, -0.02585906, -0.039943587, -0.03084249, 0.0424147, -0.034214124, -0.05184582, -0.009453096, 0.06807542, 0.02804162, 0.05483878, 0.007221006, -0.0129580945, -0.049688227, -0.080676116, -0.026684424, -0.035115913, -0.0576147, 0.04516571, -0.08337339, 0.030462176, 0.03593044, 0.01043804, -0.039795045, -0.07072147, -0.015093474, -0.046775028, 0.03678828, -0.035414416, -0.022792883, -0.0012412271, 0.019371813, -0.055989496, -0.025528373, 0.04282469, -0.057003085, 0.006287153, 0.05810866, 0.018014863, -0.041110385, 0.009233773, -0.06352885, -0.05027965, 0.07737326, -0.018069535, -0.03697042, -0.043286946, -0.04731776, -0.08165139, -0.090895906, -0.057490386, 0.04483891, -0.011258058, 0.043158144, -0.013389714, -0.09242443, 0.06429233, 0.023048088, -0.023537694, 0.0048904493, -0.033672404, -0.049176477, -0.050676517, 0.02868713, -0.08295302, -0.023082674, -0.022450496, -0.024189629, 0.07908863, -0.024575725, -0.0074152295, -0.029922066, 0.053098634, -0.0137370555, 0.024225866, -0.02532781, -0.061246805, -0.00476934, 0.0054082912, 0.012969505, 0.024794616, -0.065867685, -0.0075260475, -0.049031015, -0.054457422, 0.021400988, 0.027983423, -0.0765451, -0.0036475172, -0.0557708, -0.07705596, -0.022753168, -0.034666803, -0.017435169, -0.03636651, -0.0049460554, 0.05817023, 0.005890694, -0.023941899, -0.040066402, -0.015725423, -0.062911145, 0.05925241, -0.030321421, -0.0731794, 0.0421988, -0.05964519, -0.013165921, 0.023640478, 0.003889808, 0.050827667, 0.026576282, -0.05605134, -0.059891276, -0.038319282, -0.026486635, 0.04715231, 0.0073334514, -0.08223127, 0.042822108, 0.06616749, -0.0055344817, -0.08485227, -0.048633154, 0.07544602, -0.011027044, 0.057340372, 0.02296816, 0.013758721, -0.011347668, 0.053096052, 0.019574217, 0.010932422, -0.0130311055, -0.07730847, -0.0004926302, -0.044861555, 0.020753782, -0.023881108, -0.060681768, -0.06517115, -0.056785222, 0.013819512, 0.03868589, -0.037451178, -0.00047979888, 0.01569853, -0.07373443, -0.018670619, -0.069843814, 0.033925496, 0.0047664456, -0.06527395, 0.038334217, -0.07450688, 0.0030633528, -0.0706297, -0.082762375, 0.045374986, -0.0707334, -0.057681147, 0.0085975025, 0.054335024, -0.07247283, -0.007933977, -0.0755009, -0.08547378, 0.03796646, -0.08211099, -0.082967475, -0.056271292, -0.009705983, -0.06764073, -0.0121241445, -0.0036120946, 0.01027995, -0.09083996, -0.09172779, -0.07093637, -0.07409898, -0.039352395, -0.05039953, -0.07463152, -0.052629817, -0.015438739, 0.045416385, 0.048339307, -0.06048292, -0.034204174, 0.039208233, 0.058852665, 0.04922899, 0.030584032, 0.0006496645, 0.03675751, 0.002723565, 0.048211753, 0.059470527, -0.081001796, -0.0692827, 0.0041176826, 0.06652603, -0.08534278, 0.031203166, 0.017352507, -0.016559035, -0.0820635, 0.028695637, 0.010402292, 0.048847508, -0.013983864, -0.057135776, -0.0261042, 0.02667851, -0.07545209, -0.0008382499, -0.0272326, 0.014416547, 0.029222008, -0.023887217, 0.018083952, -0.07855078, -0.024509668, -0.07883081, -0.050400738, -0.016706023, 0.0070213913, -0.015960028, -0.0035389536, 0.04508185, -0.008827817, -0.022248937, 0.03619377, -0.067155525, -0.08343015, -0.04702596, 0.010025809, 0.06048362, -0.01710603, -0.071143046, -0.0075342893, 0.0365606, -0.021659166, -0.026698979, -0.040523387, -0.05804675, 0.030824065, 0.022947723, 0.034821562, -0.06293672, -0.047889322, -0.03080453, -0.00062883587, -0.067547254, 0.008812345, -0.014279274, -0.05195144, -0.0051226127, 0.035515886, -0.08552171, 0.057522688, -0.062051807, -0.05154181, -0.067924134, -0.0070161372, 0.002732195, -0.027311157, 0.04288388, 0.045244455, -0.01369001, -0.10112514, -0.02179122, -0.033668596, 0.03766082, -0.03560153, 0.03291133, 0.050753817, 0.028307408, -0.04240163, -0.1000276, 0.020123199, -0.0368453, 0.059422724, 0.052934617, -0.05655739, -0.04463434, -0.018351512, -0.039426435, -0.0337934, -0.039342463, 0.01732214, -0.03377752, -0.0037247296, 0.022696659, -0.048916105, 0.025412206, -0.011811722, 0.032344386, 0.012824034, 0.026312687, 0.0400441, -0.027932934, 0.03438227, 0.038021874, -0.0860999, 0.05429927, -0.06309867, 0.05563247, 0.025445834, -0.05859778, -0.014277973, 0.030234234, -0.036867738, -0.026028782, -0.032017987, 0.03571389, -0.06303571, 0.052267592, 0.0394354, -0.062824674, -0.008636511, -0.021908367, -0.063920535, 0.0074282773, 0.037948105, -0.019275617, 0.019380672, -0.005949971, 0.04201284, 0.040200494, -0.038415283, -0.029605161, -0.02193349, -0.07297629, -0.09248241, -0.029425537, -0.013101276, -0.07354151, -0.049379695, -0.0053507932, -0.0117900595, 0.0065179616, 0.02239398, -0.047843207, 0.019365482, -0.023113534, -0.007260545, 0.031004809, -0.06423569, -0.06963574, -0.041178513, -0.05094522, 0.009375142, 0.0564035, 0.06294329, -0.05947501, -0.041683782, -0.05471969, -0.04491614, -0.06621501, 0.018540801, -0.06774911, -0.037609227, -0.027557764, 0.05740944, 0.02404889, -0.08051463, 0.047000602, -0.0054020723, -0.025493583, -0.0040883273, -0.020766484, -0.075756, -0.056760415, 0.03665249, -0.024521518, 0.007365316, 0.021730674, -0.06971647, 0.0026400462, 0.07915132, -0.050521165, -0.048591204, 0.058779344, 0.02537519, -0.036901798, -0.022168472, -0.055480927, -0.06176445, -0.016441226, -0.01339025, -0.06408114, -0.013143025, -0.062412586, 0.0481475, -0.04467728, 0.022092657, -0.04457567, -0.036901444, 0.005449861, 0.06694487, -0.07444403, 0.053607628, -0.054105304, -0.011663205, 0.028907806, -0.010534957, -0.0612074, -0.056600142, 0.023195548, -0.021163113, 0.047090724, 0.038420897, -0.09018516, 0.059554484, 0.062344473, 0.006002125, 0.034991637, -0.010799526, -0.07823719, -0.03680316, 0.06599755, 0.06357787, 0.04084302, -0.07274708, -0.086395964, -0.0045823692, -0.027437778, 0.0022000284, 0.012110147, -0.08233455, -0.046577215, -0.10461836, 0.034280047, -0.02535807, -0.064922154, 0.0063318233, -0.072137244, 0.031858157, -0.08727246, 0.047733977, 0.012554641, 0.005366932, 0.07002105, 0.04993414, 0.059385717, 0.028658886, 0.022795869, -0.0351298, 0.02448729, -0.007307764, 0.04016528, 0.0024278641, -0.009407469, -0.034364413, 0.024624186, -0.035346948, -0.05133608, 0.038701918, 0.052101657, -0.017871683, -0.0039048344, 0.043011427, -0.00028443566, 0.06687532, -0.01566754, -0.024251334, -0.010853052, -0.073731795, -0.019090582, -0.00018713876, -0.09427878, -0.036156856, -0.04780093, 0.029736605, 0.011283435, 0.060979277, -0.020755531, 0.023733461, -0.019710375, -0.06281236, -0.06516316, -0.035224088, 0.029748285, 0.019760406, 0.019080482, 0.057186637, 0.066374615, -0.053649154, 0.03399187, 0.059016876, -0.07230521, 0.04406308, 0.040393528, -0.074326016, -0.013234444, -0.0822406, -0.034031745, -0.061265543, -0.06607883, 0.06410588, -0.0025893059, 0.04292353, -0.039989673, -0.043456703, -0.051888224, -0.06195326, 0.045996584, 0.03923053, -0.009354646, -0.06199991, -0.08076998, 0.02674059, -0.005718328, 0.007574493, -0.08574515, -0.039156727, -0.039131332, -0.081619434, 0.047880307, -0.052283246, -0.021285022, -0.0024688605, -0.060643293, 0.019694429, 0.043490373, -0.08830319, 0.042124093, 0.021002285, -0.0033933693, 0.010296255, -0.059238054, 0.047080148, -0.028194536, -0.035895072, -0.07778027, -0.09491652, -0.04679085, 0.06310523, 0.014072544, 0.04492347, -0.072579205, 0.06131256, -0.044709656, -0.023454675, 0.054671444, -0.0458769, -0.009031468, -0.059366114, 0.056265887, -0.08281278, -0.03660604, -0.072267786, -0.00042230223, 0.032040834, 0.038951054, -0.029465264, -0.04616809, 0.050720148, -0.022188911, -0.0357908, -0.053223465, -0.021005578, 0.030222101, 0.0024238974, 0.016203258, 0.0035548098, 0.03315558, 0.061608896, -0.06607759, 0.044588357, -0.0474917, -0.0863663, -0.046771985, 0.06610884, 0.0013335699, -0.0032360742, -0.012642054, 0.063751854, 0.054799598, -0.02184236, -0.065191135, -0.0040951157, 0.034555886, 0.05780658, 0.060286436, -0.054536942, 8.158386e-05, 0.01849391, -0.059393786, -0.037564654, -0.075587854, -0.061919026, -0.05497632, -0.060560647, -0.09845354, 0.017767506, 0.025888003, 0.0042358474, -0.043599863, 0.005631696, -0.05539326, 0.0026445393, 0.055782344, 0.024179833, 0.0071216743, -0.0019032583, -0.0014278119, 0.00025888372, 0.0013138345, -0.014984492, 0.036228243, -0.054794904, -0.039388668, -0.025005806, -0.023143215, 0.06845652, -0.015986333, 0.0013064125, -0.010151409, 0.06757904, 0.028773809, -0.053214677, -0.008447224, -0.057182647, -0.023488082, 0.052702323, -0.032998215, 0.022365833, 0.035220668, -0.0367161, -0.028810142, 0.037346326, -0.02403503, 0.034594677, -0.02139451, 0.07355559, 0.030753328, 0.05552249, 0.017608287, 0.05209816, -0.07592391, -0.062437527, -0.003396918, -0.07091728, 0.06449657, -0.015481745, -0.0057791476, 0.011532627, -0.004179961, 0.0025652181, 0.0124079585, -0.02733553, -0.06465574, 0.010591105, -0.042851713, -0.04470966, 0.05034803, 0.0074007288, 0.022257432, 0.015399424, -0.02384245, 0.037936036, 0.019170923, -0.054371096, -0.06756203, 0.030818755, -0.0056858705, -0.008735024, 0.018822327, -0.0021964237, 0.04767576, -0.06578668, -0.007851878, -0.059916265, -0.025552494, -0.06415144, 0.040074494, -0.034003764, 0.018423578, -0.022339243, 0.0021414775, 0.008719152, -0.010562669, -0.03921634, -0.009598596, 0.049073365, -0.031247672, -0.014147763, -0.013432953, -0.053079236, -0.07898334, -0.031515732, -0.067458555, 0.026970057, -0.035689395, -0.018654093, -0.063489035, 0.052330174, -0.06951676, -0.023700703, -0.07615147, 0.04851129, -0.03334289, -0.04389383, -0.0031274608, 0.020539407, -0.0075968653, 0.07491942, -0.0076530157, 0.015957942, 0.048850104, -0.052215435, 0.027497714, 0.023727255, 0.018009268, -0.07760682, 0.061362445, 0.038907237, -0.021919632, -0.05471072, -0.05035952, -0.0004946664, 0.01021098, -0.043387637, -0.062701225, -0.03368376, -0.0025400324, -0.036497694, 0.052838568, 0.06715836, 0.045235623, 0.063233286, -0.06989323, -0.078009665, 0.008913815, -0.0053845476, 0.006274685, 0.036649253, -0.08877928, -0.036889672, -0.031065503, -0.023740971, 0.004582818, -0.012295909, 0.00032295025, 0.04055119, -0.02186304, -0.07466706, -0.006861087, -0.054035325, -0.029453598, -0.02096667, 0.054849923, 0.031575397, 0.016764248, -0.0132771535, 0.0065659536, -0.033163894, 0.053056136, 0.017045379, 0.044598825, 0.011409461, 0.07335733, -0.079844214, -0.019079523, -0.00020517236, -0.003527882, 0.06213461, -0.031840757, -0.074741095, 0.007573834, 0.06243533, -0.066581234, -0.032690123, -0.058252435, -0.04033231, -0.005650279, -0.074023925, -0.02969576, 0.03135957, -0.068097174, -0.021499593, -0.023983115, 0.06771769, 0.016220655, -0.04716771, -0.053343963, 0.03122881, 0.058801576, 0.022598555, -0.033040646, -0.04052034, 0.06184347, -0.037436023, 0.027093194, 0.05808522, -0.016488321, -0.021293292, 0.01384549, 0.07023061, -0.052493934, -0.03204221, -0.07680903, 0.06955212, -0.055817984, -0.015001034, 0.0164064, 0.052922588, -0.016903305, 0.002198457, 0.008969296, -0.013055753, 0.02524284, -0.018053882, 0.017500222, -0.03153565, -0.005229056, -0.004242152, 0.051969852, -0.013600974, -0.04824228, 0.022997933, -0.05882425, -0.06656495, -0.061265104, 0.05252428, 0.01935035, -0.00041093043, 0.010874509, -0.05514777, -0.044280145, -0.07319532, 0.042761926, 0.004163268, -0.04090956, 0.01769554, 0.020471133, -0.049459867, 0.04618478, 0.05976651, -0.00093951396, -0.081627384, -0.022892173, -0.051056013, -0.0035641342, -0.058210284, 0.04643738, -0.027696203, 0.035959426, 0.060220376, 0.0023527048, 0.017631004, 0.019652188, 0.06180465, 0.047300454, 0.0070370683, 0.06058322, -0.0017556596, -0.006990655, 0.071890205, 0.034568734, -0.016886929, -0.0951487, -0.06475055, 0.015358388, -0.10936949, 0.013110655, -0.06200771, 0.0114386445, -0.00050719175, -0.04956426, 0.0070568584, -0.07280165, -0.0605509, 0.031195436, -0.01914191, 0.008962929, 0.0028463802, -0.07925817, -0.09439787, -0.03798399, -0.027838357, -0.01030857, -0.04916784, 0.015308284, 0.014156779, 0.041893087, -0.043688618, -0.05048181, -0.049569976, 0.06640643, -0.0014107674, -0.04797509, 0.034369007, -0.040461853, -0.053647492, 0.04963348, -0.03528067, 0.006181275, 0.021307481, 0.061644766, -0.08164275, -0.055082917, -0.027748443, -0.0630268, 0.055970956, -0.049069464, 0.034601953, -0.059433762, -0.031978883, -0.013738338, -0.01873269, -0.030935949, 0.05037652, -0.04413582, 0.012864684, -0.022919547, 0.0012447819, -0.028987112, -0.060494006, 0.007697679, -0.06266599, -0.07744796, 0.015304051, -0.005707733, -0.06124523, 0.040886488, -0.052881025, 0.06416934, 0.028989544, 0.038875613, 0.0395471, 0.06031631, 0.0064396504, -0.040094446, -0.0014977085, -0.079419225, -0.065431096, 0.036222607, -0.03384392, -0.018716808, 0.035801493, 0.017822849, -0.024997832, 0.06688517, -0.030140337, 0.039858386, 0.04681617, -0.08843554, -0.051000148, 0.046900447, 0.0002694577, -0.06203489, 0.052088726, -0.0011282265, 0.0046622865, -0.06830796, 0.048160624, 0.010175682, -0.07070843, 0.042310055, -0.09081832, -0.0434081, 0.010353381, -0.0076380656, -0.06413993, 0.04321992, -0.033028554, 0.024612771, -0.016237054, 0.072334215, 0.0005206131, -0.011440724, 0.01063224, -0.010494542, -0.011767525, -0.026537329, 0.03179282, -0.048008904, 0.021661416, -0.036405012, 0.0045924797, -0.06119721, 0.04258842, -0.006993894, 0.010972021, -0.05372197, -0.036526326, -0.0183015, 0.024661751, -0.002457852, -0.04698541, -0.0087865135, -0.0479304, 0.066963546, -0.0055758357, -0.053867135, 0.008710841, 0.009285715, -0.046595886, -0.029619925, 0.01043931, 0.020315833, -0.029802877, -0.06582112, -0.0060835336, -0.07650664, 0.026568918, -0.020198354, 0.004433602, 0.021968031, 0.0018816036, 0.0010777537, 0.02145, 0.036475718, -0.065216094, 0.023293905, -0.01367213, 0.02542942, -0.04222287, -0.038600262, 0.03986948, 0.18091217, -0.13620383, -0.06873927, -0.10244104, 0.08663002, -0.027909886, -0.0065055145, 0.04240807, 0.046740245, -0.07823945, 0.07563263, -0.12431381, 0.054956943, 0.1593572, -0.08053803, 0.06831375, -0.06259725, 0.06129884, -0.24773812, 0.07557427, 0.17449534, -0.028124757, -0.029857697, 0.20270362, 0.032696832, 0.12679209, 0.12378786, -0.056462355, 0.02351464, 0.1743118, 0.07047301, -0.05562529, -0.13697816, 0.04588765, -0.03457008, 0.0025228367, 0.27298978, 0.09351077, 0.046334736, 0.0013301505, 0.02621647, -0.24956271, 0.029318728, 0.24398518, 0.03353966, -0.013584747, 0.009282645, -0.26849216, -0.062244438, 0.1977606, -0.027894797, -0.036220614, -0.0020536406, 0.087040864, 0.044556677, -0.00014441743, 0.0593689, 0.020672314, 0.17250188, -0.005296645, -0.06774502, -0.2622317, 0.014359883, -0.0077344086, 0.082560636, -0.2673757, 0.0011270428, -0.026222702, -0.30357432, 0.002564244, -0.1670458, -0.07009905, -0.063314505, -0.03619815, -0.06563139, 0.049417485, 0.04199802, 0.1328706, -0.004432037, 0.017170176, 0.09843287, -0.008324659, -0.3005177, -0.0092129065, 0.36078542, 0.060365774, -0.04680133, -0.09618524, 0.05432817, 0.0851254, -0.0036594146, 0.08080738, 0.042472817, -0.023315221, 0.012461848, -0.13358317, 0.074899755, -0.019722499, 0.0097843, 0.08722649, 0.27308032, 0.0054681655, 0.03024519, 0.118796125, -0.040775117, 0.13447484, 0.07076295, 0.10030692, 0.09320078, 0.03053691, 0.01095288, -0.008070177, 0.18037401, -0.048029184, 0.15541808, 0.058339406, -0.11498394, 0.028529653, 0.04976664, -0.14120868, -0.037460648, -0.075259775, 0.15041319, 0.10924286, -0.001216555, -0.0364186, 0.05277294, 0.0739305, -0.072281554, 0.05754352, 0.054730583, 0.029025491, -0.33137167, -0.013833705, -0.053108312, -0.037203163, 0.030275762, -0.055623006, 0.023219705, -0.196476, 0.06879619, 0.06419878, 0.03594676, -0.11673993, 0.075993784, 0.054635156, -0.17993265, -0.039456446, 0.18718943, -0.0034338944, -0.020340819, -0.06901387, -0.00025896542, 0.017744174, -0.08243568, -0.12013417, 0.2122769, -0.22124256, -0.021136902, -0.018260617, -0.01933324, 0.0073776743, 0.03115325, 0.006211274, -0.13003214, -0.105716385, 0.08752299, 0.28543746, 0.08808642, 0.110864274, 0.046200424, -0.12451521, -0.016618479, 0.21019723, -0.012638772, 0.027054764, 0.29506612, -0.06711358, -0.20277248, -0.041682564, -0.28507215, -0.026657533, 0.008182997, -0.10870472, 0.027579395, 0.04287642, 0.035410214, 0.13791095, -0.063633785, 0.1474407, -0.014548271, -0.018026017, -0.084399685, -0.0561367, 0.0108389305, -0.18903375, 0.024388919, -0.0049283206, -0.03921016, -0.07642299, -0.00052788755, 0.059752755, 0.0748223, 0.027436107, 0.060774654, 0.15007286, -0.06771561, -0.12695292, 0.17046684, 0.004528364, 0.19998604, 0.052568123, 0.028099906, -0.03402786, 0.07557168, -0.03991351, 0.32442898, -0.20392774, 0.014095315, -0.04681536, 0.19316484, -0.1107739, -0.014847883, -0.11615158, 0.19455557, 0.0818866, 0.052661914, 0.010192219, 0.1367187, -0.04177843, 0.040505346, 0.039215587, 0.0030597297, 0.06579427, -0.020417377, -0.18903925, -0.05283553, -0.1570615, -0.02464878, 0.071668774, 0.29365113, -0.09258904, 0.08307297, -0.054788064, -0.28071535, -0.041269217, -0.0947396, -0.195021, 0.33789048, -0.04423236, 0.07469829, 0.097632624, 0.007738184, -0.06430281, 0.010250732, -0.075965345, -0.029082758, -0.15480447, 0.00097512436, -0.08974274, 0.05943152, -0.019843884, -0.016873682, 0.21770915, 0.056662142, -0.030900609, 0.117522486, -0.028417721, 0.03322354, 0.055615965, 0.0027286909, 0.05607118, 0.022847872, 0.009862365, -0.07667206, 0.036376446, 0.019492866, 0.1620477, -0.062043183, 0.15579683, 0.07587236, 0.07841382, 0.03711241, 0.11256904, 0.021067409, 0.05248032, -0.07718638, -0.2423814, 0.13549283, -0.016099362, 0.08334684, -0.10678956, 0.08366151, 0.070561446, -0.017969072, 0.15795672, -0.101276025, -0.39333633, -0.05055765, 0.10188365, 0.020687925, 0.13013847, 0.14361998, 0.014509959, 0.03528536, 0.07985811, 0.14731395, -0.007841649, 0.03762625, -0.009709775, -0.046100624, 0.17871179, -0.09187901, 0.090673134, 0.26580694, -0.14522314, 0.057156924, -0.04167188, -0.07388812, 0.036805134, 0.18849008, -0.14762558, -0.02254819, 0.2129184, -0.03145802, -0.020838086, -0.2061181, -0.09778344, 0.005883552, -0.016474685, -0.05015145, -0.17771754, -0.06552937, -0.104516074, -0.08407527, 0.09772324, -0.011225105, -0.010540865, -0.14154251, -0.014082146, 0.01025947, -0.018709488, 0.08600663, 0.09914067, 0.08148322, 0.21773066, 0.088480234, 0.01757233, -0.07850352, 0.03269064, -0.12892638, 0.037820842, -0.07387606, -0.002921972, 0.1200748, -0.1589982, 0.2423658, 0.10518985, -0.00012110556, -0.020055246, 0.06488619, -0.08956227, 0.091976024, -0.022960873, -0.0044909683, -0.04144392, 0.0991874, 0.15258376, 0.019576723, -0.10069856, 0.06345309, -0.072808385, -0.10325642, 0.07395184, 0.014139703, 0.07027145, 0.007899585, 0.00451346, -0.08147292, -0.10511229, -0.01655583, -0.14444098, 0.04828675, 0.04089466, 0.034540903, -0.15131082, 0.062989004, 0.028717792, 0.13267897, -0.035055306, -0.19219735, -0.1274749, 0.020922128, 0.035157077, -0.15528597, -0.025244497, 0.028344303, 0.013746305, -0.020451035, 0.12724458, 0.017747806, 0.020630501, -0.16906908, 0.03620584, 0.15708126, 0.18662569, 0.026826322, -0.2796618, 0.057783645, 0.05609064, 0.029450426, -0.0046856524, -0.049824774, -0.2277958, -0.14120251, -0.10311724, -0.097826056, -0.029389132, 0.08115844, 0.06183095, -0.014940488, -0.087912284, 0.034974933, 0.01587809, -0.119134404, 0.042882603, 0.036306, -0.16781281, 0.035991427, 0.13100052, -0.018813837, 0.10702251, 0.14126693, 0.19014268, 0.023071364, -0.0062251436, -0.16661882, 0.040845744, 0.11077204, 0.055871528, 0.09292532, 0.050429646, -0.07276252, 0.0056282245, 0.034823596, 0.057022043, 0.040567044, 0.06060241, -0.008738304, -0.054714438, -0.018674646, -0.40954146, 0.1721417, -0.026522133, 0.06419939, -0.1528857, 0.042604208, -0.028674558, -0.13591172, 0.22623865, -0.002180837, -0.07501052, 0.08247647, 0.10741109, -0.048424587, 0.029629312, 0.17522904, 0.009588979, -0.03168321, 0.099605314, -0.06749198, -0.4464843, 0.005864908, -0.2723148, 0.06802212, -0.058148064, 0.020387702, -0.17468855, -0.0001667395, 0.03941692, 0.08244031, 0.05684008, -0.010568223, -0.051778447, -0.1280662, -0.07329983, 0.0075293817, -0.040226866, -0.15155123, 0.16444473, -0.050800834, -0.11174733, 0.08574647, 0.0019634909, -0.027190413, 0.25264385, 0.01876352, 0.07933977, 0.05995855, 0.13180514, 0.005039827, 0.03223274, -0.06797724, -0.091052845, 0.23261768, 0.0050927727, -0.04945233, 0.025565932, 0.06552951, -0.18963645, 0.00017306954, 0.018134201, 0.034314856, -0.2464348, -0.05259781, -0.017909164, 0.066897415, -0.054127928, 0.07946124, 0.122585714, -0.058101885, 0.081726514, 0.068141654, 0.10620319, -0.011562005, -0.114880845, 0.0638797, 0.10361144, -0.007823254, 0.0008607924, -0.31832913, -0.05065679, -0.088295534, -0.03287523, -0.03572992, 0.02326488, -0.053189497, 0.07385213, 0.050652277, -0.027791027, -0.090881824, 0.2136097, -0.014335532, -0.099039495, 0.009101356, 0.06811956, 0.021500437, 0.051394984, -0.0014528481, 0.106280476, -0.0005238046, -0.072986536, 0.22643176, -0.1175784, -0.06719993, 0.03710962, 0.03385926, -0.21962859, -0.0469164, 0.048129, 0.1133491, 0.1421574, 0.14603281, -0.111928836, 0.016766433, 0.00032577547, -0.26100868, 0.016354008, -0.07933158, 0.09639902, 0.19502288, -0.08793754, -0.0019439086, -0.14108066, 0.02174795, 0.035453904, 0.19901265, -0.25020212, -0.020555532, 0.18384252, 0.06619079, -0.06328437, 0.05435662, 0.072180204, 0.0075583607, 0.015630431, 0.098589, 0.029915346, 0.035901986, -0.20336232, -0.052006394, 0.0040974244, 0.0088496655, 0.035798207, -0.036607217, 0.05721167, -0.0013648698, 0.07488562, -0.0078890575, -0.11465323, 0.093257, -0.11148407, 0.11658522, 0.013502587, -0.17542961, 0.0802346, -0.009209501, -0.16286854, 0.056252737, 0.077595755, 0.035709858, -0.12976243, 0.16221175, 0.16106471, -0.007869954, 0.04414054, 0.05105202, -0.058657207, 0.01454531, -0.0915447, -0.0017868861, -0.25436395, -0.13966517, -0.06265352, 0.21742268, -0.02821373, 0.07146161, -0.02388818, -0.10936548, -0.026442114, 0.11953444, -0.08268648, -0.030513152, 0.041922543, 0.10772592, 0.07872034, -0.052931603, -0.22582169, 0.063930675, -0.02336839, 0.04162847, -0.19629732, -0.033332366, -0.19562995, 0.13504763, 0.013050161, 0.10939662, 0.0598568, 0.010146946, 0.013620362, -0.056032594, 0.07926705, -0.048163258, -0.024243236, -0.04761797, 0.06708631, -0.053905103, 0.019498548, -0.15923573, -0.055303313, -0.06576495, -0.08493599, -0.030579511, -0.13067307, -0.07196975, -0.14052474, -0.014342615, 0.12476914, -0.22164902, 0.12415994, 0.05034707, -0.2224195, -0.02179106, 0.0072215716, -0.12055761, -0.15349914, -0.2481664, 0.01857504, -0.012487636, 0.21359955, 0.12440052, 0.07839587, -0.007087104, 0.04828932, -0.035705023, -0.06539929, 0.020022985, 0.023722695, -0.018692032, -0.08956175, 0.10269746, -0.07266003, -0.16872644, -0.071544364, 0.076552495, 0.019437177, -0.08489915, -0.037452143, 0.051096704, 0.013612034, 0.0048584864, 0.022952322, -0.04770223, -0.06301148, -0.016178522, -0.1295257, -0.01739061, -0.18596378, -0.007166539, 0.018138766, 0.20928718, -0.043521438, 0.044351712, 0.004109755, 0.075769365, 0.06724353, 0.03965782, 0.21250603, 0.045199774, 0.023427384, -0.038865056, 0.10648522, 0.043033108, -0.09247658, -0.023002604, -0.044529412, -0.0095315, -0.5412608, 0.024521794, -0.33750656, 0.036216795, -0.026630236, -0.13974153, 0.2506602, -0.12262086, -0.076727204, 0.11359127, 0.042018484, -0.107645586, -0.09501195, -0.2184293, -0.09669217, -0.08997207, 0.036380347, -0.21769354, 0.06857956, -0.19355023, 0.13924433, 0.04320794, -0.23351662, 0.021268439, 0.091324024, -0.011172904, 0.077108406, 0.0062570027, 0.011930208, -0.028996507, -0.09156989, 0.40368882, -0.23497316, 0.14377317, 0.017990358, -0.109604806, -0.0076491507, -0.04314615, -0.38099623, 0.007783763, -0.010999954, 0.18299235, -0.2608502, -0.013559657, 0.0077224653, 0.13899623, 0.0044181272, 0.031096656, 0.16713841, 0.03608474, -0.073604934, 0.22528346, 0.077948935, 0.07397598, -0.1325237, -0.025416214, 0.00804775, -0.035263408, 0.036850106, -0.2669452, 0.098709196, -0.09694654, -0.21119326, 0.01639919, 0.15064178, -0.2084291, 0.061708923, 0.13367273, 0.049114533, 0.08400284, 0.047656476, -0.09553931, -0.3735099, 0.38202897, 0.009055144, 0.09152783, -0.3174633, 0.053545948, 0.14993577, -0.04062125, 0.07124183, 0.012687673, -0.15488678, -0.088082425, 0.23394667, 0.02618546, -0.030677458, -0.031654224, 0.14642067, -0.123546, 0.058334857, -0.031926367, -0.023154866, 0.15251352, -0.0172537, 0.02763333, 0.35446998, 0.04740811, -0.062531635, 0.06719575, 0.0683768, 0.041519765, -0.19341716, 0.017721593, 0.0083609475, -0.057850204, -0.1659554, -0.10861439, 0.045694724, 0.18604489, -0.07686883, -0.02065203, 0.109509856, 0.033368602, -0.017864322, 0.13338836, 0.13862231, 0.06368148, -0.06682648, -0.048217643, -0.06422991, 0.002626719, 0.03434855, -0.26418614, -0.017480375, -0.08120519, -0.07893786, 0.04099863, -0.13733682, -0.012604364, -0.24042642, -0.010168219, -0.014917438, -0.13527629, 0.13875557, -0.006229427, -0.0017293992, 0.1768594, 0.05839474, -0.10908747, -0.11772344, -0.13518023, -0.049773, -0.035515122, 0.013277535, -0.07029755, -0.1285735, -0.07441359, 0.036039904, -0.012187556, -0.17488936, -0.27703947, 0.00033379003, -0.119235314, -0.002821769, -0.11688794, 0.0046138274, -0.2318833, -0.019613324, 0.14874046, 0.15823291, 0.18613523, 0.07103608, 0.013465652, -0.05709765, 0.058875576, -0.120673776, -0.035355657, -0.035584867, -0.05488701, -0.07451808, -0.006815796, -0.012371887, 0.051981304, -0.04478225, -0.038602944, 0.1449793, 0.06942907, -0.010237478, 0.28583226, -0.019614069, 0.067379445, 0.0285306, 0.061179522, 0.052031223, 0.08318758, 0.07342619, -0.04751025, -0.04041421, -0.14068276, -0.06872929, -0.049788374, -0.2975309, 0.08158427, -0.15468611, 0.10012501, -0.06282761, 0.014371513, -0.13897726, 0.07402224, -0.16718127, 0.029374424, 0.0057351, -0.23018329, -0.15062684, -0.37740722, -0.07833704, 0.08968884, 0.037339572, -0.12276203, 0.12399215, -0.05814162, 0.4070661, -0.046009067, -0.07718435, -0.2521531, -0.05197875, -0.040081013, -0.05100183, 0.21056442, -0.0047185123, -0.40799138, -0.04137336, 0.12727243, 0.0065944213, -0.1551837, -0.0022406536, -0.008498705, -0.061433632, 0.063335724, 0.14256276, 0.065202996, -0.08783722, 0.022867145, -0.16888164, -0.09600854, 0.07392421, -0.056236867, 0.005708655, 0.16747682, -0.01529835, 0.020092502, 0.023643069, 0.097985916, 0.048158713, -0.0595714, 0.23614451, -0.016284652, -0.096437335, -0.061489828, 0.05153135, 0.19204627, 0.0006388851, -0.06816677, 0.045727897, -0.015162777, -0.038377676, -0.08977186, -0.18894674, 0.119421266, -0.17038263, -0.15174657, 0.17627564, 0.066562586, 0.06369285, 0.33664978, 0.01723213, -0.13374123, -0.0282421, -0.23117049, -0.18547143, 0.052229762, 0.15307897, -0.1662554, 0.01487631, -0.29415047, 0.3834993, 0.08362744, -0.25379297, -0.058920134, -0.12377249, -0.004433527, -0.20197701, 0.20334232, -0.059209116, -0.0782033, 0.06882705, 0.20185882, -0.34357557, 0.063367456, -0.061865333, -0.039835695, -0.09835155, -0.030643873, -0.07507373, -0.06127555, 0.011756383, -0.031180615, -0.06556305, -0.043136045, 0.011401251, 0.030067714, 0.051709916, 0.005900984, -0.05986429, 0.05226219, 0.02928016, 0.02440024, -0.08693258, 0.0036946908, -0.059051827, 0.0052459836, 0.024337467, 0.013301476, -0.006180823, -0.00052447495, 0.06769842, -0.09270004, -0.03340603, -0.046963375, -0.045113944, -0.002355667, -0.040431473, 0.0403868, -0.06898908, -0.04070207, -0.009071665, -0.033406697, -0.033740748, -0.030550638, 0.020787356, 0.053713463, -0.023463063, -0.053764317, -0.07579431, -0.010711016, -0.010740093, -0.033342063, -0.11590211, 0.051702145, 0.01681424, 0.008480527, -0.07135758, 0.023109483, -0.09515356, 0.032364953, 0.020443229, -0.08311257, 0.054960564, -0.011716246, 0.06832833, -0.059812576, 0.0020432076, -0.022272225, -0.040187944, 0.010921042, -0.0029375127, 0.06960344, -0.028174944, 0.01966621, 0.06199622, -0.00567593, 0.02691737, 0.042573694, -0.047866564, -0.0600781, -0.06489595, 0.060433067, -0.12114698, -0.007786844, -0.06994343, -0.008508716, 0.05591073, -0.02470494, -0.0891046, 0.028186604, -0.017239869, 0.024035871, -0.014314581, -0.06689452, -0.06055955, -0.07590026, -0.0034389943, 0.04378295, -0.0062730415, -0.042797484, 0.0055558067, -0.0466738, -0.014612595, -0.0015588456, -0.05026654, 0.028647589, -0.078061946, -0.020754078, 0.012904003, -0.0758446, -0.018249884, -0.08083188, -0.077267036, 0.020655256, 0.052272864, 0.007757831, -0.0962142, 0.0015760015, -0.009975621, -0.044404645, 0.015880955, 0.007860305, 0.007962693, -0.013014107, 0.020334255, 0.012526089, 0.04438383, 0.039100964, -0.07410167, -0.0019833264, -0.015306103, 0.018586393, -0.044090793, -0.010202396, -0.019511528, -0.01790642, -0.0510204, -0.07464972, 0.012910544, 0.05653192, -0.08681254, -0.02592604, -0.030311564, -0.04970286, -0.012872534, 0.02143107, 0.023518482, -0.04150768, 0.019665629, -0.020442609, -0.080935456, 0.010402009, -0.088306814, 0.04605864, 0.012900962, 0.008208245, -0.046014093, -0.043815076, -0.043320403, -0.008693811, -0.03130065, 0.025513873, -0.010361163, 0.0041058296, 0.041437156, 0.024373958, -0.020435426, 0.06286641, 0.031662874, -0.074859604, -0.0964071, 0.05499211, 0.03152035, 0.011275312, -0.04437409, -0.032177422, 0.02031382, 0.020371081, -0.011374962, -0.02301705, -0.013435035, -0.014691221, -0.02494642, 0.07618701, -0.07676214, 0.028181372, -0.021433897, 0.05856597, -0.004323988, -0.046924744, -0.026345596, 0.03555458, -0.024207776, -0.0014647286, -0.039520796, -0.08061802, 0.055471495, -0.035185747, -0.03712481, 0.03807178, -0.07124046, -0.0316607, 0.023896724, -0.07102126, -0.021453789, 0.013402282, 0.0018747929, -0.10109378, -0.026163023, -0.030937266, -0.034653477, 0.026774107, 0.02899312, -0.07239435, -0.081064545, 0.06391375, -0.041461956, -0.06974332, 0.045152415, 0.057510976, 0.03942237, 0.013977225, -0.070872754, -0.003534354, 0.036657773, 0.010233596, -0.03155326, 0.06569413, 0.003643153, -0.04309144, 0.054368418, -0.008663727, -0.010481368, -0.10234764, 0.039175138, -0.03533383, -0.05692582, -0.0108671235, -0.04094612, 0.020298826, 0.03869896, 0.040387914, -0.009292671, 0.009410735, 0.017085977, 0.060477406, -0.00652755, 0.065744855, 0.04565342, -0.0030646375, -0.032352634, -0.077206016, 0.02944818, -0.04477405, 0.009880006, -0.056573942, 0.040135924, -0.038613368, 0.01696391, -0.009627395, 0.04992918, -0.02343952, 0.050758395, 0.015645586, 0.028402923, -0.048304357, 0.022809822, -0.08409032, -0.06066824, 0.03338706, 0.035229307, -0.011353084, 0.07575235, 0.041691955, -0.11981752, -0.010672376, -0.021614581, -0.005019031, 0.03745405, -0.008262992, -0.03195596, -0.026283767, -0.07065531, -0.0685178, 0.070277765, 0.014230383, 0.014652006, -0.06053222, -0.022476904, 0.07008773, -0.0010536632, 0.079525046, 0.01725137, -0.05976429, 0.021297183, 0.015582238, -0.009439666, 0.021184951, -0.034104668, 0.013152588, -0.05403048, 0.033041608, 0.041746993, -0.07208331, -0.054931685, 0.010784343, -0.059424784, -0.017733319, 0.037329983, 0.00011066734, -0.011232447, 0.01117512, -0.032604, 0.014204031, -0.064761706, -0.030416533, -0.049532898, -0.043881524, 0.07273364, -0.06476791, -0.05881135, -0.06922256, 0.028767304, -0.07620579, 0.014181912, -0.029652126, 0.049769737, 0.0039639473, -0.09052419, 0.041647837, 0.006052127, -0.078207426, -0.047292, -0.07134546, -0.076528355, -0.0767997, 0.06577364, 0.0068350146, -0.06667231, 0.018279199, 0.029322814, -0.021834448, -0.061888233, 0.07327458, 0.03849001, 0.051170442, -0.015675476, -0.031745046, -0.031110141, 0.028911022, 0.006263718, -0.061842322, -0.03702261, 0.07090017, -0.045594655, -0.040991284, -0.046335507, -0.034738496, 0.02664039, 0.0049472065, 0.06288716, -0.0642398, -0.02416175, -0.059889197, -0.009710107, -0.054808095, 0.061312705, -0.08670443, -0.045298893, -0.012978169, -0.062498335, -0.08564543, 0.020083513, -0.056542743, 0.044433743, -0.020965783, 0.00028863986, 0.043643102, -0.038828652, -0.024988325, -0.046426993, -0.052780863, -0.040361986, -0.045830265, 0.021135803, 0.036961444, -0.008583117, 0.022802629, -0.0027330667, -0.0767771, 0.03314075, 0.04805678, -0.013060389, 0.007268862, 0.06304142, -0.08083204, 0.011781528, -0.05655394, -0.03534276, -0.04677663, 0.04139246, 0.024915824, -0.034758125, -0.06083176, 0.05114923, 0.056676414, 0.051240377, 0.03333328, -0.008545517, 0.023969948, -0.08711552, -0.04990887, 0.021723561, 0.04671744, -0.040339004, -0.025213135, 0.014835263, -0.016750136, -0.07356703, 0.020954832, 0.036149655, -0.073069535, -0.04527948, -0.07397014, 0.05990723, 0.031190522, 0.008976218, 0.01600653, -0.06741026, 0.04569592, -0.054147486, 0.034846913, -0.059655666, 0.018206222, 0.016722765, -0.0907142, 0.035670433, 0.0001557614, -0.06362759, -0.054299545, -0.023518968, 0.005885725, 0.024919337, 0.0048192088, 0.0215217, 0.031719647, -0.03429421, -0.09079125, 0.02299797, 0.015505995, -0.03363229, -0.021262286, -0.045728013, -0.09424643, 0.04510504, -0.06804096, -0.03452312, 0.05592339, 0.057295833, 0.013164197, -0.07297212, 0.029903876, -0.03116969, 0.012299554, -0.03792512, -0.06685948, -0.023533903, -0.033708293, -0.033736352, 0.06548358, -0.0058896197, -0.04102843, -0.10751525, -0.07282206, -0.05218277, 0.010401, -0.06672254, -0.06121269, 0.0048162118, 0.004313951, -0.05522295, 0.015938327, 0.014164977, 0.026260547, -0.03095704, -0.08551155, -0.07193, -0.051208083, 0.0098335855, 0.012240855, -0.018359235, 0.0045442884, -0.00081879005, -0.04307014, 0.05832461, 0.022463853, -0.015924398, 0.06112772, -0.07381841, -0.0068966006, -0.018482216, -0.07540112, 0.028511953, 0.07870693, 0.019299043, 0.017449982, -0.03356166, -0.0665853, 0.018133331, -0.07078077, -0.063119315, 0.019150838, 0.060807742, -0.045464378, -0.13265385, -0.013045778, 0.005382732, 0.02178786, -0.08112807, -0.055978432, 0.004174766, -0.055603, -0.04585727, 0.038019944, -0.053141207, -0.029462574, -0.019708617, -0.0072065685, 0.06294463, 0.035027392, 0.02475782, 0.04220659, -0.05864526, 0.03810725, -0.12164893, -0.03138838, 0.012340909, 0.0396164, 0.034193043, 0.044832822, 0.020406447, -0.0119835865, 0.06394279, -0.07061204, 0.02627022, -0.04359441, -0.08617962, 0.0023723964, -0.09431113, 0.039271023, -0.09296516, -0.063871086, -0.03917469, 0.04668769, -0.0268509, -0.023078354, -0.0017629825, -0.07049991, -0.028661631, -0.028239831, -0.10949391, 0.043014262, 0.0043772305, 0.028238049, 0.016576229, -0.027064564, -0.031715725, -0.04894648, 0.05872693, 0.007640777, -0.09219692, -0.02634711, -0.05264107, -0.08161319, 0.023754507, 0.04945911, 0.06341522, -0.08024548, -0.08350449, 0.026385348, -0.018381257, -0.031230183, 0.01743632, -0.0630741, -0.018166121, 0.00039574492, -0.026107997, 0.040199097, 0.036912695, -0.06148278, -0.0072772526, 0.03480816, 0.05338956, 0.040001504, -0.025551068, 0.06805056, 0.0076659275, 0.025951223, -0.07754646, 0.068803385, 0.035451043, -0.043182053, 0.0046978067, 0.030357214, -0.041219626, 0.066196464, -0.03577235, 0.01646921, 0.0044415444, 0.03787996, 0.04796544, 0.013105188, -0.044174515, 0.020892322, 0.03744656, -0.0020374234, 0.0049005467, -0.047082726, 0.016284056, -0.07969156, 0.019783635, -0.044184893, -0.07820385, -0.025279744, -0.0681258, -0.07246979, 0.013164532, 0.00282715, -0.05058883, -0.02722232, 0.0067998823, -0.061466884, 0.014198328, 0.024316574, -0.063779764, 0.0055694077, -0.029595228, -0.011100513, 0.069320336, -0.0177239, 0.060464714, -0.07020703, -0.02371169, -0.059228, 0.028740048, -0.03300166, 0.004616496, 0.02436326, -0.05811002, 0.037219144, -0.03256374, -0.03753099, 0.031139694, -0.06302287, -0.07123494, 0.01562886, 0.04056775, -0.01739368, -0.05903149, 0.07978976, -0.015030974, 0.0006075232, -0.06176406, -0.0015096515, -0.040040057, 0.030718766, 0.03329657, -0.028886497, 0.07356848, -0.05579366, 0.011191167, -0.079923384, -0.061265673, 0.031434484, -0.058456294, -0.08064947, -0.017402451, 0.038940746, -0.050312676, -0.029854944, -0.042018186, 0.04269572, 0.0037059963, -0.017551262, -0.053231195, -0.05080478, 0.03458429, 0.030889232, 0.01311172, 0.022274647, 0.0059942375, -0.012070535, -0.017204106, 0.014285957, 0.0068879654, 0.012998663, 0.039523404, 0.039418668, -0.080839254, -0.05802027, 0.03254964, -0.12726185, -0.0725452, 0.018682793, -0.04330907, -0.06920691, -0.053690992, 0.023549348, -0.07282845, -0.062121104, -0.06215927, -0.044791266, -0.010863365, 0.019458411, 0.02023475, 0.04343314, 0.0025211961, -0.06801452, -0.03764101, -0.04381291, 0.07089511, 0.040000703, -0.03541843, 0.022972474, -0.009029325, -0.07586621, 0.0085286135, -0.048555374, -0.037010826, -0.062936515, -0.03450888, -0.03679508, -0.040374752, 0.032737833, 0.06323497, 0.023129702, 0.031650454, 0.060211614, 0.054178823, 0.026298897, 0.016400203, -0.055043302, -0.06454067, 0.013442938, -0.005447811, 0.026284222, -0.020822618, 0.016177861, -0.012367717, 0.024845693, 0.025680508, -0.09045383, 0.007306117, 0.04210216, -0.08232186, -0.04043481, 0.043449324, 0.010546106, -0.075644255, -0.0077068517, -0.028465426, -0.054585513, -0.010613902, 0.028667325, -0.056512475, -0.12834355, -0.014720738, -0.027226469, -0.06700728, 0.0069956225, -0.06884356, -0.017937448, -0.06936407, -0.014614121, -0.017659588, -0.004034862, -0.09236073, -0.007354683, -0.0074564656, -0.031721942, -0.0024366283, 0.02489298, 0.00052606093, -0.015187007, 0.0040078475, 0.023101842, -0.0026982198, -0.03509811, 0.045571312, -0.009540202, 0.04091308, 0.06412785, -0.064664304, -0.0025172904, 0.020400755, 0.03867845, -0.044988923, -0.060571007, 0.06830661, 0.026583087, -0.005535164, 0.07248691, 0.06120884, -0.051820833, -0.032646876, -0.010696315, -0.017808907, 0.042869806, 0.054636568, 0.023907036, 0.027489068, -0.056772135, -0.051539566, -0.09058713, 0.008299994, -0.06434346, -0.0017635762, -0.052374054, 0.022871384, 0.040370703, -0.083654426, -0.0696562, -0.06296238, 0.003307375, 0.023330212, -0.06125407, 0.0021749458, 0.0041474774, -0.04784524, -0.08589038, -0.07385097, -0.035294447, 0.05598859, -0.07098207, 0.0202276, -0.0052288193, -0.00030829757, -0.10157482, 0.0043755835, -0.040868815, -0.075299226, 0.062309925, 0.06555849, -0.0257756, 0.055164978, 0.04885884, 0.0050268257, -0.0826822, 0.06037647, -0.00040439723, 0.020881865, 0.07749007, -0.055226482, -0.06855494, -0.08697622, -0.060050577, -0.03512328, 0.044939578, 0.016736962, -0.029920777, 0.008879341, 0.04041713, -0.02811842, -0.04522488, 0.05824184, 0.029980265, 0.06133407, 0.013942521, -0.0014487236, -0.029274717, 0.0033519035, 0.04487947, 0.04163523, 0.08474909, -0.06436989, -0.012047363, -0.022738498, -0.027087873, -0.03146393, -0.010505311, -0.08992718, -0.008519654, -0.0606875, -0.011277198, -0.0519124, -0.040787928, -0.025846837, -0.021900184, 0.002224646, 0.037198707, -0.087767765, -0.0627976, -0.014098167, -5.3919495e-05, -0.009967096, -0.04851628, 0.016076973, -0.051376723, -0.01449658, -0.11566326, -0.05039185, -0.053919435, -0.083126515, 0.0707899, -0.020815559, -0.010891197, 0.07570542, 0.0055481466, -0.077144906, -0.016315026, -0.05963239, 0.03433285, -0.0052903923, 0.004853042, 0.029366521, -0.0021056423, 0.045630235, -0.03005466, -0.10264625, -0.014731787, -0.06928714, -0.025838796, 0.045682732, -0.05851688, 0.0018557534, 0.031466182, -0.071405254, 0.06954136, 0.0631484, -0.015687231, 0.06078342, -0.006895179, -0.07659497, 0.0022793945, -0.03833851, -0.046409804, 0.02816812, -0.060206454, 0.009761599, -0.01574741, -0.0044401605, 0.04741068, 0.013053203, -0.077682436, 0.036004115, 0.05948956, -0.062601864, 0.027715899, -0.071406685, -0.05204589, -0.09333283, 0.015400986, 0.05625934, -0.05394354, -0.054236904, -0.01501812, 0.038261585, 0.038706254, -0.040774267, -0.0104957465, 0.040692393, -0.06942451, 0.015977057, 0.04688888, -0.027644504, -0.011231656, 0.045323286, -0.030826062, -0.086876325, 0.013249824, 0.05862343, 0.034570817, 0.03509013, -0.041697912, -0.06682921, 0.029364506, 0.06487421, -0.088120684, -3.9636016e-05, -0.05378563, -0.013906533, 0.048638426, -0.003173487, 0.069613054, -0.0035768277, 0.020983785, 0.06303815, -0.011415269, -0.008873291, -0.029636662, -0.016527273, -0.05394323, 0.06486485, 0.046106942, 0.068465404, -0.02071887, -0.00559937, -0.08430819, -0.030958101, 0.02979548, -0.037877426, -0.012375113, -0.03851334, -0.0064049675, -0.028295878, 0.016419886, -0.04640764, 0.061533064, 0.0018147958, 0.020188758, -0.06332159, 0.004961592, -0.05287579, -0.031554442, -0.0047428887, -0.050859686, 0.023127366, 0.0031002052, -0.040661972, 0.023140479, 0.049293082, 0.009963897, -0.032551505, 0.026623596, 0.040620252, 0.039065618, 0.008049773, 0.041628756, 0.06634495, -0.060015038, -0.0630186, -0.042994823, -0.09393949, -0.035233986, 0.052134834, -0.106348425, 0.008061122, -0.061037615, -0.0070746453, 0.010333937, -0.029260144, 0.0038713112, 0.010713576, -0.033607677, -0.07449679, -0.02422973, 0.0039511444, -0.010198012, -0.052765515, -0.05804096, -0.05403465, -0.018143848, 0.066353545, 0.029815989, 0.011001155, -0.0005537448, -0.014740465, -0.03547798, -0.04498471, -0.010652363, 0.05516624, -0.017745176, 0.062079564, 0.028314559, 0.072307244, 0.03787492, -0.051144477, -0.031632937, 0.06874848, 0.0024756545, -0.003967943, 0.024556361, -0.0451044, -0.0013416577, -0.013605955, 0.018915828, 0.055901915, -0.044944398, -0.03692666, -0.0010644577, 0.06501409, -0.022864211, 0.015906071, -0.03815763, -0.04160311, -0.069883674, -0.03210172, -0.0052858368, -0.0741732, -0.01831412, 0.009617478, -0.051988043, -0.021686431, -0.03682707, -0.044819307, 0.06460303, -0.02349576, -0.04338354, 0.06554577, -0.08482993, -0.033259314, 0.046971146, -0.104440615, -0.00976161, 0.055607744, -0.03730305, 0.03689708, -0.05679097, 0.049510837, -0.015756607, -0.02560485, -0.009163335, -0.024635954, 0.014907844, 0.031860545, 0.03802327, -0.00068581104, 0.0066997497, -0.039271094, 0.02471908, -0.033053525, -0.03466232, 0.015047684, 0.045558304, 0.05768677, -0.02570228, -0.039921854, -0.014302698, -0.040297166, -0.023344109, -0.054281563, -0.028723639, 0.022280667, -0.057666954, -0.102770455, 0.017042542, 0.0050236285, 0.032899875, -0.027283581, 0.0292991, -0.04247735, 0.010404209, -0.02890515, -0.04943174, -0.031404994, 0.060531195, -0.078148544, -0.045989655, -0.052113324, -0.060089067, 0.065369025, 0.030233346, -0.032755192, 0.019769825, 0.013341606, 0.008676478, 0.0184789, -0.025030877, -0.078833304, -0.014040839, -0.10537798, 0.047273386, -0.007938093, -0.09573286, -0.07451963, -0.017385565, -0.07633583, -0.09152582, 0.00055323885, 0.051154763, -0.0391101, -0.032289673, 0.0513918, -0.080996655, 0.025519662, -0.02987327, -0.036371667, -0.010040186, -0.046005584, -0.032684635, -0.02651408, 0.03637925, -0.045390725, 0.03635796, -0.027060898, -0.0024865717, -0.047647994, 0.06968367, 0.0654593, -0.066704705, 0.03280191, -0.08705224, -0.0018203631, 0.053461395, -0.0531229, -0.02836748, -0.066034645, 0.060373776, 0.024393953, -0.09340875, -0.044866636, -0.055385493, -0.0093873385, 0.056604493, -0.015725192, -0.010220406, 0.041077487, 0.039890114, -0.0065319925, -0.06355489, -0.05108313, -0.030692535, -0.097585715, -0.050299484, 0.06432198, 0.058804557, -0.046350613, 0.024300111, -0.040831704, -0.05780399, 0.047311492, -0.048934285, -0.079509586, -0.030213743, -0.07816932, -0.021198345, -0.059440248, -0.029487742, -0.038972054, -0.068694875, -0.026771042, -0.03314778, -0.036098137, -0.0921587, -0.030535368, 0.059498124, 0.04398293, 0.05164712, -0.030719101, -0.045111515, -0.03122857, -0.042015422, -0.032318685, 0.0620426, -0.032989, -0.052889537, 0.036637887, 0.06590829, 0.017857967, 0.0055409, -0.0141971195, -0.05376232, 0.061103173, -0.039568286, -0.0024080465, -0.0066644903, -0.072507724, -0.08943676, -0.06196754, 0.058771122, -0.00021807039, -0.07811846, -0.0066598146, -0.0593058, 0.048712686, 0.074488744, 0.032153126, -0.07516182, 0.0030480623, -0.08195144, -0.06576596, -0.03100083, 0.06864301, -0.10340379, -0.013940413, -0.08106711, 0.010409418, -0.028722167, 0.005323909, 0.03148652, 0.011011915, -0.044113763, 0.05410322, 0.00650013, -0.068999894, 0.021441728, 0.051418968, -0.031259447, 0.020735966, 0.0303466, -0.045948956, -0.027090436, -0.07264379, 0.073568806, -0.053249728, 0.018298583, 0.0398668, 0.03284702, 0.05680583, 0.0075812996, 0.042749025, -0.0765123, 0.05569462, -0.046930302, 0.029710842, -0.012846872, -0.015824595, -0.030390674, -0.024154928, 0.037069764, -0.03169753, 0.027887462, 0.040306054, 0.002285108, 0.011413027, 0.071716115, -0.0026341514, 0.03971825, -0.07234756, -0.055782337, -0.02466422, -0.06023918, 0.03503116, -0.078515224, -0.05030064, 0.017079486, -0.001469411, -0.023703547, -0.047803275, 0.014143571, 0.04636191, -0.020097716, -0.05496579, -0.09807257, 0.0682919, 0.016346186, -0.042073045, 0.056755878, -0.085588515, 0.04747535, -0.06248161, -0.035106745, -0.019267228, -0.016542569, -0.010162505, 0.017660882, 0.011472486, 0.013011282, -0.056038734, 0.031883292, 0.007899071, 0.028735377, -0.03564363, -0.03745446, -0.020171495, 0.02002075, -0.056159407, 0.04762265, -0.10216736, -0.013042938, 0.02459696, -0.014192249, 0.04018106, -0.06890867, -0.063048065, -0.019651845, -0.062194113, 0.051579267, 0.004333798, -0.044437177, -0.0066062175, 0.054298356, 0.06560096, -0.0844812, 0.024889603, -0.015436006, -0.028572487, -0.036164876, -0.03672375, -0.044611875, -0.02256409, -0.04618383, 0.0005310983, 0.03241833, -0.052169, -0.08458344, -0.0434855, -0.0753316, -0.06152545, 0.018172154, -0.057516597, 0.0018424392, 0.05101423, 0.001196722, -0.07073279, 0.04699029, 0.016327184, -0.009274095, -0.028481625, -0.06655388, -0.04338388, -0.013813365, -0.072870076, 0.0010006232, -0.006371871, -0.07438924, -0.019997176, 0.008419044, 0.039119594, -0.023871347, -0.036895268, -0.0111152725, 0.029292576, -0.0114901215, -0.084871076, 0.06186083, -0.02906852, 0.041718055, -0.038160533, -0.039009728, -0.06847836, -0.03614897, -0.015796835, -0.020664241, -0.05454006, -0.027903073, -0.02246132, -0.031928778, 0.02567667, -0.08302652, -0.079451166, 0.0020688698, 0.005455029, 0.06267026, 0.005056282, 0.037310056, -0.060830243, -0.00810274, 0.059388638, -0.07647775, 0.0032795412, 0.025472358, -0.06107461, 0.0058096647, -0.017102404, -0.024973854, -0.0584761, 0.046194013, 0.042134393, -0.0020700067, -0.012906553, -0.044716343, 0.021077285, -0.00601146, -0.004795876, -0.012657258, 0.02962517, -0.053395636, -0.022765886, -0.058017153, -0.09085473, -0.052637927, 0.062050596, 0.048979934, 0.075641654, -0.0025911643, -0.031107908, -0.09071157, -0.058138315, 0.00013747273, -0.010439672, -0.067540064, 0.060036246, -0.031096723, -0.005831487, -0.055696417, -0.024980169, 0.043241598, -0.060370713, -0.02524389, 0.0043553547, -0.028513402, -0.032293297, -0.023054427, -0.041607857, -0.017033104, -0.058080316, -0.067578554, -0.024511296, 0.02768408, 0.011684995, -0.03660646, -0.0639137, 0.013469063, -0.05725203, 0.06388877, -0.024333367, 0.05068489, -0.050692968, 0.024051052, 0.067132995, -0.02172507, 0.058444858, -0.100642055, 0.0008670735, 0.07263507, 0.052947905, 0.04064288, -0.0010733288, -0.07866564, 0.035459734, -0.058181528, -0.031750698, -0.015212732, -0.04431405, 0.006010023, 0.07440781, 0.021096203, -0.029760038, -0.07565862, 0.053384423, 0.072651096, -0.04945873, 0.044752453, -0.023227688, -0.0583982, -0.06947084, -0.016220279, 0.0394172, 0.0063987197, -0.03662997, -0.06711974, 0.01582365, 0.066082604, 0.07364817, 0.003744498, -0.04578713, 0.004536518, 0.01918392, -0.00472911, 0.023031533, 0.0025914088, 0.063918345, 0.028277233, -0.013023489, 0.009009782, -0.027419347, -0.06578927, 0.031276047, -0.080244884, -0.050529543, -0.028562589, -0.021352416, -0.08057504, -0.058531545, -0.06384833, 0.0076583773, -0.071749985, 0.006145631, -0.03151991, -0.061987855, 0.019050442, 0.0570797, -0.039105415, -0.02559277, -0.017758414, -0.02683872, -0.0024293142, 0.074505255, -0.03912786, 0.054367177, -0.0019321254, 0.0008204798, 0.04465104, 0.0026210486, -0.066981465, 0.038109846, -0.043776285, -0.096009724, 0.021038169, -0.0024606828, -0.0767199, -0.08677592, 0.0006799792, 0.0081841275, -0.06277156, -0.05204404, -0.02520204, 0.015169248, 0.04457558, -0.026063375, 0.056610253, 0.078278705, 0.004407266, -0.039522458, 0.017905617, -0.094819315, -0.014480433, -0.044225194, -0.00023140758, 0.051392518, -0.055076513, 0.040446684, -3.7513757e-05, 0.061540946, -0.061616942, -0.043768484, 0.01229427, -0.038524985, -0.031648517, -0.061790086, -0.040832337, 0.056536928, -0.044581298, 0.033791427, -0.0660238, 0.01587644, -0.02500464, -0.051757798, 0.025263349, -0.045789655, 0.043795656, 0.057355747, -0.030492581, -0.024883067, 0.06866762, 0.03422377, 0.0027136845, 0.062685356, 0.038179148, 0.06586416, -0.10525961, 0.0059358007, 0.04676786, -0.061712217, 0.011793606, 0.04395873, -0.026119009, -0.05352971, -0.06871187, 0.059209723, -0.054797634, -0.07676375, -0.06362964, 0.00054827024, 0.044301137, -0.08209506, 0.015268306, 0.035089377, 0.05893636, 0.04320229, 0.018336717, 0.02108485, -0.05603821, -0.06526489, 0.012651032, -0.042475678, 0.063814804, -0.013478501, 0.016700633, 0.0054407096, -0.06992767, 0.057316303, -0.05002436, 0.049347773, -0.039813578, -0.05173021, -0.05316868, 0.01000113, -0.0022241324, -0.0182636, -0.06489085, 0.045387913, -0.034433883, 0.05402046, 0.026949288, -0.03383471, 0.036060162, 0.0040947567, -0.061758537, -0.0703898, 0.020908335, 0.039392628, -0.024222787, -0.044683844, 0.03628638, 0.004728063, -0.00072375685, -0.032877255, 0.004974939, -0.058499012, -0.06785835, 0.033849917, 0.030164775, 0.06512636, 0.011388954, -0.022415016, 0.041288145, -0.06394151, 0.010272905, -0.079951815, -0.0885553, -0.019264787, 0.017483186, -0.037558027, -0.017554587, -0.06443276, -0.047109634, -0.005699576, -0.023408964, -0.0354315, -0.07922158, 0.066385865, -0.020989588, 0.0032358372, -0.0038580287, -0.0076701315, -0.013048541, 0.048725843, -0.010873222, -0.04078909, 0.06492098, -0.03574281, -0.10087794, 0.0037253269, -0.006018015, -0.027641494, 0.009354748, -0.03170213, -0.054747634, -0.021115905, 0.02104437, 3.6276877e-05, -0.07186623, -0.05156416, 0.019514441, -0.099465996, 0.053593893, -0.014857195, 0.024377612, 0.027638782, -0.039423585, -0.040019352, -0.08232703, -0.041507095, 0.03816318, -0.056216303, -0.077537104, 0.03292533, -0.05351151, -0.015112028, -0.037840072, 0.058617905, 0.0065321103, 0.034248393, -0.038024295, -0.01319639, -0.004776457, 0.047271058, -0.08619772, 0.06723599, -0.05595043, -0.03210092, -0.035176497, -0.08385685, -0.08955533, -0.043662667, -0.017925903, 0.009037914, -0.03420518, -0.047172308, -0.070907615, -0.030681223, 0.032316014, 0.03097369, -0.0650511, -0.00027120925, -0.009047197, -0.05125563, -0.057983804, -0.018251814, -0.09702037, -0.014186747, 0.02186459, -0.04864459, -0.104326345, -0.014871496, -0.013263344, -0.023499187, -0.03328509, -0.004580237, -0.03770691, 0.005583994, -0.046860665, -0.06986429, -0.05292758, -0.010991402, -0.03441659, 0.0036219612, 0.019103467, -0.0052255588, 0.0075596203, 0.003995673, 0.0071437145, 0.026704183, -0.049109697, -0.0070041735, 0.03550894, -0.001114217, -0.015353034, 0.056764357, -0.034560572, -0.05071502, 0.008153458, -0.027150458, 0.06509125, 0.039181057, -0.048440345, 0.022846546, -0.05602144, -0.054077864, -0.0031823656, 0.0227803, 0.024883496, 0.0023054194, 0.0056158826, -0.06869139, -0.023268223, 0.04974452, -0.104040585, -0.017337093, 0.0018302146, -0.05127089, -0.022491122, -0.01601564, 0.007418712, 0.013569512, -0.078727424, 0.03708515, 0.027372962, -0.04903786, -0.065345675, 0.028627096, 0.06336566, -0.0331751, 0.045409746, -0.06397278, -0.010944292, 0.013427713, 0.011090243, 0.0060290843, -0.021686858, -0.03791775, -0.091434844, -0.062349297, 0.04701095, 0.044292465, -0.019241007, -0.065285675, -0.09230583, 0.0695876, -0.07945423, 0.018110566, 0.072293624, -0.07838644, -0.04305756, -0.010875181, -0.05949264, 0.050044406, -0.038387317, 0.044399325, -0.009551225, 0.0309623, -0.06778103, 0.015439445, -0.05763019, 0.038822092, 0.021219207, 0.013521416, -0.007049635, 0.00697794, -0.022052258, -0.043920152, -0.04705213, -0.034853768, 0.033752955, 0.07197565, 0.0029118913, 0.062081337, -0.021993458, 0.0064077047, -0.009600621, 0.010018361, 0.002002552, 0.0020357238, -0.07259288, -0.060353544, 0.026271263, -0.015035342, -0.006671142, -0.05178851, -0.06991196, -0.047492813, -0.032760005, -0.051421776, -0.01471581, -0.036891535, -0.030339131, -0.031772565, -0.015712425, 0.0038097054, 0.04460054, 0.059605632, 0.012669464, -0.07406655, -0.011324052, 0.01856033, -0.06493206, -0.055715032, -0.029720228, 0.03465383, -0.009223434, -0.06061321, -0.09615467, -0.017276574, -0.012900252, 0.0111148255, 0.049698763, -0.081407815, 0.020773508, 0.013983527, -0.033020373, -0.070650406, 0.060418516, 0.029459652, -0.05101861, 0.043860655, -0.049853705, -0.025860123, 0.028728519, -0.0006723653, 0.056817662, 0.0107716825, -0.01209902, -0.024292663, 0.040205225, -0.015957046, 0.05241488, 0.05267942, -0.0008506693, -0.0017630681, 0.036205444, -0.049967945, -0.009630255, 0.007779094, -0.005574363, 0.003642786, -0.08420898, 0.0066601424, -0.020589294, -0.06215594, 0.03436912, -0.0129208155, -0.02508667, 0.049695794, 0.04009126, 0.02008345, 0.025811061, 0.011317049, 0.025430957, -0.046639, -0.037061308, -0.100073576, -0.09087745, 0.025604032, 0.022972103, -0.013263107, 0.0043600784, -0.09492491, 0.01730914, -0.040041246, -0.09348886, 0.027096562, 0.047157727, -0.035452023, -0.05362088, 0.0078896005, -0.033251513, -0.035703707, 0.037319094, -0.07740357, 0.014139317, -0.06259961, 0.01696808, 0.018701103, -0.106076606, 0.06031311, 0.06732719, -0.09970864, -0.01687806, 0.0020791946, -0.060089666, -0.05997854, -0.049653567, -0.02178256, -0.03809663, 0.017297756, 0.07110363, 0.04973503, -0.05596956, 0.019941801, -0.07643304, 0.06260514, 0.05887417, -0.06566425, -0.09453968, 0.04246949, 0.031611957, -0.025989952, -0.025672173, -0.02505416, 0.01890255, -0.085925624, -0.06255743, -0.008512747, -0.04211194, -0.07705999, -0.0402535, -0.040416438, -0.07233252, 0.052329198, -0.07424018, -0.021814067, -0.02127203, 0.031834632, 0.05017507, -0.05077058, -0.0054570325, 0.07135628, 0.049960263, 0.014154981, 0.033537943, -0.06091187, -0.024697073, 0.013009558, -0.042259645, -0.031731486, 0.05005143, -0.03949029, -0.03256736, -0.03936187, -0.021516362, -0.038225, 0.036235906, -0.07310443, 0.052853134, -0.1553164, 0.058217224, 0.07948647, 0.091182016, 0.13470623, 0.018346779, 0.19340958, -0.1833912, -0.016593881, -0.033457097, -0.16404289, -0.014018844, 0.03533709, 0.013355325, -0.049959663, -0.030022543, 0.1498266, 0.05609629, -0.14459494, -0.03300936, 0.035139523, -0.046883196, -0.09654806, -0.03223599, 0.10278932, -0.06210984, 0.121511735, 0.046787996, 0.18295963, -0.14078762, 0.27890044, 0.18133473, 0.056732003, 0.22402059, -0.04468344, -0.065259755, -0.03400008, -0.12027243, 0.0012355379, 0.20545022, 0.0049733366, -0.100190714, 0.02625448, 0.01231669, 0.2570588, -0.04522758, 0.04583924, -0.061783243, -0.025900759, 0.3284089, -0.19690666, -0.0029745442, -0.24281415, 0.27327785, 0.06232049, -0.13479625, 0.021049114, 0.08097224, -0.048334416, 0.22613707, 0.028243277, -0.20288739, 0.21363415, -0.04220666, 0.0056227595, -0.028648652, 0.052078683, 0.116294734, -0.10344763, -0.0328384, 0.1348696, -0.009891546, -0.010532224, -0.11753914, -0.16363172, 0.08015428, -0.026441231, 0.07760749, 0.037289478, 0.039113946, -0.06766482, -0.1110936, -0.2897195, 0.053315885, -0.0025480688, -0.074771374, -0.052082486, 0.0509092, 0.13237566, -0.052468486, 0.18838955, 0.05106344, -0.06542604, -0.0068362746, 0.10316056, -0.03915199, 0.074537866, 0.06213677, -0.04911254, -0.20312533, -0.06280361, 0.03173132, 0.09611782, 0.15664919, 0.0336417, 0.021715792, -0.012249453, 0.08119569, 0.05762795, 0.14444509, 0.26068318, -0.014502841, -0.07701392, 0.13673802, -0.11737644, -0.10603475, -0.10565443, -0.021097297, 0.08945614, -0.12456691, -0.034796633, -0.100574866, 0.012714701, -0.19398394, 0.07966307, 0.002800262, 0.019862095, 0.0032486136, -0.052720137, -0.033515938, 0.01606465, 0.06320986, -0.29076472, 0.00339994, 0.32797652, 0.02200956, -0.05179048, -0.027652247, -0.0999863, -0.020278031, 0.026089907, 0.0661198, 0.020716567, 0.033883184, -0.11998159, 0.0568568, -0.032817043, 0.04489123, -0.030820454, 0.09432428, -0.0015725645, 0.07769486, 0.11771344, 0.028362945, 0.40273115, 0.06723999, -0.1475854, -0.11786405, 0.1661009, 0.05993506, 0.07051817, 0.13573796, -0.11521202, -0.12634224, 0.030439822, 0.22379184, 0.07632845, 0.22123304, 0.09282301, -0.0018147684, 0.014477795, -0.015318179, 0.0508247, 0.01606901, 0.13902996, 0.006441144, -0.050103724, 0.11056913, -0.1539616, -0.074327394, 0.06825291, 0.15045868, -0.044207633, -0.049775366, 0.008330332, 0.14819041, 0.089498684, 0.07611056, -0.040606864, 0.16103517, -0.08630553, -0.079006806, 0.09459381, 0.03765837, -0.005234394, 0.18431439, -0.25859216, 0.027893636, 0.23524259, -0.2033249, 0.008435231, -0.12608208, -0.02187944, -0.01298085, 0.032989226, 0.1544637, -0.12252913, 0.036263123, -0.17726144, 0.0031618034, 0.011277793, -0.06547527, -0.031445015, 0.03386996, 0.011701075, 0.027040245, -0.118219554, 0.0039723213, 0.26130843, -0.06437879, 0.010833314, 0.042273767, 0.08050705, 0.10478979, 0.09841141, 0.18409641, -0.06160683, -0.13878691, -0.028740874, 0.096691884, -0.040969633, 0.17596918, -0.08612833, 0.031734128, 0.28980842, 0.19756864, -0.2312508, 0.12740393, 0.070876144, -0.07733012, 0.03420146, -0.06278637, -0.13793056, 0.033220816, -0.056234747, 0.32384264, 0.0103998855, -0.19650997, -0.027894087, 0.12942876, 0.1706628, 0.04171693, 0.04163971, 0.094472185, 0.069173455, 0.0047534606, 0.006782563, -0.03173691, -0.030378636, 0.17878114, 0.11056282, 0.0025193607, 0.055702485, -0.13404177, 0.046121165, -0.058519296, -0.120030366, 0.045725673, 0.055970013, -0.21246432, 0.10370999, 0.015703782, -0.08599397, 0.08198116, 0.06798696, -0.018207874, 0.040536087, 0.11409479, 0.061167207, -0.17795496, 0.028877744, 0.04479077, 0.027995378, 0.21757123, 0.10021513, -0.08388643, -0.061118573, -0.0827747, 0.021248508, -0.1262808, 0.07480489, -0.1977598, 0.02618167, 0.052744657, 0.081140324, 0.13850437, -0.021203414, -0.0682556, 0.08084055, -0.029686952, 0.17694047, -0.08011831, 0.08157468, -0.06362486, 0.13635509, -0.15037955, -0.10212382, -0.09851059, -0.029984865, -0.043389484, 0.0041388944, 0.093321666, 0.059986796, -0.024287477, 0.1129461, 0.21416643, 0.03784316, -0.06259354, 0.27909008, 0.0371876, -0.09028045, -0.029494314, -0.096499585, 0.13184866, 0.08657272, -0.059555605, 0.0022636587, -0.007964434, -0.0430122, -0.008736763, 0.07693867, 0.02040403, 0.073683344, 0.023262162, 0.084399395, -0.030768607, -0.18199864, 0.07117107, -0.18266277, -0.11643758, -0.015611543, 0.15896437, -0.03514677, -0.10232498, 0.040425085, -0.049506653, 0.19362503, -0.040469624, -0.06390053, -0.05361817, 0.06352136, -0.2259718, -0.097925045, -0.022584006, 0.21452995, -0.07341852, 0.06519461, 0.15240175, 0.18409264, -0.09742261, -0.04571704, -0.09152325, 0.16330183, 0.0860508, 0.046678964, 0.1798823, 0.099848956, 0.029170819, 0.071715675, -0.022010863, 0.05480458, -0.016325181, 0.06622057, -0.1589874, 0.09851269, 0.02029943, 0.037526086, -0.095679425, 0.03036284, -0.0553087, 0.03812242, 0.054077774, 0.09699743, -0.058230318, -0.07964388, 0.032274053, 0.0037959001, 0.044100754, 0.06384311, -0.0042510265, 0.18369026, -0.03764197, 0.05592444, -0.123379774, -0.100720696, -0.01144979, 0.046438348, 0.47332212, 0.103070505, 0.0085455105, -0.17400125, 0.038351048, 0.021697631, 0.029343093, 0.01532555, 0.06863799, -0.0026538195, -0.07220341, 0.09529141, 0.021221763, 0.16647036, 0.11653193, 0.10545966, -0.07394839, 0.0077080536, 0.04030352, 0.061865978, -0.0721977, 0.0020400742, -0.10743754, 0.08033904, 0.12032461, -0.005189411, 0.13641743, 0.042394135, 0.051080197, -0.14688969, 0.13628481, -0.017307756, 0.2831495, 0.23896866, -0.040224712, -0.12035326, -0.019267257, 0.06839514, 0.00031729433, 0.026991002, -0.041007966, 0.03191374, 0.052831747, -0.022144258, -0.14258328, 0.086700365, 0.07360422, -0.0009507253, 0.018643308, 0.08254049, -0.06556333, -0.03715013, -0.062187947, -0.0037794483, 0.19209352, 0.04991276, -0.04060351, 0.17831838, -0.12882592, 0.03317008, -0.002406183, 0.027464671, -0.03786555, 0.045393027, 0.26657227, -0.027980665, -0.011577688, -0.122210436, -0.10462849, -0.10437852, 0.12610154, -0.06539629, -0.06860743, -0.018296393, -0.08765261, 0.0113457395, 0.050026488, 0.27561656, 0.15914665, -0.021521261, -0.06607791, 0.14877278, 0.045094553, 0.103245124, -0.046462074, -0.22006316, -0.17783335, -0.0065273475, 0.21532014, 0.10788895, -0.033420645, 0.06954111, 0.018831234, 0.015834102, 0.14019877, -0.107870154, 0.21282245, 0.15678409, 0.01587988, 0.26990283, -0.02410003, 0.14328389, -0.027754297, -0.20254861, 0.075993, -0.003137093, 0.1362492, -0.01604824, -0.13752225, 0.051722307, 0.12617825, -0.0058435607, 0.14264122, 0.17537758, -0.04354873, -0.09076787, -0.019610597, -0.14387937, 0.11814746, -0.10806792, 0.06516912, 0.051177494, 0.0023981803, -0.017846651, -0.06796188, -0.10439217, -0.07491896, -0.047551833, -0.04783843, 0.054295234, 0.051610798, 0.010705216, 0.018444657, 0.10619798, -0.045876246, 0.075440235, -0.004661615, -0.072787635, -0.17094897, 0.16699542, 0.054634746, 0.101928376, 0.0550828, -0.051162865, 0.04346831, -0.03385606, -0.049057424, -0.10871552, 0.13223282, -0.15734607, 0.0014407824, -0.019906854, 0.04616361, -0.0643362, 0.14470355, -0.07302721, -0.10274295, -0.08099545, -0.23479332, 0.036225975, 0.15808731, 0.013300644, 0.09101485, 0.1096187, -0.057331435, -0.015941564, -0.024895547, 0.051191833, -0.15743423, -0.0014855512, 0.12757277, 0.061007176, -0.057943225, 0.10405414, 0.1277266, 0.0438893, -0.027815605, 0.2238083, -0.006586179, -0.08018781, 0.050791424, -0.03878498, 0.18587233, 0.085740514, -0.0018438956, 0.09620223, 0.020927094, 0.004136521, 0.024157122, 0.025313834, -0.06277363, -0.046925228, 0.10369581, 0.118504465, 0.01923111, -0.10488399, -0.0033463212, -0.06976156, -0.076792255, 0.032137774, 0.17153844, 0.067012414, -0.01587671, -0.25846556, 0.0105126845, 0.2426144, 0.03871443, 0.10121502, -0.09777992, 0.008675046, -0.066807084, -0.027396193, 0.06743288, -0.13732374, -0.1432168, -0.029558137, 0.12229685, -0.00052601733, -0.06287685, -0.16425465, -0.046339545, -0.08126678, -0.09617436, 0.08528781, 0.16758355, 0.17864731, -0.08350177, -0.1128711, -0.07264486, 0.03471894, -0.17248115, -0.12157638, 0.055879608, 0.072220065, -0.04798279, 0.0032426582, -0.16250771, -0.033684075, -0.032534912, -0.043211006, -0.33206776, 0.12087764, -0.03998659, 0.04835242, 0.04807865, 0.07094396, 0.10375998, -0.053082835, -0.031880256, 0.23352994, 0.008261041, -0.039651673, 0.011703125, -0.19895904, -0.008306104, 0.011763306, 0.3172016, 0.06745041, 0.015062125, -0.076794125, -0.08563468, -0.06447004, -0.060375117, 0.07520864, 0.056806594, 0.038203195, -0.15450905, -0.05527596, 0.016261335, 0.07046912, -0.011325513, 0.0072553325, -0.18036418, 0.044481024, 0.0058403723, -0.06835586, 0.033167817, 0.066841274, -0.1552003, -0.02910183, 0.17607287, 0.06711221, 0.099505514, -0.09020324, 0.015412089, 0.034501072, 0.01701865, 0.0611725, 0.18070135, -0.019889247, 0.025665829, 0.02910945, -0.014921065, 0.048252936, -0.05744182, 0.07879348, -0.03129632, 0.1405641, -0.2516643, -0.06530407, -0.26302135, -0.30690047, -0.0033644862, 0.01475673, 0.075889066, 0.10953754, -0.022891324, -0.018833227, -0.022525406, 0.033901908, 0.25066546, 0.059597373, -0.11475279, 0.31066725, 0.16616836, -0.026987655, -0.14935233, 0.0033067463, -0.08716321, 0.038281996, 0.12249213, 0.050092567, 0.04058513, -0.25748464, -0.08615096, -0.06160998, 0.03463296, 0.08723209, -0.115213, -0.037361775, -0.18685097, 0.05940333, 0.05706017, 0.17336036, -0.03213275, 0.20604701, -0.0707507, 0.08860197, 0.025278514, 0.17749132, -0.10972855, -0.13370839, -0.18556777, 0.07875991, -0.016342087, -0.092148975, -0.13434306, -0.1614443, -0.034917843, 0.036744438, 0.090872884, 0.11669006, 0.12443562, 0.15307568, -0.004540398, -0.013294015, 0.112044305, 0.06886949, -0.13279065, -0.07465549, 0.006904391, -0.08020511, 0.07109985, 0.077500746, -0.20229709, -0.029794592, 0.1129693, 0.0035671627, 0.12587257, 0.2261574, 0.011243619, -0.11387864, 0.02739057, 0.0028600334, 0.085650444, -0.12494417, 0.016910166, -0.1243335, 0.030835923, 0.046255074, -0.015276952, -0.19399185, -0.036741115, 0.032955363, -0.30178705, 0.29846802, -0.024322463, 0.0037662652, 0.0042139175, -0.26445547, -0.12078639, -0.02068369, -0.47360125, 0.078627184, -0.1277847, -0.024635335, -0.005496517, 0.02859259, 0.05107688, 0.04610354, -0.07237864, 0.0493238, -0.0157304, -0.1788889, 0.19034594, 0.02819785, -0.09196906, 0.015763326, -0.041497506, -0.27737647, -0.052644156, -0.11230852, 0.022224715, 0.12393342, -0.19741276, -0.04620127, 0.33786124, 0.025506448, -0.06333765, 0.05605385, -0.295153, 0.16570379, -0.05455826, 0.21704015, -0.0614179, 0.017001538, 0.16543974, -0.0328575, -0.10252218, -0.027611038, 0.10224091, 0.029538637, -0.22310255, 0.2883082, -0.070227124, -0.009598686, 0.040500704, 0.054639112, 0.01757253, -0.03117261, -0.048956558, 0.053235702, 0.09549898, -0.08033018, 0.006737075, 0.2341832, -0.07924546, 0.028519385, 0.0626056, -0.03526091, -0.05175499, 0.048956577, 8.643265e-05, -0.22085436, 0.00030453643, 0.06157206, -0.06863125, 0.06658524, 0.08317596, -0.07817874, -0.04146445, 0.018082984, 0.15178485, -0.19328521, -0.019066341, 0.12836358, 0.01138819, -0.11952048, 0.14994214, 0.014119149, -0.12177154, -0.060530163, 0.11580089, -0.12547952, 0.13376339, -0.11903564, -0.09279869, 0.045256093, 0.051910978, -0.021447608, 0.0728319, 0.0628228, -0.022838185, 0.16154002, -0.04817519, 0.100677155, 0.04896126, 0.16967559, 0.13803184, 0.022963027, 0.20331436, 0.0440937, -0.31674033, -0.061073523, 0.15991493, -0.05183694, -0.12576096, 0.07762042, -0.06097237, 0.003375612, 0.06404733, 0.027386308, 0.01779931, 0.21483672, 0.017643394, -0.07150244, 0.12023233, 0.008250115, 0.048485454, 0.111845896, -0.011409462, -0.027432276, -0.0351854, 0.1459545, 0.008952069, -0.0046869013, -0.02176539, -0.19990452, -0.048843745, 0.09591621, -0.12635806, -0.0058082864, 0.12880097, 0.032473013, 0.019156784, 0.0029397425, 0.23031482, -0.16973425, 0.036870234, 0.17678037, 0.17043945, -0.17658144, -0.066274635, -0.008732559, -0.019909915, 0.06483559, 0.088108875, 0.070655316, -0.20596264, -0.24676566, 0.033392508, -0.12835824, 0.077847145, 0.013579969, 0.20123538, -0.00292701, 0.013103864, -0.12810619, -0.018466456, -0.03758755, -0.03836257, 0.046324845, -0.16798753, -0.026677597, 0.085707344, 0.044239562, -0.14943083, -0.07478294, 0.24400628, 0.08263367, 0.07688473, 0.16188747, -0.013712264, -0.039688464, -0.033070035, 0.08717536, 0.18701811, 0.025284428, -0.08916269, 0.2036178, -0.0057748538, -0.03271253, 0.036887303, -0.1213357, 0.037933122, -0.04879088, 0.00925981, 0.1500128, 0.021398265, -0.23189525, -0.0115687, -0.0012497242, -0.058849912, 0.064315476, -0.27908188, 0.07701859, -0.023526328, -0.18432128, -0.018078107, 0.032332182, 0.114198655, -0.19144757, -0.17639226, 0.116807155, 0.08791852, -0.14909604, -0.11747816, 0.10314413, -0.041157316, 0.025412465, -0.029521937, 0.05502545, -0.03810499, -0.012524276, 0.01140727, -0.15413469, 0.020621113, -0.13569494, 0.2879319, -0.04536984, -0.0029170404, 0.042007, -0.017582627, 0.12190456, 0.027690938, -0.10806208, 0.0037297776, -0.0031937857, 0.25700718, 0.056150798, -0.29759842, 0.04163786, 0.27519915, 0.0064241, 0.020676048, 0.29149055, 0.06440948, -0.057267413, -0.009398844, -0.0385061, -0.027844802, -0.0672211, -0.053556375, -0.031750545, -0.10340265, 0.024645187, -0.08781913, -0.01992235, 0.022097563, -0.017041575, -0.05557623, -0.096097454, 0.0560122, -0.009880561, -0.056118958, -0.12161074, 0.010249863, 0.0022614151, -0.12337311, 0.012135424, -0.050624438, -0.015211866, -0.0070670173, -0.008970442, -0.017707665, -0.059584327, -0.010160761, -0.052234795, 0.075870305, -0.06882153, -0.036153562, -0.013017794, -0.042534452, 0.019404318, 0.012168314, 0.051375244, 0.013676265, -0.03314399, 0.04781924, 0.069626845, -0.03681791, -0.072410464, 0.021701068, -0.057388976, 0.06189777, -0.032544192, -0.088072225, -0.033934474, -0.11328359, -0.07471102, -0.02719608, -0.071507804, -0.043235496, -0.0278132, 0.00047150912, 0.002442238, -0.021361463, -0.012225259, 0.027803816, 0.0028721064, 0.009380594, -0.09127625, -0.0052381977, -0.0050433273, 0.043003254, -0.08346837, -0.039781556, -0.07299839, -0.010652463, 0.03819819, 0.030517561, -0.101942144, 0.015310628, 0.018845072, 0.075428784, -0.0698212, -0.05944092, 0.013659461, -0.07063493, -0.0029388168, 0.049014688, 0.02203092, -0.012914626, -0.057194583, 0.022863753, 0.03562846, -0.064955205, 0.04983578, -0.029991338, -0.111188255, -0.054011438, 0.019805036, 0.007856679, -0.063420124, 0.053439654, -0.07820522, 0.005287422, -0.024804475, -0.04203588, -0.013031516, -0.011110819, -0.077481724, 0.06259692, 0.059079066, 0.06776139, 0.015323246, -0.007939774, -0.065450124, -0.0037643388, -0.07160775, -0.05943205, -0.013623636, -0.0179809, -0.07997128, -0.049742866, 0.07072693, -0.032589328, 0.04560057, -0.09640257, -0.096251875, -0.07674928, 0.005872555, -0.11489718, -0.062339846, 0.027418919, -0.08615358, -0.027950797, -0.04344531, -0.09177425, 0.012944117, -0.032234933, 0.0043196753, -0.024779197, 0.037107736, -0.033235755, -0.005763674, -0.0761901, 0.04368341, 0.042806882, -0.057928916, -0.022549722, -0.01488936, -0.026675887, -0.06933609, -0.015142771, -0.051797733, -0.0040947706, 0.029042386, -0.07848833, 0.035185248, 0.04503037, -0.07452865, -0.0673973, -0.085077606, 0.058820765, -0.09920849, 2.655901e-06, 0.02659078, -0.06970749, -0.04721343, 0.056861047, -0.063718565, 0.083013915, 0.020792259, 0.013291281, -0.06430047, 0.023124948, -0.031302158, 0.10400247, -0.0229646, -0.04826469, -0.031455163, 0.0020256862, 0.031323027, -0.090653054, 0.0064230505, -0.05322518, -0.0701926, 0.00944908, 0.02822642, -0.028448122, 0.03185817, -0.041408163, 0.07177659, 0.024186088, -0.07143668, -0.0040466012, -0.037694357, 0.04709462, -0.06924706, -0.07089635, 0.023906542, -0.07174173, -0.0943754, -0.0489809, -0.013485248, -0.0437511, 0.052097946, 0.024076123, 0.056731056, -0.067401744, -0.071532816, -0.03242533, 0.0020819965, -0.036204852, 0.027892133, 0.025069281, 0.02087081, 0.060349427, 0.017696172, 0.04505121, -0.028030695, 0.017072257, 0.026258834, 0.048354365, -0.015829556, 0.07840002, -0.022112882, 0.008516871, -0.043788437, 0.019244846, -0.058062423, 0.023232736, -0.052622028, 0.021256693, -0.053399734, -0.06906922, -0.06663337, -0.028631816, -0.043289024, 0.058057517, 0.022564974, 0.12434236, -0.09039575, -0.098176286, 0.03546687, -0.043309018, -0.055654496, 0.03199879, 0.02259297, -0.050417025, -0.00963048, -0.11246071, 0.0044662133, -0.051381767, 0.0033610538, 0.032379776, -0.053433813, -0.036537867, -0.048997458, 0.078584656, 0.0061546033, 0.001180619, 0.0066359877, 0.014347263, 0.05791783, 0.027068129, -0.040271305, -0.06773167, 0.053018965, 0.09792104, -0.053384174, 0.025678053, 0.023002673, -0.054917034, -0.028061673, 0.012925837, 0.0005198333, -0.073077776, -0.06374297, -0.07353427, -0.09356666, -0.018986538, -0.030108593, -0.021860516, -0.06660174, 0.025583498, 0.050567843, 0.025230661, -0.05515113, 0.013640569, -0.016326323, -0.0023770602, -0.020184156, -0.07041987, 0.0637729, -0.034495413, -0.008752166, -0.046350073, 0.035250865, -0.0461615, -0.0081856605, 0.06354887, -0.10562611, -0.0018369226, -0.022475507, 0.073000304, 0.006928369, 0.009744401, 0.050740257, -0.022755526, -0.0026591578, -0.04181049, -0.07179792, -0.034924135, -0.03603691, 0.013897372, 0.03428649, -0.07875191, -0.016973786, 0.055013306, -0.07321021, 0.011677037, -0.008254796, -0.016927285, -0.018453334, 0.06113434, -0.057858296, -0.032110892, -0.05901736, -0.08950555, -0.05407275, 0.014677142, -0.0435839, 0.08554895, 0.04562729, 0.028790897, -0.026558047, 0.06518933, -0.020525467, -0.03899386, -0.05990903, 0.073795766, 0.043480054, -0.03574326, -0.07628758, 0.024700418, 0.048513412, -0.0985104, -0.0496289, -0.11386588, -0.03428019, 0.0040195435, -0.039495867, -0.07511657, -0.036956515, -0.04437809, -0.09213922, -0.0138231125, -0.06564943, 0.03670834, -0.05905256, -0.027081354, -0.03259163, 0.015889384, 0.0046316856, -0.08369929, -0.021224633, 0.056712527, -0.02712073, 0.05867646, -0.03336635, -0.053981867, -0.051848326, 0.006203711, -0.058611516, -0.04046042, -0.068260156, -0.0031739867, -0.073820606, -0.08624621, 0.023670569, -0.005959744, 0.07328358, 0.058494885, 0.011953974, -0.10015684, -0.0051025376, -0.10428155, -0.117845714, 0.06748596, -0.07551969, -0.069726005, -0.026896834, -0.052931063, -0.018071912, 0.009064726, 0.025119398, -0.037795957, 0.047920182, -0.09839643, -0.016162744, -0.03772686, -0.01833611, 0.08888995, 0.0508886, 0.06622504, 0.011155735, -0.057274543, -0.009593136, -0.07422928, 0.055355564, -0.039791234, -0.056986336, -0.10532326, -0.007630289, 0.07176709, 0.043895196, 0.0077277217, -0.059809644, 0.024393963, -0.07349645, 0.007361989, -0.066051126, -0.0503082, 0.05039677, -0.06304177, -0.058476876, -0.05127344, -0.05430139, -0.017648168, -0.03819524, -0.021821238, -0.098478116, -0.026576513, -0.041520007, -0.0142394, 0.0011685711, -0.0583734, 0.044859186, -0.03790137, -0.05804881, -0.044383235, -0.013321839, -0.05443039, 0.048965693, 0.07104735, -0.069041096, 0.005642104, 0.071308516, 0.012185758, 0.06782514, -0.020532161, 0.015257296, 0.04535652, 0.06266568, -0.048317507, 0.0052530738, -0.047156908, -0.0099387085, 0.046540655, -0.062305283, 0.057175703, 0.047836017, -0.0149474265, -0.053963717, -0.033501144, 0.045952477, -0.025126403, -0.021234712, 0.029627293, 0.02482849, 0.045552514, 0.03155303, -0.060792107, -0.009333096, 0.032157995, 0.0592785, 0.0035720533, 0.03747274, -0.07154493, 0.024482869, -0.09507109, -0.048317473, 0.0031074511, 0.01928143, -0.09168605, 0.03421296, -0.08912612, 0.075676784, -0.056926258, -0.01893621, -0.034125794, 0.019892327, 0.060929924, -0.03795767, -0.040053755, -0.024045449, -0.05540566, -0.02966144, 0.06798695, 0.057860136, -0.021267898, 0.018233227, -0.023237873, -0.013274791, 0.025020756, -0.14441705, 0.009312705, -0.03728937, -0.09873337, -0.0136522, 0.0019114572, 0.0377042, -0.053795632, 0.062553674, 0.0068364204, -0.0912725, 0.012289777, 0.05960802, 0.04072652, 0.020600742, 0.0017267903, -0.019550323, 0.024120059, 0.026795026, -0.006081628, -0.0013139328, -0.09259038, -0.12334032, 0.012681008, 0.070448115, 0.047451865, 0.011070112, -0.040829387, 0.052779913, 0.027450487, 0.03508216, 0.02945503, -0.013051331, 0.025641426, 0.04067126, 0.010524779, -0.050130434, 0.017714478, -0.004376408, -0.011949247, -0.023260389, -0.022813538, -0.012571584, -0.042228356, -0.030636366, -0.08800414, 0.062823236, -0.0040848, 0.05261508, -0.021773333, -0.059815347, -0.02941724, 0.004700174, 0.036172993, -0.022519615, 0.04998079, -0.008482483, -0.07332653, -0.036563754, 0.053382292, 0.050319098, 0.00010749584, -0.021375807, 0.037044797, -0.05081397, 0.038732197, -0.015920851, -0.025282586, -0.07446841, -0.02101376, 0.041532893, -0.085079685, -0.061577335, -0.04162841, 0.019222694, -0.04817142, -0.11086465, -0.06709881, -0.0117821, -0.079543896, 0.017754601, 0.051577017, -0.07536598, -0.036174983, -0.026759066, 0.019328589, 0.027351236, -0.06436911, -0.001036182, -0.08597279, -0.010470746, -0.057103276, 0.015774183, -0.058126356, 0.04836883, -0.03991767, 0.06102544, -0.014270108, 0.04669261, -0.0983931, -0.010441035, 0.06619264, -0.0030304831, -0.08993096, -0.009858918, -0.066582836, 0.00029494247, -0.013844213, 0.014889434, 0.048784442, -0.020013103, -0.051229496, 0.024208585, 0.040242124, -0.04757921, -0.07150238, -0.10074993, 0.0653822, -0.048359673, 0.004738448, 0.013225869, -0.03400481, 0.094891444, 0.06102529, -0.02476875, -0.019070337, -0.07677057, -0.06251819, -0.08333395, -0.037940726, -0.021991916, -0.086384945, -0.021156326, -0.091105744, 0.09336362, -0.044795137, -0.010149926, 0.03208418, -0.06566601, 0.043475345, -0.08671253, -0.016629046, 0.013860156, -0.08888113, -0.0040582353, -0.05825685, -0.106651954, -0.032100685, 0.009686172, -0.11185511, -0.07954024, -0.045981407, -0.0532682, -0.04339901, 0.00835989, 0.040178277, 0.052637648, -0.0190625, -0.043141466, -0.043859474, -0.009390533, 0.089094505, 0.048928566, -0.06644042, -0.022474008, -0.053531993, 0.094582744, -0.013153296, -0.09202447, 0.015607956, -0.046775714, 0.01686776, 0.048185, -0.06915488, -0.014206808, -0.02262308, 0.0038659924, -0.017565982, -0.0052640587, -0.02092834, 0.007155985, -0.07733979, -0.038422372, -0.026771856, 0.022207951, -0.02126973, 0.03429741, -0.031052228, 0.006691489, -0.050177902, -0.12520005, -0.09009145, -0.059889827, -0.02296975, 0.006900929, 0.057646476, -0.024564669, -0.014388204, 0.04410643, 0.03798394, -0.0052058995, 0.020143345, -0.055465546, 0.032749765, -0.10077311, -0.06854708, 0.04314143, 0.02499142, 0.01783043, 0.023607336, -0.09969044, -0.026690155, 0.050834168, -0.10381831, -0.08665923, 0.022177089, -0.0131838545, 0.0026983153, 0.046683118, -0.0059547424, 0.007192575, -0.0379636, -0.039786115, 0.0011033225, -0.011311315, 0.007259625, 0.040719666, -0.021849293, 0.014262203, 0.062657416, 0.04708957, 0.021330833, 3.210218e-05, -0.10176903, -0.06563143, -0.038735986, 0.07314366, 0.010168086, 0.020879513, 0.021249747, 0.05119303, -0.09771738, -0.029929549, -0.11237652, 0.10494741, -0.026846457, -0.0716683, -0.054787822, 0.017214535, -0.05076847, 0.064197645, 0.016980879, -0.077051416, -0.06569309, 0.01748341, -0.06360542, -0.094062716, -0.049483377, 0.053371355, -0.061454043, 0.030637749, -0.104551554, 0.017748907, -0.0030068073, -0.042310037, 0.032238178, -0.07063131, -0.029784054, 0.05191007, -0.06276822, -0.07953126, 0.019146446, -0.0064713936, 0.057374913, -0.016447246, -0.092944436, 0.064555354, 0.041229013, -0.06703606, 0.072558835, -0.021576393, 0.027490739, -0.1049386, 0.046452247, 0.073218614, 0.067344785, -0.10269701, 0.0006680001, -0.017308038, -0.06269682, 0.04373265, -0.05135043, 0.07335164, -0.030234035, 0.0039660283, -0.012690843, 0.06833751, -0.037470356, -0.009870605, -0.051649168, 0.02389609, -0.011312059, 0.04266663, 0.049102686, -0.01559294, -0.054890897, -0.046801426, 0.077256836, -0.07725021, 0.052817702, -0.10446933, -0.04871936, -0.08264773, -0.029002856, -0.07211227, -0.060705088, 0.055769257, 0.023702234, -0.0062395227, 0.013766328, -0.115808144, 0.07298114, -0.05098492, -0.102263585, 0.03350851, -0.011716852, -0.082728155, 0.034834784, 0.068428814, -0.017744085, -0.087255254, 0.0069977045, 0.011903344, 0.04194428, 0.06269514, 0.0069344104, -0.009379548, -0.033412497, -0.023637848, 0.004556337, 0.024403872, 0.023304168, -0.05446144, -0.044617437, -0.047350697, -0.030954, -0.00993827, 0.025483437, 0.04902288, -0.028149385, -0.07652075, 0.04717561, 0.058198735, -0.088687025, 0.017094404, -0.084985055, -0.07391782, -0.047333308, 0.01698528, 0.034443717, 0.06724468, 0.04128512, -0.019275984, -0.068410836, -0.0741711, 0.010307971, 0.041813243, -0.036653038, 0.023444474, -0.07207297, -0.08599439, 0.027064767, -0.07542883, 0.053202063, -0.05117582, -0.08809788, 0.03940957, -0.07301806, -0.04173304, -0.007985093, 0.0027821064, 0.06261285, -0.10890184, -0.077635475, -0.11888319, -0.031710975, 0.046692327, 0.058948364, 0.009964961, -0.023402574, 0.02613183, 0.06945536, -0.051620416, -0.02050341, -0.044316012, -0.06001625, -0.13094424, 0.00301458, 0.034947403, 0.035978418, 0.03709637, -0.036728486, -0.089121275, -0.03197197, -0.03205383, 0.05582117, -0.066876985, 0.00614111, -0.032206412, 0.057037752, -0.05664125, 0.067254245, -0.0630464, -0.041790355, -0.031796325, 0.006505619, 0.04260221, -0.045889713, -0.0595003, 0.054569744, -0.06887855, -0.03644511, -0.039197728, 0.056640685, -0.013352839, -0.009485088, -0.04307826, 0.08444689, -0.035456453, -0.020602858, -0.023428442, -0.08899602, -0.06605178, -0.07375035, -0.036185768, -0.09542171, -0.09554826, 0.06978232, -0.0635743, 0.049792632, 0.035517685, 0.0003153912, 0.02478309, -0.004041925, 0.005313429, -0.052092593, -0.07369457, -0.10961663, 0.0021078559, 0.00084041065, 0.043407835, 0.095406435, 0.038077146, -0.035437424, -0.041705802, -0.03052184, 0.04553368, 0.12742545, 0.040470995, -0.0049178004, -0.05061623, -0.038938504, -0.07900091, -0.00737541, -0.09042994, -0.049267825, -0.0028787977, 0.017146725, 0.0060944203, -0.060401615, 0.02205602, 0.063815504, -0.054923978, 0.09487707, -0.07755058, -0.0016035438, -0.0453946, 0.049572416, -0.08627646, 0.014820372, -0.020833146, -0.07130858, 0.05999185, -0.0013966415, -0.027896553, -0.008093394, -0.07708364, 0.022388525, -0.10689116, -0.032203373, -0.04677187, 0.012031745, 0.061908603, -0.1122426, -0.04903411, -0.05052748, 0.038471192, -0.043878738, -0.04040404, 0.010724756, -0.0022494853, 0.014512911, 0.02256603, -0.07467061, -0.059474923, 0.023801813, 0.025878498, 0.04346879, -0.060847666, -0.077134095, -0.102366954, 0.02789428, -0.103081025, -0.08046063, -0.06131126, -0.005132638, 0.05734311, -0.06786576, 0.037965868, 0.009726231, -0.0197271, -0.04898901, -0.011045429, -0.018092167, -0.13904056, 0.060884252, -0.06760827, 0.020124676, -0.013319034, -0.007973411, -0.070992395, -0.065307856, -0.06394158, 0.04886497, -0.043501645, 0.07865411, -0.007637655, -0.13971095, 0.0098731015, -0.014673624, 0.017284127, 0.07379037, -0.035815835, -0.029197302, 0.04752367, -0.02335911, -0.0748555, 0.12568773, -0.029599996, 0.019601591, 0.0022139135, 0.09989172, -0.009424228, -0.002259582, -0.13939591, -0.07858538, -0.1112416, -0.036586717, 0.13746117, -0.044254918, 0.014969714, -0.065369606, -0.15247722, 0.066087574, 0.08831191, 0.05200592, -0.07128126, -0.08414832, 0.0769216, -0.028954703, -0.18340997, -0.062850565, 0.061576203, -0.11011734, 0.09686244, -0.093398266, -0.07499267, -0.118583426, -0.06745743, -0.03683524, 0.015424479, -0.0021210348, -0.073937595, -0.08677708, 0.04836378, -0.049350675, -0.078699894, -0.016753651, 0.059924174, -0.022998357, 0.040512014, 0.021445053, -0.052101407, -0.012805987, 0.10843177, -0.11022282, -0.052207533, -0.044180125, -0.01490772, -0.032015353, -0.008392998, -0.100318864, 0.11629466, 0.06097901, 0.14385433, -0.013101667, -0.111872785, -0.03604889, 0.019660736, 0.0045911125, 0.05789194, 0.11359172, -0.080299675, -0.030890934, -0.009108155, 0.04173792, -0.08602789, 0.068559885, -0.1696817, -0.056143932, 0.097003244, -0.028986609, 0.00027965324, -0.04725446, 0.04613903, 0.03277189, 0.011654928, 0.17321455, -0.02164469, 0.03677542, -0.004645915, -0.058269214, -0.10929202, 0.1296122, -0.17743957, 0.03141987, 0.0006199883, 0.027204966, 0.02345458, 0.064019136, -0.16106145, 0.14407603, -0.05360286, -0.13654767, 0.059969112, -0.0073466823, -0.042531855, -0.089750834, -0.04893322, -0.04092606, 0.09334549, 0.038298316, -0.008868963, 0.047731526, -0.06859892, -0.06962574, -0.0022834258, 0.035271768, 0.09815156, 0.029327288, -0.023429891, 0.042170253, 0.060780544, 0.04771621, 0.033247247, -0.23267452, 0.08538127, 0.046115577, -0.13582878, 0.037942722, 0.06021475, 0.019121286, -0.049190823, 0.10191442, 0.045362473, -0.16121201, 0.026857674, -0.028033875, 0.032123454, -0.029282968, 0.041579682, 0.0075979736, -0.14181198, -0.10110062, -0.048083123, -0.1415833, -0.120146744, 0.050786126, -0.0045775212, -0.15530047, 0.07375527, 0.09257099, -0.03749506, 0.004074866, -0.037767872, -0.10968233, 0.1445436, 0.012259364, -0.09748238, 0.051535293, -0.07922531, -0.019013133, -0.04729686, -0.04920101, 0.027851662, -0.040141568, -0.043757237, -0.05459014, 0.01700525, -0.14155403, 0.017530976, -0.12710765, -0.019189607, 0.034445576, 0.0025298574, 0.053915486, -0.06652215, 0.056330122, 0.045611277, -0.07961003, 0.096379645, 0.06593748, -0.09397076, 0.0029340342, 0.037899848, -0.01980082, -0.16285932, -0.005654769, -0.018947253, 0.034563284, -0.015107383, -0.042024363, -0.16148423, -0.064488955, 0.030514631, -0.0062176627, -0.047702502, -0.041942254, 0.048091378, -0.11057668, -0.0003141128, -0.069973186, -0.029681044, 0.019644208, 0.049768485, 0.006402896, -0.0013059546, 0.021707932, -0.06475696, -0.0035663256, -0.10815665, 0.026003648, 0.03587276, 0.07277378, -0.076889485, -0.06190347, 0.18748893, 0.016725628, -0.011308572, -0.20317563, -0.0645206, 0.034814477, -0.14806786, 0.01997126, 0.015924416, -0.10095877, -0.14217421, 0.04138656, -0.012465852, -0.16227986, -0.007185824, -0.08859215, 0.04408076, -0.081137, 0.0039886213, 0.021478575, -0.08866902, 0.008333016, -0.15235893, 0.004973732, 0.17542394, 0.031247634, 0.034001812, 0.08781537, -0.07131644, -0.046360444, 0.03305437, 0.053956963, 0.05779361, 0.049128234, -0.07986523, -0.016987022, -0.07124761, -0.109251186, 0.006975154, 0.058546647, 0.10754397, 0.06439869, -0.048479564, -0.06945089, 0.044180565, -0.079938315, 0.057938356, 0.09699397, -0.067793176, -0.00855419, -0.012795323, -0.07302562, -0.04181217, 0.0782753, -0.085059024, -0.12371589, -0.095441185, -0.093149886, 0.009466597, -0.038110547, -0.050594356, 0.033793185, -0.07247486, 0.012577316, 0.016592428, 0.017589517, -0.043175366, 0.028076677, 0.008138863, 0.075017914, -0.033518128, 0.033714175, -0.02359656, -0.089285865, 0.15313517, -0.18735464, -0.10356688, -0.041768417, -0.011398998, -0.021818463, -0.032553084, 0.093528844, -0.04113043, -0.027159493, -0.08714219, -0.043311283, -0.09327372, -0.057086743, 0.0085273525, 0.036001038, -0.030039301, 0.062243942, -0.2247821, -0.062020317, -0.11124838, -0.11366489, 0.008326223, 0.0019142467, -0.039109837, -0.06745125, 0.015277639, -0.107591614, -0.02290362, -0.02873123, -0.054652184, 0.072760925, -0.05138419, -0.0592198, -0.0008653282, 0.08575412, -0.017862858, -0.025378317, -0.028837536, -0.08710061, 0.032119796, 0.017593091, -0.037158147, 0.050673325, -0.018648261, -0.118103035, -0.02664678, -0.12151935, -0.10643828, -0.014818665, 0.020492025, -0.060990598, -0.07647247, -0.03559273, 0.11368272, -0.01446608, -0.043287795, -0.026839815, 0.0017887198, 0.03679764, -0.034149487, -0.048933588, 0.0067238905, -0.10721333, 0.031372134, -0.15805577, -0.062413156, 0.07769762, -0.04521587, -0.054308183, -0.05822799, -0.005328903, 0.034111943, -0.016586468, 0.028536038, -0.11949014, 0.016262425, -0.025569327, -0.07137467, -0.010451969, -0.06373865, -0.107402354, -0.03106229, 0.007450875, -0.055920165, -0.133102, -0.062816076, 0.082472965, -0.11817057, -0.06708803, -0.032628663, -0.043614566, -0.0036326468, -0.022910323, 0.020044256, 0.05467409, -0.034948915, 0.0720572, -0.07496114, 0.22890535, -0.04318012, -0.08202929, -0.10719448, 0.033106998, -0.035913, -0.21546747, -0.08438262, -0.083805434, -0.120563775, 0.053886358, 0.012102773, 0.010135222, -0.124022, 0.12186218, -0.046142004, 0.0034395142, -0.099892646, -0.10325733, 0.047998, 0.036355626, -0.108518854, -0.0737886, 0.15627414, -0.115927555, -0.17589203, -0.00023217649, 0.043870352, -0.10354511, -0.21228518, 0.0046072067, -0.117314585, -0.091961294, -0.05996391, -0.0073431064, -0.055445183, -0.004279028, -0.10146194, -0.09955671, -0.04290249, 0.0062127416, -0.102906525, -0.014842499, -0.009231504, 0.06358345, 0.07451524, -0.09559862, 0.0925943, -0.019699426, -0.033894695, 0.052711412, 0.017205141, -0.07405001, -0.034824878, 0.061714157, 0.074256495, -0.05142835, 0.02196433, -0.015833262, -0.1036072, -0.04466205, -0.1302017, -0.027400777, -0.027446536, 0.06951805, 0.020883257, -0.03737947, 0.012470056, -0.024120491, -0.10959756, -0.01625265, 0.029464705, -0.090900436, -0.0018185675, -0.044131357, -0.03853834, -0.10326807, -0.19631998, 0.07179609, -0.04526989, 0.050711673, 0.12510952, -0.03817718, 0.09072082, 0.009291075, -0.07921681, -0.1608502, -0.05843094, -0.087561876, -0.0855407, -0.009805893, -0.055241723, -0.09813882, -0.11264704, -0.023071425, -0.028173422, -0.028898269, -0.033429574, 0.042599846, 0.03441564, -0.08784708, 0.045998596, 0.0027898303, 0.014744978, 0.10273014, -0.18182072, -0.058328673, 0.04096452, -0.029556364, -0.06401884, 0.058831044, 0.017182298, 0.021287136, -0.061098255, -0.11785874, 0.051927738, -0.10361355, 0.012426301, -0.03286004, 0.043191496, -0.04114806, -0.00026927344, 0.024535187, 0.1314198, -0.06605868, 0.04034274, -0.048403773, 0.038611844, -0.04241701, 0.017636318, -0.0142431315, -0.0451633, 0.03564845, 0.027267212, -0.18250605, -0.15883674, 0.037133086, 0.02460514, -0.2161145, 0.14140579, -0.107802056, -0.024922628, -0.07234896, -0.010877741, -0.011658006, 0.11995682, -0.059504636, 0.053652406, 0.029217817, 0.009063935, -0.10152299, -0.18049833, 0.03875901, 0.13691339, 0.03156871, -0.028123004, 0.0675561, 0.15143783, 0.04299409, -0.15550134, 0.07244771, -0.048916142, -0.022707347, -0.05458381, -0.06289561, -0.044173855, -0.036334403, 0.03768125, 0.004280416, -0.119121335, -0.039038114, -0.055651378, 0.03459249, 0.06629455, 0.032075692, 0.08393918, 0.062403526, -0.02681311, 0.029303825, -0.027799167, -0.079110876, -0.04938615, 0.03130896, -0.011920888, -0.022558987, -0.08298132, 0.033095747, -0.0091237305, -0.026676115, -0.08849216, -0.05298329, 0.06947762, -0.046924252, -0.070217624, -0.06624504, 0.019522501, 0.0401517, 0.11499809, -0.113204785, -0.076977074, -0.06602472, -0.09653275, -0.085491896, 0.03130981, -0.10250802, 0.105340846, -0.0555006, 0.04068413, -0.1866142, 0.028728383, -0.08100168, 0.10806383, 0.036928643, 0.08535745, -0.1822645, -0.006927174, -0.19124703, -0.012369852, -0.07523924, 0.016542163, 0.063110046, 0.061230183, -0.09342667, 0.03846547, -0.010228855, 0.04204311, 0.13190955, 0.00018751189, -0.13391165, -0.014303677, -0.0012261574, 0.018769406, -0.1171303, -0.0060733734, 0.0062603354, -0.060220785, 0.0144289695, -0.050499175, -0.088450134, 0.04359171, -0.054696918, -0.1407139, 0.005908957, -0.02877052, 0.02372606, -0.012339659, -0.02558061, -0.02656544, -0.053574584, -0.106337614, 0.064404786, 0.039097548, 0.063788235, -0.21436888, -0.0052305525, -0.012389421, -0.043573506, -0.043399468, -0.14245369, -0.03368652, 0.034694612, 0.08353654, -0.055514384, -0.07932538, -0.06501327, -0.1444478, -0.03427504, -0.08669666, -0.10617342, -0.13603006, -0.054994725, -0.043414053, -0.0012695504, 0.072592944, -0.016590744, -0.065930896, 0.030979805, -0.087452315, -0.07131999, -0.12303165, -0.20272642, 0.014390382, 0.052780546, 0.0011306427, 0.17487909, 0.03269679, -0.19618806, 0.035434753, -0.015607891, 0.07077727, 0.12137981, 0.06591094, -0.06698267, -0.04280902, 0.06393365, -0.021324325, 0.028321773, -0.0890241, 0.07294051, -0.06117523, 0.06889392, 0.0159627, -0.06306781, -0.17022234, -0.0622699, 0.07472826, -0.19084969, 0.06869831, -0.08611785, -0.06321263, -0.013076046, -0.022222335, -0.021666162, -0.09463553, -0.054138787, -0.005301052, 0.035558507, -0.12031531, 0.040701378, -0.03946757, -0.18513808, 0.038504362, -0.11818399, -0.0060740113, -0.02792823, 0.04239282, -0.011882366, 0.013931244, 0.07422109, 0.038756657, -0.03445846, -0.035726335, -0.067275025, -0.052000195, 0.014801853, -0.078499824, -0.024570014, 0.055722397, 0.16107771, -0.008283972, 0.048271302, -0.16810638, 0.093804635, 0.023137562, -0.037853327, 0.0063720467, -0.049590044, -0.07326431, 0.024589604, 0.08362845, -0.07873446, 0.049865708, 0.16655838, -0.03512949, -0.062789716, 0.07666572, -0.09582333, -0.007500151, 0.04686643, 0.0030649677, 0.0046000094, -0.06713763, 0.027399853, -0.0076543437, 0.06821887, 0.03580896, 0.07446742, -0.046078473, -0.027692009, -0.07010896, 0.04646893, 0.057828642, -0.04758514, -0.044195436, -0.017445657, 0.048165992, -0.04276911, 0.03949174, -0.031216796, -0.023342676, -0.039679307, -0.024633009, 0.06554845, -0.04381741, 0.0032264432, 0.05724651, -0.07306107, -0.06276838, -0.0044424534, 0.10653673, -0.16082783, -0.077568375, -0.061181262, -0.079404645, -0.145025, 0.057005197, -0.042511124, 0.04663735, 0.04684103, 0.051719, -0.011422762, 0.042317525, 0.01085292, -0.12747593, 0.053568844, -0.11080803, -0.042001575, 0.03235831, 0.06485024, 0.011706305, -0.06456443, 0.015946122, 0.07753503, 0.05203016, -0.15478067, -0.07056278, -0.0018797516, -0.030957347, -0.06228055, -0.01772252, 0.07570741, -0.15993531, -0.14000638, 0.031372108, -0.090678215, -0.019227242, 0.016233511, -0.021174362, -0.016416328, 0.054145742, 0.024668323, -0.1467356, 0.03885743, -0.047361992, 0.0737406, 0.0029312724, -0.10212257, -0.046943203, -0.039682884, 0.015975216, -0.06551611, -0.14861146, 0.064877465, -0.04952952, -0.037109606, 0.056408238, -0.10176248, -0.05711564, -0.082039356, -0.073643036, -0.08016154, 0.014430554, 0.01050093, 0.054823972, -0.21854898, -0.05239061, 0.016456593, -0.023211857, 0.0399782, -0.084052056, -0.011366863, -0.025162175, 0.02070121, 0.02529509, -0.106777325, 0.20813017, 0.015851267, -0.16882698, -0.024952447, 0.044623844, -0.035676785, -0.0029131875, -0.14228866, -0.008090204, -0.024005707, 0.021323357, -0.00918842, -0.0557583, -0.026636638, -0.09435664, -0.017593343, 0.012066759, -0.028492644, 0.0514592, 0.11137374, -0.23753504, -0.157755, -6.2182546e-05, -0.027759204, -0.0841099, 0.058193177, -0.089603655, 0.0018404451, -0.011362547, -0.09840848, -0.22914545, -0.044302564, -0.0926045, 0.06661869, -0.004373681, -0.17141737, 0.10033083, -0.053822152, -0.026097195, -0.102823086, -0.053669322, -0.049742527, -0.017649006, 0.025717981, -0.11322216, -0.023308648, -0.058423694, 0.032984197, 0.06712318, -0.084667586, 0.06743717, -0.03675044, 0.09331551, 0.03625377, -0.04755345, -0.07634512, -0.049145658, -0.062343217, -0.1549592, -0.013200086, -0.124540605, -0.022700649, -0.020821117, 0.035591904, 0.17004386, 0.13664512, -0.13105479, -0.016942302, -0.16802542, -0.10650739, -0.010139263, 0.004043674, -0.018109662, 0.03982064, 0.0109993825, -0.01267193, 0.07665416, -0.028720459, -0.13368925, -0.057862762, 0.036311787, -0.118116885, 0.04612128, -0.03364798, 0.078204945, -0.061168425, -0.022766493, 0.017460268, 0.025065143, 0.073755875, 0.0018142264, 0.008699952, -0.04672132, 0.0312659, -0.16176237, -0.02597874, -0.03462899, -0.064056545, -0.045507547, -0.14462812, 0.03210626, -0.02568176, -0.0066107116, -0.059692353, -0.13510016, -0.06544902, -0.09944553, -0.05119852, -0.24453664, -0.09081792, -0.014761045, -0.0071447943, 0.027292611, -0.08171356, -0.016379325, -0.022332266, -0.080934845, 0.036704898, 0.055184115, -0.15608385, 0.0026577185, -0.08921305, 0.020326704, -0.1225432, -0.05827514, 0.0027308532, 0.037852727, -0.03936794, -0.014470797, 0.16729555, 0.03313022, 0.015840078, -0.17642531, -0.24145567, 0.027203446, -0.031122616, -0.0648257, -0.00096265814, -0.079096034, 0.039468564, -0.10386232, -0.035189, -0.020684572, 0.08698923, 0.0506896, -0.1056182, -0.010349578, 0.035464723, 0.10881758, -0.09448807, -0.015102357, -0.017837416, -0.077391095, -0.07380645, 0.047018312, -0.038792294, 0.032140877, 0.0054282937, 0.014384409, -0.0060101664, -0.09085302, -0.042867597, 0.033568174, -0.040310744, -0.10102794, 0.04700058, -0.023631394, -0.074499466, 0.031753995, -0.035939433, 0.0380852, 0.005270809, -0.06518871, 0.008748525, 0.029466338, -0.011598348, -0.0035089324, 0.002971089, -0.057846524, 0.064633444, 0.054516815, 0.0036018384, -0.0630745, -0.11227697, 0.0015712772, -0.04988658, 0.01711011, -0.004638756, -0.023084607, -0.0121564455, 0.000370007, -0.027627427, -0.037782833, -0.028535085, -0.044642396, 0.007237231, -0.07451579, 0.012876842, -0.05522742, -0.015753042, 0.0059323213, 0.047109414, 0.04089298, -0.009803209, -0.0678777, 0.023810765, 0.014213796, 0.032191638, 0.033469416, 0.051045287, 0.02187924, -0.025948798, -0.08567897, -0.059037127, 0.028497525, 0.006165014, -0.09716577, -0.06993421, -0.052969128, 0.024630047, -0.058020122, -0.020262178, -0.035058163, -0.038540814, -0.051945966, -0.06415388, 0.025605144, -0.016719444, -0.10926129, -0.03411272, 0.039256014, 0.028444944, -0.091500066, 0.035336077, -0.035261173, -0.059485853, 0.000926923, 0.033238705, 0.031974334, -0.09308119, -0.00070387457, -0.0759568, -0.016842052, -0.049912002, 0.011601801, -0.029004863, -0.014580548, -0.03836211, 0.06574164, -0.035319105, -0.038329586, 0.0053166365, 0.023489267, -0.035954855, -0.0117379585, 0.037236024, -0.04230319, -0.0068150214, -0.07204177, -0.043125696, 0.0015995492, 0.043113984, 0.045437343, -0.063946895, -0.06482248, 0.05642028, -0.05969435, 0.028810088, 0.039766014, -0.088795766, -0.055475034, 0.0460039, 0.052416306, -0.026890596, -0.0011812896, -0.078907564, -0.068078026, -0.04620958, -0.05761972, -0.00317647, -0.051228896, -0.023050938, -0.051542923, 0.031688727, 0.026593179, -0.04108418, 0.03043018, 0.058925804, -0.11326956, -0.05900995, -0.065333776, -0.010954447, -0.016952822, -0.058171187, -0.012559376, -0.04653138, -0.06995292, -0.029196296, 0.050865933, 0.013726465, 0.04104149, 0.048200507, -0.044932857, 0.00067211606, -0.0088504795, -0.082411624, -0.0614304, -0.05528552, -0.040935848, -0.044426426, -0.013796871, -0.08177092, 0.039092798, -0.039787848, -0.0069969855, 0.0058663134, -0.037651513, -0.006024908, 0.02780681, 0.038746223, -0.061479334, 0.01375928, -0.048349276, 0.042113278, -0.019056842, -0.016412115, -0.08896696, 0.0036270733, -0.021680584, -0.029748676, -0.038293503, -0.06374392, -0.03554799, -0.05261979, -0.073836245, -0.039115217, 0.0012329593, -0.06854654, 0.05111192, 0.058523018, -0.034797255, -0.06409415, -0.020653013, -0.033359088, -0.07480251, 0.005879298, -0.06936679, -0.050506048, 0.047297884, 0.0068934294, -0.018191736, 0.070253074, -0.07450687, -0.07238163, -0.057937335, -0.11413714, -0.1370869, -0.056327954, 0.022003282, 0.036164615, -0.07420413, 0.030760802, -0.008617688, 0.037173294, 0.039384086, -0.048989836, 0.032084625, -0.0773885, 0.061765626, 0.013366787, -0.0512124, -0.05702656, -0.015937988, -0.046120487, 0.052891735, -0.12894635, 0.062519655, -0.049944997, 0.07058267, -0.009936494, -0.029279236, -0.0097538475, 0.011213155, -0.07693925, 0.015885876, -0.08119087, -0.013590799, 0.05249403, -0.06984016, 0.024324846, 0.01483934, -0.058213986, -0.079543024, 0.0009785354, 0.07081981, -0.054679077, -0.044996183, 0.008563454, -0.020581938, -0.041952863, -0.06479219, 0.029085547, -0.027046598, -0.027208898, 0.043950345, 0.03385189, -0.057972588, -0.073480494, -0.0472068, 0.057257116, -0.07185369, 0.014370367, -0.056612894, 0.008974654, -0.04370838, 0.037162594, -0.038844805, -0.018886764, 0.024235718, -0.024154183, -0.059700396, -0.0008331213, 0.03792744, -0.009678334, 0.04926242, 0.0064193606, 0.061319105, -0.04543035, -0.026187308, 0.058321588, 0.017924514, -0.04098557, -0.017729338, -0.00017875044, 0.01789479, 0.06323348, 0.031591985, 0.05230593, 0.084658325, -0.09123333, 0.06711471, 0.014796127, 0.0020047799, -0.017023114, -0.064996764, -0.11655038, -0.012919023, -0.06295825, 0.003776461, -0.0880087, 0.009606275, 0.04585546, -0.093244, -0.012597483, 0.010344302, -0.046277706, -0.04503186, -0.070306346, 0.016295291, -0.022600679, -0.037661687, 0.03556163, -0.08575196, 0.051538825, -0.028104663, -0.023568135, -0.005757905, -0.015354595, -0.101366214, -0.094470404, -0.0052561983, -0.015141223, -0.036206797, 0.01729127, 0.07947908, 0.035115823, -0.029888231, -0.010824691, -0.010341712, 0.026051091, 0.0021376582, -0.005611808, -0.022474866, -0.013217661, -0.033729885, 0.0042922776, -0.04350802, -0.03183122, 0.031202713, 0.021196455, -0.053421892, -0.071099095, -0.030732268, -0.012601327, 0.021650467, 0.007866474, 0.06569682, -0.022329079, -0.04424175, -0.03159229, -0.055724535, -0.07732133, 0.07302886, -0.053195637, -0.011970801, -0.06772753, 0.05583878, -0.022637917, -0.02159777, -0.0087346975, -0.041044183, 0.014667662, -0.013002224, -0.07782962, -0.094673686, -0.02702657, 0.0016383441, 0.053315014, -0.04188411, 0.0035243987, -0.07572964, 0.054895297, -0.009145841, 0.04782772, -0.025645565, -0.048477836, 0.03340686, 0.05576545, -0.031034555, 0.010575833, 0.04473964, -0.026466353, -0.016590977, -0.016446756, -0.044829506, 0.055327673, -0.09185349, 0.02949629, -0.038611397, 0.025415346, 0.029256526, -0.10380195, -0.022811184, -0.012388237, -0.063445665, -0.097227596, 0.05252454, 0.030173233, -0.04832115, -0.015704516, -0.029732337, -0.05485635, -0.06630031, -0.036433056, 0.034781665, 0.046881475, -0.09120895, 0.041460577, -0.02423818, 0.034256935, -0.050943732, -0.120535344, -0.018738795, 0.017233998, 0.042892545, -0.06366997, -0.04258477, -0.053359196, -0.10618704, 0.031109804, -0.057530507, -0.013702414, -0.06323328, -0.09362451, -0.00052864506, 0.007817515, 0.044284184, -0.04033647, -0.086621694, 0.061229408, -0.029966285, -0.0070803636, -0.006709815, -0.0030305407, -0.076745264, 0.032755174, 0.045998298, -0.05053968, -0.05396691, -0.055910602, -0.03158404, 0.02976679, -0.04903686, 0.04584861, -0.024953373, -0.022881549, -0.008733269, 0.014295065, 0.004829824, -0.07962908, -0.07325838, -0.004184313, -0.11700061, 0.067505464, 0.06898969, -0.048898533, 0.004199244, 0.033563334, 0.009781304, -0.08886061, -0.039531503, -0.015328698, -0.07953756, 0.064167105, -0.058248524, 0.036930792, -0.059084546, -0.017976727, -0.015369336, 0.0049092993, -0.010781292, -0.04720786, 0.042808242, -0.05922376, -0.054474995, -0.08489097, 0.020554468, 0.028616026, 0.07169099, -0.046661478, 0.02276848, 0.0050389417, 0.015533529, 0.03420468, -0.037757616, -0.018959729, -0.07342839, 0.029107131, 0.04193118, -0.07655833, -0.07586472, 0.013469071, -0.03205329, 0.011265752, -0.017691985, 0.020023968, -0.045344345, -0.03168179, -0.07615696, 0.060083028, 0.06979955, -0.02182916, 0.015623416, 0.032216396, -0.042499755, -0.08451172, -0.0077956766, -0.025450962, 0.05012584, -0.056253567, -0.06402817, -0.035040434, 0.0491243, -0.038815334, -0.04564169, 0.0067897737, 0.041454736, 0.044569045, -0.0024961147, -0.03866836, -0.076741196, -0.03828501, -0.021849276, -0.00027735007, -0.048542965, 0.0145528205, -0.0001442487, -0.034097727, 0.05164631, -0.06441345, -0.07367625, 0.01523336, -0.0010816323, 0.0668719, 0.0038011218, 0.069082, -0.02081484, -0.09633946, 0.061652455, -0.040946845, -0.05059199, 0.06256485, 0.033353943, -0.088442184, -0.02739733, -0.0462042, -0.07442574, -0.06202186, -0.0023059994, 0.019707965, 0.01914911, -0.07451746, -0.06735495, -0.021240843, 0.008883546, 0.0053058187, -0.020104691, 0.04139828, 0.038277652, 0.016797509, -0.014803152, -0.031634465, 0.046478458, -0.018193517, 0.022243163, -0.0026607993, 0.028906751, 0.032772474, -0.02993567, 0.04917702, 0.025989166, -0.023987437, -0.004869166, 0.06304981, -0.09918974, -0.030514982, -0.073202476, -0.041384976, 0.035271242, 0.047261693, -0.09353089, 0.020474322, 0.08015796, -0.03596111, -0.06805433, -0.036766626, -0.0773593, -0.110166945, 0.05789931, -0.075171605, -0.07584666, 0.06483951, 0.07311671, 0.058380157, -0.039504226, -0.050255008, 0.013972985, 0.027751654, -0.055874854, 0.06929561, -0.008385159, -0.08442032, 0.02395202, -0.0036783568, 0.020279184, 0.014132835, -0.062990196, -0.04928003, 0.07032296, -0.11835922, -0.034955993, -0.07002997, 0.009652234, -0.0007391916, -0.104295336, -0.10624167, -0.017690012, -0.028701246, -0.011347, -0.052933075, 0.007903051, -0.023418056, -0.0013222313, 0.031093443, 0.007960584, 0.018364606, 0.004473757, -0.06982621, -0.07058993, 0.03815214, 0.027837835, 0.027790418, 0.012064164, 0.015226345, -0.02046477, -0.057673488, -0.021398412, 0.06885016, -0.003772224, -0.0455999, -0.05722201, 0.024965713, -0.00080154755, -0.016066194, -0.006616951, 0.06100756, -0.027698047, -0.0014333072, -0.08661824, -0.056828026, 0.020903777, -0.1192788, -0.023507407, 0.03791043, 0.041960794, -0.06511046, 0.053237956, 0.022817586, 0.008598769, 0.03751734, 0.007159116, -0.0053558648, -0.008166932, 0.040904723, 0.04454734, -0.059348322, -0.03682191, -0.05856257, 0.011653468, 0.019600846, -0.06466719, -0.033475038, -0.012615192, -0.010522335, -0.047555204, -0.015050412, -0.06871885, 0.03547154, 0.06589824, -0.028069062, 0.05949223, -0.023595588, 0.006344995, 0.029734936, 0.016981868, -0.051199686, 0.038161084, -0.006852114, 0.034498014, -0.040014986, 0.022986237, -0.053953484, -0.010982018, -0.038422577, -0.033823285, -0.029838165, 0.03814016, -0.05578409, -0.011816781, -0.05477793, -0.051540513, 0.05302547, -0.0020647522, -0.052625306, 0.04439254, -0.005343477, -0.030635903, 0.0056336746, -0.07160992, -0.07305977, -0.047819324, -0.055585757, 0.012164732, 0.017209314, -0.053542867, -0.09300155, -0.052480668, 0.0014085328, -0.057120446, 0.068236396, -0.06294277, -0.046839453, 0.03223251, -0.063663505, 0.027468797, -0.0511644, -0.03705576, -0.047623433, -0.00016535074, -0.013918491, 0.028048892, -0.023709808, -0.0053367647, 0.053487077, -0.025824945, -0.008028591, -0.08032729, -0.07430332, 0.0071948087, 0.056731973, 0.018813863, -0.06512478, -0.1035114, 0.014796304, 0.03325305, -0.022269048, -0.0694645, 0.0057066805, -0.1245081, -0.052625977, -0.05667418, 0.030236, 0.066352345, -0.04946921, 0.017905688, -0.017803224, 0.036161084, 0.03395862, -0.08133628, -0.07803272, -0.05521744, 0.0038032448, 0.0069329888, -0.07995892, 0.05540628, -0.05416925, 0.026342995, -0.08818007, -0.025873892, 0.031988624, -0.07999191, -0.042738963, 0.028778998, 0.011734473, 0.05241615, 0.009989844, -0.024991624, 0.04801523, -0.10064624, -0.029282195, -0.062393952, 0.041444827, -0.058415607, -0.0045670792, 0.04614425, -0.019721832, -0.06767269, -0.014478937, -0.035144854, -0.0012033009, -0.061722834, -0.06417258, 0.0456445, -0.026709728, 0.052906055, -0.07218715, -0.0020326695, 0.06523922, -0.05585803, -0.009890163, -0.044156626, -0.10155971, -0.08432568, -0.065186374, 0.047923956, -0.009469631, -0.057832353, -0.03720736, -0.0047332486, -0.062110424, 0.03064758, -0.013588722, -0.027829017, 0.018052587, -0.022139966, 0.04111522, -0.042218897, -0.052023645, -0.046107225, 0.015524007, -0.070745535, 0.06410142, -0.020666564, -0.08936725, -0.05344489, -0.032287676, -0.04352522, 0.068704955, 0.011315092, -0.06208303, 0.031377185, 0.013501489, 0.03370116, -0.05972882, -0.0021446317, -0.014738604, -0.035538662, 0.02595915, 0.03165987, 0.034796316, -0.06323744, -0.049655423, 0.03480868, -0.023670318, -0.026163854, -0.0076833223, -0.029326538, 0.016557684, -0.032090273, 0.03921856, -0.102858886, 0.04744768, -0.022756994, 0.045163356, 0.07186133, -0.0011906701, 0.023954615, -0.019751715, -0.0071738525, -0.004691638, 0.008260599, -0.0018330589, 0.049937543, -0.038481977, -0.008939257, 0.0055884593, -0.035185397, -0.04957064, 0.025550634, -0.094363645, 0.04768763, -0.048426908, -0.010314845, -0.08798149, -0.0043024276, -0.074819446, 0.025870716, 0.020249568, -0.031155016, -0.09735449, -0.047741175, -0.08788427, -0.059090547, -0.0026068622, 0.052266747, -0.0069682985, -0.04745848, -0.010024816, 0.039834708, 0.05222387, 0.02151037, 0.012336816, -0.050250083, -0.031172322, -0.054371007, -0.0354338, -0.0016639158, -0.04001158, -0.06958415, 0.032374717, -0.016988736, 0.07169856, -0.05793916, -0.0014890175, 0.030312117, 0.052056167, -0.03810795, -0.107885, -0.0625652, 0.031201778, -0.011591358, 0.015790228, -0.00034145225, -0.02537995, -0.09065814, 0.0014045015, -0.037184384, -0.018957792, -0.027341815, -0.061020583, 0.029556438, -0.09048542, 0.046403054, 0.05367802, 0.022181869, 0.035410494, -0.020028567, 0.009599474, -0.015926506, -0.093175866, -0.05206961, -0.029260427, 0.058930926, -0.08743476, 0.03263869, -0.014174765, -0.06270965, 0.07090678, 0.029831389, -0.07116719, -0.059939258, 0.06738351, -0.020676548, -0.009271321, 0.0036518339, -0.00029316312, -0.05796312, 0.028982472, 0.0100253, -0.011192319, 0.028888512, 0.02548283, 0.025443856, 0.0019143778, -0.030847836, 0.053218607, -0.0038020685, 0.039130807, -0.072166204, 0.05009471, -0.031484395, -0.070913464, -0.042150754, 0.02212768, 0.045080725, -0.037552353, 0.06518281, 0.00805467, -0.031480897, 0.02055259, -0.033201773, -0.0126278065, 0.019007033, -0.014593802, -0.01971725, -0.04377113, 0.014237155, -0.008387459, 0.012117927, 0.059964985, 0.0007370078, 0.014158164, -0.035692643, -0.018609297, -0.07331065, -0.041591313, 0.013462176, 0.0021409965, -0.031962972, -0.06693704, 0.07294651, -0.010644377, -0.0062734466, -0.09779566, 0.032217808, -0.08523848, -0.068412095, -0.10547251, -0.07540968, -0.06310452, -0.06781244, 0.062080763, 0.07257264, 0.018301543, -0.067946464, 0.05501996, -0.08202278, -0.034115676, -0.009181617, -0.1112053, 0.07668007, -0.021506943, 0.056762755, -0.020954443, -0.025928535, 0.041213877, 0.005113966, 0.004163022, 0.021415368, -0.048902392, -0.05490969, 0.014005498, -0.003979939, -0.00056817546, 0.071870685, 0.019449811, -0.02634687, 0.012748393, -0.04655871, 0.08204633, 0.11593271, -0.128451, -0.036459096, 0.06539439, 0.038005415, -0.26529387, -0.013371077, -0.040733296, 0.01089204, 0.0041991235, 0.04052612, -0.07446678, 0.01983602, -0.005733818, 0.025847375, 0.08405245, -0.265768, -0.01052928, 0.08493475, 0.04508366, 0.06470265, 0.07002822, 0.1493085, 0.0013465779, -0.13176288, 0.04783208, 0.012494046, -0.097070195, 0.22129786, 0.03340181, -0.14754826, -0.2546211, 0.08924232, 0.05975473, -0.012698244, 0.005341942, 0.13271451, -0.104581036, 0.07814296, 0.06701201, -0.11223503, 0.07714174, -0.22007264, -0.073220894, 0.22228162, 0.10905292, 0.10141946, 0.18355651, -0.07828123, 0.13281965, -0.21377409, -0.040649217, 0.096461155, 0.15135965, 0.009008126, -0.03826576, -0.0059944303, 0.18967625, -0.04352447, 0.0737776, 0.10303727, -0.03975765, -0.063616216, -0.017771363, 0.049065452, 0.11402962, -0.044640865, -0.005425865, 0.0759492, -0.4164912, -0.03890258, -0.017745504, -0.05116373, -0.05188229, -0.042798672, 0.028681653, -0.12316258, -0.03395427, 0.20603606, -0.08285153, -0.2790033, 0.006806622, -0.033962663, 0.09682042, 0.020303426, -0.07627163, 0.102867, -0.04531989, -0.07959005, -0.010511508, -0.20997573, 0.007336203, -0.0003721504, -0.006976456, -0.038075075, -0.09285814, 0.112814166, -0.012045514, -0.07730707, 0.07506589, 0.09670304, -0.027575834, 0.05210021, 0.058245838, -0.012791558, -0.03279993, -0.3132339, 0.0024745145, 0.341796, 0.07037366, 0.08458861, 0.09912165, -0.032346062, 0.11977525, -0.25971606, -0.039784938, -0.04768906, -0.13685672, -0.026565326, -0.21117137, 0.061566383, 0.02581141, 0.07864753, 0.037958026, -0.07154732, 0.02742439, -0.22946583, -0.01939358, 0.02852302, -0.08545752, -0.17460878, -9.311061e-05, 0.22938831, -0.28492406, 0.008045329, -0.021075636, 0.07542814, -0.026635746, 0.065718934, -0.048659243, -0.04179735, -0.047228087, 0.12468534, 0.049173474, -0.14249554, -0.084470645, 0.09612449, 0.1421576, 0.02140816, 0.029662386, -0.07151347, 0.06498566, 0.038088977, 0.050653536, -0.14963883, -0.20198858, -0.0057705934, -0.019232124, 0.1360975, -0.041558187, 0.08280787, -0.04485241, -0.019870158, 0.17087361, 0.08854469, 0.08555658, 0.086048014, 0.049826227, 0.088390894, 0.13590367, -0.024801092, 0.06998437, 0.15571822, 0.048898023, 0.007754932, -0.09054691, -0.24386397, 0.072114654, -0.11411773, 0.04144568, 0.09398522, -0.13588351, 0.02287447, -0.12028318, 0.15358071, -0.0040916153, -0.0048848554, 0.15212157, 0.18927984, 0.04721846, -0.19937097, 0.0060512284, 0.089351706, -0.060891386, -0.04670503, -0.051810805, 0.13752645, -0.27819452, 0.028538428, 0.24053098, -0.07682957, -0.024433572, -0.087797366, 0.114494585, -0.16091928, -0.04133133, -0.039777778, -0.05227742, -0.05936605, 0.0052096597, 0.03460603, 0.0630268, -0.05368598, 0.13558209, 0.07855749, -0.078939945, 0.10501003, -0.06630903, -0.062248982, 0.040611472, -0.019553157, -0.017282266, 0.10381921, -0.05518845, 0.11680366, 0.09611655, -0.018342165, 0.060740653, 0.059656695, 0.101341285, 0.14993587, 0.045916993, -0.046203744, 0.20588656, -0.10971764, -0.03826325, 0.2398519, 0.017548295, -0.16740151, 0.05306103, -0.34140354, -0.26025027, 0.1199314, 0.0140239075, 0.09644585, -0.23384891, 0.029045155, -0.062464878, -0.0060045044, -0.18619245, -0.070190564, 0.13446221, -0.14553183, -0.05508443, -0.05242103, 0.010144781, 0.048677422, -0.035374634, 0.070231624, -0.0018617332, 0.2264201, -0.091419406, -0.033925615, -0.030511891, -0.046986625, -0.029171161, 0.09031086, 0.08723687, 0.067642964, -0.011921879, -0.17427488, 0.11371667, -0.17338027, -0.03908887, 0.066316105, 0.049111046, -0.036578164, -0.025599731, 0.04876471, -0.0043784976, -0.26645574, -0.051925145, -0.07458641, 0.048724137, -0.06462437, 0.12939417, 0.20949492, -0.19719446, 0.0716915, -0.0179491, -0.04402315, -0.008079922, 0.21676604, 0.013829355, -0.0603163, 0.09986205, 0.0018119559, 0.2548707, -0.1268251, -0.03902327, 0.16785172, -0.06877838, 0.05033919, 0.045703527, -0.06228642, 0.026393713, -0.23954752, -0.06499481, 0.15041585, 0.061812654, -0.080306634, 0.042594105, 0.101497926, -0.048607938, -0.05662188, 0.013856453, -0.016258942, -0.0675076, -0.024677576, 0.05563126, 0.03577539, 0.12189465, 0.03223675, 0.06306059, 0.07740774, -0.16032037, 0.013005951, 0.06035431, -0.02241277, -0.004960814, 0.015890732, -0.0120979445, 0.044839233, -0.021986127, 0.056964263, 0.08185356, -0.109214894, -0.03825899, 0.045189317, 0.10796068, 0.003946361, 0.0033700978, -0.043330725, -0.0033517196, 0.30646935, -0.20766512, -0.20195757, -0.07713736, -0.026101178, -0.25864083, 0.083994575, 0.024499655, 0.2397236, -0.035551384, 0.042629886, 0.13529666, 0.14212811, 0.10902625, -0.05964091, -0.026996879, -0.103952944, 0.08168512, -0.11034502, 0.039576784, 0.2401665, 0.032415755, 0.075073935, -0.032245293, -0.001457716, 0.039577365, -0.031954553, 0.0952488, 0.07627948, 0.034913894, 0.03093797, 0.047418017, 0.17998098, -0.21757442, 0.0040786467, 0.10421476, 0.18091708, 0.047286175, -0.12231759, 0.0108863395, -0.0483143, 0.05563547, 0.08241298, 0.10845241, 0.029051349, -0.21645819, -0.052489918, 0.019481799, 0.00036090697, -0.0416881, 0.029252212, 0.15697981, 0.0018503444, -0.047928505, -0.1772188, 0.056950845, 0.12702852, 0.001825904, -0.052323494, 0.16271581, -0.0011129, 0.15570077, -0.17816594, -0.056355696, -0.0040566507, -0.034084406, 0.01687694, -0.13564704, 0.025903657, 0.03785415, 0.028537959, -0.021441441, 0.013701582, -0.09527994, -0.06063699, 0.003403629, 0.016971705, -0.012391319, 0.24898694, 0.044222094, -0.094194695, 0.13430497, -0.041907035, 0.19897695, 0.15175807, -0.022512866, -0.027692417, 0.07847039, -0.14267713, -0.11485427, 0.061107557, -0.10494725, 0.05679458, 0.17093748, -0.07490599, -0.04803221, 0.043131337, -0.26835975, 0.010014491, 0.18366413, 0.14048827, 0.031447478, -0.08138601, 0.003552492, 0.041765105, 0.07370418, -0.019226704, 0.05043035, 0.26034194, -0.049737375, -0.05909103, 0.119787596, 0.015479423, -0.0006963801, 0.052376, 0.23161198, -0.27249712, -0.009285629, 0.062798835, -0.009434278, 0.0012770528, 0.05682126, 0.07390504, -0.102823935, -0.004262109, 0.09372457, -0.004754572, -0.05180285, -0.10453042, 0.35966575, 0.07117223, -0.066262715, -0.024592064, -0.11008845, 0.047886733, -0.05183975, -0.15711105, -0.09051073, 0.013240788, 0.24536146, 0.0033174807, 0.32379487, 0.18729596, 0.026248861, 0.06918651, 0.078796, -0.11082, -0.041504603, 0.252227, -0.024545401, -0.045735367, -0.044693287, -0.19769537, -0.108836524, -0.024748944, -0.035522155, 0.025883928, 0.105498195, -0.04923683, -0.057466473, 0.095357396, -0.25233918, -0.09484278, 0.17596993, -0.06886195, -0.03522186, -0.044794854, -0.049228672, 0.05576367, 0.006447742, -0.026839864, 0.057916783, 0.17865841, -0.05048163, 0.0037903215, 0.015145939, 0.09225988, 0.044862084, -0.035856694, 0.06289497, 0.111432135, 0.02416408, -0.07933005, 0.06414391, 0.063529566, 0.043325476, 0.039716516, 0.18743296, 0.03667149, -0.02704401, 0.24557097, -0.0112053715, -0.15778452, 0.12036653, 0.113218285, 0.07615983, -0.029944384, 0.14077918, -0.1343309, 0.06083292, -0.030134885, -0.048021033, 0.05147166, 0.07109009, 0.09415342, -0.07534967, -0.028633319, -0.004505442, -0.03457548, 0.13932307, 0.10656, 0.15224648, 0.15268138, 0.024901483, 0.006583398, 0.005238007, -0.023197338, -0.053967223, -0.12554938, 0.0050762496, 0.099043936, -0.023808166, 0.053016055, 0.19201441, 0.16208582, -0.120206855, 0.022379924, 0.20496835, 0.17139415, 0.07829712, 0.08085474, 0.046552733, -0.039273754, -0.058492057, -0.054599095, -0.011774496, 0.005021455, 0.18387313, 0.07166033, 0.28979588, 0.021064125, 0.052095648, -0.021846518, -0.07780821, 0.021386988, 0.045301177, 0.018792894, 0.037339397, 0.01160999, 0.10912363, 0.015567899, 0.008226088, 0.008946748, -0.076518446, 0.1220222, 0.015251626, -0.13745375, 0.06790704, -0.10955902, 0.085158095, 0.09953894, -0.09424969, -0.031282596, 0.117016345, 0.10569081, -0.12241029, 0.015646737, 0.19001572, 0.15499066, -0.09976346, -0.10485749, -0.045944333, -0.06214528, 0.16076241, 0.05745523, 0.054168645, 0.028767666, 0.042280264, -0.19636054, -0.007686073, 0.009876383, -0.2588442, -0.052388813, 0.022146601, 0.065989904, -0.110427655, 0.020751223, 0.20289268, 0.15922473, -0.15080824, 0.033552714, 0.02160656, -0.027072757, 0.006358733, 0.043381132, -0.028797986, -0.048772503, 0.13291423, 0.005699861, -0.01897424, -0.008352378, 0.037133083, 0.0005570112, -0.09131269, -0.049808905, 0.008231857, 0.059168797, 0.101534426, 0.030313192, -0.0053616394, -0.27124438, -0.035481557, 0.105659895, 0.06365541, 0.011052472, 0.119956374, 0.031072672, -0.027020643, 0.10950965, 0.0073903734, 0.4301082, 0.19903275, -0.0010992419, 0.1988988, -0.0361879, 0.01956037, -0.17712052, 0.041292097, 0.13691431, -0.18458103, -0.029592609, 0.13519488, -0.015730957, -0.073880434, 0.113023035, -0.092111684, 0.0054665804, 0.10652195, 0.04355009, -0.13377847, -0.051756103, 0.042452943, -0.14337838, -0.34164065, -0.029621715, -0.18124671, 0.026071439, 0.07059495, 0.12654893, -0.029954609, 0.06467511, -0.046518892, -0.07937168, -0.019536885, 0.0130152935, 0.27073237, 0.104461536, -0.05890211, -0.02824652, -0.0026009136, -0.014083962, -0.045802798, 0.12429384, -0.020241315, 0.14813322, -0.096382245, -0.018213134, -0.11326807, 0.029707098, -0.0073162955, -0.01439149, -0.054699473, -0.08057418, -0.04857452, -0.12999335, -0.05388464, 0.09759345, -0.038420714, 0.05370625, 0.08424654, 0.024271166, -0.08692747, 0.13760549, -0.016580306, -0.21507467, 0.2273469, -0.0052426667, 0.040710717, 0.13488516, 0.16033371, -0.058155835, -0.08122844, 0.20643799, 0.052342355, 0.02892843, 0.2618908, -0.0321061, 0.24473773, 0.073251896, -0.060626455, -0.010525796, 0.25828123, 0.0017188888, 0.13574119, 0.038566455, 0.022244625, -0.13680147, 0.12171636, -0.022517027, -0.08595068, 0.16866663, 0.008078964, 0.105050966, -0.115140334, 0.038452495, -0.053680245, 0.07925693, -0.17924921, -0.049485385, 0.34091985, 0.22492443, 0.023929939, -0.081409596, 0.01983232, 0.1109791, -0.2650035, -0.11249033, 0.04545188, 0.23936664, 0.0063881227, -0.03345594, 0.06801824, 0.04583502, -0.0063277152, -0.0016716522, -0.021603053, -0.019419206, 0.056746222, 0.055321362, 0.03139957, 0.07900588, 0.028862199, 0.0075820023, 0.080119185, -0.06114397, -0.07142626, 0.20179817, 0.0015660599, -0.09372386, -0.16464864, 0.1256305, 0.2072576, -0.22812377, -0.1819106, -0.038886443, -0.1488651, 0.21214575, -0.1811719, 0.0032019906, -0.15853183, 0.21399249, 0.014806465, 0.1491087, -0.020187803, -0.015007889, 0.26419204, -0.0764536, 0.21650203, 0.092786305, 0.008663393, 0.05298867, 0.26666972, -0.08285824, -0.11690761, -0.22888716, 0.24796605, 0.06330276, 0.026849726, 0.0043346547, -0.12048356, -0.017982423, 0.13715768, -0.02423145, 0.17442234, 0.16382228, 0.000112447044, 0.047435716, -0.023910066, 0.07266988, -0.0004576547, -0.034619413, -0.03533103, 0.034414306, 0.0048875455, -0.07992502, -0.0195468, 0.06791666, -0.0378583, -0.030417075, -0.13066977, -0.044154674, -0.05723266, 0.09177965, -0.035251714, 0.0054397346, 0.0859023, 0.10842536, -0.09334351, -0.055011094, -0.028597299, 0.24098885, 0.0143149495, 0.10777248, -0.045996208, -0.17509024, -0.016008098, 0.013968567, 0.05155882, 0.15137269, -0.1559194, 0.20959628, -0.10844543, -0.045699906, 0.030511728, 0.13800798, -0.057083324, 0.0045794887, -0.03444919, 0.112598434, 0.20499481, 0.26753524, 0.19400226, -0.020076642, 0.008044061, -0.018284101, -0.069258705, 0.079141684, -0.16558415, 0.04646391, -0.14073814, 0.02624228, 0.08120079, 0.05277797, -0.0122185135, 0.23362246, -0.07608736, -0.044258956, 0.0714354, 0.21623765, -0.0012494025, -0.023899095, 0.049052462, 0.022553945, 0.02179941, 0.22439456, -0.046088252, 0.06522267, 0.078512445, 0.04427612, -0.23031864, 0.057468727, 0.067729585, 0.0065396247, -0.0659537, 0.060983837, -0.038545094, 0.1243695, -0.10508782, -0.0054833237, 0.17831889, -0.018764522, 0.11808025, 0.06567848, -0.2022854, -0.118921526, -0.02905181, 0.31998298, -0.12948228, -0.13695927, 0.18003227, -0.16393808, 0.04682943, 0.012363727, -0.23228121, 0.26798084, -0.11733857, -0.031890787, 0.25639865, 0.0053647654, -0.07009326, 0.03475859, -0.0011400903, 0.1632907, 0.1946304, -0.0447009, 0.16689914, -0.1157157, 0.03407276, -0.35509688, -0.13436195, 0.08095874, -0.2241634, 0.03167856, 0.121519245, 0.00027032776, 0.109930724, -0.006035588, -0.025565451, -0.028649881, -0.0012532, -0.061551988, 0.21519005, 0.08825837, -0.011130119, 0.008762146, -0.05134661, 0.08973568, -0.0006621741, 0.17821233, -0.010101799, 0.074028194, -0.065315984, -0.042804845, 0.0071114274, 0.067583695, -0.0942376, -0.05869754, -0.18775098, -0.1903244, -0.0227563, 0.019422114, 0.0053577856, 0.28463957, -0.10150396, 0.016719593, -0.15246609, -0.09387094, -0.32639673, -0.21272103, 0.038300253, -0.17243896, -0.05475975, -0.11918038, 0.22398095, 0.122693196, 0.01933471, 0.072229534, -0.32727063, 0.34185958, -0.14806087, 0.071331404, 0.29059845, -0.21472715, -0.07805616, 0.0714475, -0.026630502, 0.258059, 0.2073693, 0.1832376, 0.31024098, 0.017378872, 0.0363607, 0.014432357, 0.19395195, -0.111624725, -0.080305554, 0.26092002, -0.10559411, 0.13414222, -0.1813576, 0.031126253, -0.14301272, 0.12516877, 0.01307761, 0.048977826, 0.22227505, 0.1790581, 0.021882482, -0.13271491, 0.07199155, 0.020099726, 0.09204305, -0.29364556, 0.052161794, -0.20319726, -0.11398983, -0.05882837, -0.11958964, 0.11435724, 0.042625032, 0.02272129, -0.16922474, -0.18386659, 0.015750244, 0.28586388, 0.08236758, -0.190673, 0.026960867, -0.0371189, -0.26938406, 0.041125834, -0.12752141, -0.036447298, 0.07133271, 0.06232035, 0.3810781, -0.4975324, 0.107314445, 0.07947607, -0.48507276, 0.2159552, -0.17434523, 0.09906684, -0.15328524, 0.019155188, -0.011536378, 0.001181309, -0.32892278, 0.03720653, 0.12458597, -0.37501308, -0.16052224, -0.14750126, 0.15829198, 0.09267244, 0.021834204, 0.038777485, -0.019245952, -0.2211427, -0.19044574, 0.017904337, -0.24855712, 0.060421634, -0.14483775, -0.0020882322, 0.08967222, -0.21937954, 0.28914994, -0.023930037, 0.36192727, -0.11817396, 0.060309004, -0.059796344, -0.04744968, -0.08251635, 0.3069831, -0.1423965, -0.041501086, -0.028883783, -0.12026784, 0.0644407, 0.032885578, 0.097448654, -0.070975475, -0.010062158, -0.45696387, 0.14537197, -0.008719996, 0.2984069, 0.065576494, -0.03814772, -0.034016963, 0.0006215644, -0.05159396, -0.03768882, -0.024532933, 0.014295016, -0.053721007, 0.26238453, 0.19002423, -0.33290085, -0.038763538, -0.011198142, -0.1519442, -0.09377223, -0.104759455, -0.058948994, -0.06796826, -0.0746114, 0.21305308, 0.16006152, -0.332511, 0.1647295, -0.00895471, -0.09972488, -0.15183233, -0.16065925, 0.006870639, 0.14354505, 0.016052196, -0.30101606, 0.075953685, -0.06360768, -0.087928474, 0.04809518, -0.16170731, 0.12621503, -0.13093974, -0.04158359, 0.0021317964, -0.16251504, -0.04543141, -0.040922455, 0.15904142, 0.005541165, 0.008735177, -0.10916116, 0.0029183477, 0.038207795, 0.05653034, -0.16851856, 0.03077753, 0.22473755, -0.057113454, -0.051577322, -0.024193864, -0.010442906, 0.005939111, 0.02072593, -0.26121044, -0.124221146, 0.00058121234, 0.01990248, 0.0065107276, -0.16262726, 0.068431646, -0.03246919, -0.18020955, 0.06163862, 0.070389, -0.17618881, 0.008562759, 0.11113211, 0.14843643, -0.17271866, -0.27630424, -0.0072325775, -0.17482781, 0.07491856, 0.0028447313, -0.022737768, -0.008636728, 0.07141801, 0.06758752, 0.08374578, -0.095316485, 0.017637694, 0.0501447, -0.05291336, -0.3443968, -0.2188051, 0.026322335, 0.05464499, 0.0078207115, -0.16380876, -0.18558575, -0.078842066, -0.065834664, 0.010773221, -0.094854, 0.105128385, 0.030192092, -0.024900656, 0.27856728, 0.035993095, 0.059089277, -0.047864437, -0.11759254, -0.14931926, 0.010737941, -0.21615952, 0.008472055, -0.040564917, -0.016280286, 0.07291283, 0.06215426, 0.059302367, -0.1000478, -0.0504328, 0.01789522, 0.08671356, 0.07074097, 0.05778928, -0.14108774, -0.009523356, 0.0119021535, 0.15107468, 0.032929353, -0.46791, 0.06455584, 0.020992266, -0.20228687, -0.036826305, 0.0950363, -0.07539678, 0.06764873, 0.010252142, 0.30525482, -0.051248327, 0.031684436, -0.26558542, -0.064985566, -0.016535476, -0.02975482, -0.029353539, -0.047853008, 0.045706738, -0.26507428, 0.04673579, -0.1938988, -0.018416852, 0.003106674, -0.34907845, -0.13742214, 0.036498282, 0.0026931453, 0.29461372, 0.01257017, 0.07132268, -0.26444355, -0.12500793, -0.1170894, 0.021135485, 6.760037e-05, 0.002447174, 0.16574706, -0.067695744, 0.06632735, 0.2757571, 0.1434107, -0.033367924, 0.13443235, -0.03765315, -0.027324675, -0.11547402, 0.014983751, -0.0843475, -0.16040275, 0.21956828, 0.059220117, 0.027218953, -0.1376279, -0.003315337, -0.24007751, -0.044467367, 0.049437743, -0.07016224, 0.0070999484, 0.16966645, -0.0025891736, -0.037346255, 0.06850562, -0.16180061, -0.022397194, 0.056111593, -0.095710635, 0.018787842, -0.014064745, 0.043286897, -0.009975008, 0.093430065, 0.33378035, -0.10170531, -0.053772226, 0.05009954, -0.16367392, 0.09436173, -0.14126907, 0.20382555, -0.113535315, 0.04820995, -0.076964065, 0.051480237, -0.3475531, 0.26895612, 0.010909876, -0.25924692, -0.088067465, 0.0039018865, 0.0217355, -0.07412627, 0.01639722, 0.17923109, -0.040544268, 0.05197224, -0.06097925, -0.033021707, -0.053830884, 0.06470157, 0.10747346, -0.0009165108, 0.27006626, -0.17889611, 0.22678009, 0.02183933, 0.087990366, -0.20948094, 0.005540563, 0.03588082, 0.05553229, -0.0780994, 0.014924378, 0.10265983, 0.0015737138, -0.01829643, -0.14639176, 0.05417961, 0.018445406, 0.1222117, 0.0044029006, -0.070790544, 0.023894306, 0.027577287, -0.0595361, -0.054350533, 0.06911667, 0.04864717, 0.0035850666, 0.04058373, 0.32348168, -0.0029627224, 0.005529818, -0.12693134, -0.055084363, 0.10834764, -0.018059032, -0.19853054, 0.05213635, 0.31931219, 0.013755411, -0.07452388, 0.05029726, 0.22185369, -0.011781007, 0.022012627, 0.12491571, 0.108035624, -0.24409416, 0.10358992, -0.062336367, -0.12982708, 0.09421603, 0.011663771, -0.02532932, -0.31284484, -0.042897485, 0.07005567, 0.15083814, 0.12186607, -0.054877568, -0.26324186, 0.12257727, 0.11957989, 0.071875826, 0.0121261105, -0.003343498, 0.035163157, 0.28310332, 0.035214145, 0.07160645, -0.12529801, 0.018450744, -0.049412414, 0.0093056, 0.04095306, -0.17796406, -0.07656069, 0.03855135, 0.018998776, -0.19797596, 0.046521686, -0.13679403, 0.095132194, -0.06636159, 0.023014694, 0.19094758, -0.066636875, -0.04163531, -0.2744188, -0.017028892, -0.045271654, -0.0069639264, 0.04028728, -0.02971909, -0.007289639, -0.17301154, -0.06356396, 0.08213992, 0.035287, -0.05412166, 0.006572647, -0.008065026, -0.0050699357, 0.28153542, -0.083712496, 0.108594775, -0.00040053972, 0.013565622, -0.02790506, 0.047774073, 0.08354738, -0.26029292, 0.17519417, 0.0905185, 0.10295433, 0.0918075, 0.09387032, -0.025015952, -0.3614934, 0.020702843, -0.13367358, 0.0811674, 0.1322622, -0.23772667, 0.17750089, -0.058572445, 0.048925642, -0.043828696, 0.03370916, 0.22674632, 0.121935315, 0.28442627, -0.005675931, -0.064986646, -0.044968467, -0.0014749318, -0.15503961, 0.02105745, 0.066015, -0.06457768, 0.055717863, 0.033087004, 0.0756652, -0.42000312, -0.07164365, 0.013113446, 0.029833723, -0.030931424, -0.04846871, -0.034874905, 0.03472588, 0.0013397709, -0.09949779, 0.031330533, -0.4901266, 0.057017535, 0.068202585, 0.08314227, 0.041001283, -0.053445615, -0.20353398, -0.012514101, -0.18872102, 0.12659077, 0.2521669, -0.11301301, -0.09438251, -0.00052440685, 0.14849788, 0.16358176, -0.108088724, -0.016800655, 0.007501004, 0.0045537385, 0.14464247, -0.10967949, 0.0002261206, -0.0038187257, -0.09458678, 0.07461721, 0.1357457, -0.20662811, -0.08108687, 0.029707577, 0.1350795, -0.11025244, 0.218945, -0.09470444, 0.014594129, -0.10485766, -0.0018741756, 0.21983947, 0.039262317, 0.1727243, 0.07411559, 0.19158536, -0.03565465, 0.16837767, -0.12283053, 0.07219453, 0.003134642, -0.025601197, -0.021178525, 0.034088008, -0.007857571, 0.0733941, -0.10884883, 0.11816122, -0.016194189, -0.09965869, -0.049545854, -0.0517404, 0.018309675, 0.03835225, -0.074133195, -0.014411021, -0.14607489, 0.032443695, 0.12611088, 0.13385965, 0.013789222, -0.005723563, -0.031897254, -0.17750116, 0.2949888, -0.047136404, 0.057039354, 0.16691808, 0.012836374, 0.0001096848, 0.051167946, -0.03400773, -0.0007453753, -0.08123555, -0.14576691, 0.024243757, -0.05376679, -0.060401026, -0.0329805, -0.20290674, 0.14691181, -0.03958519, -0.18064356, -0.35832033, 0.05056899, -0.0017544054, 0.05249691, -0.04380213, -0.06391331, 0.08767337, 0.11422239, 0.1517498, 0.07728623, 0.25466484, 0.08094076, 0.24454615, -0.029919252, -0.046501335, 0.045228858, 0.27202564, 0.08451443, 0.12290577, 0.028295364, 0.056936815, 0.16798498, -0.04305571, 0.043443143, -0.10622278, 0.053850096, 0.061185095, -0.11470947, 0.006276906, 0.043366916, -0.029745352, 0.13005048, 0.06814611, -0.044957712, 0.08326755, 0.07621475, 0.032261178, -0.15831251, -0.06052595, 0.08574088, 0.070262544, -0.074053966, 0.3258659, -0.09967421, -0.22638385, 0.10950627, 0.011967836, -0.040302113, -0.02081973, -0.17633674, -0.034488488, 0.024720535, -0.0886018, 0.25089398, -0.06269151, -0.034745783, -0.03727425, 0.0374087, -0.008689011, 0.12385476, 0.013760131, -0.06154783, 0.051512558, -0.04051389, 0.02197782, -0.04150102, -0.012439963, 0.016112244, -0.0060679545, -0.13181952, 0.09910296, 0.10211397, 0.016482713, 0.14888495, 0.106107555, 0.06899375, 0.060533974, 0.07022518, -0.0048172176, 0.08112919, 0.04885798, 0.030076576, -0.17727104, 0.061279397, -0.067933686, 0.13953, -0.054740146, 0.043326948, 0.0061001983, 0.14861551, 0.0669033, 0.1214389, 0.030243222, 0.019775368, -0.0993367, -0.0022046748, 0.005634986, 0.038205862, 0.16927189, 0.07245712, 0.06464034, -0.20967287, 0.05544119, -0.16372298, -0.07469196, 0.058178045, 0.06210553, 0.02329567, -0.29430094, -0.11544675, -0.050907616, 0.071412586, 0.022164037, 0.05137055, 0.13151498, -0.12130717, 0.17715411, 0.06908517, 0.07262375, 0.050239325, -0.056552596, 0.006427933, -0.16200627, -0.030204682, 0.2634939, 0.053478785, 0.08044525, 0.08996036, 0.2917135, 0.17020626, 0.0545055, -0.030750103, -0.043537825, 0.016835105, 0.046548586, 0.1321253, 0.01592411, 0.15388857, 0.39815232, 0.11595487, -0.078694254, -0.0013176724, -0.1877515, -0.004795897, 0.115312815, -0.05438789, -0.0118752, 0.07176008, 0.02972088, -0.07547695, 0.019610427, 0.0032344405, -0.09658679, 0.2924618, 0.06438509, 0.25288218, -0.32296884, -0.008945011, 0.035826106, 0.03159886, -0.030075677, 0.017778732, 0.15583959, 0.1359769, -0.010107465, 0.092820495, -0.0019666676, -0.2494815, -0.028419321, 0.0062834425, 0.109718405, -0.087985754, -0.04596837, -0.057091974, -0.03514916, -0.17947051, 0.13265555, 0.01646946, 0.11848697, 0.026298838, 0.036572296, 0.16019604, 0.04859385, -0.11362352, 0.12155229, -0.02135903, 0.029171528, -0.25453335, 0.05758927, 0.007559408, -0.036524475, 0.18596448, -0.0886703, 0.2794022, 0.0287608, 0.07357729, -0.056221765, -0.060323916, 0.29264346, 0.16890731, 0.007340456, -0.1917608, -0.21055716, 0.0234224, -0.1109473, -0.057981618, 0.098978385, -0.056079935, 0.3091769, -0.07577381, 0.07554876, -0.027638067, 0.05254145, -0.12441875, 0.03323801, 0.03349198, -0.00866131, 0.12349425, 0.09677867, -0.018710706, 0.2052885, 0.007938437, 0.09706309, 0.11701902, -0.025305025, 0.03776431, 0.031919476, -0.04666661, -0.06329426, -0.40153888, -0.056541085, -0.04987198, 0.029673085, -0.028568758, -0.07187876, -0.032334276, -0.08517567, -0.074470095, -0.040255576, 0.050443333, 0.28188, -0.029172769, 0.013518059, -0.09528645, -0.033813547, -0.08770726, -0.52058387, 0.038601637, 0.081717245, -0.037790723, -0.08845432, -0.07322326, -0.10719344, 0.32345006, -0.008844313, -0.15362388, -0.18403086, -0.17574456, -0.021913966, 0.16539514, -0.07436608, 0.1385919, -0.02810692, 0.046603624, 0.1902692, 0.098083474, -0.038879722, 0.020809755, 0.48392785, -0.008937061, 0.082672276, 0.34540325, 0.0011678583, 0.010255934, 0.16115275, 0.15126811, 0.03932575, 0.0027594066, -0.03112204, 0.032783397, -0.26181394, 0.16140297, 0.07451821, 0.085076295, 0.022336705, -0.03507657, 0.14284973, 0.009848928, 0.042767152, 0.062970996, 0.3432102, 0.07130608, -0.0008403063, -0.5356238, -0.11702884, 0.16404855, 0.10500442, -0.01823765, -0.003737017, 0.06280432, -0.13998753, 0.017363517, -0.050312884, -0.03637288, 0.05843404, -0.30734217, 0.028055819, -0.23776828, -0.003944632, 0.014638487, 0.015498265, 0.029186128, 0.055508304, 0.056499995, -0.16894795, 0.11262066, -0.14399566, 0.02495099, -0.05252139, 0.0636937, -0.10430602, -0.11897043, -0.06563285, 0.15624133, -0.097575136, -0.036852427, -0.2951567, 0.1350634, -0.05742921, -0.0005337059, -0.1830709, -0.01784208, 0.16904765, -0.04662865, -0.053699043, -0.01550582, 0.08573087, -0.019179462, -0.06704833, 0.112368576, -0.036718126, 0.12665398, 0.048354454, 0.0088370545, -0.17027591, 0.1089708, 0.015288986, 0.06051554, -0.051133115, -0.012465004, -0.075820744, 0.21048337, -0.055160254, -0.028986558, 0.07899335, 0.16564512, -0.011222757, -0.06436144, -0.057874847, -0.0991651, -0.021824157, 0.09481631, -0.06588184, 0.022298284, -0.27475795, 0.097144485, 0.0035376467, 0.16154823, -0.15594608, 0.109604314, 0.11924153, -0.26418838, -0.04423067, -0.026761092, -0.0219234, -0.0004480132, 0.1365976, -0.038419817, -0.10076049, -0.054626454, 0.33436587, 0.10793285, -0.03965944, 0.13802251, 0.2141513, 0.1302564, -0.0113665005, 0.13521935, -0.0697393, 0.21803376, -0.44094813, 0.094124995, 0.10854887, -0.0862396, 0.30086118, 0.07508603, 0.06331769, -0.021811306, -0.09733914, -0.00028393118, 0.07458508, -0.02292229, -0.0021351106, 0.11541615, -0.039437234, 0.067594886, 0.04091274, -0.004706729, -0.35207638, -0.02212706, 0.061850373, -0.036323007, 0.045941632, 0.0019221988, 0.08286784, 0.04004992, -0.039366934, -0.060693704, 0.4056069, 0.22762957, -0.036047436, -0.15022224, 0.033756424, -0.17507455, -0.0032559412, 0.048653845, 0.11511969, 0.054430835, -0.13924772, -0.023744421, 0.018418781, 0.18964674, -0.10947621, -0.05683243, 0.39385787, -0.16311347, -0.033548065, 0.1734281, -0.044299938, 0.28301924, 0.11398442, -0.06314494, -0.0057156845, -0.19115624, -0.078098826, 0.2543635, 0.020417845, 0.09391331, 0.21085274, 0.11204731, -0.14925931, 0.11024894, -0.08311915, 0.035982132, -0.11120572, -0.11117682, 0.21119411, -0.1040142, -0.24698265, -0.026526611, 0.01602898, -0.015455663, -0.49788493, 0.033956293, 0.22423036, -0.054134037, -0.0848929, -0.1652155, -0.063330084, -0.13630576, -0.06466885, -0.016255923, -0.04969938, -0.13264778, -0.012068422, 0.23583288, -0.21789648, 0.06429516, -0.2008162, -0.006817585, -0.051063396, 0.029152948, 0.10231317, -0.27468237, -0.045794263, 0.056903902, 0.09606324, -0.10790489, -0.061467487, 0.10454385, 0.15269384, -0.014183141, 0.2518888, 0.18392593, -0.033290286, -0.05180678, -0.2563754, 0.12853685, -0.18432994, 0.15154143, -0.12585948, -0.22812018, 0.09756535, 0.061872058, -0.27221793, 0.02250368, -0.19316518, -0.19110775, 0.08614726, 0.2789682, 0.025515784, -0.006650645, 0.20985155, -0.09017306, -0.005426348, 0.22908221, -0.108432174, 0.017795159, -0.16489424, -0.09733573, -0.16692813, 0.12304273, 0.11823763, -0.084622726, 0.014928388, 0.012835155, 0.09626611, 0.07811771, -0.31898743, 0.039059237, 0.13127325, 0.17977405, -0.04750725, -0.14960238, 0.034608923, -0.019612888, -0.018508764, 0.18092, 0.07783348, -0.013833114, -0.2849094, -0.043487445, -0.0019897425, -0.037339788, -0.055590887, -0.0012546486, 0.061203405, -0.25352722, -0.011990912, 0.2449364, 0.045960467, 0.0074148607, 0.056857534, 0.017428812, -0.018370466, 0.027455846, 0.30766732, -0.15492631, -0.05012738, -0.16098805, -0.17233652, 0.12430803, -0.041255858, 0.22407423, 0.021128735, -0.2185106, 0.052619737, 0.0899006, 0.10088854, -0.024904706, 0.1930926, -0.086458355, -0.027585864, 0.24087012, -0.026198143, 0.19133978, -0.110667646, -0.052880757, 0.005710943, 0.16591172, 0.0083749425, 0.22400431, -0.048742373, -0.10908293, -0.013669002, -0.2946795, 0.07286992, -0.044043746, 0.048348803, 0.057336163, -0.007916474, -0.16166061, -0.09643922, 0.0074101198, 0.09378507, -0.046708915, -0.06969096, 0.03874232, -0.033951465, 0.08963774, -0.1283465, 0.012038945, -0.008410987, 0.057213034, -0.15062681, -0.030813802, 0.16260898, -0.061291296, 0.005449579, -0.022467298, -0.05894823, -0.29171738, -0.008205801, 0.2945705, -0.031235503, 0.018088931, 0.10356387, 0.09998189, -0.18994926, 0.051193327, 0.39302462, 0.14682966, -0.00678432, 0.016358932, -0.31127113, -0.008881529, -0.09344248, 0.16095883, -0.06596107, -0.04710397, -0.09307867, 0.16317764, 0.09823845, -0.012425611, 0.23969308, -0.19297743, -0.093393296, 0.1509096, 0.02331135, 0.0861709, -0.0053715105, -0.022523222, -0.07885823, 0.19542846, -0.068161584, 0.2565411, 0.014259031, -0.0723318, 0.0675712, -0.3903933, 0.095469356, -0.074234426, -0.04969384, -0.035529263, 0.095495, -0.033442855, -0.006559637, 0.07492177, 0.18109366, 0.20373638, 0.03502089, 0.102970704, 0.07636316, 0.08354289, 0.07585341, 0.022430995, 0.06461692, 0.083198406, 0.03604328, -0.062148876, 0.14580439, 0.00038872685, 0.030798657, 0.007887295, 0.17540543, -0.18184625, 0.04304114, -0.05149177, -0.016688935, -0.13391097, 0.09236346, 0.044211376, 0.003966143, 0.036954902, 0.1956548, -0.003204218, 0.011636181, 0.12546448, -0.04885282, 0.063251145, -0.15755832, 0.31781736, 0.25993207, -0.03726979, 0.031090274, 0.20245856, -0.0015990088, 0.0381677, 0.4023596, -0.10092884, 0.046502687, 0.04735576, 0.054477755, 0.06202009, 0.26576984, -0.09117715, 0.10312657, 0.21965681, 0.0035256539, 0.035658147, 0.11340183, -0.34019715, 0.17660633, -0.29934633, 0.13708995, 0.0048003215, 0.24336188, -0.013937905, 0.020093024, -0.069027744, 0.12711388, -0.049367573, 0.18301103, 0.07256616, -0.01308023, -0.18477441, 0.08059197, 0.034116074, 0.17581941, -0.0013094682, -0.02492746, 0.14736927, -0.033651553, -0.030801065, -0.2733923, -0.22842096, -0.08133876, 0.04441924, 0.022731787, -0.17171924, -0.038906846, 0.18193924, 0.059136, -0.27096877, 0.02765035, 0.04048823, 0.05742435, -0.027032174, 0.1698711, 0.008550015, -0.025839703, 0.048023924, -0.32240513, 0.20809077, -0.14085181, 0.20774409, -0.15303783, -0.019802641, 0.01365885, -0.12938365, -0.20265211, 0.07941907, -0.11504204, -0.2614881, 0.12141559, 0.18514168, 0.015394357, 0.106210165, 0.027807042, 0.047687776, 0.0060733724, 0.14097196, 0.007992908, 0.20058681, 0.12799874, 0.19726174, -0.20738226, 0.07890844, 0.08374211, -0.10325776, 0.18189965, -0.03686742, -0.053105704, 0.23199493, -0.2250997, 0.03563059, 0.06645777, 0.07437418, -0.062436994, -0.26354963, 0.042171285, 0.12775795, 0.16435657, -0.16776472, 0.07055056, -0.0031886122, -0.18187727, -0.037637677, -0.18786246, -0.09207465, -0.005430475, -0.060121242, 0.036330543, 0.0066609383, -0.054786906, 0.096009746, -0.07109124, 0.0042603663, 0.10879304, 0.029546488, 0.01888389, -0.040303726, -0.040224772, 0.09764884, -0.011977768, -0.17452016, -0.12628576, 0.063728556, 0.09273665, 0.07821947, -0.07692842, -0.08407464, -0.06814162, 0.12457267, -0.039017107, -0.018613962, 0.31877065, 0.08672893, -0.009668119, 0.22581357, -0.076291196, 0.04137538, 0.07219804, -0.01934647, -0.010760245, 0.063113, 0.027395282, 0.036762696, 0.29803222, 0.034396816, 0.049279038, -0.032820325, 0.018322846, -0.116466805, -0.05545842, -0.04105377, -0.090248734, -0.053859424, -0.14575943, -0.012436246, 0.18580502, 0.006842683, -0.07054234, -0.11315526, -0.010921667, 0.023623917, 0.05874726, -0.04429094, 0.081237555, -0.01776259, -0.049780063, -0.055061053, -0.23117462, 0.20381817, -0.047496203, 0.06630607, 0.020697288, -0.13616206, -0.04203844, 0.015622963, -0.027707577, 0.077013925, 0.15516077, 0.12145629, -0.12657489, -0.012776441, 0.13612638, 0.050796174, -0.028653666, -0.2358804, -0.018379368, 0.09509707, -0.08042501, 0.058503088, -0.1509203, -0.17554915, -0.19222687, 0.10027773, -0.055604476, 0.059141334, -0.021711752, 0.02334503, -0.0037329115, -0.023757068, -0.074702755, -0.10894812, 0.077594146, 0.071412764, -0.009553415, 0.017226955, 0.0429107, 0.17494784, 0.11865866, 0.21945523, 0.09765024, 0.051093563, -0.041074157, -0.1628808, -0.108585164, 0.030529594, 0.1270284, 0.36926234, 0.14156492, -0.027172787, 0.008208794, 0.13497047, -0.058108777, 0.020035248, 0.071345955, 0.05572369, 0.0048012864, 0.028052604, 0.046981137, 0.052706584, 0.15494974, 0.025981903, 0.1854679, 0.06163937, -0.010378133, 0.03709434, -0.11172548, -0.161867, 0.051565737, -0.064394705, 0.0015114252, 0.12511422, 0.16552812, 0.080627084, 0.06012598, -0.019537747, 0.02988799, 0.026731137, 0.0062007057, -0.16391405, 0.094768785, 0.028985415, -0.13530992, 0.14005119, 0.1703058, 0.11259564, -0.07799609, 0.12939024, -0.16640235, -0.031123953, 0.03019953, 0.15913129, -0.20659778, -0.13153954, 0.023816323, 0.19531092, 0.13987818, -0.081879735, -0.0149467485, 0.026654318, 0.048001647, 0.25765422, 0.1945278, -0.047398154, -0.06836417, -0.13570727, 0.17171143, -0.06925067, 0.13405755, -0.037410226, 0.106528066, 0.17839195, 0.21244681, -0.029125208, 0.032791086, 0.030845786, -0.015094813, -0.40039983, -0.021001521, 0.12814261, 0.012782292, 0.1150951, 0.079712875, 0.17791024, 0.012060264, 0.010464928, -0.045238506, -0.25276217, 0.054190855, 0.07765752, -0.17356507, -0.23176134, 0.042719863, -0.24711207, 0.11585489, -0.020554723, 0.077525735, 0.0030740842, -0.22656672, 0.021827133, 0.0661251, -0.12279122, -0.026095487, 0.050435986, -0.29797825, 0.056274183, -0.13959423, 0.3253891, 0.0028366614, 0.16242616, -0.029490884, -0.05089331, 0.024535375, -0.04143837, 0.02659727, -0.11934814, 0.11913315, -0.0834327, 0.096414864, -0.037206896, 0.25597936, 0.078976646, 0.038283065, 0.13123646, 0.039111733, 0.31944057, 0.2059879, 0.1495994, 0.06428521, -0.051793788, 0.2665784, -0.020207034, 0.048047982, -0.025323465, -0.16441731, 0.13128453, -0.20044996, 0.019387528, 0.03611753, 0.07052803, 0.053047854, -0.22321373, 0.0005218672, 0.10666987, 0.17461167, -0.0085609015, -0.005291288, 0.010186439, -0.09150383, 0.03599356, 0.071681425, 0.14379722, 0.052202035, 0.070167854, -0.045836847, -0.28463703, -0.0680246, 0.055070635, 0.044332784, -0.06999389, 0.021414794, 0.021081742, 0.02538566, 0.07775799, -0.24586393, -0.002866273, 0.05342215, 0.19509895, -0.082616426, 0.1658014, 0.041531254, -0.087639265, 0.018059427, -0.031945217, 0.008073965, 0.026608115, -0.014517763, 0.09199201, 0.008365295, 0.0077796225, 0.23369, -0.07832717, 0.07635647, -0.02659466, 0.20315544, 0.114968084, 0.077041514, 0.0072909114, 0.071652815, 0.04574729, 0.10668742, 0.12495307, 0.029867487, -0.09108145, 0.07896203, -0.10543151, -0.1183408, 0.017160695, -0.051385593, 0.061502114, -0.09346658, -0.03803102, 0.07085553, -0.064864874, 0.07095748, -0.09500155, 0.008478811, 0.013026847, 0.03450541, 0.028587084, 0.026812699, -0.029730963, -0.17747077, -0.06109523, -0.016673286, 0.18535124, 0.046018016, -0.012541204, 0.11048645, -0.29258096, 0.054365188, -0.13545087, -0.058587477, -0.1324872, 0.0038071652, -0.004236886, 0.003284145, 0.08404057, -0.1843801, -0.040088803, -0.015360839, -0.059944455, -0.07808238, -0.03294252, -0.062765166, 0.069999635, -0.12510209, -0.0060314033, 0.009985885, -0.16464497, 0.03412067, -0.022364447, 0.047520798, -0.14728874, -0.044037342, -0.13369623, 0.04131708, -0.015641002, 0.13554358, 0.16795453, 0.15419735, -0.09911308, -0.06939534, -0.0028611906, 0.10966, 0.16923533, 0.09571498, 0.06694637, 0.23298341, -0.02806194, -0.13551982, -0.006508235, -0.04347882, 0.15716802, 0.097875, -0.039585672, 0.042357195, -0.050694186, 0.0045130253, 0.0062901597, 0.0067117256, -0.03236074, -0.022660885, 0.037982695, 0.033635873, -0.25047332, 0.0889543, -0.03729672, 0.025863003, 0.13501917, 0.049338788, 0.041748974, 0.009622861, -0.22447594, -0.028736793, -0.12755416, -0.0781999, 0.29109657, 0.05889375, 0.102704756, -0.17339483, 0.009949278, -0.04739721, 0.21493569, -0.051337644, -0.02329166, -0.057281606, -0.021035004, -0.23147886, -0.055231977, -0.09772185, -0.09919735, 0.09203418, -0.08875041, -0.052875217, -0.05519618, 0.032283172, 0.0020530026, -0.2133203, -0.18171805, -0.024863819, 0.13481452, -0.13330258, 0.3239903, 0.0034622645, 0.047830608, -0.02628652, -0.06721276, 0.13407686, -0.04244385, 0.10358156, -0.02333919, 0.22665647, -0.04413593, 0.15467426, 0.035316393, 0.084939875, 0.07584326, 0.328067, 0.026960904, 0.005079873, 0.037889507, 0.058466893, -0.6476559, 0.05081785, 0.069067985, -0.12085492, 0.09170071, -0.010507069, -0.023016935, 0.1322462, 0.0035205865, -0.001346241, 0.045963604, 0.056547236, 0.024788246, -0.18457927, -0.1038122, 0.015537777, -0.38762227, 0.079010695, -0.23505087, 0.04520164, 0.06833057, -0.049453788, 0.009175269, 0.019404965, -0.10807089, -0.035715356, 0.17990728, -0.29786384, 0.20118518, -0.120242335, 0.041218247, 0.1704812, 0.013092894, -0.23923287, -0.4660469, 0.2120268, -0.03511727, 0.35859618, -0.19058736, 0.21423385, 0.07361089, 0.037309222, -0.123861775, -0.13897641, 0.013482053, -0.34780747, 0.18394904, -0.05297385, 0.23924468, -0.09324533, 0.08478439, -0.007829716, 0.044361122, 0.0077745463, 0.023327429, 0.089092985, 0.07460773, -0.24090567, 0.23331526, -0.028934719, -0.016679093, 0.09158718, -0.07056976, 0.03250728, -0.18200576, -0.06327226, 0.08195544, 0.033304676, 0.07683162, -0.06483842, -0.00084694684, 0.13662554, -0.058832612, 0.019054595, 0.12624809, -0.0501999, -0.055152923, -0.10652804, 0.00668466, 0.05572626, -0.30172887, 0.087720245, -0.16516338, -0.101206996, 0.07117952, 0.18761146, 0.04952196, 0.034949422, -0.23506226, -0.019043237, 0.073760875, -0.1743222, 0.1288048, 0.2586819, 0.2747604, 0.07240837, -0.06526865, 0.1488867, 0.01636864, 0.09180433, -0.050660662, -0.2613356, -0.009766167, 0.08925028, -0.039834943, -0.039774198, -0.348871, -0.16472471, 0.29492357, -0.08519938, -0.090230145, 0.025391689, 0.3460251, -0.39227682, 0.056045815, 0.010986056, -0.056121062, -0.15519391, -0.098039664, -0.21955606, -0.0011194404, -0.096220456, 0.078766204, -0.03460415, -0.0253894, -0.060338136, -0.086807564, 0.048545975, -0.1014559, 0.0469515, 0.050147932, -0.07566808, 0.38489425, 0.045559883, 0.020913713, 0.108421445, -0.020846672, 0.112147704, 0.065569475, 0.0043020076, -0.028422887, -0.046345323, -0.21524014, 0.099962905, -0.22437115, 0.11040285, 0.067649834, 0.019102903, 0.04386737, -0.09887171, 0.004947872, -0.17472795, -0.0467192, -0.024804179, -0.2362309, -0.11036125, 0.049675953, -0.1296255, 0.027605385, -0.11565828, -0.1761092, 0.0033810625, 0.025732717, 0.1569678, -0.0032433695, -0.085438594, -0.07698381, 0.06141155, -0.08617938, 0.034873206, -0.013043042, -0.18250765, 0.15298061, -0.09907899, -0.054157972, 0.02086301, -0.029282596, -0.06850297, 0.11111926, 0.1359391, -0.21038455, -0.07391482, -0.12988451, -0.19375634, -0.054624725, -0.072210215, 0.024355235, 0.18413778, 0.022730539, 0.08467797, 0.051890153, -0.06727931, 0.114517875, -0.038617115, 0.060181454, 0.02957982, 0.19904162, 0.009102896, -0.18112424, 0.11432679, 0.061380085, 0.09133952, 0.18753798, -0.08700617, -0.07170186, -0.08075253, -0.18924838, -0.07390217, -0.18173786, 0.09261051, -0.03709731, 0.051013984, 0.00084407127, 0.032944206, 0.012948807, -0.27420965, 0.0020571493, 0.038035646, -0.37858188, -0.021625312, 0.2005766, -0.33135086, 0.20711744, -0.1664236, 0.10939555, -0.11729592, -0.014035696, 0.312545, 0.0683723, 0.09719807, 0.4217801, -0.12605353, -0.2626826, 0.0057286653, 0.21412595, -0.35033026, -0.11821346, -0.3449444, 0.031724516, 0.07490673, 0.020097695, -0.21878928, 0.038445204, 0.03540068, -0.14806649, 0.0756476, -0.061060503, 0.17570995, 0.02879769, -0.11319058, -0.12734982, 0.1666634, 0.03444516, 0.019262338, -0.050927166, 0.064468265, 0.08913562, -0.030831065, 0.057794575, 0.04125101, 0.12937163, 0.09948764, 0.041013464, 0.29425868, 0.043927833, 0.30256894, -0.15301114, -0.024825668, -0.016104696, -0.24310793, -0.011836055, -0.039514985, 0.23841633, -0.028704163, -0.101153955, 0.067113936, -0.0399717, 0.31560373, -0.0074926065, -0.06511635, -0.11241145, -0.061437275, 0.035415534, 0.09843707, -0.028322225, 0.10542806, -0.06471237, 0.11048013, -0.05463979, -0.042474944, 0.004661549, 0.104979984, -0.035251595, 0.11468782, 0.12839815, 0.07009391, 0.19504811, -0.017027684, 0.1598834, -0.22527847, 0.097428605, -0.10851804, 0.053143147, -0.014424641, 0.06827703, -0.05034214, -0.30674562, -0.025166119, -0.30099145, 0.044001885, 0.056107488, -0.09553067, -0.093059234, 0.017641487, -0.17869775, -0.03208146, -0.049122013, -0.07710526, -0.002685539, -0.03146678, 0.18189387, 0.0411313, 0.05824018, 0.07189652, -0.030502493, -0.006899399, 0.06577386, 0.09799487, 0.01210922, 0.13880882, -0.14021556, 0.07417532, -0.04656481, 0.026187634, -0.016454287, 0.06293945, -0.17990793, -0.040076714, -0.011206727, -0.10724386, 0.025685256, 0.06594669, -0.007574446, -0.39541936, 0.034105357, 0.0046557267, -0.11267611, 0.08733058, -0.23887327, 0.1393098, 0.121944174, 0.040820997, 0.19614859, -0.12579584, -0.2034318, 0.029463995, 0.028637154, -0.14108346, 0.2016902, -0.11532787, 0.036032405, 0.01010408, 0.07196199, 0.21043938, -0.1102592, -0.027673922, -0.20358174, 0.030422548, 0.07211985, -0.21879894, -0.22568135, 0.16942564, 0.021131933, 0.069972344, 0.031318605, -0.102254294, 0.027185127, -0.04591309, -0.027208332, 0.023278126, 0.12104757, 0.004228052, 0.020320991, 0.049905375, 0.13329175, -0.0062965453, -0.048499882, 0.067998536, -0.08215289, 0.030516613, -0.03937157, 0.16037263, 0.07331772, 0.18686746, -0.08547799, 0.049323462, 0.042256612, 0.17714494, -0.020298338, -0.0050531253, 0.027481064, 0.009563526, 0.007587381, -0.055195652, -0.042296607, 0.20547934, -0.026697954, -0.22152472, 0.0004987818, 0.013118029, 0.059558168, -0.007888926, -0.2642361, -0.0061495434, 0.08287612, 0.0841125, 0.077572815, 0.06998137, -0.04696154, -0.056195024, 0.019230748, 0.19863945, 0.22252336, 0.08876355, 0.07660832, -0.036852926, 0.009011332, 0.13459589, 0.0022591865, -0.26105025, 0.0285825, 0.07386229, -0.032803692, -0.08374367, 0.11449565, -0.1463826, 0.074285604, -0.022064168, -0.06571048, -0.05173503, 0.0030206367, 0.04674313, -0.036032278, 0.048208192, 0.04707729, 0.045176893, -0.08834721, 0.004876667, 0.036525626, -0.020301811, 0.042317793, 0.10119699, -0.05671379, 0.03146126, 0.06841135, 0.20681703, 0.057034, -0.19975182, 0.040091574, -0.029155523, -0.02319256, 0.29097208, -0.07534344, -0.03776879, -0.22801274, -0.016045127, 0.14850838, -0.025213312, -0.07145975, 0.1862425, 0.029213024, -0.1312541, 0.08984593, 0.024437316, 0.16711123, -0.094115674, -0.26757172, 0.09410896, -0.008014551, -0.014123696, 0.120573744, 0.13523951, 0.012496681, -0.1459076, 0.060964894, -0.023856265, 0.17235163, 0.10232719, 0.16258466, 0.07944177, 0.045063045, -0.053530343, -0.23541988, -0.048186447, -0.16556408, 0.012754974, -0.043202464, -0.022258505, 0.009519015, -0.026995745, 0.2131439, -0.10097524, -0.019902274, -0.43190104, 0.035396837, 0.06514891, 0.00535654, -0.19559129, -0.051054217, -0.08992268, -0.01578027, -0.041474406, 0.022364004, -0.0483376, -0.0091145905, 0.12940611, 0.08786711, 0.018672448, 0.13032198, -0.009467826, -0.051180176, 0.059636183, -0.08042879, 0.09158581, -0.036296654, 0.02164985, 0.13201344, 0.07081555, -0.07429289, 0.10461982, 0.025792941, -0.057968184, -0.08640284, 0.1918393, 0.041215446, 0.06485671, -0.17910399, -0.0003210291, -0.032159913, 0.049691327, 0.0509662, 0.12528646, -0.04583766, 0.042985283, 0.12299707, 0.048071135, -0.026271777, 0.14857145, 0.005218081, 0.1121295, 0.08134017, -0.052995805, -0.027659608, -0.026598908, 0.109541595, -0.28298467, 0.09896487, 0.005896573, -0.002002228, -0.009336606, 0.07726761, -0.092216305, -0.3254808, -0.08780086, -0.024867726, -0.028135374, 0.07181505, -0.12540552, -0.056875534, 0.13370174, -0.14278266, -0.047222707, 0.05501836, -0.04144298, 0.07334082, -0.006155185, 0.11607188, 0.050999373, 0.017933432, -0.04691527, 0.15065956, -0.037697583, 0.14104687, -0.10277848, 0.054760844, -0.00190549, 0.006366237, -0.013701769, -0.03878489, 0.23194985, 0.085767224, -0.06705411, -0.021068607, 0.0097970255, 0.03823308, -0.09212125, 0.006553548, 0.09480934, -0.02832494, 0.14317495, -0.18142167, -0.002850506, 0.042645603, 0.10290296, -0.09707081, -0.06546, 0.11517696, 0.11677044, -0.13844112, -0.040792808, -0.07646525, 0.067941345, -0.079057366, 0.12784992, -0.020201817, 0.1377227, -0.04930727, -0.05345854, 0.25689977, -0.044761088, 0.050956547, 0.07030387, -0.07342876, 0.057985526, 0.22647399, -0.027409337, -0.049844872, 0.07660473, 0.104902, -0.03425312, 0.04823323, -0.0041038184, 0.011703417, 0.027112018, -0.11593373, -0.05935833, 0.07303795, 0.011356013, 0.102845475, 0.03325837, 0.22094816, 0.007919969, -0.046991505, -0.04906216, 0.2389134, 0.045580767, 0.05232265, -0.18112104, -0.028009959, 0.14921664, -0.12818195, 0.0032186883, -0.049521513, 0.3066893, 0.035527367, -0.07343569, -0.09414891, 0.0065117665, 0.13884145, -0.0026796947, -0.013297786, 0.07149142, -0.019697985, 0.10531475, -0.14509872, 0.046713647, -0.18298468, 0.032317493, -0.021060012, -0.010437852, -0.022149172, -0.036735196, 0.12236605, -0.22985737, -0.109636925, -0.124491505, -0.026357079, 0.15012817, 0.0004844732, 0.29207322, 0.08377516, 0.056785006, -0.049588796, 0.06700788, -0.05619667, 0.09772599, 0.044815216, -0.03191574, 0.030083807, -0.28092182, -0.072479345, 0.06522536, -0.124674976, -0.12400973, 0.046926863, -0.084789135, 0.009207034, -0.14962047, 0.10376323, -0.19165736, 0.03156719, 0.15313907, 0.069261216, 0.039623886, 0.003120583, -0.028958485, 0.07774503, -0.027922466, 0.16644813, -0.11325483, 0.12441067, -0.028762221, -0.016257888, 0.0053184, -0.053716168, 0.004660062, -0.017402157, 0.40309468, 0.00076426286, -0.02339805, -0.00909606, 0.061263494, -0.057672907, 0.07012196, -0.04860845, 0.12970759, 0.020794993, 0.20538571, 0.09095245, -0.07441443, -0.11182342, -0.0696894, -0.19931401, 0.044902343, 0.048194777, -0.16421504, 0.006459425, -0.096735716, -0.032908767, 0.020227952, 0.03788112, 0.06419602, 0.038450897, 0.35295948, 0.31892902, -0.06278393, -0.021982994, -0.32058245, -0.14864711, 0.23498301, -0.08241193, 0.056154165, 0.0024706102, -0.4624524, 0.0444396, -0.05598878, -0.049021795, 0.030445345, -0.06462331, -0.048213955, -0.072950386, -0.18721232, -0.045763936, -0.07384279, -0.010362906, 0.27325216, 0.07826846, 0.0064764097, 0.11533415, -0.030626949, -0.074526586, 0.041025575, -0.049249485, -0.041805997, -0.06487122, -0.049203083, 0.045958154, 0.047420006, -0.07066097, 0.031284634, -0.03667178, 0.11749136, 0.23980331, -0.064971834, 0.13564353, 0.07260726, -0.06202798, -0.0021960437, 0.020332992, -0.18921344, 0.01309173, -0.08282816, -0.30616593, -0.01950829, -0.07156348, 0.12566954, 0.07006385, 0.24612534, 0.025356617, 0.041006617, 0.013354251, -0.10258526, 0.07179329, 0.14588062, -0.03195734, 0.19149028, 0.005299882, 0.21844503, -0.09488156, 0.03719735, 0.08340634, -0.34961423, 0.08269238, 0.07161182, 0.09297244, 0.07722906, 0.08180564, -0.017729072, -0.092014864, 0.014218237, -0.055339117, -0.17703904, 0.014571774, -0.19882551, -0.010070302, -0.06645579, 0.05126337, -0.06496639, -0.05735488, 0.031411767, 0.03327558, 0.0062241238, -0.073926605, 0.006258193, 0.058780868, -0.069002435, 0.11430062, 0.024359873, -0.0038401266, -0.25571224, -0.020509318, -0.1983382, 0.018274026, -0.06802273, -0.024882242, 0.05058834, -0.017022546, -0.017456282, 0.009276358, -0.018770967, 0.37889823, -0.0019891814, 0.037678592, -0.10013826, -0.033949062, -0.010628666, -0.12424095, -0.04934756, -0.1378721, 0.1046017, 0.033227284, -0.059153445, -0.06287162, -0.013004756, -0.018926855, -0.04109354, -0.06367265, -0.012188925, -0.023329608, -0.11892445, -0.105037555, 0.08252934, 0.060438152, 0.028789675, 0.22840048, -0.02558871, 0.11956609, 0.12340099, -0.022384388, 0.022477657, 0.034024093, 0.11893226, 0.015901702, -0.13244827, 0.06399843, 0.25425577, 0.032527797, -0.12021201, -0.055009015, -0.19780393, -0.07391027, -0.10034188, -0.035185035, 0.2564149, 0.04473063, -0.045533374, 0.022753613, 0.038454343, 0.0609286, -0.029338697, 0.28746977, 0.014989686, -0.025481276, -0.055634398, 0.015320256, -0.13133375, -0.10266882, 0.028409213, -0.08025667, 0.07143867, -3.7767313e-05, 0.029976012, 0.09114846, -0.0238481, 0.06742523, -0.13236995, -0.11814389, -0.112570636, 0.012403019, 0.15649198, 0.014640813, 0.06592006, -0.07623235, 0.01904034, 0.048486087, -0.19155906, -0.072730936, -0.13848916, -0.06846194, -0.1388511, 0.17884, -0.13761057, 0.045497168, -0.03708954, -0.024828296, 0.09375172, -0.11462815, 0.019805748, -0.019136557, -0.12158993, 0.16358101, 0.13138938, -0.07158352, -0.032926407, -0.1092077, -0.077955924, -0.024658684, 0.22389787, -0.055607714, -0.083385006, -0.015298097, -0.25857332, 0.012781329, -0.28230485, 0.059027005, -0.14187992, 0.062333222, 0.42345157, 0.009182783, -0.018925924, -0.00020239357, 0.03728372, -0.03210139, 0.05576659, 0.08128538, -0.10398629, 0.092025325, 0.10296566, -0.066886425, -0.24974132, 0.047922354, 0.02095261, 0.05665884, 0.27402395, 0.1278605, 0.053283736, 0.1376732, -0.020825341, 0.10512896, -0.057287596, -0.08901711, 0.087413155, -0.0015479919, 0.0550322, 0.15834509, -0.055497777, 0.14853263, -0.118897356, 0.104027584, -0.14048281, -0.05216808, -0.1742015, 0.038377423, -0.15157373, -0.10819438, 0.041591726, -0.027470766, -0.09619276, -0.026683, 0.21007107, -0.093570575, 0.06436334, 0.014929674, -0.3661777, 0.06441598, 0.012549583, -0.21504271, 0.0051020314, -0.22135077, -0.2248302, -0.08914248, 0.25119328, -0.13399328, 0.0012788016, 0.051517054, -0.1559967, -0.0076847, -0.18259655, 0.07570795, -0.22821027, 0.080168836, 0.34168407, -0.048054248, 0.009484809, -0.30245724, 0.024386726, 0.085895516, 0.10285634, -0.1858212, -0.0063217925, -0.016094826, -0.06863164, 0.05402322, -0.20528148, 0.07715791, -0.018403478, 0.026765265, -0.12551555, 0.251044, 0.049823113, 0.20776519, -0.016798144, -0.116327085, 0.09781094, -0.075127296, -0.23411986, 0.040760957, -0.064904384, -0.1514424, -0.05838629, 0.038505465, -0.13438487, 0.23077942, 0.06530945, 0.14782305, -0.2467852, 0.0004843048, 0.44486293, 0.14407653, -0.010241397, 0.029463295, -0.2568592, -0.17718104, 0.075578794, -0.04389697, -0.007396841, -0.16047454, -0.03694807, 0.12917791, 0.41590658, 0.080510825, -0.04489964, 0.022083465, -0.13736679, -0.0010068126, 0.1146026, -0.08742039, -0.014012251, 0.14348805, -0.24733967, -0.057463758, -0.15229714, -0.04593882, -0.025166035, 0.060940366, -0.024720307, 0.06854508, 0.044339254, -0.07866789, 0.034060642, 0.055003293, 0.108955994, 0.058828898, -0.041656554, -0.035881698, -0.05013738, 0.06083621, -0.2672873, 0.097026415, -0.005556125, -0.008639942, -0.23792957, -0.025607938, -0.017399663, -0.030473392, 0.106351055, -0.039241374, -0.009430419, 0.010812531, -0.021197751, 0.03777397, 0.05290969, 0.08042406, -0.008704171, -0.2757746, 0.05756135, -0.04187826, 0.022235448, 0.114428565, -0.17950547, 0.092773356, 0.088575, -0.00037180848, 0.05007106, 0.009569166, 0.053373672, -0.23939042, 0.05101462, -0.14702594, 0.060666926, 0.11313689, -0.16346, 0.14621769, 0.09887064, -0.0027627957, 0.011603393, -0.11034236, -0.19966042, -0.0482196, -0.060122702, 0.047043733, -0.03471293, 0.16855738, -0.23677349, -0.03422633, -0.114733405, -0.12577052, 0.08521106, -0.06839598, 0.20875202, -0.0037319188, -0.0503771, -0.10708587, 0.052862883, 0.03072509, -0.05631857, -0.09603798, 0.072826445, -0.22900766, -0.1512891, -0.007269577, 0.03717064, -0.0024526138, 0.05312325, 0.022957027, -0.103882894, 0.20248273, -0.058913585, -0.040831983, 0.08206275, -0.19612372, -0.04242683, -0.088031046, -0.06947895, 0.041887857, 0.024161719, 0.15079485, 0.036592677, -0.32496896, 0.06635588, 0.14956085, 0.007917592, 0.13243398, -0.22371107, 0.13164343, -0.058471665, 0.27600992, 0.007385037, -0.027504828, 0.022300752, -0.09622133, -0.1511453, -0.15871517, 0.0030717368, -0.102821656, -0.17299736, 0.12700297, 0.041155368, -0.07610606, -0.006392554, 0.11563899, -0.28748345, 0.05905307, -0.24138466, 0.05928122, -0.18864278, -0.033687476, -0.069373585, 0.000113770366, -0.25346553, 0.0026151275, 0.052975412, 0.0665458, 0.14262636, 0.094046004, 0.0061469073, -0.04734198, -0.048664104, -0.064722665, 0.036614757, -0.050427046, 0.03404055, -0.017403271, -0.19025654, 0.041982777, -0.31901008, -0.044873584, -0.0077791214, -0.07301326, -0.14988329, 0.34767768, 0.024637641, 0.007445138, -0.04935193, -0.012143044, -0.01978926, 0.017513989, -0.01691403, 0.019077187, -0.056837194, -0.14650294, 0.021919873, 0.12896433, 0.17771077, -0.09190263, -0.04737639, 0.14664745, -0.3470264, -0.067735136, 0.08936708, 0.12896909, 0.34630275, 0.006340043, -0.36215, -0.2159538, 0.10596391, 0.05099741, -0.05995585, -0.15258886, -0.24915622, 0.118315324, 0.35462594, -0.014433225, 0.02845419, -0.28647184, 0.03513839, 0.23115739, -0.206874, -0.0023256184, -0.04270297, -0.11898892, -0.025517594, -0.03319227, 0.14339048, -0.053893518, -0.22324, 0.0071643344, 0.24562927, -0.021972902, 0.06828347, -0.07205831, 0.0114497235, 0.071103156, -0.08651917, 0.021401148, 0.054684415, 0.058004774, -0.024196975, 0.07160053, -0.09260222, 0.00088170357, -0.06313756, 0.07037526, 0.024218753, -0.057248905, -0.026154466, -0.06583668, 0.06201446, -0.08987108, -0.018311793, 0.032527797, -0.07770058, 0.070528895, 0.015360255, -0.022689134, 0.026473708, -0.031210471, -0.06544262, -0.08602555, -0.07588933, -0.027847337, -0.0100682415, -0.03706976, -0.03496982, -0.035561733, 0.024135215, -0.06504636, 0.0445838, 0.012285652, 0.0066707097, -0.046165366, -0.014433017, -0.029028982, 0.038763046, -0.025126519, 0.02628932, -0.07081607, 0.026664866, -0.050271157, -0.00012809929, -0.04560032, 0.0069939964, 0.020968668, 0.028108317, 0.053329423, -0.037710086, -0.04353214, -0.06793046, -0.053704586, -0.0016030349, -0.027746644, -0.03342314, -0.02157441, 0.067832634, -0.08109496, 0.031121517, 0.06289077, 0.041205272, 0.0061232033, -0.038334455, -0.06510622, 0.05459276, 0.027521316, -0.0152936345, -0.06659971, 0.06428932, -0.068819985, 0.0072430763, 0.042462673, 0.05510877, 0.038242098, -0.04930994, -0.08633483, -0.07068518, -0.06643021, 0.053577606, 0.035692897, 0.043940846, -0.013569622, -0.040454, 0.01800108, -0.04550406, 0.056800462, -0.029799877, 0.050145954, 0.03149234, 0.0063405554, -0.013323705, -0.09456697, -0.0019603483, 0.031864543, -0.073181026, 0.03593297, 0.018942202, 0.048758157, -0.07301998, -0.04625222, -0.028277276, 0.027974423, -0.02193285, 0.06012312, 0.009401862, 0.06230516, 0.027048085, -0.041125096, -0.036071908, -0.061582744, -0.07023378, -0.040015936, 0.066016674, 0.06262419, 0.03642668, -0.034446813, -0.05475981, 0.00089402497, 0.022360895, -0.026552817, 0.0168619, -0.09097729, 0.06168379, -0.047722634, -0.016131345, -0.081150934, 0.022483878, -0.07911681, -0.054978646, -0.0042194915, 0.014411387, -0.03545835, -0.022680635, 0.07484114, -0.07459036, -0.011414637, -0.059605893, -0.09629949, 0.027596042, 0.031192098, 0.07234335, -0.045908168, 0.030251898, -0.039635148, 0.028243065, 0.056545727, 0.048832126, 0.04330676, -0.034501985, 0.026286125, -0.017244574, -0.030622553, -0.06352778, 0.056372803, 0.031065078, -0.014663171, 0.043561578, 0.07782583, 0.02172114, 0.0107108895, 0.052017257, -0.008240647, -0.028472569, -0.046323787, 0.01821644, -0.06313965, -0.07522393, -0.052387424, 0.053384904, 0.074430525, 0.005255974, 0.028825402, -0.08523067, 0.02803972, -0.07987554, 0.06290129, -0.034726385, 0.02963561, 0.06222558, -0.0693494, 0.026168993, -0.0004433915, -0.047441773, -0.011467224, -0.0313055, -0.06803653, 0.060136873, -0.0047490792, 0.006526889, 0.007352466, -0.029914055, 0.04381799, 0.030796582, -0.07978728, -0.03351317, -0.029052166, -0.063862465, 0.05018954, -0.0469553, -0.005197369, -0.030052662, -0.035820745, -0.029470958, -0.0552189, 0.019723581, 0.0764554, 0.017046947, -0.043165624, -0.0066764266, -0.042554364, 0.03627102, -0.058827274, 0.003847841, -0.063908875, -0.022028295, -0.046624895, 0.04755183, -0.036988802, -0.08871803, -0.028034618, 0.020529347, 0.05880342, -0.0673424, 0.012652938, 0.025358645, 0.04615506, 0.014338928, 0.05690549, -0.008260238, -0.030408347, 0.04197449, 0.05851739, 0.048322327, -0.048620313, -0.0068826093, 0.014268442, -1.9258163e-05, 0.017405, 0.03252938, -0.0061685666, 0.032063227, -0.026309734, 0.052772574, 0.046490874, -0.05161217, 0.057518408, -0.036505055, 0.03853688, -0.069516994, 0.01809388, -0.067549795, -0.010230522, -0.06832434, -0.01202601, 0.06832008, 0.026835464, -0.058284905, 0.048131406, -0.0006423328, -0.088699, -0.017787766, -0.050777066, -0.069779836, 0.037990812, -0.0589258, 0.036293197, 0.020776525, -0.07082852, -0.019983483, -0.07149231, -0.032286815, 0.009702616, -0.033366952, 0.026395384, 0.010068923, -0.031838715, -0.042336047, -0.026581964, 0.026082963, 0.019214509, -0.046794035, -0.022539236, -0.0014366985, -0.06823672, -0.012725655, -0.06270642, 0.02565732, -0.04964859, 0.034370385, -0.025422618, -0.041994315, 0.016298873, -0.06959041, 0.024407944, -0.055060856, -0.08343956, -0.044779293, 0.0019085971, 0.013902121, 0.01176381, -0.0759372, 0.03897736, -0.05714357, -0.01571393, -0.023826065, 0.064582415, -0.024265101, -0.0045149443, -0.0080259, -0.016927961, -0.10176772, -0.08112309, 0.046097025, -0.061855447, 0.07098117, 0.05804773, 0.011516902, -0.013894679, 0.016173456, -0.044400822, 0.0028650812, 0.045704085, -0.07336441, -0.0064024483, 0.036596335, 0.020084048, 0.021722585, 0.01763295, -0.055119816, -0.07002982, 0.019314285, -0.037513457, -0.024406815, -0.047556587, 0.012619506, 0.076908365, 0.043760967, -0.03862267, -0.020760734, -0.041387394, 0.026788916, -0.060515802, -0.069263496, -0.025059167, 0.024038326, 0.033915814, -0.0566426, -0.04110102, 0.0009567108, -0.005655526, 0.02599412, 0.015605811, 0.0031016099, 0.013270289, -0.055378757, 0.03269256, 0.005869204, 0.0043400642, 0.011706379, 0.0048116776, 0.037865777, 0.02717787, 0.017709019, -0.044194967, -0.031745743, -0.072005205, -0.04979785, -0.066328615, -0.045651954, -0.009595874, -0.056129504, -0.07516074, -0.027341928, 0.03953848, -0.10032287, -0.053316608, -0.047437236, -0.013050281, -0.07936505, -0.018934011, -0.013248243, -0.06254395, -0.011380235, -0.0077553885, -0.044163864, 0.05603411, -0.017314116, -0.04805736, 0.024089454, -0.028723635, -0.024264252, -0.019155525, -0.023744594, 0.031087436, 0.01881732, -0.04652837, -0.022342725, 0.063805655, -0.093173966, -0.03014986, -0.01166864, -0.052179348, -0.018924022, 0.06521241, -0.062681034, 0.03465881, -0.06239987, 0.0072627934, 0.0029083833, 0.06970041, 0.0076722265, -0.015278608, 0.039517075, -0.054555256, 0.029817717, 0.022377318, 0.020198107, -0.0690227, 0.05905403, -0.027328346, 0.015201935, -0.085099876, 0.05844852, 0.07782019, -0.06017902, 0.033001207, -0.016414383, 0.024389023, -0.027078366, 0.036630433, -0.021578353, 0.046469398, 0.04117622, -0.06607296, -0.07376823, 0.05011365, 0.018086754, -0.012868665, -0.08065267, -0.07315628, 0.010953084, -0.10672702, -0.071679346, -0.02003363, -0.052638892, 0.05158641, 0.035013944, 0.02578648, -0.047219638, -0.028121967, -0.03058764, -0.058674622, 0.037062958, 0.0702638, -0.041711044, -0.051712662, 0.039984316, -0.050498467, -0.039316934, -0.02813829, 0.053590316, 0.017938115, 0.02384663, -0.010149977, 0.036400266, -0.028523743, -0.05390136, 0.018912217, -0.08251563, -0.004115738, -0.06849657, -0.013006341, -0.017283415, 0.013102916, 0.002512746, -0.047373436, -0.059285507, 0.011608237, -0.0036219994, -0.06294996, 0.060715362, 0.017928993, -0.020996736, -0.027855102, 0.0007716258, -0.016809573, 0.034729436, 0.046930883, -0.034194876, 0.04509607, -0.03938993, -0.024576334, -0.060981054, -0.068812445, -0.052373223, -0.05238179, -0.0017755523, -0.0051574903, -0.001909045, 0.021945888, -0.041477136, 0.016041707, -0.07199681, -0.06780057, -0.0030445904, -0.07593587, 0.061440807, 0.054247815, -0.046462785, -0.08978869, -0.04695434, 0.024099985, -0.013212951, 0.036116462, 0.04721811, -0.059433565, 0.018593602, 0.029366795, 0.0031323219, 0.034909815, 0.01821056, 0.03527535, 0.017838925, -0.016648853, -0.061946586, -0.060892142, 0.029781649, 0.020353047, 0.017119212, 0.0015702662, -0.07197708, 0.013958243, -0.060787596, -0.021641994, -0.09712009, 0.058776185, 0.041143343, -0.008777179, 0.035100482, -0.083825536, -0.07270605, -0.05546662, -0.01400705, -0.06304852, -0.05491254, -0.0021952065, -0.05023051, -0.044898003, 0.014264119, -0.021295516, -0.0418031, -0.02522651, 0.06585684, -0.026411807, -0.06038301, -0.013791086, -0.042701498, 0.008732234, 0.0064682644, -0.06381639, -0.01189788, -0.02702893, 0.053110987, -0.0404662, 0.017150458, -0.044665754, -0.041648567, -0.04298827, -0.033867665, -0.10976912, -0.04243644, -0.015118208, -0.037203763, -0.07802986, 0.0329765, 0.047919437, 0.024433171, -0.009114894, 0.038161375, -0.08345653, -0.013981973, -0.05388196, -0.06395425, 0.025004772, -0.053381942, -0.011885453, -0.035070922, -0.0364436, 0.0394284, -0.015317652, 0.04304962, 0.061511457, 0.014389001, -0.035223812, -0.010581255, -0.060429376, 0.016506756, 0.035422236, -0.10700635, -0.043025862, -0.06621486, -0.022736395, -0.043903302, -0.0125068, 0.038355146, 0.023687169, -0.00022865339, -0.082293555, -0.08187158, 0.044572227, 0.007768497, 0.020006418, -0.059467062, -0.0662401, -0.009224692, -0.079630025, -0.029367365, 0.06361383, 0.012752749, 0.009079243, -0.020397991, 0.041752327, -0.07681156, 0.034779727, -0.033123758, -0.03675127, 0.027641723, 0.03695294, -0.09577964, -0.007724382, -0.09547975, -0.08501617, -0.011824825, 0.011847194, -0.05910722, -0.032955904, -0.00778641, -0.017233727, -0.06450989, 0.033449415, -0.04550097, 0.020609843, 0.03871298, -0.017662063, 0.004251777, 0.045004934, 0.048131056, 0.027416619, -0.025141373, -0.012296165, 0.06835368, -0.028252095, 0.059980936, 0.0005626157, -0.0844, 0.0113699725, -0.07831716, -0.035997428, -0.00719177, -0.021732626, 0.042510152, 0.0020456696, 0.018329516, -0.048588227, 0.04825057, 0.00037651902, 0.02424098, 0.041811857, -0.06467452, -0.009968444, -0.00061067985, -0.020893423, -0.01486969, -0.0826981, -0.06332212, -0.07624447, 0.020681955, -0.0033759843, -0.0036011583, 0.062259242, -0.045465846, -0.03365981, -0.03471568, -0.00024147247, 0.025652912, 0.002217054, 0.037937447, -0.0041058436, 0.067120455, 0.014560735, -0.043503635, 0.05398076, 0.03930993, 0.02179043, 0.02422223, -0.05400692, 0.055427924, 0.015763057, -0.04829733, -0.06468838, -0.064361304, -0.049612395, 0.053991124, 0.05471139, -0.096538275, -0.022278562, -0.07005926, -0.0012771115, -0.011159181, 0.00942231, -0.052418146, -0.043310557, 0.055508733, -0.07456689, -0.06246444, -0.08073802, 0.033790577, -0.009316079, 0.0040718834, 0.016218888, 0.017701989, 0.049557265, 0.050186124, 0.07120031, 0.00074542547, 0.031106254, -0.03064566, -0.0056651775, 0.012634525, 0.048126522, -0.052718326, 0.030275118, -0.046796035, 0.05387587, -0.054452546, 0.062003054, -0.043137122, -0.015353964, 0.06997736, 0.053285602, 0.059293617, 0.032218173, 0.024130654, -0.074281484, -0.03536957, -0.014611533, 0.016611397, -0.065650076, 0.026523568, -0.073789455, -0.012463571, 0.042268008, -0.023316888, -0.06144088, 0.06300057, -0.0489384, -0.058732983, 0.054317877, -0.041081134, -0.025056677, 0.061582103, -0.07416735, -0.06972099, -0.019939404, -0.011566651, -0.02823857, 0.026872115, 0.007450054, 0.01432955, -0.03934507, -0.066765234, -0.065486185, 0.045978453, 0.014275113, -0.07350657, -0.057073712, -0.009582616, -0.04264764, 0.00940606, -0.12672168, 0.07580547, 0.006051287, -0.025247324, 0.016550466, -0.05738717, -0.059010908, -0.004171297, 0.054688994, -0.02533292, -0.0042220457, -0.075563416, -0.046688292, 0.0222685, 0.039167862, -0.06670964, -0.09207426, 0.0317041, 0.051456887, -0.029448666, 0.026920635, -0.025718682, -0.036223557, -0.014693739, -0.056051448, -0.07470341, -0.03221312, -0.014576554, 0.026557399, 0.018228954, 0.0048462055, -0.051435985, 0.03443519, -0.010852161, 0.040294193, -0.08888268, 0.04675194, 0.036004994, -0.07351462, -0.021869754, 0.028304027, -0.03171419, -0.049773954, 0.059335142, 0.04046702, -0.06411465, -0.032480024, -0.058511235, 0.054118957, -0.024257526, 0.020495238, -0.05366507, 0.03685461, -0.07241891, 0.0717176, -0.010232662, 0.021413626, 0.0099072615, 0.008118561, -0.029565236, -0.073593736, -0.049472757, -0.08049754, 0.023943193, -0.021322925, -0.05929824, -0.031737242, 0.04018161, -0.046627462, -0.08072509, 0.010036872, -0.04262078, 0.039834995, -0.026999705, 0.03619309, -0.049295507, -0.034816664, -0.064844236, -0.07292604, -0.006535651, 0.011025087, -0.02049545, 0.044330567, 0.015734576, -0.016752096, -0.0025407937, -0.056147635, 0.0069934516, 0.063774325, 0.070858784, -0.03228882, 0.05018984, 0.044291984, 0.054297548, 0.05996522, 0.06628212, -0.005987873, -0.06184984, -0.024890123, -0.008837437, 0.057771653, -0.021826403, -0.055580042, -0.042129252, -0.058185786, 0.038159955, -0.038458727, -0.021368371, -0.0028995278, 0.058470488, -0.081060015, 0.043875102, -0.030989949, -0.00021999213, -0.011329742, 0.019346334, -0.070086144, -0.056849286, -0.015922587, -0.021645984, -0.03282061, 0.012098918, 0.049236152, 0.06749898, -0.0025496304, -0.0705372, -0.051899534, -0.01762104, -0.060681, -0.042876787, 0.03692572, 0.0583993, -0.035437897, 0.014019636, 0.010731632, 0.05105497, -0.036216155, 0.032446112, -0.021940846, -0.11317759, 0.027526224, -0.01900661, -0.008073962, -0.0060209827, 0.017175492, -0.030236173, -0.015069387, -0.013856613, -0.0068078507, -0.07635658, 0.048118196, -0.013471794, -0.02594205, -0.02336503, -0.066222265, 0.021540754, 0.05421704, 0.048085947, 0.053098958, 0.04729621, -0.07358317, -0.06743945, -0.010751876, -0.039711207, -0.016981162, 0.028614523, -0.001031587, 0.00058298645, -0.04206062, 0.03694531, 0.0633409, -0.08895516, 0.06061148, -0.030554108, -0.07776967, -0.044801682, 0.046465103, 0.039103065, -0.003067409, -0.04863023, -0.04640017, -0.08649869, 0.07003345, 0.042602528, -0.04594857, 0.050858468, 0.008833481, 0.012345995, -0.0019691752, -0.07025946, -0.098167785, 0.031088218, 0.018780105, 0.021188112, 0.06769417, -0.0694085, 0.0484838, 0.004654243, -0.06551631, -0.031836372, 0.024659459, -0.07513144, 0.020822363, -0.10481624, -0.019994764, -0.085728586, -0.06300373, -0.07763607, -0.079795904, -0.029973948, -0.012766121, -0.07327295, 0.035882965, -0.07272706, -0.046566166, 0.014861999, -0.07023886, 0.046109214, 0.007486007, -0.036851916, 0.05031357, 0.00052522036, 0.054527745, -0.0682141, -0.065727256, -0.003657324, -0.060611732, -0.06270496, -0.049624126, -0.0063849874, 0.056542028, -0.044810846, 0.0019065553, -0.06147647, 0.01118283, -0.100092836, -0.016274638, 0.036064915, 0.030142142, 0.057268884, -0.006116834, 0.020326946, -0.076726064, 0.010146816, -0.026955888, -0.02926152, -0.05527343, 0.060074795, -0.0795598, -0.027790815, -0.05909462, 0.053593714, -0.06065584, 0.07416582, -0.030622637, 0.01095886, 0.027559845, -0.06695064, -0.07281066, -0.032764167, 0.004943311, 0.002082721, -0.010982386, 0.027459629, -0.05745882, -0.003636593, 0.029723657, -0.03694368, -0.047617175, -0.0306012, 0.008772883, -0.11235785, 0.028620481, -0.029869977, -0.010667512, 0.034886524, -0.007953245, 0.014109109, -0.06306274, -0.0030574102, -0.05859715, 0.07322756, -0.048088934, 0.029783625, -0.008578273, -0.043630794, 0.067941, 0.023890287, -0.028070677, -0.033794735, 0.04856323, 0.051881168, 0.011013016, 0.035066705, -0.002554737, -0.030798314, -0.035705682, 0.0015354246, 0.00023710728, 0.031672917, 0.027125789, -0.05035626, -0.09274965, -0.05250458, -0.068374515, 0.04958092, 0.009254059, -0.04867644, -0.015284944, 0.062113855, -0.04152518, -0.08441678, -0.056531247, 0.0052377293, 0.05930438, 0.020850722, 0.04118865, -0.05630146, 0.05107443, -0.07773721, -0.019253967, -0.0050533502, 0.011059299, 0.03836597, -0.047758695, 0.05326518, 0.021958277, 0.04909335, 0.013157534, -0.059850123, 0.0245059, 0.040694807, 0.024178747, 0.027209504, -0.063156344, -0.044875156, 0.04563975, -0.068966046, 0.009800045, 0.04953168, -0.04902441, -0.09489528, -0.083990194, -0.029274054, -0.06499281, -0.035934042, -0.003512297, 0.026607765, -0.08049217, -0.06279902, -0.038288053, 0.019350197, -0.030009149, -0.028313948, 0.00884763, -0.030228088, -0.044659447, -0.06477799, 0.042406335, -0.061552826, -0.089213215, -0.09527154, -0.014983341, 0.08330676, -0.079560034, 0.029595211, -0.09497853, 0.06547562, -0.04012136, -0.0441317, -0.06684392, 0.058812752, 0.018134758, -0.06302436, 0.023697414, -0.08837599, 0.023444895, 0.02627146, -0.052412298, -0.09080364, -0.082078, -0.056465268, 0.008837126, -0.048007507, 0.03391525, -0.0125810625, 0.0036535785, -0.007795592, -0.013781954, -0.015346264, 0.046239547, -0.06415955, 0.027056897, -0.060488123, -0.060150627, 0.028127309, 0.044731136, 0.039746672, -0.014190582, 0.004778991, 0.06292789, -0.05734089, -0.02011902, -0.05610888, 0.0058069318, 0.0041389363, -0.03483823, 0.038607143, -0.08631452, 0.06773189, 0.00590468, -0.018586626, -0.047697645, 0.0035710651, -0.07632686, -0.090706006, 0.011657517, -0.009825762, -0.062178716, -0.00023145163, -0.05000536, -0.04654793, -0.004872866, -0.080868274, -0.06770304, -0.055408116, 0.028101102, -0.01993962, -0.031329114, 0.031469114, -0.019432127, 0.0015296328, 0.0584561, 0.017969176, -0.028760638, -0.0052503548, -0.06009703, -0.023775138, -0.036198396, 0.038360335, -0.053962484, 0.0117610935, -0.018111963, 0.020032313, 0.02116392, -0.038326718, -0.024240935, 0.032291144, -0.068453975, -0.04576534, -0.00023758411, -0.0016073429, 0.0077008167, -0.024617892, -0.07593565, -0.0064017996, 0.01565348, -0.0022046014, -0.01925994, -0.034298927, 0.05270805, 0.017731741, -0.028419917, -0.046261165, 0.056816366, 0.035602026, 0.0587563, 0.035722107, -0.0650059, 0.029346012, -0.00885078, 0.0030292748, -0.08623462, 0.031520102, 0.04577134, 0.004636064, -0.00032139607, 0.027040835, -0.0053582396, -0.089426555, -0.0014862366, -0.02128045, -0.04480646, -0.013913153, -0.058452062, -0.022560371, 0.013447164, 0.028678777, -0.025150532, 0.035603248, -0.05779226, -0.038984384, 0.045948666, -0.03774335, -0.026340041, -0.05985937, -0.075569466, -0.08930324, -0.052003235, -0.050210636, -0.035828087, -0.076227486, -0.029221248, -0.0057799295, -0.07959164, -0.058107257, 0.053978313, -0.04012989, 0.04678751, 0.0062179863, -0.049196757, -0.0025312335, -0.06903628, 0.05897057, -0.05935885, 0.048127066, -0.02965045, -0.05458438, 0.00014866889, -0.04759676, -0.04395909, -0.09734868, -0.047529735, -0.07582356, 0.0045114714, -0.08279218, -0.00048399167, -0.10816347, 0.05974389, 0.04990953, -0.05482628, 0.05125395, -0.041794494, 0.056962565, -0.06797199, 0.05198502, -0.030275282, -0.07169215, -0.11141502, -0.06953149, 0.0027497972, -0.025668526, -0.016445339, 0.03373566, -0.032947827, 0.041596256, -0.070147954, -0.03890848, 0.037866272, -0.018550666, -0.041246448, -0.05580442, 0.021005975, 0.0062171374, -0.035923056, -0.00048917707, -0.026327824, -0.060806006, -0.0037817776, -0.002747831, -0.05893184, 0.043727633, 0.029681485, 0.04213278, -0.023643434, 0.040353954, 0.043604393, -0.027152399, -0.06199681, -0.01422763, -0.031600565, 0.01884846, 0.02880636, -0.022891022, 0.05400782, -0.07061995, -0.022744086, -0.0748322, 0.06540078, -0.07681863, 0.012988687, -0.08055854, -0.032595858, -0.030221019, -0.043890536, -0.07407932, -0.043306164, -0.07847805, -0.028534928, -0.007997385, 0.025138112, -0.045378774, 0.02990823, 0.0007342291, -0.07044694, -0.0037168462, 0.015574365, 0.044733476, 0.0007569015, 0.005019693, -0.011604479, -0.018116415, -0.042426094, -0.06280555, -0.058699418, -0.04936819, -0.043050677, -0.040324535, 0.014401916, 0.0548737, -0.0115679065, -0.093957536, 0.008331828, -0.018402582, -0.06077382, -0.01057411, 0.065408885, -0.048031863, -0.021156233, -0.0058745276, -0.0620153, 0.063974425, -0.0262901, -0.042916916, 0.033695225, -0.045682132, -0.013570274, -0.03602995, -0.0503737, -0.07720275, -0.044867724, -0.028647808, -0.07345869, -0.064783745, -0.005912064, -0.06489873, -0.062136777, -0.013745163, -0.043875687, -0.06839439, -0.095348194, 0.012990684, 0.05448158, -0.052042954, -0.025159433, -0.07711058, 0.03445574, -0.025000475, -0.03676832, -0.008299695, 0.024698181, -0.0074513867, 0.009091053, 0.00034658986, 0.03392875, -0.09759567, -0.013079407, -0.043133855, 0.023382202, -0.063214935, -0.04988443, -0.078696005, 0.024030283, -0.018119039, -0.084985055, -0.042050563, -0.029976593, 0.041196372, 0.01876535, 0.019579284, 0.051340852, -0.018735988, -0.010964261, 0.031741973, -0.07561887, -0.03808369, -0.028995626, -0.052495997, -0.034267053, -0.041887507, 0.050085112, -0.0043725027, 0.0288162, -0.071821876, 0.06706184, -0.039456025, 0.002605318, 0.025566528, 0.07044248, -0.0060713985, -0.071259946, -0.04728347, -0.011687586, -0.07016001, -0.031359732, 0.046108846, -0.06741434, -0.06518249, 0.054518305, -0.024668943, -0.034079626, -0.06575289, -0.024343496, -0.034998406, -0.048114553, -0.03859947, 0.049788617, -0.0296328, 0.0041768923, -0.039548147, 0.018248316, -0.039702695, -0.034253683, -0.089001045, -0.083254226, -0.06956742, -0.053497512, 0.034584563, 0.016397726, 0.0035919196, 0.04496012, 0.052551694, -0.05957901, 0.04556994, -0.06327574, 0.020103965, 0.010730342, 0.045019735, 0.014948184, -0.038131412, -0.07551503, -0.06541132, -0.030930012, -0.003844693, 0.018649288, -0.085717775, -0.014171446, 0.012443742, -0.015570691, -0.0014210362, 0.032160588, 0.047085688, 0.025017384, -0.04220662, 0.049124673, -0.035304554, 0.0010195747, -0.056366, 0.054423116, -0.029995475, 0.025879057, -0.045016527, -0.010010398, 0.0076737003, -0.02342933, -0.060685907, 0.008990425, -0.049272027, 0.037494585, 0.012033291, 0.011894049, 0.06496498, 0.059305195, 0.024889758, 0.02778495, -0.009611651, 0.060616445, -0.09564785, 0.028539948, -0.048941735, 0.042567983, -0.08261857, 0.06484932, -0.083018325, 0.015966268, -0.020888016, 0.014098626, -0.026476486, 0.039361745, -0.034580957, -0.064242326, 0.0020007533, 0.047816418, 0.025860667, -0.03354255, 0.00014934571, -0.01081755, 0.037372474, -0.054787345, -0.025436826, -0.034479044, 0.03391619, 0.045523383, 0.086082704, 0.05926603, -0.08600633, -0.02284636, -0.00843101, 0.07335481, -0.055910002, -0.07672905, -0.034657106, 0.0080631, -0.07440074, 0.049998492, -0.02767266, 0.020573758, -0.051531397, -0.058181915, -0.054827753, -0.04696345, -0.053966343, 0.023036446, -0.02057415, -0.011115307, -0.028170144, -0.07404571, -0.093461744, -0.042028114, 0.012895519, 0.020773536, 0.012760564, -0.030906314, 0.0027912604, -0.0052403663, -0.02559641, -0.04887044, -0.077035114, -0.005670518, -0.014658149, 0.049758688, 0.0035875286, 0.028656995, -0.06657946, 0.05871728, -0.086193524, 0.015673473, 0.003647458, 0.018319223, -0.07310982, -0.043230444, -0.113009214, 0.006305282, 0.0235947, 0.051182725, -0.021597052, 0.049555548, 0.013937933, 0.0054530143, -0.08072999, -0.022833431, 0.038307253, 0.008310693, 0.0050879554, -0.06549842, -0.07953756, -0.070795, 0.09247625, -0.07112216, 0.048361275, 0.0036596332, 0.045920115, 0.018129343, 0.061777536, -0.021509977, 0.015579865, 0.035369642, 0.017223006, 0.01754629, 0.078460164, 0.044626158, -0.05871367, -0.013809245, 0.013630394, -0.0360764, 0.029131904, -0.021976402, 0.045830768, -0.048883494, -0.061139867, -0.023600066, -0.012240512, 0.0006507554, -0.042039588, 0.0106265405, -0.041471414, 0.07731375, -0.10046335, -0.08820328, 0.00058249966, 0.0546252, 0.025628643, 0.036344346, -0.05933215, 0.034290396, -0.02983828, -0.05927711, -0.00055182714, -0.02104846, 0.011546299, 0.0059219375, -0.10580685, 0.025097627, 0.011823706, 0.0030266452, -0.05224153, 0.023578675, -0.03843817, -0.059146076, 0.049733173, 0.041317828, -0.08228646, -0.04327105, -0.07174072, 0.04243764, -0.025344508, 0.01621459, 0.038025144, -0.037821516, -0.06586871, 0.02128928, -0.073930815, -0.051973358, -0.039759465, 0.024664894, 0.07513248, -0.012666514, -0.02732361, 0.060896136, -0.08913901, 0.019830123, -0.02898611, 0.051488046, -0.045242608, -0.073050454, -0.019424202, 0.020714412, -0.018359777, 0.012223467, 0.034182444, -0.06186027, -0.03380636, 0.018330267, 0.04093203, -0.051311694, -0.07030652, -0.06294295, 0.061147735, 0.015870374, -0.059976786, -0.012143169, -0.09103716, -0.08720758, 0.040490862, 0.059153922, 0.0442538, 0.0569655, 0.06614573, -0.0017612741, -0.04655074, -0.015672855, 0.027707603, -0.0233134, -0.016386693, 0.008972563, -0.007464655, -0.07313484, 0.031556398, -0.029571885, 0.010078055, -0.028975168, -0.033673614, 0.053575486, 0.0026860947, -0.06429761, -0.055895645, -0.06996177, -0.072709344, 0.05816861, 0.012516535, -0.010990117, -0.012333502, -0.039803643, -0.05703747, -0.06969524, -0.04747843, 0.003838668, 0.004724131, 0.027207639, 0.060492557, -0.036849704, -0.01690399, 0.05709418, -0.002642287, 0.005473636, -0.08771653, 0.041918054, 0.032374628, 0.036792163, -0.06539329, -0.027112283, -0.06329222, -0.05215081, -0.009086447, -0.038013775, 0.012389049, -0.084147885, 0.0008615148, -0.054061662, 0.039321817, -0.008624989, -0.027899016, -0.011354387, -0.0016773315, 0.035674702, -0.079660095, 0.016590571, 0.06339599, 0.05765509, -0.0072491597, -0.041298885, 0.0827028, -0.03902967, -0.094154894, -0.033779237, -0.017784499, -0.04683914, -0.025374943, 0.049789324, -0.023998596, -0.0162189, -0.0096109435, 0.08172025, -0.08461576, 0.007867322, 0.028285654, 0.0692561, 0.059300587, 0.0054694694, -0.060605578, -0.0034644885, 0.03728446, -0.07529978, -0.024827346, -0.11609711, 0.036384948, -0.06882883, -0.055665035, 0.05998317, -0.008692893, -0.029465444, -0.082107514, -0.0708518, -0.038509857, 0.07005811, -0.07864066, -0.018283928, -0.01975721, 0.021765996, 0.018870998, -0.02055353, -0.077006295, -0.060434043, 0.024598181, 0.0002256433, -0.037875734, 0.05329092, 0.00812432, -0.046401955, 0.06300345, -0.079736546, -0.017436096, 0.035977114, -0.0195364, -0.05140843, 0.0002965659, 0.026920334, 0.028985212, 0.025224797, -0.076771416, 0.041369785, 0.00012973834, -0.07735737, -0.0010743969, 0.021911269, -0.049832325, 0.018383203, -0.050075747, -0.05547981, -0.003138747, -0.01909924, -0.0113663785, -0.049764127, 0.019993728, 0.008635789, 0.055928886, 0.056712497, -0.06990955, -0.07060397, 0.0071746577, -0.07254292, -0.04018823, -0.005409598, 0.04882081, 0.009338334, -0.058295052, -0.053683545, 0.044132005, -0.09856987, -0.078678116, -0.06583612, 0.06732522, 0.016577864, -0.071893595, -0.0038324485, -0.0350611, -0.052010007, -0.044067223, 0.07012226, -0.005691132, 0.05282609, -0.0013193681, -0.04321807, -0.022197528, -0.042521067, -0.005305704, 0.028628767, -0.0110617, 0.021231133, -0.009843027, -0.046469346, -0.07825332, -0.061035562, -0.05362332, -0.103951395, -0.008011438, 0.0065309484, 0.048688322, -0.060716383, 0.00654168, 0.047624078, -0.08864223, 0.04480525, -0.03079517, -0.0039329263, -0.034291193, -0.055682197, 0.025521941, 0.020003224, 0.04437431, -0.020733004, -0.004932624, 0.119579375, 0.022538662, 0.061523497, 0.032592036, 0.021501934, 0.028860936, 0.013889149, -0.049928255, 0.041988857, -0.027020656, 0.004001814, -0.042906195, 0.017255493, -0.07650973, 0.008835142, -0.06063444, -0.03304103, -0.058870055, -0.040502142, -0.006193649, -0.082620546, -0.055870987, -0.04849768, -0.03409531, -0.04740339, 0.041785292, -0.0711124, 0.013671468, 0.02894182, -0.05932313, -0.05382881, -0.07755901, 0.031177867, -0.05642808, 0.02551684, 0.004186076, -0.032520767, -0.05973566, -0.051605523, -0.0009797129, 0.02529864, -0.046236604, 0.043953277, -0.06550097, 0.023984341, 0.0017310902, -0.015226051, 0.013218799, -0.009342859, -0.013086211, 0.012039947, 0.057551086, -0.058015257, -0.010579179, 0.0635336, 0.0028668672, 0.05683438, -0.061461862, -0.023389444, 0.03991366, -0.07817964, 0.06706551, 0.015802782, 0.0017725441, 0.10676561, -0.041544836, 0.024572633, -0.07571633, 0.0013015178, 0.030477265, 0.066413224, 0.04425913, -0.01228586, -0.028766556, -0.012184996, -0.043795817, -0.030547466, 0.0054091443, -0.076345876, 0.046969946, 0.008562421, -0.034255765, -0.02556639, 0.01853842, -0.05012568, 0.05715861, 0.005212506, 0.03629353, -0.0635616, -0.07929633, 0.045376033, -0.0059259585, -0.00533722, -0.05821359, 0.07331089, 0.051138423, -0.02501419, -0.047373615, -0.024606368, 0.014876705, 0.007852066, -0.11186555, 0.04549543, -0.023543062, -0.057053525, -0.017841442, -0.041812785, -0.057950113, 0.015592958, 0.005045257, -0.06658985, 0.06051571, -0.07614398, 0.33131215, 0.053540688, 0.055632982, -0.2604185, -0.052229274, -0.032321285, 0.0863103, 0.119445585, -0.016656052, -0.036496155, -0.1795153, 0.12237673, 0.036102146, -0.15595599, 0.09471482, -0.092927985, 0.08398891, 0.0463978, -0.027887896, 0.06495982, -0.089771196, -0.055242497, 0.023256289, 0.16122685, -0.02373518, -0.16775154, 0.1920018, -0.16872434, 0.032774933, 0.073524445, 0.11551877, 0.012488066, 0.13204767, -0.034826923, -0.03825581, 0.20140876, 0.060185555, -0.19892527, -0.02179542, 0.04749376, -0.10794964, -0.090049446, 0.07173088, 0.22219555, -0.062850855, 0.32950908, -0.1587572, 0.22102568, 0.04384362, 0.0778147, -0.18962243, -0.002170405, -0.23333792, 0.0038282108, 0.034307122, -0.15607099, -0.03215367, -0.029235747, -0.24293049, 0.021445988, -0.03432237, -0.023799267, 0.08295625, -0.06328612, 0.11575216, -0.20896916, 0.016991457, 0.11914492, 0.10538577, 0.031069344, 0.15986891, -0.10050047, 0.044384416, 0.0394096, -0.26901612, -0.06668857, 0.026982047, 0.054351702, -0.06604605, 0.034657948, -0.0150967315, -0.038289472, -0.17733462, -0.0019461422, 0.11467542, -0.022328343, 0.01926292, -0.27319813, -0.13683122, -0.11597587, 0.0933491, -0.15046193, -0.048026204, 0.15410839, -0.011001, -0.05192965, -0.3040537, -0.02972614, 0.1266056, 0.25336242, 0.24106544, -0.27369088, -0.00711309, 0.27449, 0.08653244, 0.05591732, 0.030005094, 0.11415417, 0.07657738, -0.19141226, -0.03756633, 0.09298905, 0.12609169, 0.08181983, 0.022728132, -0.07944237, -0.039748717, 0.051691614, 0.033524174, -0.24894421, -0.14929725, -0.05435194, 0.059961244, 0.007138904, 0.052533448, 0.08996226, -0.013379124, 0.011717839, 0.08797716, -0.1023684, 0.08611682, 0.11953563, -0.024294728, -0.0040640375, -0.13814962, -0.21120745, 0.032131944, -0.0694878, -0.20947005, 0.026743034, -0.07011762, -0.245915, 0.07994589, -0.07423, 0.107534274, 0.0015289581, -0.113782406, 0.055125635, -0.0287894, 0.097468816, -0.0032563955, -0.15307099, -0.021958452, 0.099273264, -0.02093929, 0.13505924, 0.008866875, -0.021188479, 0.068815194, -0.069442295, -0.074616216, -0.0742545, 0.14732215, 0.08732094, 0.16945969, 0.036892924, -0.066783994, 0.2751916, -0.012201109, -0.0272334, -0.07401064, -0.12525009, -0.02208224, -0.0367024, -0.24498267, -0.084690474, 0.23873332, 0.091094136, 0.04542265, -0.063631386, 0.2605983, -0.068913884, 0.15600404, -0.24350399, -0.2539687, 0.04244579, -0.097194895, -0.056196917, 0.0020108086, 0.064929985, 0.068885475, -0.06640751, 0.20294884, 0.039609537, 0.02822468, 0.05051102, 0.13689972, -0.023341991, -0.14348207, 0.03668581, 0.08147707, 0.030397357, -0.10437119, 0.028354635, 0.040463574, -0.36133716, 0.015184062, 0.07187329, 0.046747677, -0.01874585, 0.09287941, -0.038470544, -0.45081258, -0.13431925, -0.05321704, -0.20270258, -0.07144402, -0.1535852, 0.16712426, -0.052555732, 0.16184495, -0.04446773, -0.0598152, -0.04316209, -0.06356754, -0.052641813, 0.14600247, 0.009514034, 0.19776693, 0.031072758, 0.09796038, -0.082096234, -0.17518903, 0.06861509, -0.004848826, 0.17153591, 0.13343512, 0.017363532, -0.34651437, 0.18413922, 0.22607869, 0.06674818, 0.07865971, -0.041436616, -0.03341615, -0.057861898, -0.053665843, -0.045616437, -0.06486314, -0.038108196, -0.14815046, 0.098507, 0.037750114, -0.0076638423, -0.03826401, -0.078112274, 0.22591881, 0.019213062, -0.0051961113, 0.052421845, -0.021673998, -0.024166837, 0.011364397, 0.027216498, 0.0940763, -0.025872637, 0.072448775, -0.048496105, -0.05143589, -0.06787441, 0.037484497, 0.16065453, 0.120871425, -0.05767831, 0.018424006, 0.044560228, 0.20752776, 0.12604277, 0.010818879, 0.046138592, 0.09254266, -0.22419973, -0.03411795, -0.07025926, 0.050391868, 0.12898162, 0.25041693, 0.001046282, 0.18542477, 0.058099773, 0.17806083, 0.22031705, 0.024963621, 0.038240813, -0.019748598, 0.11452918, -0.00089558325, -0.009945768, -0.013028094, 0.06500243, -0.09339119, 0.21579844, -0.1432187, 0.02738087, 0.08136591, 0.13723265, -0.051358044, 0.007388288, -0.0032659424, -0.0030533427, 0.28134233, 0.10951939, 0.08188533, 0.08673426, -0.006370003, 0.057403423, -0.05641927, -0.19176762, -0.037260115, -0.04656016, 0.13898388, 0.039133687, 0.018950332, 0.06794073, -0.14589901, -0.046873894, -0.03006147, -0.23258309, -0.09328078, 0.045700256, -0.17571922, 0.010383053, 0.042957373, -0.107520685, -0.047540866, -0.26390806, -0.022418998, 0.00096857926, -0.057878565, 0.032010317, 0.15500309, 0.11090806, 0.05636428, 0.08792297, 0.1060207, 0.20380919, -0.15218267, 0.18981005, -0.25761148, 0.11375496, -0.058837168, -0.054325048, -0.008880679, 0.0070114397, -0.026361525, 0.07634573, 0.16213572, -0.09829049, 0.095186144, 0.1527126, -0.07837163, -0.11785039, 0.04598346, 0.08701082, -0.04069519, 0.07969208, -0.12075143, 0.12849769, 0.022116225, -0.11568043, 0.09098951, 0.07332875, -0.12561956, 0.0044104727, 0.14459197, -0.096676424, -0.11119582, 0.058389746, -0.28728372, -0.023448206, 0.06209598, -0.05431661, 0.06703965, -0.06661032, 0.11328597, 0.10012529, -0.0016153434, 0.20610805, 0.066885926, -0.045237314, -0.08582816, -0.26541045, -0.00617061, -0.061312504, 0.002731575, 0.04786508, -0.0453988, 0.03683847, 0.05524703, -0.17270102, 0.17078109, 0.033677448, -0.04801558, -0.0040545193, -0.08478582, 0.3141658, 0.016932102, 0.08363838, 0.0222784, 0.25119597, -0.15243347, 0.0097485185, -0.00554823, -0.06496422, -0.089079976, -0.07856212, -0.04288491, -0.061340865, 0.22028878, 0.0062187235, 0.09665682, 0.02102595, -0.0018173709, 0.18363763, 0.017052885, -0.18494673, -0.0126988925, 0.015372385, 0.007559892, -0.065368764, -0.09835808, 0.038127664, 0.012109289, 0.071054965, 0.14904018, -0.037363093, -0.020276811, 0.05844407, 0.5012491, 0.078497976, -0.14280708, 0.014512064, -0.023720328, 0.116535366, 0.061416954, 0.010522687, 0.024739826, 0.009381605, 0.17389323, 0.07921461, -0.057303224, 0.2614269, 0.018005691, -0.03654271, 0.00030769414, -0.14333916, -0.025765695, 0.02224475, 0.110359244, 0.060219783, -0.0157802, -0.1480326, 0.008720471, 0.008732328, -0.07996016, 0.023605838, -0.12584999, 0.0024162617, -0.22806756, 0.06832136, 0.024878351, 0.23796654, -0.14131221, 0.04729654, -0.010609222, -0.09746687, 0.21395713, -0.115390465, -0.18195285, -0.0390244, 0.007788454, -0.003748611, 0.14303069, 0.10196524, -0.22639665, -0.056326102, 0.018284768, -0.25041696, 0.009396822, 0.15732428, -0.03243146, 0.024120098, -0.041103613, 0.21918999, -0.19168086, 0.3568143, 0.09236075, -0.18576874, -0.24507661, -0.0324893, -0.0077996706, 0.050851334, 0.24354543, 0.061027817, 0.08638942, -0.09120814, 0.29089737, 0.12744808, -0.031552948, -0.08005617, 0.066344455, -0.12133966, 0.17659344, -0.06297638, -0.10153273, 0.1080857, -0.04007912, -0.09474027, 0.064374775, 0.027945416, -0.013069956, -0.00436833, 0.17820759, 0.18768291, -0.014434215, -0.022782959, -0.040952347, -0.06331043, -0.051554967, 0.14681938, -0.16295639, -0.014409609, -0.043747094, 0.026699567, 0.007908653, 0.15222475, 0.11086006, -0.14543274, -0.08909296, -0.20347993, -0.22331876, -0.15920867, 0.24836281, -0.0029218919, 0.032443598, 0.062241264, -0.048575576, -0.21476085, 0.06858709, -0.049702078, 0.069904104, -0.013810915, 0.1604708, 0.13914528, -0.015004351, 0.06837588, -0.021235475, 0.30564407, -0.18280795, 0.27577552, 0.028138414, -0.10481248, -0.030726224, 0.023527436, -0.114096515, 0.025346419, 0.09816157, -0.007748102, 0.067892864, 0.04872269, 0.018157976, -0.015729193, 0.00089610193, -0.15489861, 0.033728324, -0.0464212, 0.2230822, 0.0058817873, -0.036039516, 0.07095122, -0.099839814, -0.018275782, -0.08830333, -0.15424828, -0.013089894, 0.06841994, -0.015483351, -0.062264875, -0.054793775, -0.21520974, 0.07626428, -0.28729388, -0.03270493, 0.083671555, 0.06946385, -0.060325317, 0.15467604, 0.027742382, 0.055524446, 0.24313411, 0.16483665, 0.09548144, -0.040158384, 0.080409616, -0.17455927, -0.101021804, -0.001919711, -0.12250662, 0.010608134, -0.047031924, 0.022552125, 0.037131585, 0.22222146, -0.012966994, -0.039771926, 0.08270049, -0.09845482, -0.043954216, -0.06598351, -0.04991545, -0.081533365, 0.031036979, 0.13349596, -0.051995937, -0.03837192, -0.27772146, -0.07620164, 0.10534775, 0.04447371, -0.068160154, 0.12783563, 0.0076762545, 0.106042035, 0.014777533, -0.19248718, -0.009970612, -0.038627356, -0.12263502, -0.035648756, -0.024192529, 0.054585528, -0.017183078, 0.060667705, -0.0015757934, -0.18235904, -0.07387063, -0.050444473, -0.28685609, 0.057254095, -0.031233951, 0.03574123, -0.0031229893, -0.04054543, 0.011255727, 0.03733519, -0.13843681, -0.05428538, 0.09058973, 0.033533104, 0.04233219, -0.09536613, -0.354146, 0.010856379, 0.21314687, -0.09424459, 0.12770407, -0.08775479, 0.30433196, -0.13988435, 0.10859239, 0.051067658, -0.26064777, 0.08771638, -0.040351816, 0.015663762, -0.032101206, 0.16604537, 0.07084864, -0.0062773996, 0.105789445, 0.028396556, 0.124257185, 0.079419576, -0.04658258, 0.009822794, 0.15936998, 0.24630201, -0.020496333, -0.13135508, -0.1734774, 0.026179349, 0.03879371, 0.025450155, -0.06302626, 0.1964027, -0.0018041183, 0.1390999, -0.021799656, -0.0006202277, 0.1331023, -0.005742833, -0.026464082, 0.020384949, -0.02607134, 0.102609575, 0.07561524, -0.046633147, 0.10036666, -0.117406815, 0.040289678, -0.063734755, -0.0144072315, 0.009607748, -0.010171538, 0.25954285, 0.0024374127, 0.028440284, -0.17125404, -0.017972626, -0.14373887, -0.011703254, -0.028692134, 0.0432207, 0.06798711, -0.08388689, -0.32916114, 0.023493715, 0.026574686, -0.11695278, -0.0019794775, -0.031088207, 0.15852258, 0.061988924, 0.09393102, -0.037489474, -0.058404893, 0.026258342, 0.043577652, -0.12200722, -0.1667092, -0.015829299, -0.17995082, 0.00012220492, -0.19996774, -0.042731553, 0.27140316, 0.067761734, 0.103327036, 0.006419961, 0.054214545, -0.034168407, 0.052107826, 0.10873032, -0.2568219, 0.050072264, -0.081511095, -0.14336921, -0.030565573, 0.2997837, -0.015723169, 0.1830174, 0.10197279, 0.059511, 0.2774188, -0.0078660045, -0.04818479, 0.064640686, 0.003810391, 0.27303565, 0.15916267, -0.08433921, 0.14386372, -0.041881636, -0.0018705536, 0.1529245, 0.037407465, -0.06008713, 0.06457041, 0.21720622, 0.21678036, 0.05284128, -0.16166727, -0.02241583, -0.095004275, -0.04067387, -0.008533694, -0.28079876, -0.06226867, 0.20772432, -0.0044726636, -8.6933374e-05, 0.008983214, 0.1761528, 0.06335913, -0.09804978, 0.24315421, -0.08761644, 0.08748676, 0.3353001, -0.10378741, 0.1591467, -0.05784567, 0.26448286, -0.45275086, -0.20231575, 0.27564144, 0.010238782, 0.17524962, -0.0016388457, 0.07039451, 0.069461234, 0.22310655, -0.023239532, 0.0042249262, -0.23262076, 0.29185328, 0.20875025, -0.069052525, -0.26064858, 0.054511033, -0.30345663, 0.01008806, 0.11827096, -0.13158411, 0.16818556, 0.04366457, -0.22713557, 0.071242675, 0.035629597, 0.13513419, 0.012464071, -0.08155154, 0.030544005, -0.35319892, 0.013912503, 0.08589779, -0.041991, -0.05215173, -0.15966536, 0.018003749, -0.07498709, -0.0211875, 0.21905008, -0.11085756, 0.07356697, 0.08226281, 0.00089498656, 0.012561839, -0.045051597, 0.053860184, 0.099219345, 0.069075786, -0.040499903, -0.18600465, 0.045020193, 0.2166177, 0.06387406, 0.04726379, 0.1279614, 0.08520963, 0.09372567, 0.054341815, 0.02863411, -0.090392426, -0.033896733, 0.05112007, 0.050638746, 0.019557817, -0.16630386, 0.14191082, 0.06012841, 0.1390859, 0.045491967, 0.16683389, 0.07547533, 0.17493041, -0.008119385, -0.032856483, -0.11777974, 0.17382991, 0.22029892, -0.27953017, 0.23241183, 0.04992406, 0.021060517, 0.0068662222, -0.09095754, -0.13065661, 0.2807901, 0.025526041, -0.18179144, 0.10967004, 0.014774842, 0.07058324, 0.01408517, 0.03235918, -0.0640799, -0.15056966, -0.11588368, -0.0065587414, -0.17021759, -0.077228226, -0.17923109, -0.027299149, 0.00619821, 0.054597486, 0.1254429, 0.020706464, -0.028025813, -0.03178385, -0.011303008, -0.02103976, -0.032560144, -0.06778423, 0.06299421, 0.024730453, 0.119577624, -0.19094774, -0.0736322, 0.20684038, 0.12728386, 0.4015726, 0.037380204, 0.14120579, -0.067836344, -0.11972083, 0.024956796, -0.1933785, 0.044358283, 0.03877844, -0.12105223, -0.06623389, -0.09195603, 0.034619987, 0.0038551139, 0.0042973976, 0.053252123, 0.14188088, 0.074706525, 0.063466005, -0.031719435, -0.0085883625, 0.17934649, -0.02700962, 0.0036889329, -0.108907506, 0.037600778, 0.063444674, -0.17015626, 0.069617964, 0.13973768, 0.08890614, 0.06100533, 0.021276895, -0.02075461, -0.020098973, -0.04002325, 0.07542458, 0.006057234, -0.0757129, 0.10094551, -0.015507879, -0.04341375, 0.103125, 0.0006437497, -0.06006165, -0.04329546, 0.03944793, 0.0093596205, 0.019413695, 0.5048214, 0.09193266, -0.048563156, -0.13925329, 0.050840054, -0.17295878, 0.051154725, 0.045992147, -0.055680722, -0.00028529493, 0.33882368, -0.1391475, 0.04727661, 0.16844974, 0.0044593895, -0.12826766, 0.048554547, -0.051263366, 0.03711185, -0.22710556, 0.037558373, -0.010754173, 0.13067868, -0.08522499, 0.033247966, -0.17562291, -0.06964284, -0.061093133, -0.004846933, -0.15876792, -0.14162908, 0.16304815, 0.17312004, 0.047226314, 0.012684674, -0.031030662, 0.13457488, -0.073808834, 0.060485575, -0.22264285, -0.12730764, -0.013355261, -0.34362793, -0.06427686, 0.30670953, 0.10810492, 0.24156591, 0.040297665, 0.04789118, 0.048390742, 0.033139933, -0.051388517, -0.018601932, -0.016516866, -0.13763495, 0.27487338, -0.0014315266, 0.09314293, -0.16151197, -0.010250942, 0.04467484, 0.061691795, 0.04251831, 0.023790551, 0.09255771, 0.0513065, 0.023682766, 0.003540058, 0.031135736, 0.040688977, -0.03838396, -0.030763634, 0.094551705, -0.087264195, 0.10453477, -0.15121366, -0.023308821, 0.07991211, 0.01532047, -0.02354689, 0.19510388, -0.2212258, -0.19657633, 0.06130462, -0.15608706, 0.12990762, 0.16177356, 0.034108836, -0.07966066, 0.090620816, -0.06869907, -0.08620438, 0.03007567, -0.0118225105, 0.06378129, -0.08066149, 0.10421438, 0.115554124, 0.10206842, -0.10725687, 0.19566299, -0.030547269, -0.048460886, 0.022433968, -0.10402689, 0.07763018, -0.18096289, 0.020662196, -0.18319336, 0.082414545, -0.09076075, 0.056913964, -0.0030024615, -0.22559386, -0.006069308, -0.23052181, -0.011951491, 0.1148805, -0.2327981, 0.14055958, -0.074997194, 0.24073432, -0.16082864, -0.04491175, 0.044398565, 0.006248211, 0.08250711, -0.0454595, -0.23665418, 0.16014904, 0.00028659403, -0.050654072, 0.0036397395, -0.20721082, 0.012794617, -0.084207974, 0.055299304, -0.0043265205, -0.02351855, -0.14255202, 0.054544125, -0.15829149, 0.20885171, -0.0037873345, 0.119515285, -0.10125748, -0.06132601, -0.12271606, -0.11061605, 0.10975198, 0.10626277, -0.026219776, 0.0219997, 0.13827156, -0.07488634, 0.0021465633, 0.053336117, 0.01544524, 0.06953327, -0.13143818, -0.00236416, 0.297991, -0.020607524, 0.025682673, 0.056388184, -0.03432753, -0.15965335, -0.1041696, 0.05094342, 0.011650312, 0.06488324, -0.07029584, 0.09434495, -0.06038928, -0.05270551, 0.0080661625, -0.051267426, -0.1627105, -0.046064615, -0.22901447, 0.0042878957, 0.05042712, -0.39577645, 0.15288088, 0.010911669, 0.23897578, 0.07547447, -0.007868444, -0.1050061, 0.15247472, 0.08277291, -0.05395346, -0.041143775, 0.1314344, -0.05844208, -0.042410307, 0.024535507, -0.31010377, -0.005766183, 0.064933725, 0.13225432, 0.05357686, 0.057563316, 0.102493316, -0.07397626, -0.0027161513, 0.16197766, -0.07366243, -0.13753638, -0.021506146, 0.07420237, 0.07009039, 0.0049947337, -0.01523266, -0.09274375, -0.055196177, 0.17242065, 0.074073635, -0.04655932, 0.19512746, -0.06071385, 0.087957636, 0.10415088, -0.12479232, -0.13720803, 0.114584, -0.049312085, 0.06634579, 0.097784616, 0.0338921, -0.123068355, 0.12851062, -0.118332155, 0.10291453, 0.15219894, 0.046850976, 0.11346052, -0.019979259, -0.0039589712, 0.050806988, 0.0957465, -0.43333945, 0.07680093, -0.120587535, -0.015226177, 0.052154016, -0.29485056, 0.15730383, 0.011389296, 0.010547661, -0.0077346102, -0.01318028, 0.06556006, 0.08800686, 0.00931724, 0.062402118, 0.10268017, 0.16408615, -0.037286535, -0.04924683, 0.018337231, 0.0327185, 0.030237064, -0.07146378, -0.041063093, 0.027090069, -0.0972296, 0.1832831, -0.04801941, -0.04634425, -0.018205063, 0.011029187, -0.009100337, -0.14917499, 0.011504044, 0.04059593, -0.053687934, 0.110830076, 0.09798643, 0.026193636, 0.2601102, -0.030027077, 0.037412904, 0.11230764, 0.058182474, -0.19126649, 0.036577474, -0.107855074, 0.1051888, 0.18934251, 0.052968107, -0.17129643, 0.10162702, -0.05343058, -0.23677678, 0.104212865, -0.11211696, -0.06179445, -0.14608496, -0.01653936, -0.028197614, 0.14749996, -0.06347984, 0.009587566, 0.1017932, -0.14189874, -0.065212004, -0.08173781, -0.023082726, -0.06496399, -0.1108408, 0.08594739, -0.032391444, 0.026528157, -0.064919814, -0.052454315, 0.12307201, 0.03034874, 0.09124356, -0.017513353, -0.045557555, 0.20932265, -0.05107063, -0.13255987, 0.05090104, -0.053462934, 0.061915975, -0.014146359, 0.089786515, -0.019228406, 0.021766178, -0.09101268, 0.015856687, 0.0323336, -0.05459402, 0.07291653, 0.13378939, -0.07802197, -0.042004537, 0.19883405, -0.2476885, 0.30480984, 0.14132151, -0.055025335, 0.26781198, 0.02062399, -0.138447, 0.059548717, 0.07747166, -0.1266842, -0.19624391, 0.13859226, -0.02452429, 0.15903878, 0.030941017, 0.0115415035, 0.009237383, -0.14061315, 0.03725618, -0.049549706, 0.040862773, 0.054671504, -0.1509688, 0.086896256, -0.027475642, -0.09325555, 0.043147467, -0.01703924, 0.05136772, -0.1254934, -0.019858113, -0.06538422, 0.022974111, 0.0052822167, -0.25846225, 0.05759023, 0.0745632, -0.12898381, -0.09024749, -0.007266215, 0.013089623, -0.021016935, 0.09979503, 0.07104768, -0.1145389, 0.111979954, -0.034946933, 0.02364525, 0.032446757, -0.13036908, 0.0076322025, 0.012739406, 0.18564297, 0.022089316, 0.03261909, 0.01698992, 0.06395395, 0.12567443, 0.10624037, -0.020946268, 0.031817958, 0.023433708, -0.024654226, 0.14840378, -0.15064432, 0.11395057, 0.017583271, -0.029492842, 0.035822704, 0.045028772, 0.035540394, -0.078791246, 0.0945367, 0.14181107, 0.1299773, -0.1829567, 0.10938398, 0.13882451, 0.020428129, 0.027012812, -0.028256629, -0.19976051, 0.03211773, -0.104432486, 0.07128768, 0.030225856, 0.060457442, 0.011849054, 0.15658373, -0.14123338, -0.119589254, 0.074238524, 0.17538504, -0.13570657, -0.04351085, -0.14207488, 0.07357632, 0.05436259, -0.17442495, 0.098668694, 0.029022768, 0.05139835, -0.22668996, -0.031924337, 0.16873759, 0.029880187, 0.03766239, -0.02817456, 0.10712284, 0.02031252, -0.057225496, 0.14383186, -0.053634766, 0.073729776, -0.05409017, -0.04092929, 0.0067654294, -0.018870626, 0.24269862, 0.07008781, 0.03297723, -0.06953669, 0.08121556, 0.086303465, 0.056616064, -0.09879522, 0.17861316, -0.03221279, 0.056217123, -0.1193193, -0.20683858, 0.05393364, 0.0784787, 0.12693812, 0.08734762, 0.3261407, 0.0014622278, -0.15900831, 0.047765408, 0.06483776, 0.07785214, 0.16636278, -0.078421876, 0.06872414, 0.08041889, -0.26064384, -0.11451949, -0.0071110073, -0.22242753, 0.0970173, 0.02523614, 0.019309748, -0.23803045, 0.047930345, -0.16364026, -0.012938347, 0.1956871, -0.056462552, -0.05765471, -0.118771255, -0.035616867, 0.103859045, -0.20547193, 0.08728628, 0.11244061, 0.2878396, 0.0048869466, -0.053941477, -0.09373234, -0.010460559, 0.030098902, 0.06469819, 0.17424273, 0.07718003, 0.012960307, -0.29607522, -0.059875928, 0.004792837, 0.036627818, -0.09568353, 0.13985546, -0.036821984, 0.13437895, 0.14477772, -0.03830357, 0.040028907, -0.10501182, -0.005422486, 0.007196582, 0.16620405, 0.0044810516, 0.09117041, -0.15177593, -0.007863355, 0.02211761, 0.0030150658, 0.29672164, -0.16509344, 0.23445298, 0.28180698, 0.0024269542, -0.088805445, -0.1221943, 0.23997211, 0.043058, 0.11680894, 0.0513205, -0.28761536, -0.22506677, -0.08997269, 0.036847387, -0.18087249, -0.38553226, -0.05335668, -0.23821896, -0.0028673178, -0.09910504, 0.1379592, -0.104002036, -0.055550378, 0.23659162, -0.18185037, 0.03284139, -0.05171071, 0.06929681, -0.030442527, 0.14007361, 0.08339184, 0.013629915, 0.027833654, 0.018374722, 0.0005198017, -0.052757993, 0.017037623, 0.060588557, -0.05407236, -0.18088171, 0.0012319086, 0.02482082, -0.09020359, 0.049323495, 0.07345793, -0.05023772, 0.014774267, 0.14032377, -0.03219315, -0.05095149, -0.026840407, -0.0028378007, -0.1608433, -0.19855039, -0.09645912, 0.13112178, -0.054691423, -0.07188239, -0.12114114, 0.02221669, 0.22956379, 0.042426977, 0.020031609, 0.019553542, 0.041019022, -0.09438116, 0.03920436, 0.018248731, 0.057008907, -0.39655665, 0.14339504, 0.013136147, 0.0764104, 0.03838438, 0.0155484695, 0.008770383, -0.032107633, -0.04812504, 0.19904174, 0.14880884, 0.13004762, 0.019414658, -0.06515001, -0.06671362, -0.015410037, -0.0013889768, -0.020978894, 0.04473252, -0.026365232, 0.017576406, 0.08016018, 0.07266302, -0.05051528, -0.05444861, 0.115117535, 0.07857427, -0.039050147, 0.1246429, -0.0037806134, 0.010879389, 0.11059266, 0.070854865, 0.042675186, -0.20303322, -0.17645767, 0.047110207, -0.066718504, -0.0040005306, 0.0404948, 0.09196309, 0.0017137633, 0.1990471, 0.05068243, -0.016037408, -0.051353406, 0.035107948, -0.03716759, 0.017050544, -0.1920482, -0.02124393, -0.0851487, 0.02302556, 0.0018548714, 0.0701416, 0.19076712, -0.17047016, -0.029586943, -0.17547092, -0.11850794, 0.006751827, -0.10794353, 0.06967816, 0.23416515, -0.26939768, -0.08001711, 0.14389458, 0.13914211, 0.0011154234, 0.088373244, 0.10584842, -0.14839096, 0.05530781, 0.12998337, -0.0030481264, -0.014340186, 0.17729688, -0.0063254386, -0.03618234, 0.07092057, -0.0026931604, 0.053743374, -0.08312765, -0.0067583956, -0.012332345, 0.049219906, -0.011005981, -0.050873417, 0.07343218, 0.033092987, 0.08048424, 0.09114508, -0.0259673, -0.01389355, 0.0028337922, 0.09618075, 0.034214474, 0.064171284, -0.024402633, 0.016084636, 0.018372945, 0.018114705, -0.04251961, 0.06758899, 0.022472149, -0.07969774, -0.07039856, -0.013004435, 0.08365661, 0.078454025, 0.033062793, -0.35627195, 0.08026856, 0.025581304, 0.08823187, 0.006746158, -0.08056906, -0.17923248, 0.02967498, -0.04425786, -0.0605672, -0.0006768246, 0.01893111, -0.06766702, -0.00669206, 0.05576683, 0.08644069, -0.015093257, 0.009147017, 0.0695946, 0.03389465, -0.005651773, 0.020421106, -0.070866294, 0.009048953, -0.11075099, 0.15978576, 0.098536074, -0.08016159, 0.055498965, 0.08524108, 0.07137455, -0.08118459, -0.009181283, 0.0707542, -0.04769761, 0.10820264, 0.010959745, 0.0121443495, 0.02334547, 0.043164387, 0.015453602, -0.022166219, 0.24128994, -0.059276637, 0.07923878, 0.0485088, 0.05910991, -0.08897102, 0.13164261, 0.027028417, 0.058017284, -0.15514605, 0.06510397, -0.08201888, -0.29129785, 0.0049929162, 0.10676761, 0.084445916, -0.001467737, 0.12237223, 0.05358005, -0.028147137, 0.07316998, 0.009991568, 0.17743601, -0.08223126, 0.11385037, 0.04252461, -0.11897053, -0.08808809, 0.03195503, -0.16557989, 0.019538227, 0.01617965, 0.06158877, 0.0691838, 0.11150042, 0.0147781605, 0.06283762, -0.07031483, 0.013231295, -0.14572272, 0.31094894, 0.033180922, 0.07861478, -0.02393656, -0.14702466, 0.007565528, -0.1614913, -0.0030577295, -0.10556332, -0.19890909, -0.005400453, -0.08013986, -0.055267926, -0.10928533, 0.1996784, 0.054155707, -0.06578716, 0.13019592, -0.2487328, -0.040172353, 0.1245536, -0.068069085, -0.020680798, 0.017750375, 0.2659867, 0.03983619, 0.021596909, 0.068315744, -0.018168312, 0.10277791, 0.15459071, -0.01669205, 0.01654039, -0.06541606, 0.07655302, -0.06613278, 0.008797849, 0.030825995, 0.098589376, 0.03682377, -0.012948745, -0.15387206, 0.06716982, 0.060419593, -0.060885902, -0.048641335, 0.055101775, -0.043471437, 0.007866053, 0.2036051, 0.2739168, -0.04001306, -0.15558375, -0.11649031, 0.4339191, -0.28258967, 0.020456418, -0.26250523, -0.08185235, -0.074917056, 0.24604043, 0.032382242, 0.02788074, 0.030782748, -0.011027081, 0.1357777, 0.23234552, 0.028592832, 0.12798612, 0.21185975, -0.09017469, 0.3186035, 0.12235049, 0.110640265, 0.10384681, 0.19117007, 0.022351213, 0.16478203, 0.21314466, -0.009000437, -0.03748707, 0.097282015, -0.2744623, -0.012597085, -0.16646619, -0.0065602064, -0.045133274, -0.09237257, 0.11830892, -0.051467292, -0.20876588, -0.044324808, -0.07996462, 0.101259045, 0.1775766, 0.042455204, -0.06503493, 0.02012817, 0.026166607, 0.065596566, -0.027061483, -0.06372604, 0.29902136, -0.0690375, -0.03614423, -0.09594639, 0.0616328, 0.17502123, 0.13358863, -0.029270425, 0.17007443, 0.09189926, -0.24761988, 0.08753261, -0.05270888, -0.018557403, -0.25533596, -0.091042325, 0.008776053, -0.2795608, -0.06780489, -0.22713137, -0.05824112, -0.09841104, 0.16799839, 0.0703878, -0.012581609, 0.0468647, -0.03554873, 0.09249514, 0.049601994, -0.08712612, 0.29694226, 0.1401189, 0.047474287, 0.39432475, 0.12642121, -0.045577694, 0.0054146512, 0.21319029, -0.016718373, -0.26513293, 0.023883035, -0.14304148, -0.029019281, 0.1039082, -0.18312031, 0.063366555, 0.053090293, -0.060589347, 0.037586145, -0.06805631, 0.10975447, 0.092889264, -0.1958373, -0.15984766, -0.0018253624, -0.020962434, 0.17343721, -0.045820773, 0.06444863, -0.3528272, 0.07469966, 0.0028256103, -0.027445871, 0.014281966, -0.072580114, -0.045096055, -0.041978557, -0.19387572, -0.09194014, 0.14099938, 0.16785382, -0.05637538, -0.016792485, 0.20099306, -0.062455878, 0.035494927, -0.14731954, -0.14235541, -0.04269466, -6.563878e-05, 0.20381926, -0.12722239, 0.014555753, -0.24935831, -0.017338939, -0.247108, -0.08259932, -0.06454163, -0.13410169, 0.09457458, 0.07608999, 0.15578736, -0.07887304, 0.016879842, 0.062712856, 0.16823776, -0.0662069, 0.19871938, 0.041863598, -0.12169418, 0.0066857473, 0.06529298, -0.035374362, -0.10279453, 0.014995094, 0.15797696, -0.08507734, 0.025774347, 0.010278281, 0.0021068095, -0.2178039, -0.06357347, 0.061106667, -0.0065622157, 0.124744944, -0.015494236, -0.103089266, -0.033068467, -0.054669306, 0.2670559, 0.060557436, -0.036459018, -0.039747447, -0.17410967, 0.23770705, -0.06721102, 0.13910493, 0.023845863, 0.057430007, -0.09869676, -0.07614469, 0.029713731, -0.019173423, 0.19447559, -0.16549513, -0.03514766, 0.15262891, -0.066584505, -0.032365236, 0.26914215, 0.27471963, -0.07413579, -0.08781626, -0.04385333, 0.16456822, -0.06637243, -0.015098589, -0.25864154, 0.278923, -0.09118671, 0.20400737, -0.062427923, 0.08776501, -0.14784941, 0.31670493, 0.010197299, -0.020167705, 0.09134233, -0.034648586, 0.0813363, -0.15205318, 0.20505421, 0.034657106, -0.13583101, 0.027400874, -0.08523824, -0.054392427, -0.22154568, 0.10012111, -0.014013278, -0.0035485406, 0.054956906, -0.27253747, -0.038529318, -0.0898875, 0.028388992, -0.060063645, -0.092442155, -0.028699113, -0.012287121, 0.07736717, -0.04087568, 0.048862047, -0.02218977, -0.08716979, -0.01677233, -0.041365817, 0.003394168, -0.022738757, -0.0021395683, -0.07021737, -0.07003326, 0.018862206, -0.055709448, 0.03882409, -0.045458753, -0.06882025, -0.0016330373, 0.022369094, 0.070168614, 5.9921527e-05, 0.008353507, -0.028391669, -0.018780557, -0.058219716, 0.03806672, -0.045496486, -0.05642323, -0.013302523, -0.07783278, -0.012163874, 0.038516127, -0.024690285, -0.027139038, 0.034223143, 0.04970184, -0.0320833, 0.056063853, -0.023043342, 0.045354843, 0.029496534, 0.019744933, -0.028513264, -0.06430695, -0.08852583, -0.0065065664, -0.07464114, -0.038542416, 0.04040669, -0.021922603, 0.02136489, 0.0061772205, -0.05823567, -0.03282475, -0.04632528, -0.017205503, -0.07153804, -0.036017887, -0.022774149, 0.027074233, -0.025406137, -0.106224485, 0.021193923, -0.050006673, -0.06344469, -0.01478005, -0.041155834, -0.08108045, -0.073786095, 0.06781395, -0.019473296, 0.03781979, -0.054826755, 0.0050041676, 0.031798556, -0.06538017, 0.004910315, -0.078721, -0.07211674, -0.107341915, -0.002614744, 0.01853317, -0.029542662, -0.04935468, 0.06600278, 0.033753354, 0.051870063, -0.06261543, 0.06397778, -0.00649433, -0.06583474, 0.0029401698, -0.101216644, -0.039513167, 0.021723047, -0.05295348, -0.028275391, -0.07199734, 0.068753205, 0.055245906, 0.019461907, 0.0032272881, 0.0040061316, 0.011252804, -0.010333494, 0.052271053, -0.069876336, -0.0121941725, 0.018614938, -0.048264347, 0.043747433, 0.050657235, 0.035726868, -0.057057157, -0.031692218, 0.023068164, 0.052099988, -0.03195762, -0.04554354, 0.049699217, -0.09759293, -0.049207017, -0.026715081, 0.015102513, 0.043856233, -0.09644057, -0.04211931, 0.001000844, -0.09104916, 0.024991447, -0.013221603, 0.0035537991, 0.051200308, 0.014812842, 0.054598525, -0.05978279, -0.07477829, -0.015712354, 0.057358507, 0.06549096, 0.032980766, 0.059514787, 0.004640393, -0.0031661035, 0.04262291, -0.0458628, 0.068317935, -0.05741059, -0.03301131, -0.061228264, 0.0006219998, 0.036385886, -0.045671638, 0.020479484, -0.041042108, -0.026273772, 0.0636751, -0.012443725, -0.020631164, -0.0489627, -0.052079972, -0.065522246, 0.050641913, 0.03160479, -0.040476162, 0.046784893, -0.0017957605, 0.05946384, 0.0381668, -0.032960612, 0.05033668, -0.03192024, 0.039514583, -0.07900615, 0.02205399, -0.06818259, 0.011059798, 0.017266743, -0.025644273, -0.07425825, -0.023262238, -0.040765677, 0.031573854, -0.05295369, -0.04326363, 0.06139171, -0.0733265, 0.054854393, -0.018309657, -0.0161641, 0.047103923, -0.039491862, -0.033240195, -0.03349949, 0.05856061, -0.04527338, -0.02610723, -0.01038859, 0.048787937, 0.043264072, 0.00014546236, 0.0011857897, -0.048569348, -0.05199003, 0.046461277, 0.043480095, 0.0045817047, 0.006174963, -0.014924668, -0.013273629, -0.07112418, -0.027052406, -0.07822573, -0.012465644, -0.07006444, -0.052646123, -0.040110137, -0.024660258, 0.061342563, 0.0785496, -0.017871628, 0.054567996, 0.044331104, 0.04367268, -0.093545124, -0.024541374, 0.038267244, -0.05116948, 0.011962201, 0.06057307, -0.0945685, -0.067964815, 0.035545923, -0.013770979, -0.06923341, -0.033030637, 0.026146006, -0.022261294, -0.024771355, -0.02334128, -0.06594617, 0.028496668, -0.047083184, -0.057120297, 0.009620827, 0.025578741, -0.040155753, -0.0782863, -0.10188314, 0.04420074, 0.005003707, 0.0011778027, 0.048878267, 0.00079800707, -0.057510715, 0.060065463, -0.040781856, -0.02543613, -0.05116047, 0.048405126, -0.021105565, -0.050108813, 0.009973422, -0.05558833, 0.032166038, -0.051810887, -0.057266593, 0.041832387, -0.015735583, 0.0051094866, 0.07416539, 0.0070320186, -0.069537975, -0.027355887, 0.07142861, -0.0623226, 0.068257555, 0.028571587, 0.051122263, 0.009034984, 0.040402006, -0.07393503, -0.014596555, -0.012346634, 0.027301416, -0.07175866, -0.060386676, -0.037318893, -0.08425432, 0.026527444, 0.017233793, 0.055647418, -0.011395715, -0.0028778343, -0.0611496, -0.007197489, -0.041795436, 0.031537652, 0.052775145, -0.012154628, -0.020050012, -0.042990237, 0.039658252, 0.014111013, -0.03272174, -0.09078234, 0.03900647, 0.049171828, 0.035006236, -0.01632525, 0.010514773, -0.031307146, -0.06594922, 0.001320824, 0.018336305, 0.060943946, 0.05625215, -0.05322064, 0.031385653, -0.055480346, -0.060548313, -0.040384714, -0.066326454, 0.056851618, -0.023063524, -0.018096238, 0.034218892, -0.045595426, -0.049831267, 0.06396529, -0.089057244, 0.014227189, -0.08293452, -0.009351813, -0.06594649, -0.10722171, -0.042248245, 0.059007045, -0.008724034, 0.03494911, -0.013405718, -0.036772225, -0.030410917, -0.051190127, -0.018373646, -0.02285586, -0.015029978, -0.09214539, -0.06274767, -0.056924574, 0.037027776, 0.02676197, 0.017699327, 0.014415127, -0.06418212, 0.015670396, 0.018103711, 0.0016882597, -0.04940896, -0.02043958, -0.01074568, -0.0023516417, 0.065187275, 0.022360595, -0.03595458, -0.016916523, -0.08469064, 0.0509701, -0.063855946, -0.0086917775, 0.023139536, -0.029368667, 0.013313823, 0.060970947, -0.050597742, 0.046178646, 0.024978979, -0.040887352, 0.0028718938, -0.007252291, 0.017659716, -0.032264687, -0.00043624252, -0.06438613, -0.080573596, 0.010825612, 0.008453339, -0.07319882, 0.053605977, 0.05892907, 0.03535419, -0.06144639, -0.050083656, 0.040368058, -0.04550327, 0.039852627, -0.08865886, 0.042046547, 0.04034143, -0.06694769, 0.012853213, 0.03831041, 0.057700634, -0.062472224, 0.068628356, 0.052341707, -0.06565204, 0.060762927, -0.0068717836, -0.0846782, -0.032383624, -0.09221911, 0.057522114, 0.017860528, -0.03292078, -0.058101453, 0.019322924, 0.036446404, -0.05360541, 0.06246853, -0.0924454, 0.009407118, -0.08360763, 0.030962398, -0.0066345413, -0.009441346, -0.065987065, 0.01579581, -0.1045658, -0.09889598, 0.0077914163, 0.03733722, -0.003226988, -0.036697675, 0.05320452, -0.042957883, -0.020339113, -0.039997835, -0.013441801, 0.062073644, 0.0015252379, 0.05100012, 0.010479681, -0.050639637, -0.06958583, -0.06053732, -0.06389924, -0.027087532, -0.010945611, -0.09696088, -0.038185466, 0.044751953, -0.028175544, -0.005256027, -0.060306154, -0.04530609, -0.056876875, 0.073759675, -0.0034880175, -0.053076245, -0.07003081, 0.031958837, 0.00013951957, -0.020684086, -0.051116504, 0.042810243, -0.027770687, -0.058301747, 0.012843221, -0.026276633, 0.0003045483, 0.06661806, -0.08594614, 0.006629781, -0.016759865, 0.03468767, 0.024242343, -0.04658608, -0.0128282085, 0.011509281, 0.01346558, 0.0537513, -0.024917023, 0.0686415, -0.08234807, -0.029756773, -0.093986705, -0.047508113, 0.04752717, -0.053201564, 0.07102977, 0.020309128, -0.057080917, -0.06537808, -0.10283455, 0.055013485, -0.0318104, -0.020082563, 0.0695436, -0.08843472, -0.09881411, -0.030461395, 0.0170701, -0.019732712, -0.026492959, -0.061832644, -0.055737156, -0.025137976, -0.06552838, -0.07371364, -0.009763415, -0.07144449, -0.04436945, 0.037671126, 0.03177338, 0.058934502, 0.044271786, -0.012825448, -0.016399883, -0.08647448, 0.0012988562, 0.047623992, 0.044955704, -0.0635279, 0.001996513, -0.023649849, -0.005698286, -0.01740133, -0.0006909445, 0.036820013, 0.019794524, -0.069487244, -0.04983153, -0.07001559, -0.06402778, -0.05685681, 0.045467764, 0.032354407, 0.029640518, -0.08906176, -0.014153355, -0.055706076, 0.019684464, -0.010784659, -0.023572871, -0.0610025, -0.061555505, -0.07195026, -0.017822172, 0.07685817, -0.02567132, -0.018588895, 0.034590237, 0.046657592, -0.022717051, -0.016788637, 0.019674215, 0.0015262081, -0.06354659, -0.057467442, -0.07219637, -0.07022167, 0.026882775, -0.03755763, -0.12072853, -0.027305206, 0.023350775, -0.0057304613, -0.07527558, 0.0178686, 0.010493792, 0.059641168, -0.047599256, -0.05513725, -0.06959159, 0.037069097, -0.06833008, -0.040537186, 0.019859768, 0.06643427, -0.05292534, 0.042245023, 0.044852935, -0.07157628, -0.07046561, -0.053530328, 0.00852006, 0.01284124, -0.08377764, -0.0026795298, 0.07293615, 0.008115494, 0.030890614, 0.022762433, -0.041005127, 0.045948245, -0.066977225, 0.034327514, -0.058296967, 0.033398457, -0.008380356, -0.024454487, 0.026573442, -0.03291345, 0.057596933, -0.07851543, -0.049157105, 0.028480247, 0.0009987599, 0.047928106, 0.0054103713, 0.057605922, -0.04810954, 0.025613949, -0.010530925, -0.055398606, -0.052087564, 0.062941685, 0.06491688, -0.052912768, -0.08829129, 0.025734406, -0.060476378, -0.053439315, -0.01651502, -0.030102702, 0.024261817, -0.02410646, -0.030261964, 0.005754447, -0.02423092, -0.0032327296, -0.08056038, 0.0032378584, -0.07524221, -0.023213029, 0.0034879968, -0.0025560483, 0.008515039, -0.0044189245, 0.00064579316, -0.034351185, -0.05871601, -0.04935211, 0.060573958, -0.06878272, 0.031379297, 0.040106867, -0.10459993, -0.05114418, 0.05083656, -0.013181165, -0.07613835, 0.047413766, -0.07178298, -0.005347902, -0.0030980557, 0.05731227, -0.015523475, 0.0069117993, 0.00831379, -0.003964308, 0.01406125, -0.019411618, -0.08004541, -0.087452166, -0.06579847, 0.023675758, -0.05089524, -0.049628817, -0.07267817, -0.045115452, 0.03931361, -0.096886784, -0.05825945, 0.0067163855, -0.10344369, 0.033208784, -0.01931784, 0.029927263, 0.032352366, 0.05077389, 0.071112186, 0.04894444, -0.10367997, -0.09080101, -0.06884057, -0.0002892781, 0.049690425, -0.060533024, -0.0321664, 0.022654843, 0.020454997, -0.099042684, -0.0694341, -0.051684704, -0.07836487, 0.06892641, 0.0016510701, 0.06426917, -0.0720167, -0.06997932, 0.043196797, 0.03297636, -0.08675469, 0.072802015, 0.03845671, -0.030810783, -0.07760699, -0.018216439, 0.0019087642, 0.031795334, -0.0013698111, 0.050621115, 0.061075654, 0.028086819, 0.039969653, -0.036080733, 0.007245347, -0.026435565, -0.06162728, -0.025650892, -0.00082570314, -0.058243692, -0.028219717, 0.07083484, -0.063500285, -0.033172138, 0.03480153, -0.022152608, -0.042277813, -0.022035945, 0.035570662, -0.038106993, 0.0023346469, -0.07970947, 0.011969495, 0.022626577, 0.0048859254, -0.031594716, -0.08906571, 0.06136653, -0.03984207, -0.013922359, -0.03959858, 0.01534272, 0.05591862, 0.013688143, -0.060367927, -0.046709202, 0.06491844, 0.03456758, -0.035434127, 0.017640961, 0.06382313, -0.03347531, -0.087394066, 0.010793163, -0.06768613, 0.029771816, 0.027170727, 0.016386941, 0.00097238447, 0.074255064, 0.03872572, -0.03236373, -0.02768321, 0.042741515, -0.018152354, 0.012573852, -0.020537063, 0.035308197, -0.08570352, -0.031042736, 0.016107962, -0.079627804, -0.0730641, 0.03419161, -0.048799433, -0.0525359, -0.013382789, -0.07693651, 0.040831707, 0.039160553, 0.03275536, 0.059738643, 0.07348293, 0.07334258, -0.06472182, 0.035473023, -0.013507965, -0.06314023, -0.026160048, -0.08131011, -0.009518199, -0.08838963, 0.004977972, -0.10292203, -0.05150664, -0.010345116, 0.0045319833, -0.06972125, -0.02931506, 0.05977021, -0.07752988, -0.026415505, -0.112871215, -0.009248017, -0.09114556, -0.047689054, 0.014753245, 0.05766693, -0.08096418, -0.019622458, -0.01919117, 0.0556975, 0.023160353, 0.071614586, -0.0017992407, -0.05655694, -0.045774736, 0.010177388, -0.036101703, 0.031185951, -0.06069504, -0.05873669, 0.030446203, -0.019806705, -0.008913055, -0.1106774, -0.0064518396, -0.055880964, -0.057351947, 0.039194297, -0.036536437, -0.042176474, 0.03168181, -0.055103686, 0.049229965, -0.0739471, -0.054697543, 0.06173612, 0.023519022, 0.04920794, -0.046370175, 0.03730018, 0.010782778, -0.016085757, 0.038415365, 0.055421375, -0.06973252, -0.031382624, 0.0042186184, -0.00146329, 0.03416538, -0.014533696, -0.0049331547, -0.03855455, 0.05710627, -0.095054045, -0.041941367, -0.09530272, 0.00177861, 0.011256673, -0.06455183, 0.012469481, -0.090727046, -0.05333571, 0.011027598, -0.02625707, 0.022701295, -0.09268787, -0.045048818, 0.050439723, 0.072334185, 0.038014002, -0.081353225, -0.022873325, -0.054766033, -0.016600247, -0.06297274, 0.05404069, 0.034172878, -0.06881796, -0.11255886, 0.034079242, -0.020028673, 0.0726234, -0.10806265, -0.02553482, 0.020398445, -0.073453695, 0.04340916, -0.032585736, -0.056119986, -0.062122796, 0.012369068, -0.05992525, -0.055378437, -0.051194306, -0.029298065, -0.0026264787, -0.04402594, 0.04004859, -0.09409104, -0.018225506, 0.054126848, -0.024429627, -0.10335426, -0.019049456, -0.016128357, -0.093755364, -0.0005148873, 0.023113793, 0.009488016, -0.014035672, 0.0016580969, -0.06288612, -0.0445057, 0.058319766, -0.01853303, 0.05194126, 0.0011631995, -0.06545686, -0.022813303, 0.0023648804, 0.03862969, 0.0578369, 0.023892201, 0.013418991, -0.008853967, -0.022264153, 0.028215839, 0.049183715, 0.015692668, 0.0019547078, -0.015911167, 0.059479907, 0.03855694, -0.008988529, -0.014698649, 0.023693569, 0.000104890314, 0.04111073, 0.002107963, 0.022959143, 0.06135191, -0.008663979, 0.026058797, 0.083108164, -0.03931371, 0.025688956, -0.084833875, -0.057948753, 0.0074343416, -0.021192882, -0.05546705, -0.12948883, -0.022376643, 0.022013657, -0.048547894, 0.050350096, 0.04350268, 0.029269444, -0.049750004, 0.0575258, 0.069408774, -0.08120353, -0.064559124, -0.010623537, 0.041550457, 0.054966897, -0.06133889, -0.05588672, -0.014929518, 0.048184868, 0.03253702, -0.05081292, 0.012369841, 0.019667313, -0.040908422, 0.038261928, -0.030353375, 0.0109025445, -0.0047338842, 0.04610277, 0.06177625, 0.009422939, -0.06559479, -0.042932563, -0.042725418, 0.0025318386, -0.074982405, -0.054183494, -0.06892569, -0.045979694, -0.039340857, -0.057955872, -0.089215465, -0.04424605, -0.031615086, 0.06103626, 0.00835143, -0.062729485, -0.11092205, -0.027004631, -0.047434136, -0.032864206, -0.059772395, 0.014447703, 0.013652638, 0.030011602, -0.06887285, -0.036460765, -0.04985354, 0.0027406153, -0.09336144, 0.021268733, 0.03815905, -0.009652309, 0.002604111, 0.0055078547, 0.026558835, -0.029172247, -0.0022156953, -0.022185987, -0.036845125, -0.027702421, -0.079577, -0.020903315, -0.048427157, 0.041935794, 0.015637867, 0.024763882, -0.03513618, 0.004785046, -0.012696913, 0.02873476, 0.057167873, -0.013867666, -0.008737452, 0.04425975, 0.033726238, -0.010281511, 0.02435232, -0.044809755, -0.07746292, 0.048319865, 0.0005417034, -0.027802505, -0.07870569, 0.02065701, -0.0100576775, -0.09990045, -0.01159492, -0.044954367, 0.00086732063, -0.049223635, 0.038685896, 0.06752058, -0.075521, 0.06416855, -0.00049295765, -0.0016850741, -0.0010709113, -0.0053239916, -0.020039603, -0.056940068, -0.043993812, -0.076557204, -0.033712134, -0.057963554, 0.065305114, -0.021310601, -0.041549098, -0.07423975, 0.051435664, -0.032709997, -0.053307988, 0.051227987, -0.008536375, -0.042395517, 0.07056338, 0.033431433, -0.014855588, 0.017996484, 0.03223061, -0.062587634, 0.004908051, -0.051501326, -0.04365334, -0.03925902, -0.050869823, 0.04173683, 0.0487348, -0.05577489, -0.0037023684, -0.06993735, 0.04522464, -0.02966575, 0.00025686622, -0.065446, -0.028657984, 0.0062836125, -0.0334672, -0.049663093, 0.0038014303, -0.06490533, 0.058265813, -0.0048552146, -0.00062733825, -0.024054369, 0.055042617, 0.040923253, -0.00014839016, -0.081671014, -0.05900999, -0.038198102, -0.07117273, 0.020289285, -0.024590759, -0.047052316, -0.039279003, 0.019284088, -0.018492565, 0.042851985, -0.024219552, -0.049681965, -0.03250501, 0.06390077, -0.05253013, -0.031944364, 0.04463608, -0.08775347, -0.00404808, -0.08776799, 0.055996805, -0.03734654, -0.064717725, -0.010665863, 0.028229289, 0.0071617914, -0.04283289, 0.057303544, -0.001557312, 0.019775666, -0.07414705, -0.004039943, 0.022088083, -0.057380505, -0.06917921, -0.07072216, -0.014211028, 0.032152943, 0.0079183, -0.069048114, -0.011654382, 0.05887511, -0.06836222, -0.035219762, -0.080752105, -0.037277345, 0.0073590623, 0.0052426755, 0.008728416, -0.015256717, 0.02916, -0.071144104, -0.017194655, -0.024458343, 0.076380186, -0.0022849143, -0.071521, -0.03491763, 0.005594903, -0.041628398, 0.0018036037, 0.05490527, 0.026139263, -0.031907547, -0.06923324, -0.030781824, -0.0049558943, 0.04076195, 0.010310707, -0.00057996897, -0.037619747, 0.03850382, -0.07860995, 0.06343477, -0.024867376, 0.028179932, 0.022750072, -0.009603456, 0.042105496, -0.03227828, 0.011777611, -0.0056319055, -0.042477787, 0.041710373, 0.0020140186, 0.052275803, -0.07211557, -0.0055298544, 0.006708804, -0.010526709, 0.02571842, 0.019194582, -0.044126034, -0.03755447, -0.077894986, 0.051695943, -0.07722949, -0.050683293, -0.0828605, -0.068418905, -0.035612583, 0.02622961, -0.051946692, 0.053397052, -0.04651556, 0.050315555, -0.026264437, -0.034924112, -0.02755664, -0.054375753, -0.040415894, 0.011936292, -0.071765825, -0.012673089, 0.06388648, -0.069350794, -0.04956767, -0.063468754, -0.057831805, 0.030149706, -0.07250165, 0.048563067, 0.00895284, -0.06560545, 0.022691488, -0.0682722, 0.0099104475, -0.044417467, -0.0309255, 0.025088064, 0.04001466, 0.066772714, -0.021873524, -0.04134972, 0.0029713586, -0.030680181, -0.008263812, 0.028413706, -0.046021115, -0.015406564, -0.042407982, -0.06794144, 0.0029967176, -0.05961804, -0.06444102, 0.03996573, 0.022414219, 0.05092229, 0.06300022, -0.029270628, 0.06883547, -0.061598983, 0.0014762066, 0.005628845, 0.07094048, -0.0005994335, -0.04816311, -0.013466112, -0.035165027, -0.06756788, 0.05544462, -0.013924306, 0.040312417, -0.03886326, -0.03929848, -0.018168956, 0.05666149, -0.043913584, -0.05932296, 0.02712116, 0.029717356, -0.037996963, -0.080985665, 0.033791065, 0.024153829, -0.05317619, 0.027918562, 0.023619827, 0.01144281, -0.033509426, 0.0024215952, -0.016649973, 0.021623803, -0.050266497, -0.042654544, -0.050635885, -0.05470266, 0.03602361, -0.06503334, 0.009610935, -0.057306856, -0.027829424, 0.018206676, 0.023715224, 0.034115642, -0.06160197, 0.029790323, 0.052504826, 0.018850878, -0.038087077, 0.029926432, 0.029130198, -0.07173044, -0.07924682, -0.018397324, -0.00057950616, -0.018808521, 0.050098106, 0.041947275, 0.008531055, -0.10154843, -0.07034697, 0.033708774, -0.006295161, 0.0689731, -0.06517669, 0.041722078, -0.044569008, -0.0011264607, -0.03653452, -0.0044337483, -0.067471646, -0.030140826, -0.0090990225, 0.027823139, -0.055947866, 0.013727268, 0.050400928, 0.028870985, -0.03846883, 0.024074648, 0.009419617, -0.03230163, 0.06473487, 0.027572177, -0.00442221, 0.034652866, 0.05889751, -0.014031595, 0.015446901, -0.00019183755, -0.0314002, -0.0693734, -0.09635148, -0.064617746, -0.001012694, -0.059661202, -0.031401, 0.038747195, 0.016581941, 0.044165943, -0.01365125, -0.012430392, -0.08176458, 0.013045274, -0.0043739905, 0.034334794, 0.024986967, 0.00041414052, -0.07057987, 0.050537955, 0.008915677, -0.024430687, -0.029822437, -0.033952612, 0.009767525, -0.046693407, -0.07031823, -0.026959706, -0.0058277994, 0.036067754, -0.008475322, 0.049921904, 0.026449513, -0.0003158008, 0.0030086737, -0.05005637, 0.010674445, -0.025958862, -0.058418047, -0.020542916, 0.022418078, 0.014589682, -0.05365424, -0.030437093, 0.0592698, -0.002428483, -0.05089503, 0.02968549, -0.0049884347, 0.0090036085, 0.059313606, 0.013655746, -0.01760294, 0.008806156, -0.0874509, 0.021011487, -0.007485163, -0.0025323257, -0.04612081, -0.04209816, 0.07185553, -0.011481423, -0.058631063, -0.015086837, 0.040962376, -0.012101393, 0.014908665, -0.066644564, 0.041798227, 0.07483595, 0.07264447, 0.03812438, -0.019541146, -0.06602806, 0.03205991, -0.056582775, 0.0043525123, -0.069403924, -0.08430036, -0.073759876, -0.06839544, -0.05099553, -0.040120777, -0.08099825, 7.31016e-05, 0.017473564, 0.032624055, 0.024724856, 0.019000728, -0.053001367, 0.048088465, -0.053336866, 0.04599332, 0.00080388016, -0.020346962, 0.051824033, 0.044623096, 0.033569694, 0.026707888, 0.021857604, -0.07154547, 0.039864235, 0.026248092, 0.0164281, -0.030459989, 0.012505919, -0.070109695, -0.02519467, 0.035128996, -0.06547551, -0.057707347, 0.01618921, -0.0008966943, 0.03214877, 0.059740346, 0.023054909, -0.07964926, -0.03693013, -0.02433947, 0.0020804855, 0.017147608, 0.018613093, -0.017002374, -0.0338669, 0.03442061, -0.06294909, 0.047499858, -0.03458339, -0.018641857, 0.06426899, -0.06909227, -0.0374956, -0.0915672, 0.057441633, 0.030108802, -0.054854948, -0.029172074, 0.022556996, -0.042925518, -0.030332852, -0.06278633, -0.06197294, -0.07351395, 0.01882471, -0.011187079, 0.031311292, 0.014706798, 0.04574913, 0.021230156, -0.06509302, -0.013978952, -0.031367313, -0.07141389, -0.07782684, 0.0208857, -0.054977804, -0.071667165, 0.05878402, -0.074416846, 0.019911425, -0.019754654, -0.051530074, -0.0057164854, -0.044969447, 0.034229483, -0.056783486, -0.084358, -0.032778125, 0.018148184, 0.00040695816, -0.012603052, -0.011044027, 0.0024732575, 0.050722316, -0.061493386, 0.033647176, 0.028958634, -0.06364095, -0.04876708, 0.037865642, 0.025414692, 0.013032667, -0.075223684, -0.032309033, -0.035058964, 0.014854021, -0.030067855, -0.06816737, -0.071609214, -0.046862923, 0.036691055, -0.034449536, -0.05520576, -0.049374048, -0.015964687, 0.05926618, -0.011658067, 0.030196596, -0.034756087, 0.06256056, -0.08207684, 0.0052979933, -0.02178144, -0.020028725, 0.04843063, -0.01815217, 0.0017579587, 0.06712877, -0.043530725, -0.041251212, 0.057513345, -0.04440752, -0.06555484, -0.044026114, -0.045460053, 0.0051509673, 0.017206432, 0.057093687, -0.08542493, 0.056561902, 0.052543312, 0.047340788, -0.05616675, 0.03999327, -0.056145467, -0.040391844, -0.00033907083, 0.026449665, -0.03447774, -0.03182728, 0.027024973, -0.06720927, 0.004060528, -0.07166745, -0.044201523, -0.044385497, 0.055187434, 0.051749792, 0.07142167, -0.06477074, -0.06711085, -0.05297336, 0.029959481, -0.058846045, -0.031189296, 0.04059519, 0.04899279, -0.0047612176, -0.05994074, 0.050218955, 0.025985591, -0.060589448, -0.07019372, -0.05942955, 0.0095906705, 0.021313531, 0.013780706, 0.030926928, -0.08920815, -0.035283048, -0.031596687, 0.048763715, -0.0531869, 0.051527034, -0.07921388, -0.040180422, 0.039068457, 0.02795271, -0.020797286, 0.04687804, -0.04983271, -0.06337785, -0.018323451, -0.010732546, 0.005657587, 0.008169453, -0.069973744, -0.012997683, 0.046275854, 0.005797331, -0.051322438, 0.044344172, 0.030741036, -0.011455633, -0.018780332, 0.05563723, 0.021016607, -0.08785463, 0.009310222, 0.0007871835, -0.042511955, 0.062115356, 0.03732679, 0.03642886, 0.040221907, 0.025280006, -0.0026293162, -0.0383855, 0.025319718, -0.06586512, 0.0197808, -0.03771226, -0.04172794, -0.013473198, -0.05601215, 0.0029017834, 0.00441627, 0.04212852, 0.00071828446, 0.03415303, -0.03603702, 0.04013721, -0.031328663, 0.060709104, 0.028589027, 0.0050423, -0.048721254, 0.032111008, 0.04513315, 0.007860741, -0.07773725, 0.040446475, 0.039295625, 0.023314193, -0.06738938, 0.04211498, 0.038309738, -0.04982164, -0.013449636, -0.06648898, -0.0522453, -0.04150049, 0.009115666, 0.06821479, -0.0049994714, 0.009931847, -0.053154524, -0.056423433, -0.074687436, -0.06757864, -0.0024951915, -0.033917587, -0.03394333, 0.029058551, -0.030624295, -0.030420057, -0.080684245, -0.026292834, 0.05570131, 0.026813019, -0.08015494, 0.055083893, 0.02105468, 0.009930871, 0.028767494, -0.0126145445, -0.03676043, 0.04037852, -0.034543976, 0.023950005, -0.06529511, 0.054304644, -0.0489859, 0.04698716, 0.06234677, 0.042113822, 0.000575684, -0.032842863, -0.08101822, 0.040187422, 0.018229837, 0.01298387, 0.00035820497, -0.06714662, -0.015263077, -0.046066996, -0.043623883, 0.046086334, 0.034025703, -0.04972721, -0.06121066, -0.011623712, -0.0021311939, 0.034737997, -0.025292214, 0.016647898, -0.06331453, -0.0036577731, -0.07018483, 0.0720135, -0.010072567, -0.06192237, -0.08960972, 0.008127907, 0.032907665, -0.020106673, 0.029397026, 0.03483532, -0.04262866, -0.02653791, -0.06216477, 0.06408993, -0.07372009, 0.0006950621, -0.052506275, 0.07107046, 0.02874253, 0.018487731, -0.027722368, -0.08738187, -0.010325723, 0.031763516, 0.03133923, 0.055445556, -0.048507582, 0.055815767, -0.046998687, -0.10862558, -0.012428957, -0.017849002, 0.05978262, -0.009229504, -0.045169674, 0.009065861, 0.042788707, 0.07034679, -0.039889608, 0.037359104, -0.035819303, 0.028331524, 0.01914676, -0.046000812, -0.030511143, 0.0643475, 0.018101702, 0.05002988, 0.023366267, 0.07606025, -0.08461711, -0.08448116, 0.07072589, -0.0058616996, -0.07470967, -0.0055347607, 0.028483517, -0.055922195, 0.06727256, -0.039344553, 0.06290641, -0.009920076, -0.0912388, 0.03445687, -0.018881742, 0.01798094, 0.05077131, -0.059858367, -0.076476365, -0.028035417, -0.052727014, -0.10896718, 0.038296714, 0.04820568, 0.015317849, 0.0013617451, -0.07231139, -0.057110287, 0.013194649, -0.0064317193, -0.09282444, -0.066952504, -0.012168353, 0.041550815, 0.06443463, -0.08694377, -0.051002074, -0.06998111, -0.041761316, -0.0009995416, -0.0042008176, 0.011636119, 0.024147352, -0.0031000685, -0.014006925, -0.011073977, -0.023873242, 0.034276046, -0.019112613, 0.034928177, -0.08447435, 0.024034813, 0.037984066, -0.064401425, 0.029240027, -0.07192727, 0.053187612, 0.029723983, 0.03234734, -0.040757507, 0.024892133, 0.00883976, 0.0050575873, 0.07847449, -0.042838033, 0.002565165, 0.06826528, 0.008241586, -0.03043977, 0.0097020855, 0.030921258, -0.036869258, 0.062490597, 0.05545343, -0.029879296, 0.054256946, -0.028275043, 7.220358e-05, -0.025784455, -0.053732242, -0.019059137, -0.059929967, 0.0022927956, -0.06654182, 0.0201656, -0.058377545, 0.04862307, 0.06518029, -0.0020764167, -0.05522803, -0.06668658, 0.01655849, -0.0613548, 0.018933672, -0.07359513, 0.016310936, -0.055893693, 0.039235096, 0.019092819, 0.0014160468, 0.018639645, 0.019380374, 0.018975638, 0.0077695916, 0.048533417, -0.037068162, 0.03404773, 0.0027790882, 0.052852865, -0.056440182, -0.055837974, -0.0156476, -0.042598877, 0.01114441, 0.043656755, 0.021322787, 0.030349173, 0.022720484, -0.022432175, -0.044201262, -0.023702988, -0.02092039, -0.011203854, -0.07839974, -0.043669645, -0.029890716, -0.050883528, -0.057504304, 0.0069958046, -0.06013686, -0.02053809, 0.029917337, 0.046670664, -0.082143426, 0.010882936, -0.10448229, -0.017922267, -0.05086217, -0.051608473, -0.015052695, -0.01849099, 0.017346792, -0.09748108, -0.04476727, 0.022487149, -0.0032641727, 0.021131888, -0.077449985, -0.06978569, -0.02231271, 0.040861886, 0.055991977, 0.0443428, -0.032346096, 0.018850598, -0.045581322, 0.014037944, 0.053960502, 0.04601349, 0.010614529, -0.05947638, 0.04782733, 0.029995836, 0.033961967, 0.024569402, 0.03584825, 0.06621511, -0.016182445, -0.029680079, 0.049792748, -0.058623277, -0.08713224, -0.030460782, -0.05925303, -0.03767432, -0.02133279, 0.011234074, -0.06682725, -0.064935744, 0.026723444, -0.07873582, -0.062563874, 0.05702944, -0.032269277, 0.045446064, -0.006795804, -0.035479426, 0.019700889, 0.007481238, 0.0214033, 0.0017753273, 0.035239737, -0.06839881, -0.036195803, 0.0063445666, 0.03568887, -0.019674568, -0.0013285694, 0.019434504, 0.008702781, 0.016131207, -0.008962467, -0.06935957, 0.06081994, 0.034030143, 0.052103013, 0.044354837, 0.032051347, 0.06410621, 0.05686392, -0.065252796, 0.035541333, -0.0010899316, -0.08955896, -0.031831674, 0.068199165, -0.0576379, 0.051939327, 0.012440635, 0.03866323, 0.014696398, 0.03614239, -0.07017607, 0.04207328, 0.009417315, 0.013472713, 0.06938787, 0.050240915, -0.013781051, -0.0050889924, 0.024973951, -0.065115035, -0.04927786, -0.07294481, 0.04742946, -0.04342153, 0.047103725, 0.02892197, -0.054458905, -0.02864848, -0.024225514, 0.0435753, -0.03657378, 0.028691605, -0.08979059, -0.010771941, 0.032849163, -0.066779025, -0.050475948, -0.07756301, -0.06764368, -0.024729427, -0.0040125265, 0.025082713, 0.03276192, -0.075398855, 0.015910735, 0.02337864, 0.03061176, -0.056584194, -0.048982587, -0.018183762, -0.07217761, 0.02241043, 0.058627754, -0.070145115, 0.03092835, -0.009269565, 0.047835395, -0.07396344, 0.058254786, -0.03796076, -0.0075065494, -0.002677551, 0.00445465, -0.00062153157, -0.01575488, -0.050680272, 0.039305616, 0.026651502, -0.06583468, -0.07219649, -0.020082742, -0.075670116, 0.03021983, -0.076523244, -0.013299674, -0.06827599, 0.0041765687, -0.048476465, -0.011664514, -0.016981712, 0.019333765, 0.028157875, -0.02936683, 0.06642779, -0.037176985, 0.022024056, -0.048269086, 0.027384197, -0.06047901, 0.016552448, -0.04590997, -0.05595632, -0.05072385, 0.064052574, 0.06097223, -0.065838516, -0.0184149, 0.0039885845, -0.025680624, -0.04029938, -0.03327519, 0.04210344, -0.05071566, 0.034949336, -0.06686444, -0.059363324, -0.06112869, -0.059961185, -0.06888927, 0.019176679, 0.03898257, -0.0077967793, 0.039014447, 0.010425536, -0.004691832, 0.011816719, -0.0022831783, -0.028273977, 0.013715328, 0.032532103, -0.03363956, -0.04550898, 0.0022858314, -0.005276712, 0.052649543, -0.075817615, -0.009887695, -0.054761633, 0.051044192, 0.020977046, -0.007001877, 0.011222456, -0.07894866, 0.024650866, -0.11036168, -0.06326854, -0.0012370687, -0.10295687, 0.060328573, 0.029782237, 0.0034170893, 0.007643404, 0.018196452, 0.060788903, -0.045664806, -0.04180955, -0.044082083, -0.0780489, -0.025499312, -0.068639696, -0.05861598, -0.006427422, 0.021212649, -0.04124236, -0.049826413, 0.059221193, 0.06508166, 0.025119811, -0.043700173, 0.03198219, 0.04666414, -0.044282142, 0.07399514, -0.022236465, 0.050005, -0.075875826, 0.024295239, -0.09231172, 0.04961766, -0.013050321, 0.019579541, -0.04161432, -0.04075048, -0.05561153, -0.07350258, 0.0035343543, -0.04885485, -0.07822772, -0.04203311, 0.066617444, 0.06386384, -0.04355187, -0.009482889, 0.07145491, -0.016662328, -0.03220602, -0.0014714272, -0.029576417, -0.056141265, 0.045732256, -0.02259788, -0.004905939, -0.0010422464, -0.0141172465, 0.038353186, 0.059736475, -0.06588815, 0.0137795955, -0.07944005, -0.0792822, 0.016509324, -0.0041320967, -0.07952982, 0.057671938, -0.04185982, -0.017667558, -0.086498395, -0.040430605, 0.011444556, 0.03397032, -0.067159824, -0.06915273, -0.0496689, -0.009538911, 0.0037338957, -0.07843543, -0.10479226, 0.04387307, -0.036014292, -0.039703343, 0.027366651, 0.014214537, -0.092557095, -0.012225382, -0.042102035, -0.016965413, 0.053698942, 0.019949393, 0.037317023, 0.048646647, -0.037346847, 0.04938584, 0.026184669, -0.030796777, 0.016304087, -0.028795734, -0.076034755, -0.06592195, -0.04410885, 0.056660235, -0.06557355, -0.0025114946, 0.017112166, 0.03484381, -0.0663678, -0.02414372, 0.023083605, -0.02944677, 0.015912492, -0.061062858, -0.0757014, -0.068645865, -0.02945394, -0.014640444, 0.051286027, -0.07492933, -0.01390297, -0.020817516, -0.0037397384, -0.007486619, 0.019042341, 0.023466418, -0.0839716, -0.06372327, 0.051709935, -0.058914088, 0.026967663, -0.055632032, -0.050023083, -0.022099046, -0.0058658062, -0.109080456, 0.06263788, 0.041783053, 0.014339544, -0.04277291, -0.037411943, 0.06651172, 0.011181922, -0.067586794, -0.07838159, -0.023516674, -0.023257203, 0.048140183, -0.0021986067, -0.048355166, 0.06658084, 0.0479972, 0.039303154, -0.021439677, 0.027334519, 0.016102776, -0.050832186, 0.024299562, 7.3128045e-05, -0.06655464, -0.018216413, -0.059734613, -0.041293286, -0.013964595, -0.060859993, -0.02124276, -0.07215036, 0.012153509, -0.07190119, -0.052939773, -0.001410678, -0.07384071, 0.072448656, 0.0596629, -0.003814243, -0.014195584, -0.08068998, 0.023792788, -0.063942224, -0.012403655, -0.052136503, -0.04179217, -0.079700455, 0.055399366, -0.026564656, -0.034658413, -0.041549098, -0.030647628, -0.061297964, -0.02384238, -0.063654885, -0.059498675, -0.064087115, 0.03210222, -0.024915935, 0.018201493, -0.005947711, 0.062363405, -0.08876458, -0.0048311353, -0.020013912, 0.0719613, -0.0033850048, -0.03691763, -0.016560338, -0.08726757, -0.087265566, -0.09553719, -0.063724734, 0.03741879, -0.045402907, -0.04963458, -0.014160452, -0.0974663, -0.020323256, 0.03116379, -0.032680657, -0.064473525, -0.0028699115, -0.094847016, 0.059034698, -0.070611425, 0.026660766, 0.006803162, -0.017420439, 0.033009592, 0.00863595, -0.05371927, 0.029127328, -0.08076136, -0.0272673, -0.017182294, -0.003185791, -0.06582892, -0.07225549, 0.0021285096, 0.02514577, 0.0026851401, -0.0095864525, 0.062664926, -0.051296927, -0.048937596, -0.0509784, 0.0264377, 0.012282184, 0.03344562, 0.008709026, -0.06119251, 0.022421923, -0.111796886, -0.076011755, -0.03705473, -0.08704331, -0.051784948, -0.066699564, -0.020164724, -0.048952673, -0.006155172, -0.006355214, 0.07276875, -0.02503251, -0.062800206, 0.03597515, 0.00364291, -0.059124053, -0.06350237, -0.0785481, -0.053758822, 0.057461128, -0.025044495, 0.014058467, -0.09259359, -0.04999323, 0.030689627, -0.0011065081, 0.025151024, -0.06569683, -0.006860597, -0.008047501, -0.046201944, 0.004527999, -0.023460325, 0.053082585, 0.014848462, -0.054622646, -0.0019746155, -0.032120164, -0.078404434, -0.061538428, -0.028000591, 0.06590174, 0.010125015, 0.033555865, -0.08952273, 0.04336549, -0.069862686, -0.009295809, -0.025121069, 0.05961062, -0.07178029, 0.049943805, -0.013115527, 0.03268591, 0.05460313, 0.038235545, 0.021795198, 0.055695944, -0.023553664, 0.052536678, 0.0258037, -0.06877765, -0.062801935, 0.03259281, -0.09477549, 0.058101345, -0.035678953, -0.066817984, -0.0117882565, -0.042158622, -0.031141214, -0.05456491, 0.020494046, -0.08047381, -0.053052925, 0.008782383, 0.018246252, 0.019442722, -0.034337323, -0.0651404, -0.019630793, -0.04041048, 0.06469969, -0.024218395, 0.016477594, -0.04294217, -0.012336058, 0.006340673, 0.06589216, -0.0683908, -0.032594196, 0.025745127, -0.032714516, -0.097490005, 0.021520272, 0.013798488, 0.030126892, -0.041623253, -0.06549369, -0.045944054, 0.05228405, -0.10776003, 0.040198658, -0.040485963, -0.0054155407, -0.013108302, -0.009573794, -0.047797695, 0.0062476858, -0.07554837, -0.054197393, 0.030277783, -0.10509916, 0.05945854, -0.04175856, 0.07098445, -0.0019835948, -0.060505312, -0.056974985, -0.017170938, -0.029716969, -0.0035043103, 0.073440894, 0.036687694, 0.03740372, -0.07142638, -0.022816379, -0.06092741, 0.027760174, 0.03430681, -0.073770985, -0.03467956, -0.0055598845, 0.019265419, 0.0051707868, 0.041915927, -0.03438609, -0.0019075753, 0.034986638, -0.03434794, 0.007965277, -0.07166425, -0.034534097, -0.090732634, -0.07855462, -0.03776215, 0.0065326407, -0.036374927, -0.10161448, -0.070601106, -0.079256766, 0.018111868, -0.010303289, -0.054746967, 0.05797024, -0.034373093, -0.03891287, -0.0722759, 0.044707377, 0.037230037, 0.035408076, -0.0038062483, -0.043790907, 0.011679144, 0.039999623, -0.056622446, 0.048160926, -0.0386694, -0.047692917, 0.021768907, 0.05464964, 0.011889479, -0.044796903, -0.023490554, 0.031629384, 0.057168838, 0.013656394, -0.033096682, 0.035277553, 0.05577877, 0.0015371912, -0.04331761, 0.010717817, -0.020872712, -0.04814908, 0.02841952, 0.039732944, -0.060913052, -0.03431248, -0.07245319, -0.0068275835, 0.02320075, 0.01969898, 0.005290072, 0.0191038, 0.014750333, -0.050671645, 0.03380405, 0.048281625, -0.055900235, -0.040062, -0.026192853, 0.009788327, -0.04231165, -0.027172616, -0.03872767, 0.013874048, 0.047787298, -0.05858907, -0.066489495, -0.10438871, -0.053801477, -0.034861837, -0.027032146, -0.07878642, -0.045799617, -0.0122741945, -0.06247279, 0.0015812507, -0.027910529, -0.026974501, -0.042013798, -0.052173745, -0.06088711, 0.06145999, 0.048711747, -0.0663425, -0.053970285, -0.042873707, 0.009921597, -0.02771722, -0.05154343, -0.010087245, -0.013346933, 0.050543584, -0.07772122, -0.0047647725, 0.048055552, 0.047438286, -0.039521586, -0.0141763585, -0.043931745, -0.013055315, 0.0047764108, -0.037821215, -0.06703318, -0.013140142, 0.004490065, -0.06679341, -0.019960517, 0.010917589, -0.0060112923, -0.039454173, 0.04138447, -0.037258282, 0.019006617, -0.03385583, -0.017638719, 0.061292935, 0.04223916, -0.039535914, 0.047436416, 0.051587053, 0.019450162, 0.006229951, -0.08380747, 0.007481274, -0.01868051, 0.047909312, 0.0070203017, -0.09387581, 0.01607605, -0.046869677, 0.033468723, -0.050719745, -0.006575193, -0.0798184, 0.008023681, 0.027463438, -0.086398534, 0.03277103, 0.04003464, 0.07671945, 0.0007779363, -0.096362405, 0.009674978, -0.034108024, -0.040252328, 0.035250355, 0.032359913, -0.06552273, -0.070955046, -0.009598052, -0.11056097, 0.02797535, 0.05289423, -0.018046275, -0.01625666, 0.04633971, -0.07575097, -0.058250356, -0.061894424, 0.038774572, -0.005039357, -0.08369218, 0.06666118, -0.02180143, 0.06871262, 0.022199638, 0.035434008, 0.019414112, -0.06697236, -0.034581672, -0.1034337, -0.015526995, 0.07378915, 0.024816662, -0.03613696, -0.004063725, 0.039124288, -0.019292062, -0.050362226, -0.06674805, 0.02274363, 0.025143802, -0.047525033, 0.007923402, 0.057616524, -0.027886348, 0.0023179024, -0.023327606, -0.04701219, -0.06234012, -0.009611694, -0.011200598, 0.051911555, -0.05831049, -0.037235655, -0.032457042, -0.041083027, -0.03823638, 0.019120187, -0.046627063, -0.0034811306, -0.07317939, -0.06175114, 0.041487012, -0.05802843, -0.019519884, 0.022525609, 0.06409973, 0.014483996, -0.060468912, -0.039115235, 0.05497121, -0.015140012, -0.04843725, -0.06180663, -0.07764216, -0.023845175, 0.06814843, -0.10081307, 0.048255842, 0.049141843, -0.04215503, 0.03754242, -0.044726744, 0.02765833, -0.03445112, -0.024126653, -0.06384245, -0.07103753, -0.043834925, 0.015614012, 0.053892523, 0.0006614554, 0.05234109, -0.009268392, -0.06926152, -0.043887306, 0.054167535, -0.035235446, 0.016859207, -0.026619835, -0.04997746, -0.025253955, 0.030927792, -0.044600293, -0.045011923, 0.05274701, 0.0045514326, -0.022047207, 0.052464448, 0.026944762, 0.06554639, 0.023981644, -0.07213946, -0.0721974, -0.052072696, 0.04578367, 0.035699528, 0.01220434, 0.07573434, 0.041130364, -0.11340853, -0.04068313, -0.08166584, -0.014362245, -0.008907706, -0.057938647, -0.0015332028, -0.07164862, -0.014815114, 0.0077925427, -0.0050146654, -0.015947375, -0.037360758, 0.04877536, -0.011415859, 0.013465678, 0.025904942, -0.011370982, 0.046711642, 5.3462256e-05, -0.054896016, -0.098318234, -0.00043614284, -0.004398353, -0.0146432705, -0.0350733, 0.05053795, -0.05202733, 0.057111476, -0.027338292, -0.04327365, 0.046309754, 0.040964786, -0.044929877, 0.0017387196, -0.035679914, -0.027536854, -0.07079196, -0.015095124, 0.018521734, -0.057148095, -0.019082502, -0.006972633, 0.045400906, -0.060776416, 0.029513003, 0.01908286, -0.026002584, -0.044350423, -0.020356147, 0.041548654, 0.008445485, 0.0142264785, -0.009170788, 0.038928084, -0.041215952, 0.009681714, 0.009800939, -0.028542718, -0.0900731, 0.052863218, -0.061076894, 0.015383555, -0.051002365, -0.07068656, -0.031041754, -0.083866976, -0.04330588, 0.0663369, -0.033108886, -0.024044817, -0.035072003, -0.015393292, -0.009576265, 0.05723813, -0.036055442, -0.00029381574, 0.046411596, -0.10174594, -0.022112217, 0.017110936, -0.008247929, -0.0017514854, 0.013524983, 0.046136394, -0.0915953, -0.073163524, 0.012989608, 0.033101775, -0.015832996, -0.0015719607, 0.0019975097, 0.014934169, 0.025650099, -0.05952236, 0.06820546, -0.0261602, 0.0036385383, -0.011565864, -0.06736865, -0.023295216, 0.015943492, 0.06669814, -0.006393321, -0.01473414, 0.03743352, -0.024791883, -0.04572735, -0.11408397, 0.023140289, -0.05821561, -0.04525836, -0.06500201, -0.058174577, 0.044337396, 0.015835801, -0.013168589, -0.06726018, 0.02097265, 0.047545053, 0.06177907, 0.01779823, 0.020745343, 0.03221116, 0.03193377, 0.045007177, 0.018146552, -0.07637697, -0.054302003, -0.07327897, 0.008497596, -0.059248436, -0.0283002, -0.03370648, 0.003770276, -0.011887689, -0.10234041, 0.020899719, 0.0024218261, -0.10848155, -0.049800616, -0.030698635, -0.012212263, -0.025752839, -0.07199847, -0.09366683, 0.031174773, 0.065042704, 0.0037645067, -0.10273969, 0.01854185, 0.029678656, -0.0355703, -0.047020737, 0.0034009814, -0.022794718, 0.011505524, -0.06812839, 0.04309183, 0.04377711, 0.0020322576, -0.03962687, -0.023173228, -0.024208149, -0.032712497, -0.023395414, -0.028675778, -0.016893629, 0.06456922, 0.030150715, 0.025840452, -0.022056272, -0.02357511, -0.06300037, 0.04250826, 0.019581974, 0.06224723, -0.044643503, 0.025710199, -0.058935735, -0.09226032, -0.010533858, -0.07562484, -0.051491372, -0.029327456, -0.068700336, 0.0121191945, 0.014925446, -0.051733695, 0.054057807, 0.030148495, 0.022114418, -0.09972046, -0.009201531, -0.07841501, -0.0502114, 0.06866437, 0.000886811, 0.068611085, 0.009529156, -0.08427744, 0.028742667, 0.030509636, -0.07630647, -0.04828216, -0.057185076, 0.041848857, 0.028425198, 0.023228858, -0.101431035, -0.07125924, -0.010227959, -0.044236038, -0.05718879, 0.04045707, 0.012421898, -0.066053286, 0.03981241, 0.04884521, -0.06918096, 0.022701439, -0.057869684, -0.052380502, 0.07329331, -0.09278833, -0.026189232, -0.045362383, -0.03985009, -0.039723977, 0.024053916, -0.022574784, 0.048150383, 0.010970027, -0.008446624, 0.0066488255, 0.013153543, 0.017080689, 0.05800266, 0.020441962, 0.024797006, -0.03212992, -0.029000098, -0.042400748, -0.033278167, -0.028775299, 0.05683867, -0.092508994, 0.060591638, -0.054088097, -0.0049271923, -0.118316375, -0.059424423, 0.009770213, -0.041892707, 0.052212402, -0.0533168, -0.06972173, -0.05622544, -0.062223095, -0.08479865, 0.021208234, -0.039615296, -0.04862714, -0.019499054, -0.043135207, -0.07713144, 0.039319977, -0.0526053, 0.0480074, -0.06938259, -0.06668667, -0.0394101, 0.018886631, 0.11058836, -0.26332968, -0.060106155, -0.20173359, -0.081287324, -0.035196867, 0.11013271, -0.0013268192, -0.049309958, -0.028911948, 0.12799877, -0.07177955, -0.017481405, 0.08624256, 0.022868156, -0.13905083, 0.08183639, -0.024148662, -0.15466368, -0.026627146, 0.25040886, -0.0046947617, 0.058561057, -6.802612e-05, 0.1347181, 0.0028829726, -0.092530526, -0.027014028, -0.042875018, 0.23665941, 0.039436508, -0.050704118, -0.05710183, 0.049069963, -0.09685475, -0.063236736, -0.11592125, 0.22730367, -0.0059873713, 0.005869953, -0.026301868, -0.38875815, -0.16625854, 0.17407529, 0.04116237, -0.053024773, -0.15479998, 0.059739858, -0.03800994, -0.04024706, 0.04262129, -0.070251636, 0.24986517, -0.040656846, 0.041520946, -0.1153125, 0.0944908, -0.0436812, 0.0030159708, 0.006254502, -0.004721649, -0.1488154, -0.025851179, 0.039756306, 0.08244108, -0.20314403, -0.07792117, 0.012682926, 0.016793368, -0.013320982, 0.01504051, -0.0013690067, -0.006890243, -0.052575883, 0.18023808, -0.16301633, 0.0076079518, -0.07023205, -0.050077528, -0.1859675, 0.055231, 0.0020919815, -0.21557756, 0.038785793, 0.16593225, -0.0900438, -0.018080428, -0.07106689, 0.025882816, 0.055764697, -0.17611656, -0.033234324, -0.11563917, -0.094970845, -0.062874764, -0.06088765, -0.20647907, -0.053780578, -0.00064966833, -0.14656955, -0.02458611, 0.048491873, -0.026934933, 0.044747096, -0.13674766, 0.03789541, -0.09511838, 0.21979699, 0.063428484, -0.056433756, -0.1927923, -0.04286951, -0.038496755, 0.00089201325, -0.0061482685, 0.028783128, 0.119105786, -0.010167576, -0.20752811, 0.090996556, -0.001982155, 0.012739897, -0.0930606, 0.07320248, 0.037098683, -0.19881901, 0.05970007, -0.051286537, 0.030019218, -0.10738977, 0.0057696984, -0.1561648, -0.14311403, 0.03729099, -0.15845203, 0.063492484, 0.055536345, 0.026921714, 0.19463319, -0.12068863, 0.011422381, -0.023227343, -0.02888858, -0.09356269, 0.039689854, 0.062594056, -0.21948072, 0.0048805475, -0.002744823, -0.21487887, 0.042632096, 0.06669742, 0.26003546, 0.0488229, -0.16332139, 0.00713879, 0.06922454, -0.042102713, 0.046896588, -0.064554185, 0.0443192, 0.00383678, -0.020751761, -0.06260511, -0.1758302, -0.008212989, -0.07758657, -0.011689097, -0.06159299, -0.08193418, -0.06329563, 0.056382567, 0.046418615, -0.07304231, -0.23572765, -0.0014372232, 0.01319986, -0.12981437, -0.11032992, 0.039683662, 0.032099493, 0.05329348, -0.1878221, -0.13906701, 0.008615308, -0.0484856, -0.05171524, -0.03679096, 0.016783148, -0.08607946, -0.044435628, -0.02573195, 0.05937565, 0.041519105, 0.07139918, -0.021891857, -0.056033857, -0.07495707, -0.08280458, 0.007110367, 0.040736698, -0.054758288, 0.075755246, -0.12043226, 0.013324752, 0.08123696, -0.039353974, -0.2386272, 0.037502415, 0.030806445, -0.05349987, 0.020036094, -0.13831586, -0.15395609, 0.048240155, 0.05464261, 0.121746086, 0.10750642, -0.27125916, 0.07631097, 0.023534784, 0.12211847, -0.023907742, -0.15098028, 0.08227406, 0.01350195, -0.09388597, 0.109997086, -0.24175811, -0.016874673, -0.023117565, -0.008849958, 0.14335915, 0.005565934, -0.018642996, 0.23132552, 0.052315515, -0.01615923, -0.107552186, 0.019823244, -0.022927424, -0.23994042, 0.06920724, 0.054148614, 0.06931843, -0.06508957, -0.13050963, -0.108110055, 0.014244303, 0.015487656, -0.2113482, 0.00445007, -0.04735627, -0.15581705, 0.038294394, 0.031832572, -0.04774562, -0.11075015, 0.03757373, -0.32746902, 0.1192388, 0.03895618, -0.061358012, -0.028947217, -0.043276753, 0.048488375, 0.18138579, -0.045955647, -0.039589416, -0.05852345, 0.0011193603, 0.005543498, 0.006647502, -0.06662729, -0.05813759, 0.029645704, 0.11331359, 0.0031329712, -0.02231856, -0.1478243, 0.031490926, -0.15091267, -0.2671737, -0.02151423, -0.00834358, 0.04702852, 0.0015719004, -0.233785, 0.1264008, 0.040518656, -0.24756698, -0.045667116, -0.079468556, 0.11586197, 0.012212095, -0.08280365, -0.0577767, -0.27755472, -0.15961912, 0.09345275, 0.046604022, -0.12064252, 0.0846236, -0.18774654, -0.25115907, 0.061263945, 0.0051110713, 0.029577456, 0.26740023, -0.043193102, -0.084330894, 0.013917898, 0.1762334, -0.058623943, -0.11848828, -0.02008944, 0.04730034, -0.16014194, -0.02457589, -0.07613514, 0.02790013, -0.13903344, -0.026210671, -0.16085586, -0.032648716, -0.050634127, -0.1796574, 0.023476414, 0.022488575, 0.030289425, 0.20279711, -0.0073132734, -0.013476718, -0.18926102, 0.04624644, -0.116837285, 0.012043093, -0.0724963, -0.26868504, 0.06265083, 0.05359367, -0.0019236882, -0.052053113, -0.17204675, -0.052449215, -0.11346933, -0.012775311, -0.05948773, 0.022273893, 0.006232719, 0.004167251, -0.15906997, -0.06277163, -0.018138323, -0.20260093, -0.08253271, -0.054632355, 0.089479886, 0.040753227, -0.0082178265, 0.03445856, -0.14202459, -0.12774062, 0.117154606, 0.008095633, -0.07318253, -0.13945302, -0.17121492, -0.21106067, 0.16760297, -0.08629069, 0.006040454, 0.066324115, 0.069643006, -0.026553433, 0.14502141, -0.028325886, -0.04722242, -0.19855626, -0.09862829, 0.06159115, -0.18811175, -0.009879517, -0.076249965, -0.074469626, -0.08769322, -0.029408531, -0.24278796, -0.029736511, 0.03365893, -0.094033144, 0.16083607, -0.011354972, -0.045464948, 0.03501647, -0.12569222, 0.005160466, -0.06676537, -0.043074567, -0.08328992, -0.07307016, 0.025405377, -0.13323939, -0.003863737, -0.18163176, 0.0936724, 0.066508934, -0.063004725, -0.10247939, -0.054659914, -0.027940439, -0.0703687, -0.03618088, -0.1358072, -0.020839991, -0.13667928, 0.056181155, 0.07089768, -0.12836891, 0.016717626, -0.06094969, -0.20992643, 0.009349576, -0.0961918, 0.03995922, -0.05203607, -0.22882137, -0.060415257, -0.07554632, -0.076447345, -0.26757056, -0.09396551, -0.006065722, 0.12374289, 0.054653604, -0.05407712, -0.0583845, 0.025503412, -0.11128386, 0.12551917, -0.033985846, 0.03531655, -0.29141453, -0.072629236, 0.036768146, -9.1908005e-05, -0.052226465, -0.05088187, -0.04884502, 0.0796771, 0.061495446, -0.18473294, -0.0692984, 0.036569487, 0.081666455, 0.052568905, -0.012461108, -0.0102323275, 0.037672166, 0.03669461, 0.02997005, -0.0416182, 0.0058468655, -0.12521362, 0.0634433, -0.060660664, -0.1360019, 0.044290952, -0.18561348, 0.044403613, 0.0669117, -0.053008135, -0.0072048577, -0.29311115, -0.10467148, -0.017055206, -0.03552466, 0.06116966, -0.013795351, -0.036870677, 0.05260363, -0.03951024, -0.17029975, 0.1662078, -0.14335328, -0.056091767, -0.0073801773, -0.03233778, -0.048994534, 0.015128755, -0.2549145, 0.030694043, -0.040153474, -0.027913088, -0.24208915, -0.025043236, 0.11359227, -0.045862276, -0.13966252, 0.008740269, 0.06692713, -0.025166623, -0.1771534, -0.14461528, 0.13789654, 0.00055677444, -0.3006187, -0.069797195, -0.054751426, -0.21204641, 0.062267676, 0.037000578, -0.15312375, 0.03467956, 0.017810663, -0.26068115, 0.092339866, -0.036053278, -0.07898905, -0.0024748393, -0.045279033, 0.040611092, 0.12590304, -0.033508204, -0.038424112, -0.124136075, 0.024125606, 0.034823757, -0.03497845, -0.052659005, -0.30816048, 0.04289353, 0.11363664, -0.14424457, -0.026143651, -0.17933257, 0.1820445, -0.3236299, -0.14859436, -0.16722812, -0.09379862, -0.010222287, 0.012695202, 0.036051434, 0.025907498, -0.00026923371, -0.14298655, -0.04401225, -0.08488976, 0.08309294, -0.0047829277, 0.017332425, 0.17148499, -0.114954524, -0.032291275, 0.06888852, -0.06866671, 0.01394678, -0.1857126, -0.075004846, -0.239334, -0.16680644, 0.0029824611, -0.04273243, 0.11759965, -0.03146609, 0.22672918, -0.094538674, 0.088369, -0.032972924, 0.0076819197, -0.062388886, -0.05436281, -0.137381, 0.036375917, 0.0633366, -0.026537336, 0.029841138, 0.031729877, -0.07192542, -0.16541734, 0.061849456, -0.17771114, 0.11943465, -0.05934306, 0.037654784, 0.13488635, -0.072233185, -0.013680752, 0.0069833267, -0.012404736, -0.032041155, 0.005855077, -0.06801559, -0.104707, -0.016151976, -0.07732327, 0.024032949, 0.03362701, -0.13639693, -0.01570481, -0.34370008, -0.12461191, -0.2925998, -0.102135755, 0.037025034, 0.13028212, -0.04405543, 0.02041638, -0.02604362, -0.1580601, -0.13804007, 0.050339255, -0.023564428, -0.06453859, -0.06646446, 0.13593948, -0.00018061977, 0.026307281, -0.053312175, -0.06752456, -0.039326098, -0.099223614, -0.1218361, -0.07010516, -0.16550854, -0.14678894, 0.049603067, 0.0706504, -0.03185725, 0.024183076, -0.020591946, 0.09158635, -0.0503285, 0.011097577, -0.04585487, -0.020584404, -0.2337473, -0.024391416, -0.06627324, 0.025589682, 0.011010229, -0.0224997, -0.0015149956, 0.0088147605, 0.050778884, 0.031921584, 0.14764076, -0.00063588686, -0.042204384, 0.13376985, 0.032634273, -0.036704194, 0.0936707, -0.0022022128, -0.20530255, 0.036326062, 0.035184056, 0.024832534, -0.015841212, -0.18863828, -0.019502137, 0.0291242, -0.038092803, -0.1267624, -0.12210533, -0.108665705, -0.11743301, -0.08240534, -0.1688028, 0.10523258, 0.04628839, 0.13882495, -0.007811807, -0.18517251, -0.14198719, -0.15027186, -0.09191986, -0.06779215, -0.037550792, -0.086492024, 0.15102348, -0.15308438, -0.09546644, -0.05745958, -0.06174565, -0.2079582, -0.026726522, -0.012044323, 0.029843027, -0.21387361, -0.046902135, -0.1888198, -0.038983792, 0.078954995, -0.017927384, 0.16659322, -0.0016988367, 0.11277705, 0.06479191, 0.053418994, -0.007997172, 0.0071786437, 0.0032576064, -0.08332138, 0.033999357, 0.055947755, 0.09642026, 0.044012416, -0.030346224, 0.2029287, 0.20074348, -0.04481081, 0.05516526, 0.12798953, -0.03502571, 0.022317588, 0.06525623, 0.035697155, -0.034859836, 0.059382588, 0.04706975, -0.002567201, -0.06177542, -0.1867018, -0.05736863, -0.05425086, 0.08762464, -0.1303629, -0.056142434, 0.029497663, -0.15273388, -0.20976128, 0.01864248, 0.15851179, -0.04513623, 0.0071340674, -0.060103536, -0.2062374, 0.01915949, -0.13172622, -0.22230326, 0.0676611, -0.03829724, 0.062079974, 0.0063341837, -0.113139994, 0.040960386, 0.042450137, -0.07786215, -0.1206567, 0.0008290233, -0.078691885, 0.0065035773, -0.08814498, -0.05311955, -0.12177789, -0.072927795, 0.32242176, 0.040376633, -0.09391551, -0.06515648, 0.055724565, -0.04272415, -0.028675318, -0.07210401, 0.01318869, -0.03271215, -0.00048264622, -0.1121623, -0.06738285, -0.17047656, -0.084349, 0.050343603, -0.10619518, 0.10824152, 0.07217233, -0.043820422, 0.10979196, -0.17657562, -0.023274627, -0.023230158, -0.020243317, 0.091581136, 0.05305756, 0.024809718, 0.031434547, 0.06616539, 0.0054432317, -0.07633237, 0.0333822, 0.026621597, 0.12398536, 0.035937812, -0.08446552, -0.20872775, -0.066233136, 0.18498784, 0.06946245, -0.09264726, 0.056194905, -0.023508493, -0.038140625, 0.05256334, -0.020822678, 0.16168357, -0.035016704, -0.16175038, 0.056524664, -0.3303526, -0.045302138, 0.019520208, -0.028046403, -0.023252312, -0.05760552, -0.001264013, -0.00076686934, -0.08853908, 0.055049885, -0.0030434057, 0.11841529, 0.062245935, 0.015558046, -0.09911145, 0.2542327, 0.0120114535, -0.06494048, 0.08959503, -0.0058286265, -0.14801393, -0.056545723, 0.005807025, 0.11213989, -0.12600932, 0.054185957, -0.07568923, -0.09329076, 0.038714226, -0.25443524, 0.09599595, -0.040197182, -0.07931683, 0.16409601, -0.25295642, -0.061243363, 0.10892169, 0.0025961197, -0.11661015, 0.048378225, -0.008894555, 0.120163016, 0.05537094, -0.22811596, -0.0060878727, -0.058729786, 0.05268287, 0.1838049, -0.09777009, -0.26144147, -0.1165007, -0.16426288, 0.05927882, -0.071837276, 0.030350683, 0.08153727, -0.058124743, -0.019678196, -0.11297154, 0.042644702, -0.05842249, -0.046248563, -0.19193858, 0.13539769, 0.118715644, 0.15190497, 0.05576187, 0.026169198, -0.07206588, -0.12954637, 0.05410064, 0.1441061, 0.026983617, 0.11762859, -0.06957249, 0.1746639, 0.06358425, -0.063881114, -0.075618796, 0.26234135, 0.034379885, 0.02844652, -0.01286557, 0.07167603, -0.1717088, -0.046299852, 0.0054864082, -0.030860549, -0.28485554, 0.013652869, 0.17449065, -0.1059132, -0.064965084, -0.066544846, 0.09961668, 0.015916534, -0.076816976, 0.13095187, -0.017846381, -0.029977165, 0.2074807, -0.06957723, 0.10427711, 0.05681884, 0.033520952, 0.20718633, -0.069907725, -0.047425848, -0.076867245, 0.052304134, 0.11889947, 0.1264992, -0.2112079, 0.09528277, -0.20068501, -0.052309815, 0.0838151, -0.025715122, -0.22233833, 0.16083716, -0.063887164, -0.16598137, -0.12571634, 0.17709643, -0.030371228, 0.020266354, -0.14805984, 0.032582473, 0.27109662, 0.27577978, 0.04781699, 0.02851567, -0.20955318, 0.07104149, 0.0038036788, 0.12939985, 0.013577905, 0.016069122, -0.04376436, -0.021637494, 0.039947566, -0.14694777, 0.11146289, 0.26827732, 0.050905094, -0.03856098, 0.14756516, 0.014085352, -0.09837855, 0.031922914, -0.02342408, -0.24753551, -0.2919758, -0.04067987, -0.12214129, -0.26789227, 0.021037152, -0.014395815, 0.07273929, -0.037014395, -0.007971986, 0.18212992, -0.0019043223, -0.055797182, 0.38222566, 0.0016614734, 0.06803988, 0.027278362, 0.06911735, 0.20087181, -0.019790594, -0.1833988, -0.10147322, -0.054227896, 0.058161557, -0.083128095, -0.037447985, 0.052551355, -0.026842166, -0.13228783, 0.032930482, -0.035792027, -0.17111763, 0.19288325, 0.006379187, -0.10299581, -0.20713985, 0.16019805, 0.06343999, 0.060990676, -0.10484065, -0.04264795, 0.16635653, -0.11519259, -0.054189153, -0.02285683, -0.1537646, 0.11649281, -0.12077151, 0.03750703, 0.07108919, 0.18782234, -0.060747348, -0.074041456, -0.011150092, 0.06663958, 0.06300485, 0.15322979, 0.018010601, 0.014799966, -0.16542363, 0.072535455, -0.055752058, -0.05647611, 0.047211066, -0.0641146, -0.07643063, 0.040489845, -0.013489007, -0.051012445, -0.05295633, -0.05873908, -0.06901212, 0.016237708, -0.050025262, -0.055614576, 0.0038123145, -0.052691206, -0.04102206, -0.011433803, -0.007869778, -0.07785823, -0.034366697, -0.02181033, -0.061049435, -0.0022277937, -0.07866222, 0.0346369, -0.07151342, 0.049345966, -0.03631118, -0.0778269, -0.037636705, 0.0011395387, -0.024351446, 0.06754086, 0.022409054, 0.0083655, 0.0055554355, -0.045124635, -0.0055916714, 0.024844965, -0.07976331, 0.010141867, -0.039078232, 0.043248232, -0.063325234, 0.035793502, 0.05644759, -0.0333011, -0.051083937, -0.06793494, -0.048010208, -0.08775056, -0.08951668, 0.002319078, 0.049460873, -0.07843771, -0.03378966, -0.053141847, 0.002741879, 0.016376456, 0.023114301, -0.03007796, 0.025423922, 0.009880081, -0.057829276, -0.033217937, -0.030084768, 0.03073872, 0.017671365, 0.0034456241, 0.025684427, 8.174862e-05, 0.04694165, -0.083808854, -0.06934914, -0.05463161, -0.0030279332, 0.034426685, -0.014717729, 0.0054379627, -0.0011960488, -0.05457657, 0.050963815, -0.03985743, -0.044793993, -0.05511598, -0.011390083, 0.03139598, 0.05959606, 0.0067344084, -0.0045925817, 0.0048147924, -0.008767322, 0.022549069, -0.04284134, -0.01734278, -0.0008096224, -0.050611902, -0.04416636, 0.012748893, 0.07829606, 0.059517514, -0.10003789, -0.026872532, -0.009902624, -0.0003317522, 0.018913124, 0.008015586, -0.09187199, -0.024116952, 0.009485945, 0.028282814, -0.0018498062, -0.10988773, -0.085194655, 0.00012696757, -0.0016006844, -0.052837517, -0.06917629, -0.08395308, 0.043863326, -0.07158929, -0.049044248, -0.081346266, 0.01675886, -0.035785697, -0.08869142, 0.008549586, -0.03284302, -0.011025422, -0.011043816, -0.07371038, -0.01703293, 0.066526175, -0.06503788, -0.071661666, -0.017458282, 0.0050109834, -0.058050834, 0.05891583, -0.048847307, 0.01078793, -0.021147268, -0.00027356297, 0.0052001528, -0.01328288, 0.017292267, 0.023641467, 0.04572033, -0.05891746, -0.02981589, -0.077964455, -0.0024532783, 0.054552242, -0.023162365, 0.014398979, -0.03377356, 0.017984452, -0.04230793, -0.060151435, -0.0419197, 0.006824325, 0.023414766, -0.05902897, 0.050498582, -0.00690433, -0.055275846, 0.021027029, -0.08315069, 0.02272283, -0.014138542, 0.033016965, -0.03513416, -0.028063314, 0.043122403, -0.011468687, -0.011429474, 0.03976321, -0.036834966, 0.0089725, -0.02713261, -0.012037935, 0.039158262, 0.00045689355, -0.023491653, -0.02920352, -0.07162921, 0.014933145, -0.06896721, -0.063792996, -0.048772205, 0.047057584, 0.0066684675, -0.077931896, 0.030203998, 0.05835933, -0.087377675, 0.0044997544, 0.04831862, -0.02806054, 0.00089626573, -0.029711721, -0.07726987, 0.05336519, 0.044487983, 0.012812379, -0.024866145, 0.048165098, 0.04122965, -0.023146652, -0.053964615, -0.021532327, -0.050983697, -0.013952712, -0.009043574, 0.028603453, 0.043284032, -0.055228367, -0.038079694, 0.05044593, -0.04101789, -0.09558779, -0.055864558, -0.07869665, 0.05761352, 0.08207863, -0.024830924, 0.010593264, 0.01137168, 0.043281004, 0.047673076, -0.07468584, -0.001904861, 0.06631513, -0.044338077, -0.027942844, 0.013484243, 0.027306352, -0.08529088, -0.049227737, -0.05527395, 0.04384324, -0.09726278, 0.027959118, 0.03805703, 0.009631621, -0.004728429, -0.03680743, 0.016548423, -0.062128857, 0.043155674, -0.0096207885, 0.06329942, -0.008887774, 0.0042161644, 0.033455603, -0.073095344, -0.034620456, -0.049490865, -0.0893548, -0.082824335, -0.05469207, 0.03266061, 0.010511414, 0.05607084, -0.105565295, -0.0007268259, -0.07031504, -0.04511127, -0.016508803, -0.009481201, 0.004607521, -0.060558047, 0.053998828, -0.04793575, -0.013306835, 0.047849946, 0.0015891294, -0.045136727, -0.06359143, -0.05358777, 0.016121417, 0.031458296, 0.014018448, -0.025521623, -0.056393027, 0.009883626, 0.010293013, -0.03197822, 0.0049892752, -0.0061839963, -0.03777297, -0.0072097224, -0.011375806, -0.053763725, 0.04657736, 0.013827701, 0.02321071, 0.013538594, -0.054652844, -0.030424403, 0.048303682, -0.029021822, 0.034587134, 0.045548774, -0.074374214, -0.057716314, -0.036866065, 0.00062339724, 0.008506996, 0.016367286, -0.05924701, -0.008267275, 0.015229067, -0.09184395, 0.013318421, 0.047029898, -0.02201755, 0.0025211512, 0.05156514, -0.005186826, -0.03163572, -0.053412344, -0.07674775, -0.06321469, -0.05929503, -0.07876902, -0.0070590144, 0.06566043, -0.039665923, 0.010359602, 0.059450198, -0.047706418, -0.0049058157, -0.023246821, -0.015924338, 0.06255458, 0.041334197, -0.04136534, 0.013625172, 0.06940225, 0.059192766, -0.006613165, 0.024601035, -0.05805134, -0.034892295, 0.038932785, -0.024730954, -0.07393016, 0.035195336, -0.0686005, -0.06965249, 0.03078594, -0.046020176, 0.044396594, -0.060376573, -0.06512425, 0.05431916, 0.04810205, 0.028272323, -0.046843335, -0.008259181, 0.02699379, 0.041388243, -0.07275692, 0.048565593, 0.049526438, -0.04847105, -0.0041718846, -0.032206398, -0.089145415, 0.011665278, -0.023503272, -0.039822914, -0.043578707, -0.011406684, -0.059319805, 0.0058347234, -0.03331326, -0.044348057, 0.047538705, 0.021971256, -0.09068964, -0.04796395, 0.036625583, 0.065833926, 0.05257721, -0.006427896, 0.020750806, 0.058748152, 0.012661569, 0.014752962, 0.0074859443, -0.004341668, 0.049222022, -0.067866206, 0.00039812285, -0.00417978, -0.014632693, 0.03244423, 0.07277038, 0.025257908, -0.012953075, -0.0038126055, 0.0043261647, -0.03633262, 0.0031701922, -0.10479203, -0.015500752, 0.035263076, 0.041643474, -0.08239749, 0.06449161, -0.018577, 0.028955666, -0.048815683, -0.051957496, 0.016205579, 0.058590103, -0.06562029, 0.013940982, -0.083238184, 0.018525407, 0.021124184, -0.013445538, 0.040592678, -0.081204675, -0.045894586, -0.034166664, -0.057712253, -0.04159786, 0.06399378, 0.043641098, -0.042256773, -0.09410861, -0.0340074, -0.027553823, -0.07972267, 0.018433772, 0.061364736, -0.019409448, -0.03946334, -0.03196082, -0.01804461, -0.055781655, -0.019033447, 0.02691191, 0.011758499, -0.08512709, -0.07688916, 0.05607044, 0.045691863, -0.07186725, 0.077117294, -0.04078403, 0.062588446, -0.019955318, 0.041003462, -0.087928064, 0.0022293734, 0.06353097, 0.032245494, -0.0018927549, -0.029527295, 0.028008642, 0.03833764, -0.031625926, 0.041108496, 0.023296244, -0.08085669, 0.016335562, -0.015053769, -0.022061847, -0.010849245, -0.028154345, 0.035781138, -0.05082174, 0.037535936, 0.023991749, -0.031503227, 0.021469327, 1.0833262e-05, -0.013648672, -0.018270764, 0.057623357, 0.043599486, -0.08285862, -0.01784421, -0.03781929, -0.043194063, 0.044574007, 0.055559352, 0.0049522934, 0.045705393, -0.047963, 0.06371743, -0.022243856, 0.033552967, -0.08042309, 0.031027757, -0.025146112, -0.0018601221, -0.030411582, 0.014635593, -0.049669325, -0.018920567, -0.048708573, -0.023228753, -0.059530452, -0.033970732, 0.025334416, -0.054188345, -0.05415259, -0.051478647, -0.058635816, -0.09953708, -0.050599683, 0.052929897, -0.005690876, -0.05470849, 0.022220772, 0.007570037, -0.0020986365, 0.065022804, 0.010631594, 0.034500953, 0.03055533, -0.047384813, -0.0586629, -0.057910584, 0.006194578, -0.04296635, -0.028285876, -0.017589943, 0.05339837, -0.08584688, -0.014208822, 0.016270831, -0.04083845, -0.074678235, 0.024259664, -0.013148437, -0.062697366, 0.016432462, -0.042248387, 0.02598931, -0.014583313, -0.09414643, 0.02481649, -0.04236074, -0.018206993, -0.09426209, 0.054332078, 0.061465073, -0.07029429, 0.06309294, -0.059911497, -0.03574618, -0.056876328, -0.056186654, 0.029754262, 0.025948558, -0.07766063, 0.03795302, 0.023636522, -0.07565259, 0.048188895, -0.029886473, 0.0040741162, -0.0029134182, -0.031388603, -0.05978376, -0.06570824, -0.0586486, -0.1188936, 0.06676732, -0.03043586, 0.030321995, -0.010412007, 0.033157542, 0.030135442, -0.0050196727, -0.048327286, 0.023859825, 0.0154478755, -0.004923844, -0.0512653, 0.06546581, -0.060155675, -0.04227448, 0.002430449, 0.06609692, -0.007347712, -0.013287839, 0.0042183786, -0.0018448636, -0.008920848, -0.04991888, -0.07317662, -0.032967933, 0.03522163, 0.058003858, -0.053164892, -0.044654433, -0.0063040196, 0.019482076, -0.056713343, -0.038436677, -0.04466155, -0.011622501, 0.038441923, 0.014121766, 0.029838493, -0.005550472, -0.039772596, -0.014736519, -0.013822585, 0.003909952, 0.005474102, -0.02892017, -0.005169613, -0.016145581, -0.011883065, -0.039453816, -0.029089278, 0.02965729, -0.0682079, 0.050670415, -0.06525368, -0.011736759, -0.04604812, -0.022292884, 0.01999706, 0.020729052, 0.02616827, -0.04872567, 0.041805282, -0.004945415, -0.033380058, -0.041956108, -0.0793017, -0.008075663, 0.044788957, 0.014408458, 0.015776658, -0.037713043, -0.006109683, -0.05674517, -0.077604644, 0.0045479815, -0.06226944, -0.0741705, -0.059472397, -0.018820247, 0.044263367, -0.0037242249, -0.006302257, -0.03996452, 0.035577547, 0.02757678, 0.013198443, 0.032674447, -0.05604826, -0.00563848, -0.06784847, 0.036923558, 0.0591505, 0.0042278743, 0.040902708, 0.0018881366, -0.082891, 0.0037696743, -0.014512477, -0.0073788846, -0.034809746, -0.056875437, 0.050578654, -0.07401824, -0.101004876, -0.083176106, 0.040134422, -0.06047814, -0.032276753, -0.039040882, -0.07916091, -0.02932603, -0.08465127, -0.0010881871, -0.0053602154, -0.04484112, 0.045482714, 0.0006982338, -0.055637516, 0.07603718, -0.028508995, -0.056684617, -0.030540941, 0.006053393, -0.07170593, 0.03183567, -0.066890284, -0.033358596, -0.08142858, 0.0095258355, -0.0597213, 0.0071379296, 0.0015461099, -0.07463657, 0.027059615, 0.017192395, -0.059535325, 0.011929299, -0.026350519, -0.032687575, 0.007006512, 0.014623438, 0.0025362372, -0.022800118, -0.035499252, 0.02627901, -0.018116511, -0.03920015, -0.06796516, -0.073003374, -0.051370647, 0.041477736, 0.046646312, 0.00030711846, -0.017501388, -0.07096407, 0.052478306, -0.08122988, -0.039141286, -0.06199325, -0.04952711, 0.016883925, -0.0187403, 0.056921687, -0.0048516076, -0.055899635, 0.032732755, -0.019088972, -0.034074128, -0.06577794, -0.11576537, -0.057887994, -0.0693442, 0.05955373, -0.015162411, 0.031425066, 0.017764416, -0.0343069, -0.055586845, -0.009774074, -0.02743083, -0.03829664, 0.018021809, -0.069653116, -0.062002137, -0.037093166, -0.005173477, 0.03626439, 0.06901137, 0.0013353365, -0.004617341, -0.032766137, 0.034888353, 0.07054825, -0.013379348, -0.001141398, 0.056781452, -0.07305153, -0.03898906, -0.047880035, -0.007857369, -0.055795155, -0.057020135, -0.057000894, 0.047231097, -0.04477724, 0.007432632, -0.09893127, 0.026560534, -0.0065328926, -0.050096206, 0.023597337, -0.03091055, -0.008436451, 0.034561068, 0.05634913, 0.07056244, -0.04363614, -0.016696272, 0.050874427, 0.041317508, -0.0036850013, 0.020802112, 0.02793653, -0.030763738, -0.064799495, -0.039941758, -0.018244034, 0.05008637, -0.019701317, -0.025319975, 0.05672461, -0.07382259, -0.055834986, -0.029540148, 0.04992679, -0.10578456, -0.0185547, 0.017154109, -0.056000464, -0.07692507, -0.07771347, -0.025609897, -0.006763761, 0.036176786, -0.067993775, -0.110171475, -0.066866055, 0.038243607, -0.07247847, -0.0394507, 0.018864518, 0.0373499, 0.0753, -0.072192356, 0.024277736, -0.068072684, -0.057532787, -0.032492474, -0.052624285, 0.046808712, 0.034123566, 0.028362907, 0.07125683, -0.07452035, -0.04949842, -0.05474325, -0.08227632, 0.034052312, 0.05704975, 0.037536416, -0.011417987, -0.045838356, 0.019546919, -0.03821622, 0.021609023, 0.064992614, 0.03852612, 0.0148870945, -0.025305398, 0.07358931, 0.008727038, -0.030978668, 0.072249666, 0.03438399, -0.047745027, -0.033331476, -0.023729092, -0.036801923, -0.051100608, -0.030267404, 0.016157774, 0.021634236, 0.032750048, 0.00566052, 0.04010055, -0.025280043, -0.07212221, 0.0135698235, -0.03356331, -0.08334807, 0.06600568, -0.105568975, -0.08923636, -0.012913928, 0.0294589, 0.03775816, -0.067449905, -0.06562356, -0.02586585, 0.03346993, -0.015351851, -0.052300952, -0.018817037, 0.06756466, -0.029676076, 0.008902911, 0.04243027, 0.04860217, -0.09401547, -0.11070227, 0.053097636, -0.049034256, 0.043899704, 0.04919828, -0.042663466, -0.07872466, -0.064727776, -0.085948035, -0.056706697, 0.06585199, 0.04789522, 0.006744756, 0.056731377, 0.078766316, -0.074892364, -0.0058108475, 0.065669954, -0.0182193, 0.050723664, -0.04962497, -0.015492362, -0.07161006, -0.0631417, 0.0043827817, -0.06458323, -0.05905979, -0.025469523, -0.009701505, 0.050332464, -0.0744424, -0.01060748, -0.040622845, -0.07787532, -0.05134001, -0.010401658, 0.054047186, 0.019759033, 0.009742039, 0.009228886, 0.036487456, -0.055242956, 0.0017252648, -0.03499386, -0.0443089, 0.049184326, -0.044483036, -0.035905633, -0.04935753, -0.034649882, -0.027657418, 0.0481286, -0.013264115, -0.0718835, 0.051146843, -0.05489488, 0.049446553, -0.03031886, -0.04748442, -0.06778606, -0.05639232, -0.07114174, -0.043816306, -0.101417005, -0.08812179, 0.02704607, -0.023284845, -0.0558464, -0.072670065, 0.031993568, 0.03967976, 0.036117412, -0.05040326, -0.03868061, -0.06632519, 0.044740487, -0.04199295, 0.011208726, 0.013062239, -0.019523123, -0.062681034, -0.00026588142, -0.06279151, 0.001620099, -0.037144594, -0.029083904, -0.017196655, 0.017430797, -0.051940262, -0.012360997, -0.042128094, -0.010392785, 0.060515027, 0.057095945, -0.049393244, -0.07656731, -0.02558423, -0.04485561, 0.04976402, -0.039018877, 0.0059501063, -0.0183849, -0.0344141, -0.016995061, -0.013382128, -0.04613004, -0.05322097, 0.05027692, -0.07376949, 0.027890306, -0.08066441, -0.05042768, -0.007678564, 0.022612792, 0.048160728, 0.014358358, -0.024974354, -0.030399455, 0.04817197, -0.00851199, 0.014431931, 0.0033136234, 0.0013242883, -0.012390226, 0.037654944, -0.008488432, -0.07032081, -0.047762055, -0.088879235, 0.10399816, -0.07378713, -0.055060085, -0.034802396, 0.044809032, -0.24922638, -0.059754808, -0.06972225, -0.072118975, -0.04219602, -0.16290961, 0.14152206, -0.021917613, -0.011157121, 0.3463822, -0.34329838, -0.068237916, -0.2338008, -0.008165398, 0.116396524, -0.052344598, -0.1407244, -0.08138485, 0.016225066, -0.11698594, 0.06888626, 0.04299195, -0.2387628, 0.002304913, 0.048498016, -0.059482273, 0.17882086, 0.12590696, -0.16132952, 0.04223338, -0.09241915, -0.05582727, -0.058874648, 0.04619152, 0.057914842, -0.17273776, 0.025042731, -0.08533485, -0.03809228, 0.31203622, 0.054779734, -0.1593121, 0.11138422, 0.07021157, 0.016629094, 0.11968106, -0.017715923, 0.23472457, -0.103749424, 0.18163747, 0.072148, 0.042289034, 0.040954404, -0.03964765, 0.033050876, -0.1409988, -0.004109185, -0.06861883, 0.23720333, 0.068312585, -0.13700727, -0.031973805, 0.019256746, 0.11288226, 0.16062672, -0.005185986, -0.06578367, -0.121271916, 0.018139452, -0.05735697, 0.08114247, 0.068585746, 0.04302915, 0.0817001, -0.1169139, 0.014409393, 0.1830178, 0.049756657, 0.053034645, -0.077688485, -0.072671466, 0.2155477, 0.04647178, 0.0019458415, 0.15889664, -0.042936306, -0.32393506, -0.047722302, -0.04963297, 0.057971854, 0.0580616, 0.024850888, -0.08523367, 0.05361454, 0.18919039, 0.08499975, 0.009523793, -0.073796324, -0.020861277, 0.04796061, -0.14414284, 0.035030432, -0.026597895, -0.012380713, -0.059890825, -0.1600605, 0.10292037, 0.04334326, 0.11826599, 0.11593622, 0.19281594, 0.1494264, -0.08690545, 0.00096543774, -0.05930265, 0.12898791, 0.016653793, 0.20433675, -0.13223748, -0.05913888, -0.0380122, -0.22881383, 0.10353424, 0.088251814, -0.06174749, -0.043090418, -0.06363987, 0.12791637, 0.18927462, 0.0053699454, -0.019889208, -0.018730644, -0.019368844, 0.09470904, 0.10611933, -0.039708078, -0.030689934, -0.13537914, -0.021929104, -0.006077774, -0.12650776, -0.08525688, 0.023029873, 0.054544926, -0.00083582144, -0.06997913, -0.045131654, 0.048200607, 0.17035659, 0.022362985, 0.1892725, 0.091246635, 0.042807285, 0.03363553, 0.017701885, -0.063822694, 0.024531985, 0.022479232, -0.029703904, 0.196871, 0.09422095, -0.1396394, -0.17194586, -0.010738168, -0.07010782, 0.0030206877, -0.04444383, 0.114025004, -0.056126945, 0.06191197, 0.087563895, -0.043089293, 0.14573114, 0.10979814, 0.10491535, 0.16850536, -0.2614109, 0.014162155, -0.11625313, -0.0013483814, -0.06927121, -0.012924855, 0.031021126, -0.14684463, -0.021312093, -0.07457793, 0.14033078, -0.010308936, 0.105612695, 0.0039363904, 0.023823686, -0.11262152, -0.05463255, -0.07760002, -0.02631663, -0.032574855, 0.013513631, 0.44841418, 0.15754288, 0.03411011, 0.009720215, -0.07510961, -0.09025281, 0.04924517, -0.29247317, -0.029297007, -0.03545182, 0.026407951, 0.011882744, 0.0006892803, -0.029425714, -0.015974823, 0.22688101, 0.047476694, -0.12655373, -0.10702145, 0.14748193, -0.08799205, 0.01723711, -0.004020446, -0.08356313, 0.049194075, 0.3478865, 0.20866315, -0.02489568, 0.14174403, -0.16814114, 0.21455206, 0.115216486, 0.04363996, -0.16713852, 0.2278886, 0.27836964, 0.15774833, 0.10158607, 0.011643093, 0.14206761, 0.23304445, 0.037868515, -0.043918762, -0.13402829, -0.021716755, 0.0571992, 0.033819575, 0.08929991, -0.042177968, -0.053249642, -0.20851396, 0.06357824, -0.23694059, -0.03239491, -0.037644375, -0.040447496, -0.054901533, 0.023525016, -0.05464349, -0.1974525, -0.0183938, 0.13681711, 0.1964965, -0.040853687, -0.050081044, 0.14225179, -0.02631581, -0.0042435853, 0.090757005, -0.17629594, 0.061328933, 0.02611727, -0.07892211, -0.06707629, -0.034877796, 0.048680276, 0.0062913042, 0.007287891, -0.019770531, -0.02382019, 0.033408687, -0.2343243, -0.12153213, 0.10082628, -0.119396605, -0.06019673, 0.10751302, -0.044964585, 0.056582317, 0.0091846725, -0.054906465, 0.086491816, -0.037781674, 0.08605851, -0.019322854, -0.02678208, 0.00065826473, 0.018011196, 0.34354866, 0.023076266, -0.15378909, -0.0012243199, 0.07927397, -0.21726884, 0.16546771, 0.052984588, -0.029748792, -0.2043649, 0.0796127, 0.09408663, 0.14149924, -0.09209071, 0.023205636, -0.13522123, -0.119637735, -0.055233274, 0.034838177, 0.05631733, 0.09267865, -0.19404463, 0.0072659054, 0.08324638, 0.13073523, -0.05936934, -0.030838976, 0.11332081, -0.1868657, -0.045090046, 0.23197907, 0.033892974, 0.032195173, -0.056059666, 0.048934694, -0.01444762, 0.014617838, 0.11821122, -0.07876485, -0.03645941, -0.05122885, -0.033022262, 0.008675534, 0.04060531, 0.023749085, 0.0051001003, 0.023952067, -0.08447058, -0.036010776, -0.124127194, 0.09518109, -0.14768915, 0.05114546, 0.14573725, 0.012822011, -0.14192785, 0.075510725, 0.018752828, -0.05778747, 0.2772064, 0.16292275, -0.04526182, 0.0012406316, -0.14308989, 0.00064722885, 0.12824403, 0.054199047, 0.031397834, -0.019779798, 0.06692646, 0.07353401, -0.0026500386, 0.07121673, 0.018069366, -0.09145492, -0.06483285, 0.023192277, -0.062308606, 0.18420365, -0.13676636, -0.203578, 0.014453544, -0.1374293, 0.10121633, -0.050964996, -0.033024386, 0.00602378, 0.020781592, 0.14423102, 0.02309901, -0.044308495, 0.05511721, 0.045609828, -0.023900654, 0.049017396, -0.08045706, 0.010408494, -0.078354836, -0.1147749, -0.21167412, 0.0034742206, -0.09096236, -0.105945066, -0.028058376, 0.06727684, -0.050878406, 0.1138634, -0.09109086, 0.103203624, 0.107665464, 0.0074151857, 0.20073974, 0.22944401, -0.11092097, 0.09353786, 0.053787444, 0.068855114, 0.009150174, 0.094411455, -0.16170295, -0.014060627, -0.000776637, -0.11254965, 0.18677393, 0.13919427, -0.035120968, 0.096513085, -0.038726732, -0.025934067, 0.0012548065, 0.07835076, 0.04157627, -0.0381904, 0.3245727, 0.18986568, 0.057033278, 0.17834526, 0.009372771, -0.09332999, -0.011380876, 0.04244215, 0.029105632, 0.0855152, -0.15582357, -0.30157045, 0.033324774, 0.1486007, 0.10921977, -0.030172668, 0.08761674, 0.026566563, 0.10571273, -0.036621053, -0.008038811, 0.018314015, 0.13675469, 0.11343202, 0.038124934, 0.09220808, 0.13318498, 0.059460424, -0.0047226283, -0.21271573, -0.18982156, 0.04918848, -0.03470236, 0.022803295, 0.15299854, -0.047900014, 0.02628647, -0.085907035, 0.038047146, -0.04935513, 0.20512772, -0.04118867, -0.18923847, 0.14053649, -0.14581655, -0.089340776, 0.020654602, 0.036806215, 0.050211124, 0.02466819, 0.093592696, -0.06508356, 0.051531296, 0.015603167, 0.025375457, 0.00016777094, -0.015012931, 0.038753707, 0.025301745, 0.06660654, -0.059654586, 0.026606856, -0.07511349, 0.04174335, -0.15116991, 0.26135644, -0.18535632, 0.13333592, 0.26073474, -0.0029400736, -0.03553382, -0.05208137, -0.013237719, 0.053053312, 0.037890155, 0.02450008, 0.027321858, 0.093057394, 0.0021366454, -0.059437588, 0.015531601, 0.011324318, -0.015850881, -0.10091655, 0.061306667, -0.056427907, 0.021617442, 0.13614857, 0.026159609, -0.1231447, -0.07455052, 0.036962267, -0.030725468, 0.17064656, -0.14234412, 0.04159519, -0.23764701, -0.051607065, 0.0017216939, -0.02800454, -0.13131422, 0.08391175, 0.015075109, 0.3213793, -0.06284495, -0.07091509, -0.07636867, -0.033000756, 0.1229601, -0.13441344, 0.044330698, 0.17695361, 0.101817176, -0.039730173, 0.2705032, 0.06257049, -0.058145743, -0.012197301, 0.26010242, -0.044413425, 0.15353371, 0.034012355, 0.025563503, 0.22721605, 0.030746918, 0.018859113, 0.071105935, 0.033126883, -0.23048966, 0.29607305, 0.06073542, -0.20025632, -0.077063, 0.027633285, -0.072462864, -0.059234902, -0.06547171, -0.13746291, -0.019975744, -0.39169195, 0.103840195, 0.045885935, 0.029080566, 0.030554373, 0.10587536, -0.021328565, -0.027500747, 0.02857406, 0.12010332, -0.04211455, -0.008060734, 0.041207455, -0.016755851, 0.104926065, -0.028346732, -0.03600517, 0.055028707, 0.10185349, -0.050496355, 0.011114873, 0.11672803, 0.005484828, 0.16642281, 0.029820032, -0.1336502, -0.023120403, -0.067691945, 0.08335249, 0.021239985, -0.024791287, 0.12628102, 0.10421311, -0.005035486, -0.017119545, -0.044019062, 0.13224173, -0.108627, 0.18218392, 0.3961108, 0.04461051, 0.04078052, 0.08168184, 0.08644909, 0.027338509, 0.074661314, 0.028685259, -0.0974339, 0.1790058, -0.06785701, 0.1473974, 0.0042433585, 0.012854849, -0.08175711, 0.027683618, 0.045955155, -0.088991374, -0.110613, -0.013285138, 0.01610679, -0.09153641, 0.028887544, 0.0015947607, -0.2139916, -0.31287643, -0.07016007, 0.046907775, 0.022095982, 0.011141206, 0.07934248, 0.05292358, 0.0832956, -0.036047067, 0.25915116, -0.004228347, 0.008165904, 0.16918287, -0.01947639, -0.032702405, -0.010160902, 0.0566456, -0.07204302, -0.19322863, 0.003979307, -0.0323956, 0.042238634, 0.018429073, -0.18098083, 0.0011983304, 0.024418674, 0.060247023, -0.042673968, 0.060124498, 0.18149418, -0.009484209, 0.12689662, 0.09116997, -0.07296165, 0.12673183, -0.06799376, 0.08879495, -0.03740947, 0.05672478, -0.14943044, -0.08256517, -0.040891208, 0.020400451, -0.12145877, 0.00039090842, 0.13997385, 0.03394681, -0.07934005, 0.13102442, -0.21153976, -0.049155697, 0.015875608, -0.0780052, 0.079477206, 0.05992972, 0.08237502, 0.093612656, 0.119921386, -0.04442919, -0.05033638, 0.13666385, 0.06347421, -0.10165349, 0.03268663, -0.08513042, -0.12975155, 0.06172057, 0.115664266, -0.025624655, 0.10023757, 0.02043855, -0.014413651, -0.09204507, 0.09887775, -0.013204861, -0.09673769, 0.062296297, -0.04994845, 0.04819312, 0.02190067, -0.0059113093, -0.058109306, -0.16628163, -0.080464974, 0.01479055, -0.06112209, 0.051007282, 0.24548574, 0.08738783, 0.011640129, 0.050079063, 0.027874371, 0.018419279, -0.005872583, -0.00012251774, -0.10090034, 0.25970307, 0.039414737, 0.15403247, -0.02613629, 0.13439403, -0.06263694, 0.070413016, 0.19938272, -0.033903748, 0.002005515, 0.06965783, 0.1460533, -0.08552956, 0.051547054, -0.004822963, 0.039925344, 0.2100591, -0.21550016, 0.095755115, -0.17150496, -0.104206026, -0.021873524, 0.32307413, -0.03831875, 0.021130713, 0.20894912, -0.030455692, -0.005033706, -0.009125208, -0.009593042, -0.050326407, 0.011461565, -0.19689915, -0.066978745, 0.060353946, -0.05363594, 0.050526008, 0.13742715, -0.025515545, 0.07297709, -0.13665019, 0.18145345, 0.024581289, 0.058392234, -0.03204845, -0.065493114, -0.051428277, -0.19134921, -0.06587275, -0.024388677, -0.04237861, -0.3445099, -0.03998292, 0.005879291, -0.0006533185, 0.2841756, 0.027145896, -0.12307987, 0.1021014, -0.065500654, 0.09512776, 0.2217872, -0.034804262, 0.21637957, 0.004272098, 0.14667033, 0.08461771, 0.14874645, 0.04043202, 0.18779233, -0.76356536, 0.05290962, -0.038364425, -0.02996008, 0.12863584, 0.4688917, 0.15851726, -0.090555534, -0.06948507, 0.065182194, 0.076082215, 0.20351565, -0.24149826, -0.03051107, 0.12648496, 0.04499622, 0.29093656, -0.07854084, 0.044057295, 0.035499297, 0.16334438, -0.0298635, -0.17861804, -0.022763267, -0.10026325, 0.11480365, -0.23291235, 0.102246664, 0.1769875, 0.09110801, 0.004996882, 0.02759739, -0.044535335, -0.011069879, 0.058509283, 0.16246612, -0.025732405, 0.058024917, 0.07593349, -0.023542663, -0.09526922, -0.30063775, -0.014942939, 0.045068786, -0.12143636, -0.013727087, -0.027889438, 0.12237631, -0.0015548329, -0.06988958, 0.0022599672, -0.021965863, -0.08001721, 0.008288493, 0.057473887, 0.0028256536, 0.07039328, -0.17305592, -0.0031247388, 0.0043695895, -0.045791864, 0.13750915, 0.035681702, -0.09643837, -0.06932192, -0.06260125, 0.007167962, 0.004102264, 0.096300445, 0.2737462, 0.12555188, -0.070512235, -0.074131384, -0.08659952, 0.082212985, 0.0038069438, 0.06193979, 0.091148615, 0.009094173, 0.13308032, 0.21133088, -0.14734107, 0.07743814, 0.188307, 0.12188124, -0.09581934, 0.04618009, 0.06500571, -0.11833664, -0.115532055, -0.32828644, 0.00497011, 0.19456282, 0.11561384, -0.053048175, -0.10547769, 0.02523871, 0.03477855, 0.062986314, 0.17795902, 0.08662667, -0.02782337, -0.00805104, 0.0003988965, -0.040865242, -0.078138076, 0.066625535, -0.009497446, -0.22878689, 0.017349966, -0.035251755, 0.22528353, 0.03509618, -0.08745969, 0.06521937, -0.013545599, -0.032726936, -0.04049137, 0.044805497, 0.07547941, -0.05231476, 0.028295014, -0.010339697, -0.26356134, 0.07643284, 0.15732716, 0.21079887, 0.026273409, -0.049095683, -0.25505817, 0.033750717, 0.0043990305, -0.09939612, 0.016139258, 0.18710624, -0.07040553, 0.012395387, -0.02521289, 0.1689499, 0.026544368, 0.01899142, -0.10349532, 0.010805149, -0.02936981, 0.17021376, 0.00045818737, 0.10554234, 0.24252872, 0.08400859, -0.053390875, 0.06308793, 0.013330803, -0.095625035, 0.06842693, -0.18299899, -0.021021273, -0.04464335, 0.17072421, 0.004072517, -0.13337484, 0.00040547425, 0.06315075, -0.01731908, 0.16974278, 0.05944301, -0.042142767, -0.15207788, -0.06294811, -0.04295529, -0.10907525, -0.043645088, -0.073908865, -0.25145528, -0.32143942, -0.067624815, -0.040931772, 0.030924302, 0.12327105, 0.14415523, -0.09517688, 0.09155081, -0.110603444, -0.052528206, 0.091409, -0.06649938, -0.08008812, 0.050648876, 0.13543221, -0.126064, 0.056700777, -0.031405706, 0.11268579, -0.31585932, -0.22261323, -0.13104664, -0.028888304, 0.21615492, 0.42583007, 0.021726377, -0.2499942, -0.030595489, 0.11815366, 0.28152406, 0.07160673, -0.22481081, -0.06419069, 0.040190738, -0.05718222, 0.07815623, -0.29052356, 0.14465612, 0.27136624, 0.09313168, 0.021049429, 0.02486958, -0.031103142, -0.25239822, 0.14910956, -0.3265244, 0.034636438, 0.14015035, 0.047623973, 0.057119574, 0.1568295, -0.025900973, -0.012628121, -0.20136324, -0.146001, 0.015956266, 0.08152142, 0.061028942, -0.055225432, 0.21413153, -0.014825201, -0.03622281, -0.07528261, 0.05913445, 0.10640756, 0.051847667, -0.24210891, 0.063003294, 0.11602724, -0.058414865, -0.05558029, 0.07760829, -0.034795344, -0.38889733, -0.043814726, -0.030444168, -0.36428872, -0.17171377, -0.058479823, -0.23836346, 0.2698643, 0.353815, 0.0011841026, 0.2468399, -0.056446075, -0.098529, -0.035919663, 0.09655254, -0.16146517, -0.009775853, 0.2534366, 0.012123909, -0.038932882, -0.25406152, 0.24806276, -0.09717147, 0.12530546, 0.05320636, 0.23198758, 0.04657364, -0.10101028, -0.12308582, -0.1132809, -0.041954167, -0.049797073, -0.28750777, 0.020760726, 0.16651756, -0.09908614, -0.19874872, 0.0310035, -0.06811216, -0.0639745, -0.011640491, 0.27768055, -0.047341008, 0.06884084, -0.04232845, -0.100025766, 0.07376492, 0.06200779, 0.16905375, 0.04186837, 0.23035651, 0.15951052, -0.08061164, 0.055041905, 0.12917206, 0.13766164, 0.0025432333, -0.2817455, 0.10093215, 0.15283383, 0.004307645, -0.073826805, -0.006233032, 0.05632203, -0.004457429, -0.20457573, 0.008881517, 0.16824399, -0.0889412, -0.09446788, 0.033844855, 0.10538873, 0.116111614, 0.20895547, 0.12755026, 0.0761814, -0.00078596204, -0.034483425, 0.16530126, 0.08714628, 0.056204136, 0.09325395, -0.012075155, 0.08589236, -0.30087084, -0.07471752, 0.046219084, 0.17078248, -0.076126635, -0.059827786, -0.13053492, 0.022867804, -0.2044815, -0.09113853, -0.040086735, -0.0011740959, -0.4112735, -0.108789004, -0.082364194, -0.16564064, -0.18099976, 0.017501377, 0.2863037, -0.25126565, -0.059881475, 0.20022409, 0.0030340464, 0.04091957, 0.091984555, -0.24364635, -0.014201237, 0.03686304, 0.067812994, 0.031274863, 0.22108157, -0.106331505, -0.056779835, 0.037547644, 0.16669194, -0.039111625, -0.048058726, 0.1938269, -0.014896993, 0.1964167, -0.07399062, -0.10068768, 0.13472144, -0.0022370685, 0.07992606, -0.082516216, -0.050049342, -0.13814206, -0.32816556, 0.09024528, -0.20569329, 0.22383122, 0.11233657, 0.031167606, -0.01115382, -0.22541085, -0.040823, 0.07791235, 0.1455478, -0.0837469, 0.03635749, -0.03773256, -0.05991554, -0.0574743, -0.018085076, 0.14717543, 0.022285268, 0.2218143, -0.009288324, -0.22616018, 0.009677526, -0.17443168, 0.03803979, -0.06588065, -0.027870517, 0.05419886, -0.26233828, 0.029470243, 0.047746256, -0.19406998, 0.053109962, 0.034863632, 0.04428341, 0.06290389, 0.059250146, 0.30595398, -0.07297528, -0.025363237, 0.09361663, -0.26169246, 0.060581114, 0.11915337, -0.016391378, -0.051609192, 0.18741503, -0.022964314, -0.04300069, -0.08006878, 0.121420056, -0.23524323, -0.02304614, -0.31741893, 0.02836606, -0.00063540536, -0.15060592, -0.0650328, 0.13044497, -0.032997128, 0.019238004, 0.06889821, -0.07898568, -0.064192586, -0.28546557, 0.1222829, -0.08948898, 0.089035094, 0.164295, 0.1602843, 0.11842763, -0.1228521, -0.0047527887, 0.070157215, 0.04140611, -0.07913654, 0.12231166, -0.11925341, 0.043295186, 0.051545773, 0.06308252, -0.22431439, -0.30862314, 0.0242558, 0.0674466, 0.16945112, -0.09957347, -0.1120598, 0.10580034, -0.2600764, 0.08786212, -0.03336552, 0.059110153, 0.03799884, -0.016592687, -0.00120989, 0.008865753, 0.065247856, -0.24220169, 0.070989326, 0.041417874, 0.18420674, -0.03760421, -0.012779533, 0.0929985, -0.14861992, -0.012607447, 0.053617854, -0.15909106, -0.06572635, -0.028168628, -0.029599348, -0.025986347, -0.05379531, 0.25596672, 0.16073623, -0.019989386, -0.16297564, -0.037154064, 0.05406145, -0.012931961, 0.015424088, 0.2344046, -0.009991829, -0.022938045, -0.03766962, 0.05993042, -0.02693045, -0.17508115, 0.060472846, -0.17799784, -0.097286135, -0.0059899683, -0.007732869, 0.019316154, 0.07446275, -0.2380061, 0.017875671, -0.10780981, -0.1717451, 0.051924504, -0.00683092, -0.09768807, -0.015892705, 0.29805893, -0.07872961, 0.040676862, 0.11247127, 0.033687945, -0.01379029, -0.048917938, -0.09417776, -0.10588049, -0.034429375, -0.27087387, 0.07833489, -0.07718704, 0.07309279, -0.19573757, -0.080120094, -0.031478677, 0.015104401, -0.004092051, 0.11588975, -0.023166576, 0.31845382, -0.01832732, 0.03713912, 0.011169995, 0.1115704, -0.06475295, -0.07324388, 0.066137604, -0.039563663, 0.14674082, 0.25836194, -0.008844453, 0.0063321693, 0.10330111, 0.03754867, -0.06745936, -0.1772222, -0.035552762, 0.2556358, 0.07372597, -0.036660947, 0.06918111, 0.056583673, 0.081237465, -0.075827956, -0.04678174, 0.13867472, -0.2228837, 0.013043388, -0.08836776, 0.049877025, 0.09729281, 0.05148253, -0.054809358, 0.28184393, -0.1547166, 0.030849338, 0.09740308, -0.10218743, 0.044648517, 0.06388226, -0.0037133421, 0.12786631, 0.026032053, -0.08519249, -0.19786553, 0.09744077, -0.025205635, -0.13461918, -0.08269628, 0.10811642, -0.22557317, 0.08377089, -0.07695243, 0.050142206, -0.2214859, 0.0005904006, -0.24630477, 0.018107045, 0.014165673, -0.009884506, 0.004293525, -0.052953288, 0.044067305, 0.25504035, -0.0017399987, 0.009611349, -0.084013164, -0.043155868, 0.037171874, 0.06713847, -0.122287944, 0.008969404, 0.02663905, -0.06957375, -0.039804388, 0.07283309, 0.29538095, 0.030861365, 0.06865692, -0.1135948, -0.006968963, 0.22207244, -0.06779689, -0.078399196, 0.2184288, 0.019418271, -0.06919918, -0.08080787, 0.04883841, 0.06637095, -0.193569, 0.17646782, -0.14324377, 0.11107018, 0.04437904, -0.0016895572, -0.06375549, -0.046373017, -0.07993736, 0.042098336, -0.0405239, -0.294295, -0.045620445, -0.03681651, -0.07797094, 0.010826392, -0.039908215, 0.042491242, 0.026081378, 0.18968531, -0.0049696155, -0.08104454, 0.088680506, 0.059736528, -0.11431092, -0.12449729, -0.008923893, 0.020994065, -0.007882369, -0.015367926, -0.1905691, -0.15169176, 0.011726016, 0.043716714, -0.06125268, 0.07315538, -0.050887454, 0.26939788, 0.029139178, -0.07657705, 0.119548656, -0.26651824, 0.016439337, 0.10713943, -0.29554835, 0.01964092, 0.13693327, 0.12438879, -0.00753415, 0.056861967, 0.015994556, 0.05523254, -0.046635263, -0.15489164, 0.060238153, -0.19770288, 0.023595471, 0.0066971467, 0.017608425, -0.055339035, -0.085415035, -0.025109937, -0.03683256, -0.2198318, -0.14595573, 0.17819491, -0.09540305, -0.1301824, 0.10151331, -0.06173847, 0.11204179, -0.14066496, 0.09751081, 0.040700354, -0.15865856, -0.23843318, -0.052865162, -0.10499482, -0.080460645, 0.03229938, 0.1645155, -0.3511486, 0.119737945, 0.2615115, -0.025203673, -0.13808727, 0.066403195, -0.14344436, -0.11923835, -0.17887153, 0.2489071, -0.0191745, 0.24563834, 0.025441866, -0.3135028, 0.13551475, 0.10440211, 0.06253078, -0.19405673, 0.11386001, 0.0014150217, -0.02071306, 0.006210873, 0.0013382182, -0.020494733, -0.24115455, -0.09120897, -0.19290431, -0.1781008, -0.04011354, -0.025009032, -0.043369718, -0.07170126, -0.022124346, 0.17440085, 0.14160174, 0.03581459, 0.4151527, -0.030283757, 0.0285173, 0.07688188, 0.068758935, -0.14325751, -0.08788188, -0.102948256, 0.12907492, 0.042040158, 0.22440107, 0.092329316, 0.09608715, -0.33429393, -0.041429006, 0.017620971, -0.02063922, -0.1158236, -0.14594594, -0.06684251, -0.013487798, 0.042711, -0.13489471, 0.06362161, -0.08744564, -0.10090022, 0.010274136, 0.124513395, -0.11961602, 0.21520597, 0.104789644, 0.015096673, -0.1625269, -0.019205017, -0.074307844, 0.12537141, -0.032338645, -0.17959496, -0.034659617, 0.18303339, -0.026336698, -0.27903548, -0.18469813, 0.20234111, 0.013365255, 0.1184073, 0.09212676, 0.05310448, 0.09046342, -0.056148548, 0.11118484, -0.004478316, -0.1770408, 0.049322423, -0.1159204, -0.16632915, -0.002826872, 0.2702589, 0.060700167, -0.036803115, 0.012293704, 0.007353937, 0.20185405, -0.029013116, 0.25865707, 0.009612697, 0.101493195, 0.026204454, -0.084163964, -0.13010502, 0.07268975, 0.009703858, -0.12763333, -0.038292546, 0.20933497, -0.13297318, 0.15731594, -0.15567346, -0.08552323, 0.1253122, 0.12988815, 0.054339513, 0.14425153, 0.050703578, 0.04429472, 0.018311962, 0.063696966, -0.20376542, 0.06276874, -0.04924451, -0.010393495, 0.07599787, -0.17978184, 0.16346893, -0.033263028, 0.043756768, -0.22360933, 0.0893025, 0.054126736, -0.26440406, -0.15336695, -0.08964858, 0.050807353, -0.030748934, -0.0012078023, -0.24263886, -0.038697835, -0.1270462, -0.030620797, -0.13612491, -0.088741384, 0.024728142, 0.030971259, 0.022951208, 0.12656878, -0.057703186, -0.046566587, -0.018191125, 0.09123951, -0.035701685, 0.058365677, 0.22232749, 0.17935565, -0.055503238, -0.026143325, 0.20059165, 0.15032277, 0.06735672, -0.2628358, 0.0350151, 0.020849844, 0.020172035, 0.060054515, 0.1258897, -0.006700345, -0.1498258, 0.0739322, 0.018735215, 0.3263794, -0.09197719, 0.14213632, 0.010538743, -0.075109616, 0.08762521, 0.114409775, -0.057689305, 0.04102352, -0.20173411, -0.011603695, -0.16118623, -0.09180421, -0.09251027, -0.030694691, 0.037152834, 0.023102732, -0.03112986, -0.018245194, 0.15456417, 0.0007205112, 0.026446361, -0.10811174, -0.05592964, -0.094864115, -0.19666304, -0.17796847, -0.04147497, 0.008197267, -0.18297844, 0.023415485, -0.0752099, -0.03593484, -0.27580583, 0.055043712, -0.020528236, 0.070848204, 0.060724333, 0.03373275, -0.028501272, 0.030728877, 0.006042842, -0.17977856, -0.085475326, 0.0027495362, -0.2278556, 0.05006991, -0.1031254, 0.26987043, 0.057448477, -0.054703716, 0.021051206, 0.07057634, 0.08334565, -0.05404514, -0.012875601, -0.18165463, 0.011573124, -0.00650909, -0.1797706, -0.05842946, -0.09022287, 0.120709546, 0.06672822, 0.08983099, -0.18131058, 0.3775056, 0.03012598, -0.088446856, -0.03545679, -0.001005436, 0.04589955, -0.25668123, 0.03610616, -0.034110863, -0.36925617, -0.23509917, -0.11452633, -0.031738017, 0.039958425, -0.08378823, 0.31138662, 0.007278714, 0.17840451, -0.034348585, 0.041423973, 0.046200123, 0.09516502, 0.03790347, 0.16819727, -0.11723053, 0.22584268, -0.03648497, -0.03345335, 0.09622524, -0.1356859, 0.00018203657, -0.19126093, -0.013862704, -0.015500404, 0.15064675, 0.064927146, -0.17536817, -0.046110254, -0.02145313, -0.053140983, -0.047345202, 0.0030220647, -0.024638198, -0.18954882, 0.03941826, 0.01806095, -0.30365413, -0.037378177, 0.0009568885, 0.053798057, 0.07426918, 0.009818397, -0.051526397, 0.021039879, 0.1382793, 0.051305804, -0.037940696, -0.31453428, -0.08106029, -0.48372123, 0.038858786, -0.023714457, -0.16987723, 0.13825639, -0.013053171, -0.17799088, -0.15464582, -0.08047201, -0.09605469, -0.11554257, 0.012887957, -0.233808, -0.04154605, -0.10727664, 0.11341204, 0.10751924, -0.21922633, -0.013616531, -0.22565646, 0.4063829, -0.13915694, 0.3271771, -0.09105914, 0.034889203, 0.12557906, -0.055990193, 0.13028361, 0.008492125, 0.17112763, -0.07007226, -0.04435887, 0.27932823, 0.01493345, -0.17541309, -0.25955006, -0.05355622, 0.06403831, 0.045254353, 0.13583489, 0.048128195, 0.017522208, -0.060886, -0.021096239, 0.032377053, 0.048160773, -0.015202904, -0.14573862, -0.19947483, 0.026321733, 0.14977361, 0.124060765, 0.0012834279, 0.04449699, 0.038857806, 0.06577465, 0.037740897, -0.0040390114, -0.001294235, -0.26691654, 0.03959054, 0.06232672, -0.29482713, -0.037707344, -0.14017576, 0.031293813, 0.046055026, 0.110208005, 0.11383843, 0.116884194, -0.2186709, -0.1297501, 0.07887671, 0.0038993692, -0.15052779, 0.30229124, 0.100326836, -0.0019646182, -0.019285612, 0.015481659, -0.069930725, -0.008694321, -0.04772617, 0.023697343, 0.22178967, -0.16952154, 0.2538312, 0.03333042, 0.065850414, 0.09567283, 0.14351517, 0.23362435, -0.16433565, 0.13143745, -0.15985, 0.017483918, 0.08150214, -0.08128529, -0.01524475, -0.023036433, -0.09255274, -0.025795363, 0.0896839, 0.053435124, 0.04029449, -0.09736337, 0.076461196, 0.07681238, 0.023045126, -0.04763669, 0.023552869, -0.24239592, -0.13132189, -0.0047909236, 0.0884861, 0.17834172, 0.0014304221, 0.028985163, 0.12139623, 0.1717383, 0.03759649, -0.23927788, 0.08093844, -0.09631236, -0.049091354, 0.027360996, -0.0350865, 0.051468126, -0.18973169, -0.083809786, -0.023642842, 0.05794546, -0.0092709595, 0.0790187, -0.14042279, -0.0892247, 0.2852097, -0.0060311914, 0.0014476116, -0.015642338, 0.16766985, -0.05524421, -0.03458476, -0.044007186, 0.10427487, 0.073485814, -0.06947817, 0.068172924, 0.12692654, -0.17207275, 0.23904622, -0.0862046, 0.04916821, -0.09845559, -0.020310549, -0.03716989, -0.30074465, -0.01578437, -0.32931727, -0.070372865, -0.057548165, 0.048484698, -0.1747995, 0.058225203, 0.040745907, 0.06362531, 0.15729512, -0.16238493, 0.022966623, -0.084953584, -0.06058566, 0.0664807, -0.017317193, -0.12108123, 0.025073601, -0.019990966, -0.20594294, 0.06351433, -0.11641314, 0.050843425, 0.04295683, -0.05727575, -0.17023249, 0.072877474, -0.045202374, -0.052980527, 0.046282824, -0.14813578, -0.12376939, -0.03756222, -0.39216775, -0.076509945, -0.21449213, -0.0072174706, -0.011514485, -0.33059642, 0.1842861, 0.25515607, -0.31874037, -0.051539473, 0.11320799, -0.03190228, 0.019950861, -0.4199719, 0.03695739, 0.07507446, -0.0888408, -0.42565456, 0.17302899, 0.15709293, 0.039024327, -0.061491627, 0.30048043, -0.24916238, 0.31421283, -0.23781924, -0.0033230202, 0.17796867, 0.3172926, 0.12646845, -0.020864258, -0.04687301, -0.23478682, 0.04473553, 0.10855449, 0.053284984, 0.053155735, -0.11350909, 0.052796163, 0.068130285, 0.060679156, 0.17162849, 0.06412898, 0.03134013, -0.0042706407, 0.021836428, -0.03768998, -0.05932432, 0.027043208, -0.07361322, 0.035889696, 0.0018068552, -0.013698895, -0.07583831, 0.0029095428, -0.019720692, -0.060130116, -0.0668946, -0.051432684, -0.06763295, 0.042478077, -0.0732845, -0.054310344, -0.0073601827, 0.016388115, 0.025784552, 0.031025467, 0.047188282, 0.005132124, -0.0047049057, 0.0051353252, -0.06171965, -0.05318774, 0.023352718, -0.027525784, -0.026327837, -0.024794323, -0.106971554, -0.0028088703, -0.06500637, 0.012045948, 0.009114925, -0.030545494, -0.08943614, 0.016087981, -0.048267037, 0.04516926, -0.04983075, -0.022646932, -0.04262411, -0.015694685, -0.065457985, -0.12354427, 0.03712309, -0.0060953647, 0.014894623, -0.11813017, -0.001359038, 0.015283041, 0.058963016, -0.045936696, -0.027779058, -0.008876323, -0.066218086, 0.017194463, -0.04381243, -0.03926214, -0.07312174, 0.0016611889, 0.013095083, 0.014470195, -0.072371855, -0.02168325, -0.011564888, -0.069105506, -0.0014236629, -0.08334262, -0.03333967, 0.05888887, -0.0351841, -0.04681422, 0.014220004, 0.041672245, 0.055041477, -0.07292872, -0.04431802, 0.04972956, -0.044306, -0.024181336, -0.005297914, 0.045732867, -0.028934062, 0.06260076, -0.014552387, -0.0032791796, 0.049087342, -0.054817367, 0.033171795, 0.018734166, 0.03184819, -0.055351503, 0.0044826046, -0.0021002651, -0.06994581, 0.048233233, -0.016361015, 0.047371514, -0.02425047, -0.02678888, -0.0071651856, 0.04800476, -0.039632, 0.032103192, -0.018758403, 0.012394294, 0.030212138, -0.033699043, 0.020871358, -0.016740499, -0.06819997, -0.0004581732, -0.05977551, 0.026820168, 0.017941527, -0.055853415, -0.025500229, 0.05176135, 0.033139884, -0.049047228, -0.0044257194, 0.012289777, -0.012034874, -0.006830232, -0.05589141, 0.0387546, -0.04131042, -0.023474287, -0.030405171, -0.07086042, -0.01881411, -0.041218046, -0.02193834, -0.049762554, 0.06768046, -0.048441283, -0.0723854, -0.04633826, -0.0021731996, -0.01997595, -0.07589554, 0.053388894, -0.004481457, 0.016541444, 0.061160892, -0.04080568, 0.069186896, -0.04506734, -0.027870689, 0.05259541, 0.032590136, -0.038916558, -0.08214113, -0.05116784, 0.0018488467, -0.058392942, 0.008148275, 0.0075371596, 0.0015665077, -0.039302025, -0.033391625, -0.08568647, 0.030285398, -0.073591016, 0.043466695, 0.04640292, -0.06399632, -0.08977551, 0.015565756, -0.027948909, -0.010364456, 0.02035712, 0.05017234, -0.015327537, 0.0032824934, -0.03790778, 0.04887393, 0.047058083, 0.05605866, 0.06748353, -0.061441194, 0.008187387, 0.045586668, -0.0061482857, 0.036500778, 0.05884908, 0.01645615, 0.012738377, -0.065803565, -0.010194926, 0.05988889, -0.027575653, 0.056655556, 0.04121115, 0.02821654, -0.010126777, -0.05140347, -0.0031813702, 0.0070247427, -0.065658115, 0.02917929, -0.059608955, 0.011267306, -0.025025867, -0.013816107, -0.059608743, -0.065282665, -0.02671399, -0.04389678, -0.07455003, -0.05396738, -0.0685772, 0.012849251, -0.006636816, -0.044952247, -0.11152695, -0.08642615, -0.046005897, 0.0059126914, -0.02359407, 0.015701521, -0.09022005, -0.011372611, -0.00956257, -0.03455407, -0.055469565, -0.055356286, -0.046425465, -0.049408372, -0.055207983, -0.042942606, -0.06721358, -0.004298311, -0.054807656, -0.0019309543, -0.08300833, -0.07751408, -0.020085456, -0.07642711, -0.10925034, -0.019080523, -0.016682725, 0.019152358, 0.05930367, 0.03298487, -0.04822083, 0.046510138, -0.004744652, -0.075764224, -0.015009474, 0.03203674, -0.04862175, 0.05266102, 0.0016593883, -0.09802376, 0.023870908, -0.019907959, -0.03942329, -0.059765223, -0.07857187, -0.029363146, -0.03417627, -0.014167611, -0.0595881, -0.06880287, -0.0654049, 0.018578706, 0.024789765, 0.05678309, -0.030022437, 0.030705526, -0.10110566, -0.03472599, 0.011063798, -0.03971672, 0.06712024, 0.017389463, 0.020859784, -0.05050839, 0.009810438, -0.031338997, -0.017749825, 0.047023766, 0.004173759, 0.0030065642, -0.037647247, 0.038495567, -0.02543538, 0.025062628, 0.0540556, -0.06787306, -0.03906578, -0.013012471, 0.05167494, -0.055162452, 0.00922078, -0.07477071, 0.01772806, -0.01073897, 0.042081963, 0.018383088, 0.0089739915, 0.042950496, 0.02850302, -0.04960278, 0.0027574063, -0.023895686, -0.060428686, 0.025492761, 0.01834673, -0.0009397045, -0.017764976, 0.018593557, 0.054391667, -0.058266543, 0.0004453063, 0.06749532, 0.014959705, -0.03643771, 0.03303131, -0.06918039, -0.063133694, 0.057833776, -0.06928353, 0.01690308, 0.002575592, -0.035639685, -0.055971283, -0.07221477, -0.042755287, -0.06895193, -0.012925003, -0.01962158, 0.0057945955, -0.027302634, -0.07033986, 0.058997482, 0.016515434, -0.034114715, -0.07178618, 0.03576693, 0.0051139332, -0.062075976, -0.036291335, -0.0009666728, -0.02315965, -0.09871249, -0.021151682, -0.07144432, 0.005330104, 0.000964876, 0.058075503, -0.044594847, -0.016371578, -0.022467885, -0.017748302, 0.015497303, -0.07454836, -0.020058254, 0.034309804, 0.016718354, -0.070411615, -0.0051608756, 0.018077165, 0.00051553524, -0.0045238375, -0.025176404, 0.034657888, 0.02232501, 0.03879696, 0.06580277, 0.055213973, 0.021637462, -0.005726382, 0.008842126, 0.008632369, 0.008050527, 0.04806181, 0.0699587, -0.023183852, 0.054895792, -0.0026953763, -0.06614892, -0.057749085, -0.036200024, -0.061520867, -0.0703943, -0.04667155, -0.032865636, 0.008286236, -0.021996044, 0.049055178, -0.03533932, 0.013753168, 0.063512996, -0.0266341, -0.04287523, 0.03745131, -0.010717109, -0.01670479, -0.031455535, -0.08966401, 0.06835291, -0.030324541, 0.022957247, -0.08372279, -0.034583986, -0.022245493, -0.028527614, 0.059718978, 0.010503137, 0.0035583365, 0.053176984, -0.11040245, -0.015260161, 0.013565001, -0.01369441, -0.04453713, 0.0361977, 0.049811706, -0.0341425, -0.034627974, -0.10142117, -0.023642743, -0.0073211347, -0.07340589, 0.057312474, 0.0005092641, -0.04495855, -0.032734275, -0.050569855, -0.055034798, 0.044092, 0.047570683, 0.0035529532, -0.05786151, 0.026066879, 0.015430576, 0.026368491, -0.054161865, 0.023864027, -0.037222035, 0.008788869, 0.054556847, 0.0146995075, -0.085232824, -0.012307759, 0.0073815878, -0.010432061, -0.047967643, 0.04676685, 0.01582586, -0.09356671, 0.07063235, 0.02533532, 0.016097663, 0.010268996, -0.05706307, 0.005440787, 0.05489792, 0.014036328, -0.021737682, -0.033823997, -0.10597642, -0.062774315, 0.0059157824, -0.032071553, -0.010493614, 0.039225303, 0.029877383, 0.053539764, 0.0035169262, 0.0610683, -0.053963277, 0.0069252923, -0.016385272, -0.070604905, -0.023041587, -0.021461293, 0.052277226, -0.007856707, -0.00944128, -0.05566418, -0.013219938, -0.08062874, -0.07133094, -0.04040879, -0.015737275, -0.10122913, -0.05179166, -0.07279392, -0.06327688, -0.04159709, -0.04070038, -0.07616521, -0.064294375, -0.017949976, 0.002126696, -0.07037999, -0.026737155, -0.08121371, -0.077321015, -0.037917726, -0.021568159, -0.079770096, -0.07412654, -0.06308781, 0.040200055, 0.0117643345, -0.038711943, 0.023387065, -0.0071250475, -0.05771757, -0.050789, -0.0026827483, 0.01987509, -0.07451849, -0.047232922, -0.0028306916, -0.040967494, -0.068100676, 0.051902622, -0.028209353, 0.018360421, -0.05310935, -0.038270123, 0.015403576, -0.006676202, -0.030608304, 0.0009179051, -0.013865631, -0.035606913, 0.005490996, -0.010866365, -0.064362235, -0.04554238, 0.044524547, -0.095024504, -0.07081007, -0.06850738, 0.0058215563, -0.021089936, -0.026627125, -0.0032240031, -0.014286449, 0.024264973, -0.060651775, 0.0042115552, -0.07072493, -0.028938698, -0.05069338, -0.08758045, -0.025176773, 0.0017908439, 0.07042979, 0.013977938, 0.029728495, 0.012532239, -0.087566026, -0.027760532, 0.014270388, -0.054628886, -0.022731604, -0.042190053, 0.009286903, -0.047039915, -0.01337013, 0.005745365, 0.0018236901, -0.035093866, -0.055289406, 0.047820948, 0.042387065, -0.12607506, -0.091158316, 0.0011340529, -0.037789214, -0.082311735, -0.030749466, -0.008684574, -0.077758886, -0.039079968, 0.029414497, 0.06359495, 0.035137728, -0.033257358, 0.017873356, 0.06840585, -0.0055684876, 0.014155117, -0.07187825, -0.051996164, 0.04505626, 0.000779219, 0.030516053, 0.046631247, -0.07137178, 0.019593727, 0.064369224, -0.023236135, 0.015960488, -0.061005503, -0.08881981, -0.06828982, -0.011296857, -0.018140068, -0.0350565, 0.023527296, -0.0029457982, -0.015317874, 0.061434716, 0.041030847, 0.038763665, -0.018600939, -0.08775336, -0.040689383, -0.013595511, 0.043626457, 0.008877009, -0.0121113425, -0.020108648, -0.092960894, 0.0024552774, 0.0334044, 0.008122623, -0.026138721, 0.0675874, -0.053969897, -0.05094458, 0.03429331, -0.06287041, -0.010657224, -0.037882935, 0.012180604, 0.07079354, -0.017572677, -0.0045998194, 0.01230543, -0.108303405, -0.019816885, -0.008202939, 0.049269818, 0.048182733, 0.0077919085, -0.040132962, 0.043309264, -0.06388597, -0.053972896, -0.06311684, -0.07081555, -0.068671025, 0.0728738, -0.010684808, 0.059152115, 0.060585395, 0.00991233, -0.06562303, 0.0065642996, -0.060074672, 0.058166966, 0.029714445, 0.014273605, -0.05016436, 0.056275584, -0.004874212, 0.0032692084, -0.039359417, 0.018291112, 0.04477963, -0.04542449, 0.023119062, 0.034357157, 0.026615983, -0.039326627, -0.0070667192, 0.026186334, -0.009339476, 0.073624365, -0.054794036, -0.008776195, -0.030240623, 0.03105706, 0.025612788, -0.07721512, -0.059093915, -0.12486934, -0.069345295, 0.02002184, -0.014413144, 0.042044014, 0.039762795, -0.009425684, 0.01579736, -0.013138463, 0.033695117, -0.014160099, -0.0008393038, -0.021523155, -0.079948634, 0.026653478, 0.029415505, 0.026082037, -0.06452141, -0.08010571, -0.009362966, -0.070155635, -0.009431615, -0.037214022, -0.018919872, -0.015540936, -0.052053183, -0.0302952, -0.06837069, 0.04391861, 0.028064251, -0.015114006, 0.046552833, 0.015021686, -0.025308847, -0.008637818, -0.072369374, 0.01576656, -0.05421051, -0.01692757, 0.04427047, 0.039140362, -0.06455709, 0.028142082, -0.05803441, -0.015795354, 0.07154904, -0.037643768, -0.024473164, -0.099315435, -0.03573093, -0.0070340983, 0.014768282, -0.054483965, 0.027845688, 0.027323801, -0.07932235, -0.037617214, 0.0038001977, -0.019324172, 0.00924695, 0.05210811, -0.009535151, -0.033948112, -0.046079047, -0.065837316, -0.11937867, -0.052604787, 0.06341927, 0.05152112, 0.05428739, 0.03459269, -0.073769294, -0.00090234727, -0.06888973, 0.0027675438, -0.0034927812, 0.026248768, 0.0027284473, 0.051149204, -0.004142022, -0.11892372, -0.06769605, 0.022574922, 0.029160218, -0.07355526, -0.06636642, 0.0072329435, -0.085774034, -0.003126806, 0.06684248, -0.05846087, -0.061872456, -0.04636175, 0.014104103, 0.03819795, -0.043095093, 0.031528596, 0.011873864, -0.07655031, -0.05850187, 0.018114338, 0.04254254, -0.037673395, 0.023298347, 0.031344578, 0.022021975, -0.0025300283, 0.008040533, 0.0015266485, -0.06407407, -0.04828603, -0.07367364, -0.0636372, -0.009648116, 0.0657706, -0.04035867, -0.028939828, 0.06592135, -0.0023236142, -0.048380964, -0.055142637, 0.051438905, -0.012899703, 0.00821536, -0.06554295, 0.04193476, 0.04740078, 0.04401955, -0.074528985, -0.06540654, -0.07124619, -0.040985387, 0.045207214, -0.03397582, -0.09514443, -0.036470972, 0.030602247, 0.004688628, 0.009160054, 0.025929525, -0.0013123825, -0.036764584, -0.029308155, -0.019019755, -0.039569654, -0.030243678, -0.0061149453, -0.011637081, -6.251229e-05, 0.012708992, -0.0019620873, -0.01782544, -0.030452535, 0.03343928, -0.07666225, 0.01034405, -0.028966695, 0.0135700675, -0.027262744, -0.07265239, 0.058089774, 0.030766554, -0.0937727, -0.016314015, -0.07142103, -0.02660811, -0.058937114, -0.022543168, 0.024341717, 0.032007933, -0.042920087, -0.057247374, -0.068699986, -0.06758156, -0.021728938, -0.08328105, 0.018608224, 0.032547727, 0.025738684, 0.025654608, -0.080369644, 0.017015792, 0.0445809, -0.021360276, -0.014618731, 0.015370882, -0.066572264, -0.02044326, 0.006983489, -0.051899433, -0.0025670326, -0.08869556, -0.032844998, 0.0367367, 0.0403577, 0.04750374, -0.015152644, 0.040629957, -0.0903759, 0.00085927546, 0.049116723, 0.0076647997, 0.05138579, -0.08739036, 0.01250153, -0.01619624, 0.059041977, -0.01017924, -1.1088842e-05, -0.08254371, -0.0034931079, 0.015698263, -0.096463956, 0.02206254, -0.052868612, -0.0005517433, -0.003261984, -0.027380288, 0.028628614, 0.04453853, -0.02280965, 0.008714617, -0.0060650483, -0.0679358, 0.036799297, -0.056029916, 0.0032743188, 0.0014445484, 0.025589779, -0.017523658, 0.027753852, -0.046270423, -0.057435907, -0.029610852, -0.07469906, -0.06611118, -0.003879854, 0.04003293, -0.014410365, -0.06928812, -0.026104271, 0.0003528148, 0.032760683, -0.034046266, -0.06671103, -0.07145278, 0.05094506, -0.059990123, 0.03772172, -0.12154779, -0.0545487, -0.0036070342, 0.0038707852, 0.039572038, 0.057008743, 0.034873262, -0.05398838, 0.035649914, -0.020773532, -0.008064285, 0.024049545, 0.06313818, -0.083459586, -0.031724606, 0.00015763238, 0.030908085, -0.09563443, -0.10295415, -0.051791534, -0.04770772, 0.012981741, -0.015330148, -0.072127745, -0.071534015, -0.078226194, -0.09569471, -0.00607416, -0.03546464, -0.025697876, -0.036689386, -0.045547307, -0.059406355, 0.055757605, -0.022388006, 0.008654967, -0.06091, 0.05466409, 0.033197846, 0.04697685, 0.051146537, -0.06965431, -0.008938447, -0.071418576, 0.060238764, -0.04680392, 0.04054674, 0.041873552, -0.009845517, 0.05093307, -0.042985715, -0.0057541947, 0.040621333, 0.027521469, -0.027266834, -0.026977364, -0.055379868, -0.0010685646, -0.09543601, 0.03402903, -0.05988484, -0.0056438325, -0.044840675, -0.03678826, -0.053688943, -0.12072479, -0.05764103, -0.03250703, 0.0468813, -0.03561798, -0.00865851, -0.013024612, -0.0063798334, -0.029601244, -0.069533125, 0.01604546, -0.04892398, -0.024507396, -0.07296361, 0.075508155, -0.039183065, 6.420811e-05, -0.030123683, 0.035523325, 0.17925386, -0.05868358, -0.04070822, -0.1822485, -0.21579605, 0.06185573, 0.10920514, 0.08911109, -0.02733512, 0.04080114, 0.054333963, -0.0071841823, 0.04350042, -0.13410999, 0.01795077, 0.0672268, 0.05253674, -0.0843046, -0.024041815, 0.07618472, 0.0464572, 0.007828464, 0.023275279, -0.18391466, -0.1601089, 0.05360213, -0.063109905, -0.06664905, 0.13415182, -0.22294599, -0.13002743, 0.0918712, 0.037463702, -0.18925293, -0.0054696947, 0.07924484, -0.009765783, 0.07642183, 0.0793604, 0.055652797, 0.012707281, 0.015393638, -0.03352439, -0.026279096, -0.034626503, -0.046119064, -0.34109014, 0.0533084, -0.13186264, -0.20773458, -0.024071148, 0.077765755, -0.00071357907, -0.056586247, 0.10248482, -0.16350108, -0.0058246637, 0.36153376, 0.11696382, 0.27169955, -0.01805704, -0.017474873, -0.07321039, 0.05198273, -0.08489856, 0.050454088, 0.052116465, 0.14613792, -0.08710556, -0.06482552, 0.17565386, -0.027723132, 0.019503081, -0.029478606, 0.072343186, 0.07450522, -0.041991435, -0.083878905, -0.017265711, -0.0520347, 0.07943228, 0.0067491625, -0.1041331, -0.07716902, 0.06053397, -0.057277806, -0.00047519058, -0.07705066, -0.030055419, -0.0056634024, 0.0032315857, 0.00043383182, 0.11928292, -0.0072987527, 0.13075565, -0.069272384, -0.037165884, -0.12845398, -0.0767933, -0.080331095, 0.04843651, 0.057650425, 0.0011296265, 0.0076359496, -0.05924294, -0.038440865, 0.027034832, -0.16676062, 0.0009334206, 0.027920414, -0.13713393, 0.0036658428, -0.27956748, 0.036037706, 0.15339035, 0.018756982, -0.17091198, 0.101538844, 0.1058428, -0.41572845, -0.06288603, 0.11157874, -0.059331235, -0.23476698, -0.07288881, -0.115952596, -0.06972028, -0.043013662, -0.20635502, -0.012311935, 0.03868119, -0.010739078, -0.001036595, 0.05913506, -0.09233783, -0.12489265, -0.023064459, -0.14117174, -0.09493915, -0.06552649, -0.035539895, -0.00292789, 0.062968194, -0.03086542, 0.11762014, -0.07303851, -0.0687994, 0.053464703, 0.0049626306, -0.23735811, 0.052091658, 0.005021087, -0.24938954, 0.057388693, 0.08461986, 0.10576347, -0.048025876, 0.06878516, 0.019890884, -0.16784467, 0.098910436, 0.10708374, -0.011488305, 0.16679868, 0.06181539, -0.16141409, -0.14790611, -0.051720936, -0.09066068, 0.04472498, 0.01750172, -0.12962392, 0.060483087, 0.11063733, -0.06579725, -0.056638163, -0.075286, 0.13788292, 0.02225239, -0.09061545, 0.11305582, 0.100504644, 0.057909977, -0.1950695, 0.032699466, 0.051714968, 0.104143545, -0.22565003, -0.07092604, -0.15924734, 0.1774452, 0.07200219, -0.028106015, 0.04210356, 0.07606979, -0.08136363, -0.109960966, -0.030121602, -0.32373744, 0.0694564, 0.007648062, 0.00794777, -0.063439414, 0.05006402, 0.05919545, -0.0052478933, -0.14434724, 0.033501267, 0.19201471, 0.04316676, -0.031082591, -0.011890378, -0.009186372, -0.06437548, -0.06810734, -0.11023641, -0.049169492, 0.010710508, 0.1485298, 0.008174246, 0.1593062, 0.029184943, -0.19827458, -0.12343731, 0.15854129, 0.21160783, -0.03828569, 0.17901589, 0.030937718, 0.27000508, -0.10868296, 0.018094929, -0.018770233, 0.0754164, 0.022454618, 0.044271085, -0.15375718, -0.025018984, 0.0031358728, -0.008629163, -0.026893903, 0.14856438, -0.06231873, -0.21955544, 0.06411615, -0.020080604, -0.004661086, -0.22296223, -0.0121412715, 0.21233378, -0.0920606, -0.16179875, -0.05335161, -0.22950226, -0.0038362308, 0.026733711, 0.07602833, 0.007859584, 0.049996775, 0.11031591, -0.13809647, 0.073861785, 0.03189838, -0.0019293494, -0.029998662, 0.17875877, -0.045907777, 0.0118671935, 0.046731044, -0.15758929, -0.09626855, -0.048328556, -0.07717474, 0.049966566, 0.083383575, -0.03276868, 0.016056918, 0.059989933, 0.02071105, 0.14421682, -0.1048457, 0.043385968, 0.026432643, -0.060012143, 0.15897006, -0.29909885, -0.14226843, -0.024157908, -0.04649051, -0.19757655, 0.030798635, -0.27939507, 0.0447714, 0.0442115, 0.06613805, -0.0634022, -0.03450204, 0.07768369, -0.11600287, 0.016932849, -0.14667904, -0.07195581, -0.16279063, -0.02090496, -0.012694451, -0.26106703, 0.1667702, -0.01865228, 0.1812586, -0.16211936, 0.0807518, -0.2017093, -0.052245706, 0.043045018, 0.25819588, 0.063098475, -0.019601803, -0.04105169, 0.07445155, 0.039418086, 0.059406534, -0.0018292234, 0.008379858, 0.16034105, 0.06895494, 0.0047485675, 0.1974366, -0.068489574, 0.0016986543, -0.053365003, -0.2834864, 0.011876403, 0.032261215, 0.01562104, -0.09321592, 0.024569511, 0.04342419, -0.016134927, -0.08051706, -0.022645347, 0.06707738, -0.056922495, -0.04951059, 0.0062837233, 0.051677786, 0.033746146, -0.043183845, -0.16965932, 0.011720226, 0.07243157, -0.051061008, 0.08231607, 0.019927833, -0.114091404, 0.00669297, -0.29246202, 0.06038451, -0.11050834, -0.09421461, -0.16115285, -0.020492075, 0.0061102286, -0.07404017, 0.17204273, -0.1797721, -0.034026574, -0.014197755, 0.03402445, -0.27864638, -0.14135976, 0.019661833, 0.09714065, 0.13205928, -0.1699921, 0.084007554, -0.28299612, -0.03893438, 0.10088663, 0.103943065, -0.12376406, -0.06282656, -0.030010551, -0.11821171, -0.031063471, -0.011158578, -0.030866988, -0.04518927, -0.19501764, 0.19356844, 0.039180752, -0.05330888, 0.010005408, 0.031254735, 0.051675525, -0.20476796, -0.0393346, -0.018781237, 0.16277568, -0.1299604, -0.04908108, -0.076136924, 0.035504494, -0.106422566, 0.0740407, 0.011700176, -0.13235891, 0.004298158, 0.13841309, -0.026819972, -0.051252186, 0.038315423, -0.1458493, -0.16623582, -0.047684092, 0.048472527, 0.11273349, 0.17063913, -0.1317081, 0.29841444, -0.07146766, -0.024929458, -0.04456727, 0.009617834, 0.036296524, 0.022762423, 0.015457464, -0.0881836, 0.104214296, -0.1687869, -0.103490114, 0.10538666, -0.066177174, -0.33648717, 0.021997541, -0.10488103, 0.0034305085, -0.016552141, -0.041097622, 0.091927506, -0.26731417, -0.008301434, 0.04649655, -0.021998262, -0.18350622, -0.041971054, 0.031701922, 0.13406172, 0.014483489, -0.123257406, 0.03866533, 0.049333643, -0.10704947, -0.16911885, -0.0019397011, -0.09359653, 0.18472338, 0.0006381656, 0.2164443, -0.080503725, -0.064664595, 0.044183213, -0.007887985, -0.15159711, 0.033099763, -0.17245598, 0.049243458, -0.16983353, 0.07014454, -0.03778809, -0.11756894, 0.043409318, -0.056727067, -0.03417923, -0.020716276, 0.044967394, -0.16026929, -0.063052066, 0.019984972, -0.24407059, -0.18849203, 0.1198662, -0.044782545, 0.1392838, 0.25092444, -0.04029003, -0.015064852, 0.042873055, 0.110989094, 0.019192277, 0.047264766, 0.0965555, -0.028312238, -0.17508507, -0.24446398, 0.10200929, 0.0418128, -0.41803223, -0.03746235, -0.0468024, -0.13112734, -0.26617795, 0.03799023, 0.00028691767, -0.12761918, -0.057410296, 0.016040493, -0.2282276, -0.14874053, 0.046896167, -0.3838155, -0.08619733, -0.017149683, -0.024968386, -0.015352374, 0.04493947, 0.078463, -0.20426826, 0.052272536, -0.06201727, 0.056182627, -0.037897263, 0.16277568, -0.20857882, 0.035842575, 0.05170579, 0.16478656, 0.028078668, 0.06623307, -0.13837057, -0.0068071177, 0.047416933, -0.021562424, -0.059861273, 0.08856302, 0.022844264, 0.1494033, 0.034948327, -0.056701615, 0.03151647, -0.00778047, 0.03614234, -0.25936487, 0.087599106, 0.077501096, -0.03835292, -0.3404626, -0.04208777, -0.07688751, -0.030167375, 0.06565817, -0.03229582, -0.075381495, 0.0151605485, -0.05846536, -0.17036101, 0.18101302, -0.11019369, 0.045449417, 0.100652404, 0.057492096, -0.16472234, -0.22846584, -0.12658857, -0.05333862, 0.15969144, -0.100738145, 0.10865349, 0.04472263, -0.05704141, -0.002193651, 0.06690369, -0.10999239, -0.008324377, 0.09654634, -0.13061287, -0.04548019, 0.21192761, 0.04285067, -0.009895462, -0.14359145, 0.16119069, -0.013480769, -0.0012678398, -0.026253365, -0.007947177, 0.11029031, -0.15428081, -0.042439993, -0.017252276, 0.15581478, -0.09232993, -0.019009333, 0.005415437, -0.04319597, -0.09818364, 0.008554742, -0.01925508, 0.097575486, -0.0032223463, 0.05183093, -0.086618386, -0.036977068, -0.14045954, -0.13889395, 0.04793762, -0.21214317, -0.12550999, 0.24710545, 0.124075785, -0.016615717, 0.26742613, -0.21743755, -0.06805688, -0.009349987, 0.09447768, -0.05971, 0.013939492, -0.051331617, 0.19651788, 0.25969583, 0.06302025, -0.15144123, -0.06714895, 0.04185407, -0.04980577, -0.09492476, -0.106554486, 0.10229185, 0.1250897, -0.12931076, 0.02912915, -0.19315615, 0.03341789, 0.108188376, 0.16392219, -0.09905166, 0.047101192, -0.002231679, -0.11948484, -0.04987213, 0.11811137, 0.036128156, -0.03191747, -0.39154252, 0.12130367, 0.016154982, -0.08496794, 0.09902909, 0.004492222, 0.060004774, -0.122271225, -0.0050202813, 0.025608689, 0.096656546, -0.16936678, -0.0009759441, -0.024771513, 0.059299663, -0.20289393, -0.013345977, 0.013486363, 0.023020849, 0.002209507, 0.106690094, 0.19847895, -0.035859726, 0.004331427, -0.2640748, -0.13599825, -0.08636347, 0.016295722, 0.19196056, 0.2104782, -0.14203331, 0.41006762, -0.13692495, 0.05610735, -0.13168368, 0.06393769, -0.11899011, -0.2219552, 0.011053508, -0.009546962, 0.02955916, -0.060335733, -0.21878253, 0.02106611, 0.06943481, -0.18501307, -0.11966253, -0.06613166, 0.07033628, -0.020321695, 0.032670822, 0.03749013, -0.09031907, -0.00042026065, 0.07935936, 0.11338789, 0.10119765, 0.06958467, 0.08584096, 0.030846542, 0.008055717, 0.2342233, -0.057050552, -0.01946151, -0.15675367, -0.16880696, 0.007213322, -0.12461834, -0.055979837, 0.061863944, 0.22662838, -0.10316486, -0.012996934, 0.006990435, -0.12581095, -0.09093387, 0.06608239, -0.11341652, 0.03625294, -0.014334647, -0.03884134, -0.06712654, -0.05321665, 0.04044123, 0.030940581, -0.14864197, -0.009346068, 0.18624355, -0.14518568, 0.0065971743, 0.13064925, -0.016277099, -0.050099514, -0.0635234, -0.2522371, 0.27597088, 0.25370187, 0.057881728, -0.09334344, 0.16197808, 0.11416511, -0.022119386, 0.027324935, -0.13642919, 0.062335856, -0.22365107, -0.07112157, 0.087856635, -0.050266318, -0.18057948, -0.13957666, 0.010284047, 0.21223883, -0.07119533, 0.01308273, 0.051761277, -0.023536503, -0.027749706, 0.1979875, -0.033180784, -0.018565578, 0.039646715, -0.29968932, 0.26217815, 0.05682996, -0.020066727, 0.07537866, 0.06140288, -0.21205476, -0.069919966, -0.008032196, 0.012574726, 0.069337785, -0.063561246, -0.105061874, -0.02950056, -0.061814133, 0.012106206, 0.31276262, 0.056798384, -0.0059194937, 0.025549704, -0.08903323, 0.22990403, 0.02722337, 0.041197546, 0.104061164, 0.015719257, 0.002233401, 0.044597507, -0.03277356, 0.17818128, -0.07136699, 0.275292, -0.13854535, -0.14298603, -0.08667752, -0.11613943, -0.0693637, -0.17797479, -0.19028783, 0.0014235185, 0.015940243, 0.022938011, 0.050508123, -0.06890541, 0.043703783, -0.074311204, 0.1367169, -0.0607151, -0.16109675, -0.052544102, 0.05697765, -0.1482802, 0.11330427, -0.15564089, -0.030317115, -0.008906484, -0.1629513, 0.054426048, -0.05592452, -0.054221746, 0.09093349, 0.059310775, -0.09480586, -0.061582558, 0.014837576, -0.1322964, 0.042227, 0.0062620826, 0.04528014, -0.012289521, -0.22450535, -0.10734846, 0.015757522, -0.013619258, -0.029246172, -0.020025743, 0.11992589, -0.19997293, -0.043916956, 0.05484287, 0.181833, -0.0837625, 0.06481941, 0.19254021, 0.03176777, 0.11654511, -0.0030755086, 0.041476756, 0.120281324, 0.018699192, 0.3113527, 0.052988403, -0.04158669, -0.041444417, -0.11173428, 0.30610332, -0.24830158, -0.055078525, 0.25141016, -0.014093025, 0.0821371, -0.08506862, -0.11416771, -0.02842775, 0.044354584, 0.14115335, -0.23503745, -0.10618562, -0.041274816, -0.07045496, -0.10524357, 0.105711505, 0.060532846, -0.22396328, -0.022454917, 0.0950683, -0.060127094, -0.19582286, 0.12748034, 0.09966857, -0.2253771, 0.0848211, -0.27263242, 0.06131597, 0.106802054, 0.087800525, 0.062401254, 0.06642991, -0.22375573, -0.13941032, -0.054355517, 0.29975924, -0.023556681, 0.033577356, -0.3098983, -0.052890673, 0.023348315, -0.05677555, 0.124417655, -0.008483733, 0.16662136, -0.15511994, 0.014828148, -0.027186627, 0.20903401, -0.23013653, -0.07192207, 0.116289146, -0.01838522, 0.036132425, -0.0015371214, 0.06434408, 0.17119035, 0.017493501, 0.0770738, -0.051117267, 0.016719624, 0.06858902, -0.0849171, 0.2912354, -0.094032854, -0.12120747, -0.09645254, 0.066252, 0.13303058, 0.3332275, -0.12058635, 0.01671978, -0.09919348, 0.20063642, 0.044602685, -0.12986211, 0.02954819, -0.22962907, -0.24397767, 0.16562411, 0.14427234, -0.061100304, 0.030500403, 0.023032008, 0.06533975, -0.10207909, 0.040223546, -0.08766473, -0.043049023, 0.046261813, -0.038455464, 0.019832266, 0.035034828, 0.010491614, -0.08752687, 0.019665591, -0.047357127, -0.077669635, 0.0018881708, 0.33165964, -0.0054709283, 0.0070333537, -0.21548001, -0.020782093, -0.028177451, -0.011484091, -0.08893325, -0.032855023, 0.26243168, -0.03360217, 0.059807483, -0.034473993, -0.108486414, -0.09300617, -0.031166214, -0.20700453, 0.048263222, -0.12604325, 0.0014328674, 0.00039544702, 0.024736075, -0.02563344, 0.09882229, 0.04094014, 0.021412335, 0.025220634, -0.17954469, 0.3236983, 0.109013215, -0.16510123, -0.14854208, 0.115852825, -0.1282427, 0.31153855, -0.17044021, 0.055788357, -0.11836825, 0.16480531, 0.13112578, 0.01789854, 0.036409453, -0.2812132, 0.02718778, 0.0731136, 0.12013208, -0.16564246, -0.049779043, -0.03516484, -0.10997639, -0.05627387, -0.06897094, 0.18092914, 0.107374854, -0.003736162, -0.045747943, -0.0642234, 0.07944161, -0.20313872, -0.08894802, 0.05814749, -0.020233337, -0.015590826, 0.012133572, -0.09595264, -0.0021599273, 0.032058686, 0.070516735, -0.028814608, 0.07538243, -0.10451865, 0.11056818, 0.07249101, -0.01013748, 0.06699924, 0.07006713, 0.032909572, -0.033781856, 0.008510133, 0.050787702, -0.033016827, 0.028974913, 0.029433582, -0.0020403026, -0.011352085, 0.20751859, 0.011025165, 0.1572158, 0.007477673, -0.07560607, 0.11618687, 0.054093517, -0.060949273, 0.12253884, 0.07902292, -0.041897263, 0.13499446, 0.024487402, -0.1290883, 0.123189956, -0.032967616, 0.049855035, 0.106131025, -0.18595164, 0.03483726, 0.056523528, -0.09443496, 0.18867008, 0.00938703, 0.0025137714, 0.03781163, 0.03460896, -0.08314685, 0.0009590194, 0.19303253, -0.09360497, 0.21464448, -0.03468776, 0.14059602, 0.15108529, 0.14316192, 0.061897743, -0.03267231, 0.0010425197, 0.044157393, 0.0058647864, -0.2778015, -0.019796314, 0.06386478, -0.0352445, 0.06790057, -0.15836103, 0.20637006, 0.037196074, 0.05773633, -0.0711924, -0.046759665, 0.04516866, -0.107717186, 0.070782684, -0.022327738, -0.07561272, -0.07240407, -0.020928916, 0.08377008, -0.0076951454, -0.035955705, 0.10723616, 0.03901242, -0.08858998, -0.013137171, 0.012370847, 0.06732803, -0.009676376, 0.2758033, -0.004620016, 0.109555036, -0.070896976, 0.11888079, 0.036765303, 0.15059283, -0.029563084, -0.16225718, -0.09810732, -0.04947565, 0.21191406, -0.104912244, -0.26960173, 0.083418824, -0.037317693, -0.013734437, -0.019869158, -0.04066261, -0.046445195, 0.06992528, 0.011020093, 0.007851479, 0.06737485, -0.046543006, -0.23463218, -0.13443437, -0.07029404, -0.017478986, 0.07865388, 0.031899802, 0.13209017, -0.17488232, -0.037328634, -0.023489717, 0.080850504, -0.018051192, 0.0021109907, 0.079466835, 0.05404217, 0.0120843705, -0.16624385, 0.3377728, -0.004205748, 0.03256161, -0.0027800505, -0.058673993, -0.07935271, 0.09536409, -0.06279511, 0.037520844, -0.19572794, 0.102712214, 0.07154982, -0.09720126, 0.10552974, -0.19198489, -0.01926487, 0.030637236, 0.10747168, 0.031413477, 0.0015579276, -0.0038596008, 0.021977969, 0.29483938, 0.119156286, 0.04290038, 0.07616447, -0.053264093, -0.024286933, 0.049223375, -0.10565937, -0.107518576, 0.037649043, -0.013534082, -0.12689088, -0.20166534, -0.36143497, 0.18719858, 0.029936422, 0.1055169, 0.083991475, 0.21458541, 0.09394544, 0.03462699, -0.01735281, -0.15006344, 0.00048184782, -0.033152983, -0.024332155, 0.055269103, 0.14618015, 0.023188809, 0.046398543, 0.025370471, -0.11195954, -0.008517741, -0.04434924, -0.037961304, 0.05258755, -0.12233963, 0.06685761, -0.036670342, 0.037157714, 0.08391512, -0.072700575, -0.08343412, -0.0004965679, 0.11245551, -0.08386658, 0.004240533, 0.20746392, 0.17887352, 0.021623455, -0.01652011, -0.055278648, 0.11609473, 0.068572074, 0.043040827, 0.07245447, -0.29337403, -0.07128571, -0.006348151, -0.29483154, 0.053696122, 0.12569399, -0.06755299, -0.06266162, 0.03865039, 0.13211167, 0.0320738, 0.20488667, -0.009111456, -0.018060263, -0.15852508, 0.16517918, -0.19804971, -0.04943183, -0.05788049, -0.1289911, -0.15099882, -0.19274668, 0.017811595, -0.1271468, 0.047497727, 0.3417925, 0.062433127, 0.0552759, 0.033606432, -0.019550124, 0.10358565, 0.018962674, 0.16393979, -0.2088498, 0.007804507, 0.16096742, 0.10552692, 0.08259237, -0.013812063, -0.04710915, -0.046379834, 0.15969673, 0.028649988, 0.03770601, 0.040656306, -0.0739032, 0.015279803, -0.07247842, -0.0376301, -0.22171523, -0.24362762, 0.029801687, -0.07320415, 0.06644292, 0.036650095, -0.024474448, 0.011842764, 0.03662588, 0.054523345, -0.0014301246, -0.055970304, -0.008439332, 0.15283851, 0.046714477, 0.06083375, -0.07217244, 0.042742945, 0.07818567, -0.06686647, -0.04724254, 0.17291062, 0.028814232, 0.044892855, 0.100967355, -0.019164229, -0.11632497, 0.108940035, 0.31460652, -0.06012757, -0.042368203, 0.27810425, -0.06359243, 0.035374228, -0.12860529, -0.1340273, -0.26414937, 0.020161059, -0.03157114, 0.0017975534, 0.16378805, -0.018565867, -0.04544793, 0.14223553, -0.023018008, -0.05724169, 0.13663259, 0.020309888, 0.03301114, -0.0076981843, 0.050931286, 0.024905467, 0.16627327, -0.070840724, 0.109141394, -0.08543372, 0.2320533, -0.02992675, 0.14506444, -0.29880542, 0.08465421, -0.04223638, 0.026997216, 0.016405255, -0.08239119, -0.10326805, -0.010585796, -0.08232478, -0.15100016, 0.028392138, 0.019266116, 0.030237721, 0.029980632, 0.015028141, -0.07237053, -0.015152528, -0.011876181, 0.27936825, 0.04394168, -0.046789996, 0.05472665, -0.09787951, -0.037190296, -0.032027915, 0.12666488, -0.074888945, 0.018086312, 0.2586194, 0.04084843, -0.024609763, -0.05079406, 0.12052896, 0.20783961, 0.061892457, 0.14867541, 0.09160075, -0.039018568, -0.047509603, -0.15706262, -0.22344694, -0.070818044, -1.6042803e-05, -0.020256365, -0.059852645, -0.31329855, -0.047287863, 0.107152514, 0.08186966, 0.061180316, -0.14376819, 0.10392209, -0.15268613, 0.059132524, 0.10939463, 0.020197561, 0.0011486768, 0.025915887, 0.0109709045, -0.12068427, -0.037344743, 0.06003705, -0.018308278, 0.30477485, -0.04319409, -0.02889821, 0.06292138, -0.06544276, -0.006201936, 0.12451858, -0.07181149, 0.11042913, -0.060573913, -0.110007435, 0.053753454, -0.032752678, -0.16783902, -0.059545353, -0.013642844, -0.15006132, 0.060958378, -0.018099904, 0.07051967, -0.06475999, -0.13668911, -0.09577216, -0.025203986, 0.09441641, -0.040172484, 0.10944891, -0.13242362, -0.047301333, 0.15061778, 0.14488149, 0.061600536, 0.029651135, 0.13322507, -0.05958809, -0.021389814, -0.0127835125, 0.03481159, -0.09793515, -0.0794423, -0.059733506, -0.43636766, -0.20122065, 0.13949086, 0.092605755, 0.069466986, -0.29304472, 0.040503785, 0.05503644, 0.11345165, -0.03413335, -0.14375378, 0.043024667, -0.08674565, 0.052630626, 0.1310427, 0.04396298, -0.01350929, 0.13478458, -0.06576345, -0.19089054, 0.19954613, -0.04116139, -0.0652485, 0.09635751, -0.11534763, -0.050776936, -0.1111366, -0.03959194, 0.064940214, -0.12886553, -0.091454044, -0.024692247, -0.04530715, -0.026955852, -0.018119551, 0.043171875, -0.024207633, 0.046133254, 0.036507186, -0.041131835, -0.052423697, -0.02410978, 0.109059885, 0.055304263, -0.2919649, 0.040526137, -0.06231229, -0.1551414, 0.023009444, 0.14857137, -0.14251693, -0.062041245, -0.119323455, 0.15260474, -0.031500645, 0.16066612, -0.12658168, -0.2914937, -0.020913603, 0.16704266, -0.0657608, 0.066087395, -0.046704292, -0.08511759, -0.20620261, -0.19631736, 0.15882944, -0.034747668, 0.0067359232, 0.20271212, -0.008600585, 0.0035020066, 0.22825998, -0.009723427, -0.10542438, -0.116382256, 0.06206768, -0.033090454, 0.08949206, 0.11081525, 0.020694548, -0.027402317, 0.06971146, -0.26590133, -0.13354373, 0.14932379, 0.04561119, 0.15167318, 0.15490535, -0.06454006, -0.135793, 0.03903523, 0.07088591, -0.22576185, 0.012044704, 0.005221056, -0.008022916, -0.024495186, -0.017769312, 0.02970395, -0.039246943, 0.053452935, 0.08241173, 0.21158937, -0.04044654, -0.05126238, 0.07500133, -0.08077285, -0.04551715, -0.041999612, -0.12086431, 0.30952805, -0.0021026365, 0.22810718, 0.15928549, 0.05454753, 0.2387307, 0.20281854, 0.05507594, 0.14065918, 0.08045259, 0.28025195, 0.008752131, -0.03304002, 0.036276616, -0.10670056, -0.04306046, -0.17595185, -0.054103658, -0.31902012, -0.11251416, -0.016556535, 0.03180494, -0.34259084, 0.11861809, 0.08592905, 0.10401017, -0.036332298, 0.2750194, -0.120824195, -0.08818285, 0.104474425, 0.050716836, -0.026386838, 0.042020705, -0.14842336, 0.036237866, 0.13241738, -0.09842452, 0.1499185, -0.0229017, -0.042933736, -0.14062451, -0.048208956, -0.15011317, 0.07146389, 0.0757437, -0.048655663, 0.029059073, -0.02176132, -0.23738676, -0.06489926, 0.057755053, -0.11803908, 0.01216156, 0.021534432, 0.056489095, -0.17214927, -0.060975134, -0.06891175, 0.012525332, -0.07458285, -0.0016867239, 0.14877315, -0.10284383, 0.035319157, 0.05230915, 0.16842757, -0.2783601, 0.065918095, -0.17856522, 0.18103218, -0.15387928, 0.07324637, 0.046730764, 0.15630838, 0.1569252, 0.09614992, 0.04662112, -0.052658297, -0.0059913434, -0.10803888, -0.15620694, -0.23380557, 0.052561566, 0.046238944, 0.07192015, -0.43525323, 0.07050377, 0.04813255, 0.35422054, 0.038667485, -0.20255244, 0.0017292548, -0.063823916, -0.05356274, 0.13017577, 0.111058354, -0.007819858, -0.09560856, 0.0486225, -0.072318316, 0.04283644, -0.027776068, 0.0027417259, -0.028759064, -0.21557523, 0.060041375, 0.19543926, -0.008502662, -0.038206693, 0.20271443, -0.14908974, 0.031792417, 0.012508535, 0.05153934, -0.035374753, -0.066847675, -0.105417766, -0.0034398849, 0.06075807, -0.26219103, 0.055254027, 0.037767593, -0.1712994, 0.06282382, -0.26931703, -0.0069854707, -0.038414124, -0.10594477, 0.02747086, 0.14221147, 0.06270359, -0.06694207, 0.32428178, 0.14598085, 0.018604755, 0.15778038, -0.02023836, 0.017746424, 0.11371742, 0.18815161, 0.0835312, -0.15582259, -0.017358653, -0.20246872, -0.16091146, -0.032078207, 0.03702235, 0.013097473, -0.13609475, -0.43758658, 0.10990316, -0.016480474, 0.21442513, 0.008284898, -0.038531434, -0.31741473, -0.0897126, -0.07468097, 0.042385824, 0.037040707, -0.030907815, -0.07552397, -0.047963686, 0.17039272, 0.024636848, -0.16717073, -0.023196284, -0.045884114, -0.027538653, -0.02383342, -0.116571374, 0.03551427, -0.040113382, -0.27556124, 0.16035025, 0.05666207, -0.10048306, -0.09652692, -0.03658948, -0.21504122, 0.22863808, -0.043205388, 0.0332846, -0.1058838, -0.09307858, 0.042135473, -0.1228913, -0.050631143, -0.47754535, -0.023014095, -0.054328624, -0.17807557, 0.028980048, 0.084474325, -0.06660886, 0.020711144, 0.052437622, 0.19476803, -0.03332652, 0.073051296, -0.03057819, -0.02213843, -0.027026357, 0.27875754, 0.016586337, 0.08512175, -0.022047736, -0.22412625, -0.14468378, -0.021121748, -0.02665125, 0.048855018, -0.044954456, -0.013425156, 0.00886079, 0.049930014, 0.08436976, -0.05338021, 0.20472082, 0.03977667, -0.023794884, 0.032725945, 0.12041539, 0.101193324, 0.052131753, -0.007877885, 0.06709049, 0.0021244022, -0.076521836, -0.06947957, -0.070005566, 0.087535135, 0.10712565, -0.062633246, 0.14815651, -0.050180465, -0.048788685, -0.40968502, 0.22049539, -0.053327654, 0.22362895, -0.07247629, -0.058020093, -0.33438304, -0.14081945, 0.013609693, -0.0028890327, 0.059129395, -0.08371269, 0.06426075, -0.033334553, -0.12898812, 0.28164813, 0.11913476, 0.014148465, 0.3945459, -0.08158635, -0.036607623, 0.27321762, -0.0505118, -0.15962993, 0.21089031, -0.03565104, 0.060077883, -0.06927123, 0.15819097, 0.25580895, -0.06613192, 0.00022455823, -0.064610735, 0.049864147, -0.32440653, 0.15970173, 0.114532575, -0.21243615, -0.051169753, 0.1441754, -0.17114457, 0.21257126, -0.09294134, -0.10253244, -0.06604722, 0.31108588, -0.0711266, -0.100483835, 0.054895677, -0.022103604, 0.037560333, 0.04434387, -0.22118725, 0.06840256, 0.108067855, -0.071928695, -0.1021857, 0.06557851, 0.016907506, 0.26098615, -0.06210568, -0.15438251, -0.07364174, 0.027960753, -0.1618741, -0.019259987, 0.06654009, -0.02418261, -0.14575726, -0.030305963, -0.23886412, -0.112765975, 0.07430973, -0.049738616, -0.08468464, -0.018184658, -0.042484142, -0.3667316, -0.050252903, 0.26627716, -0.051011838, 0.007278014, 0.10633292, 0.057956077, -0.011860646, 0.06689342, -0.0038877279, -0.0053991913, 0.0819976, 0.039367385, 0.034841444, -0.21893294, 0.31188712, 0.033153743, -0.09020202, -0.067760326, -0.30393335, -0.05278461, -0.093394026, -0.002520152, -0.003943622, -0.005317614, 0.08184218, 0.21055509, -0.09189013, -0.04243263, 0.08849798, 0.20615184, 0.014037565, -0.082858354, -0.03016749, -0.17487296, 0.12621714, -0.08430979, -0.09094383, 0.024016606, 0.07951636, 0.0125548905, 0.119592875, -0.10247535, -0.26935402, 0.038664784, 0.33272132, 0.14989524, -0.03487806, 0.15577671, -0.036114946, -0.06881987, 0.01066355, -0.05624193, 0.06316952, 0.107775226, -0.06396809, -0.022398684, -0.330051, -0.09480496, -0.05999199, -0.035448495, -0.15893845, -0.05872382, 0.01841814, -0.29728502, -0.033855803, -0.10977064, 0.10760434, -0.06684384, -0.25320712, 0.04841491, 0.1064337, 0.2709402, -0.00846257, -0.010073712, -0.14974262, -0.20061189, 0.1124652, -0.16435796, 0.35653296, 0.08768927, -0.000626016, -0.020831302, -0.2780771, -0.0127540985, 0.031588934, -0.07870592, 0.1022888, -0.01918759, -0.0431561, 0.13380021, -0.074364655, -0.11156849, -0.051520836, 0.15357795, -0.013426673, -0.046183396, -0.018302333, 0.09123552, -0.107895955, 0.08878228, 0.08366809, 0.026618542, 0.14815482, 0.033634264, 0.32374653, -0.11315154, -0.040967632, -0.038447376, 0.16494332, 0.047416594, 0.022613492, -0.11587915, -0.054720774, 0.0029023853, 0.023349559, -0.06450387, -0.0039011335, 0.004777652, 0.035721343, -0.0087633375, -0.5029474, 0.15796396, 0.03319463, 0.018611884, 0.068307325, -0.35657054, -0.05114967, -0.14392225, -0.0019912093, 0.22892874, 0.056360804, 0.020320928, -0.07907612, 0.048289564, 0.14401948, 0.15017022, 0.07456201, 0.037792534, -0.075195484, -0.0837745, -0.037230715, -0.16326891, 0.29975176, 0.1524132, 0.0294116, -0.18898192, -0.20227563, 0.010346368, 0.0194834, -0.42775425, 0.06952251, 0.060771123, -0.0057496903, 0.16298883, 0.1904487, -0.04652314, 0.20561731, -0.14370628, -0.0058523193, 0.21406573, 0.14332433, 0.0953426, 0.020483132, 0.49738663, -0.23519547, 0.009146417, -0.23660119, -0.00019653141, 0.29777026, -0.0292793, 0.112370454, -0.03400333, 0.025529802, 0.4136912, -0.056738384, 0.18184508, 0.050638642, 0.012658412, -0.13856518, -0.12942764, 0.029685324, 0.018500602, 0.03050301, -0.0023870692, -0.110418804, 0.21007785, 0.09007551, 0.0402578, 0.06024213, -0.16204652, -0.044976797, -0.048058547, 0.012510934, 0.17646609, -0.047217958, -0.015036142, 0.1785153, 0.01874835, 0.15539455, -0.101160154, 0.028510481, -0.21634673, 0.039321262, -0.006875184, -0.055098794, -0.0047272695, -0.13465323, -0.12851536, -0.19585402, 0.24202687, -0.10013411, -0.04712966, 0.08893993, 0.034626983, -0.02161722, 0.21572144, -0.0147878155, -0.10924949, 0.119402155, -0.14749587, -0.038920093, 0.05116628, -0.035724815, -0.18852243, -0.28276572, 0.08215651, 0.12738732, 0.22448468, -0.079168245, -0.012415457, 0.17817754, 0.054411832, -0.08998394, 0.22444528, -0.002282477, -0.060112555, 0.23261645, -0.02578238, -0.0035619736, -0.13307245, -0.080748774, 0.063025355, 0.12380433, 0.2697851, 0.0990709, -0.02143031, -0.16451135, -0.033249605, -0.063025296, 0.19067848, 0.009078479, 0.07162163, 0.05439985, -0.035261195, -0.06803393, 0.22643484, 0.030572765, 0.07652556, -0.066106394, 0.1093504, 0.20078112, -0.016977714, -0.009644477, -0.11314583, -0.044687547, -0.1113957, -0.088133186, -0.046780244, -0.008008512, -0.1626131, -0.039297674, -0.18172082, -0.07976962, 0.20088798, 0.3561374, 0.019239351, 0.06523021, 0.036490522, 0.11446833, -0.014304251, 0.049151186, -0.18494885, 0.041478254, -0.15449667, -0.22492936, -0.033668302, -0.030732347, 0.34016842, 0.01321464, 0.2731793, 0.11730275, -0.09126231, -0.084801845, 0.025487237, 0.17681547, 0.05057215, 0.07375155, 0.1474729, 0.11637574, 0.039261427, -0.089470334, 0.20766483, -0.062087953, -0.03309475, 0.04907883, 0.056079123, -0.004652646, 0.2674952, 0.055143468, -0.0002393339, -0.06800728, 0.03389944, -0.035659175, 0.13735476, 0.011431094, -0.021287337, -0.10384829, -0.035583183, -0.0013951883, 0.13771951, -0.15916482, -0.16689985, 0.0033526793, 0.043124966, -0.1226217, 0.047582272, -0.025064787, 0.061157648, -0.0086814165, 0.25109664, -0.1116044, -0.013386049, -0.053941134, -0.21825576, -0.11683542, -0.094256505, 0.021112021, 0.20530118, 0.10015085, 0.026708268, -0.021533854, -0.102811225, -0.034539204, 0.10970523, 0.09540226, -0.16808628, -0.104813695, -0.060333703, 0.030969974, 0.059010915, 0.011808538, -0.067008235, -0.04220452, 0.1741324, -0.07808594, -0.16000207, -0.19140992, 0.048255242, 0.0036098878, -0.054048207, 0.052181806, 0.36667967, -0.076185234, 0.013053741, 0.06614275, 0.20705646, -0.07098438, -0.20584658, -0.031042095, 0.12517257, -0.1002098, 0.2284997, 0.031863797, -0.08780996, -0.14253396, 0.07188654, 0.095390104, -0.11391982, -0.11660851, -0.045592885, 0.012110072, 0.114793025, 0.07014395, 0.28963116, 0.006821576, -0.051788766, 0.08416525, 0.117091514, -0.08105244, -0.047846492, 0.027838985, -0.005622318, -0.029569909, 0.18906172, -0.1341047, 0.048660863, -0.024106389, 0.13174865, 0.032786224, -0.044991877, -0.19490159, 0.317472, 0.026104597, -0.053604737, 0.2501591, -0.078879, -0.095535524, 0.18392238, -0.05203223, -0.12689817, 0.16631599, 0.14032774, 0.1818466, -0.026554756, -0.11178774, 0.035932917, 0.42374772, 0.018819127, -0.052388065, 0.16727322, -0.31006694, 0.13485715, 0.12067539, 0.044448152, 0.111361355, -0.09417392, -0.21057907, 0.10086023, 0.1195366, -0.09033853, -0.057316504, 0.1148884, -0.018715534, -0.057735678, -0.09083461, -0.1210006, 0.085808225, 0.09538363, 0.077462144, 0.05037473, -0.11120864, -0.1037866, -0.033761267, 0.06630239, -0.111298405, -0.06945557, -0.0053758547, 0.07405644, 0.043419633, -0.11636625, -0.009016934, -0.036187045, 0.06992912, -0.017112376, 0.16485286, -0.031931993, -0.056420743, -0.09240628, -0.07239862, -0.0011511286, 0.089954995, 0.024756907, 0.045648236, 0.0732216, -0.06316351, -0.05227893, -0.13798004, 0.036078956, -0.18554883, -0.087857164, -0.017579854, 0.016729902, -0.027110418, -0.19882627, 0.21214464, -0.063447125, 0.032843318, -0.032391775, -0.034883343, -0.098179, 0.1727253, 0.14500143, 0.00015805094, -0.05867557, 0.09597494, 0.06621054, 0.14915644, 0.033947308, 0.071237415, 0.2037022, -0.022426553, 0.014184279, 0.070048764, -0.08961355, 0.046701565, -0.06420188, -0.06879393, -0.056901257, -0.045419097, 0.022333045, -0.053293742, 0.027501483, -0.072791345, -0.045758516, -0.06896553, 0.0027418132, 0.017272534, 0.017706065, 0.03977055, -0.047952328, 0.045905277, 0.15543061, 0.008699241, -0.058383718, 0.0050662165, 0.020331476, -0.03401828, -0.025558935, -0.12729347, -0.04043585, -0.0064265495, 0.007882992, -0.058891125, -0.11313932, 0.0055865985, -0.14850496, 0.045283657, 0.025983801, 0.17576478, -0.13243112, 0.0565938, 0.05815016, -0.09948793, 0.15934499, 0.10586367, 0.100353934, 0.059860438, -0.12181197, 0.19306317, -0.023611248, -0.07771963, -0.17159648, 0.017237362, 0.06704237, 0.07404041, 0.012862017, 0.090828605, -0.0018689225, -0.08961005, 0.04806225, 0.177798, 0.044814512, 0.10660093, 0.20385723, -0.04542887, -0.12503505, 0.1002061, -0.03681475, 0.013957381, -0.017051395, 0.009143239, 0.0045864666, -0.04570265, 0.04897779, 0.04448321, -0.06193865, 0.012267743, -0.06844184, -0.045462143, 0.14000642, 0.03746686, -0.05035173, -0.26451847, -0.07537828, -0.0142676085, 0.02017084, 0.13598698, 0.018950652, 0.034644995, 0.122732006, -0.12060388, -0.058695197, -0.065355755, -0.0735227, 0.062648445, 0.19506113, 0.06503738, -0.05653262, -0.013048556, 0.012653593, -0.12110982, -0.114050314, 0.18963237, -0.005301924, 0.17806159, 0.069845974, -0.09704014, 0.13153617, 0.027745642, -0.087788224, 0.0057675764, -0.0304362, -0.09336666, -0.029688144, 0.006727569, -0.05513708, -0.1072821, -0.10033841, 0.0761869, 0.04633321, 0.07032345, 0.1604552, -0.08201988, -0.019736309, 0.16746677, 0.06155658, -0.008511417, 0.17802092, -0.111820005, -0.03348773, -0.026776284, 0.13659124, -0.0018705577, -0.041322354, -0.08836252, 0.09594632, -0.14716125, -0.06254226, -0.054414902, -0.10908572, 0.08349132, -0.05092754, 0.105781, 0.06290023, -0.08296927, -0.018441774, -0.006318184, -0.16000696, -0.067503445, 0.2529043, -0.005584113, -0.006083731, 0.1141208, 0.0065813977, -0.10890256, -0.040299606, 0.0049875667, 0.026498716, -0.029401887, -0.28002742, 0.0070592845, -0.02076726, -0.16809887, 0.046883818, -0.22116025, 0.033014588, 0.008347634, -7.882702e-05, -0.03389312, 0.00062781177, 0.07211547, 0.0047825347, -0.07668095, -0.13840343, -0.043536197, 0.2041159, -0.0476143, -0.26755482, 0.0043360726, -0.005325035, 0.04460562, -0.18568853, 0.32623067, -0.21926078, 0.020018514, 0.3659176, 0.060233124, 0.024170266, 0.1277945, -0.06379973, 0.25225002, 0.12952162, -0.101490125, -0.030966472, -0.09315262, 0.05332937, -0.023419153, 0.0057178843, 0.055621937, 0.016853664, 0.1347606, 0.261362, -0.03235124, 0.09468685, 0.19769719, -0.010519852, -0.10806094, 0.024254976, 0.025582395, -0.059835847, -0.13458811, -0.18499824, -0.04244966, -0.111484624, 0.14847922, -0.089908764, 0.048007127, -0.0134740155, 0.046130497, 0.040954802, 0.38304302, -0.005812055, 0.02846361, -0.039443854, -0.07219582, 0.15261023, 0.052943416, 0.06273102, 0.2827146, 0.12314623, -0.009316725, 0.1661881, 0.054022484, 0.050051622, 0.019204352, 0.1825782, -0.061513748, 0.09968118, 0.032105327, -0.03017196, 0.40703058, 0.042291135, 0.06915552, 0.072019845, 0.019004785, -0.09699895, 0.31823778, -0.14213821, -0.077440664, -0.10302504, 0.3849394, 0.016478395, -0.07250403, -0.053548954, 0.18273133, 0.09690718, 0.011100585, 0.105559856, 0.044928297, 0.12164867, -0.02175922, -0.014898607, 0.025367334, 0.071939774, 0.0005581025, 0.018074537, 0.027088452, 0.024836764, 0.118504375, 0.03695187, 0.12907915, -0.06854812, 0.038349345, -0.025682624, -0.08378312, -0.03889974, 0.024623424, 0.19086355, 0.05577423, 0.013355631, 0.04372863, 0.048428744, -0.10884655, 0.065589495, -0.12500852, 0.04324492, -0.033153463, 0.024254488, 0.015714886, 0.07642227, 0.025211887, -0.08442961, 0.1123379, -0.077241756, 0.09463779, 0.10329733, 0.12376139, 0.0053199674, 0.17225832, 0.19526796, -0.07485914, -0.041479044, -0.02264765, -0.028227799, 0.15662417, -0.00279136, 0.09327429, -0.24675332, 0.09129235, -0.0073485635, 0.011462145, 0.11438375, -0.046310544, -0.069276236, -0.089886405, -0.03923324, -0.14814481, 0.07785566, 0.20254001, -0.058177684, -0.00048937974, -0.03524449, 0.15254846, 0.0694413, 0.046036646, 0.13387145, -0.020573413, -0.0439663, -0.07892211, 0.35557655, 0.066181995, -0.121588856, 0.027307723, 0.0601853, 0.087100424, 0.082596585, -0.017051851, 0.036314994, -0.20718947, 0.05250805, 0.06332967, -0.0053825974, 0.032011684, -0.054270707, 0.03437248, 0.023490744, 0.056552164, -0.008592695, -0.039133478, 0.22015947, 0.053266734, 0.004156765, 0.09052159, 0.01972718, 0.03950077, -0.034003414, -0.13565373, -0.18890011, 0.04222988, -0.050328247, 0.08408535, -0.027255237, 0.16829957, -0.07394254, -0.09992581, 0.024460567, -0.061737344, -0.10867712, 0.11432232, -0.06991104, 0.19195399, 0.014206673, -0.013699765, -0.03209151, -0.03512828, -0.05998902, -0.021081943, 0.07764361, 0.13060966, 0.063728824, 0.19663228, 0.07253122, 0.16411941, 0.07217629, 0.014664895, 0.031239443, 0.2095425, -0.02791143, 0.0031319633, 0.103398986, 0.024045296, -0.022281282, -0.11261347, -0.032902133, -0.016379543, -0.13936281, 0.015878556, 0.058682144, 0.15300494, -0.04701028, -0.09785295, 0.07274482, -0.3333339, -0.12108378, 0.06306268, 0.12038601, 0.050510406, 0.11193842, 0.042650368, 0.06691479, -0.1405313, -0.051596485, 0.05686502, 0.18971507, -0.060116086, -0.040931582, -0.063354746, -0.15758477, 0.1232611, 0.10109579, 0.021147031, -0.11783253, -0.016614832, 0.15829703, 0.1456681, 0.04069351, 0.25646415, 0.04310505, -0.029408772, 0.020294297, 0.0033032903, -0.0088107465, -0.043372698, -0.1488321, 0.14415058, -0.09266436, -0.04383883, -0.041966446, 0.095607415, -0.2788381, 0.0829693, 0.32176393, 0.011043162, -0.05037669, 0.040798306, 0.042931497, 0.076566815, -0.01967786, -0.095386684, -0.057715345, 0.13602896, -0.08357356, -0.057966124, -0.0149185, 0.0524863, 0.08831885, -0.20930167, -0.04800033, 0.033617105, 0.030950846, 0.025473816, -0.047877125, -0.055569265, 0.053035785, -0.04389161, 0.023985617, 0.11393413, -0.24699801, -0.037357215, 0.07746326, 0.07645337, 0.14880288, -0.0009771087, 0.032574996, -0.031862598, 0.012250931, 0.04402824, 0.13048677, 0.047615774, 0.31062394, -0.12195655, 0.044193644, 0.07013756, -0.14095241, 0.16380516, -0.027007377, -0.38094294, -0.017291134, 0.03277759, -0.005876393, 0.14772281, 0.15300074, 0.15871203, 0.13997497, -0.04339738, -0.23213394, 0.28765076, -0.04731776, -0.2772455, -0.025458843, 0.06759883, -0.073426366, 0.11769846, -0.058693614, -0.05234293, -0.20176399, 0.12271669, 0.05515731, 0.048742756, -0.03167931, -0.09422013, 0.267907, 0.06044938, -0.022364378, 0.3345146, -0.24095137, -0.01872265, -0.023077406, -0.03958825, 0.039921623, 0.00048558236, 0.08062592, -0.024032813, 0.014257893, 0.0076099304, 0.08649956, 0.15793459, -0.10188865, 0.014847934, -0.0724022, -0.0736746, 0.12377356, 0.014206529, 0.06833598, 0.028750397, -0.031009903, 0.008209914, 0.067584954, 0.08712295, -0.00606443, -0.0131572075, 0.1457883, -0.022233259, 0.026943976, -0.061478395, -0.12090058, 0.20179205, 0.082517065, 0.04348343, 0.04430619, 0.023654852, 0.079907514, 0.06080927, 0.055558756, 0.050618846, -0.08594052, 0.10270713, 0.041604895, -0.04163735, -0.25095353, -0.07208773, 0.14402276, 0.08191311, -0.088536866, 0.09518933, -0.017489862, -0.015583747, -0.058877107, -0.060761273, 0.06589269, 0.05324586, -0.086986795, -0.22581294, 0.06032379, 0.00878066, 0.1516509, -0.03987084, -0.06598144, 0.13768435, 0.0014121045, -0.062447652, -0.021701435, 0.033521824, 0.03961641, 0.027435275, 0.16563068, 0.040049233, -0.15075068, -0.049451817, 0.025752008, 0.07480233, -0.043173328, 0.055157676, 0.034437746, -0.078615725, -0.101258524, 0.051152047, 0.12769514, 0.032232407, 0.15208288, 0.07861846, -0.056723487, -0.10617024, 0.037505046, -0.044552367, 0.0997568, -0.005202271, 0.008516525, -0.0885002, -0.37685066, 0.026438376, -0.06673433, -0.062638514, 0.07013298, 0.008730655, -0.031123836, 0.03606077, -0.005756537, -0.010998622, -0.1472394, 0.24636546, 0.050771758, 0.04521474, 0.23073125, 0.113200225, 0.019881582, -0.21378699, 0.046435017, -0.059381027, -0.23222388, -0.17017397, -0.021914845, -0.07971286, -0.061535683, 0.09681329, 0.015858633, 0.017534878, 0.009226717, -0.08202802, -0.09210245, 0.06711172, -0.038059358, 0.11070684, -0.04917609, -0.038353648, 0.1515775, -0.069222376, -0.050212763, -0.059889797, 0.10897508, -0.06541079, -0.16621974, 0.014379184, -0.047253188, 0.21698916, 0.0374865, 0.034838323, -0.01770373, -0.2735286, -0.18690583, -0.026849415, 0.13733931, -0.059731532, 0.08013888, 0.06917292, -0.00023843627, 0.014827721, -0.056306567, -0.15873641, 0.102380596, -0.047212645, -0.23307359, 0.06522267, -0.15371083, 0.17697166, 0.07442344, -0.09701048, 0.097577, -0.21440126, 0.07066563, 0.11448917, -0.071194254, 0.31047443, 0.21478449, 0.104860574, 0.033013865, -0.04751997, 0.23733355, 0.11685199, -0.17542987, -0.26678732, 0.23753844, -0.05386932, -0.004221108, -0.06374172, -0.31598607, -0.030668223, -0.028348688, 0.20067024, -0.013437722, -0.06840219, -0.026530135, -0.16838557, -0.32507077, -0.104810596, 0.052293774, 0.35586897, -0.27808577, -0.038200278, 0.037190918, -0.017058423, -0.020887664, 0.2328011, -0.014101996, -0.036371104, -0.15006937, -0.19472726, -0.06198682, -0.060773827, 0.36443824, -0.05775, -0.025665173, 0.023149427, 0.031563826, -0.057910547, -0.15025815, -0.013204872, 0.062453356, 0.038894, 0.01750172, -0.0038353621, 0.076900885, -0.4114362, 0.11482789, -0.040024247, 0.005810719, -0.16979264, -0.054267675, -0.018128863, -0.062104404, 0.081467204, -0.0026507138, -0.17736103, 0.22344226, -0.007237343, 0.043670833, 0.17087492, 0.117372505, -0.08641783, 0.025858702, 0.06317157, -0.056710687, -0.34556073, 0.08826753, 0.013563383, -0.012969143, 0.09418741, 0.009267412, 0.31397685, -0.08648687, 0.044510152, -0.074848, -0.19341464, 0.0329872, 0.114409566, 0.034221254, -0.16931069, -0.50620914, 0.27599457, -0.047998082, -0.12039739, -0.14376049, -0.017116621, 0.12808709, 0.06568326, -0.0852909, 0.45850405, -0.045766275, 0.001914283, -0.079968, 0.0203232, 0.013514438, -0.05757921, 0.35099834, -0.0100326575, -0.01580772, 0.1431979, -0.086339466, -0.05307506, 0.024980217, 0.012974884, 0.10415377, 0.055218086, 0.026632877, 0.036947027, -0.018791731, -0.36565876, 0.094195575, -0.050101537, -0.029909506, -0.10651693, -0.10402813, 0.08701401, -0.15092695, 0.18964216, 0.19522804, -0.115217544, 0.022550046, 0.2342771, 0.003734942, 0.17346203, 0.0073471675, -0.005168514, 0.039258793, 0.056904864, -0.16046193, -0.24872856, 0.092392, -0.09651504, 0.13077387, 0.08270307, -0.1015617, 0.056907374, 0.18853931, 0.19613412, -0.045227233, -0.11567889, -0.15835223, 0.22136112, 0.098307125, -0.15509476, -0.14860092, 0.05622167, -0.022774551, 0.029414123, 0.14653254, -0.005583885, 0.09089402, 0.028448837, 0.03729159, 0.17093343, 0.047994737, 0.039287694, 0.05676582, -0.12350724, -0.06271563, 0.028545441, 0.22736363, 0.0066945315, -0.02853437, 0.13067116, 0.016078874, -0.06845493, -0.14708142, 0.090565324, -0.01542506, 0.13686186, -0.04824687, 0.14713606, 0.02117047, -0.20606053, -0.16156034, 0.03710159, -0.08040105, -0.0065803863, -0.07810354, 0.24723044, 0.0057776705, 0.13080403, 0.1622504, 0.09989274, -0.25266677, 0.15848686, 0.044342577, -0.09022439, -0.19243152, 0.051063493, 0.12633055, 0.11107678, -0.18778716, 0.01846226, 0.0948605, -0.099723704, 0.02929538, -0.08867188, -0.47503042, -0.07423289, -0.014788198, 0.107493415, -0.07099146, -0.05948908, 0.028762866, 0.23393536, -0.043339107, 0.10798862, 0.23674071, -0.038393997, 0.0216852, -0.19554876, 0.061957903, 0.04482148, -0.049525842, 0.00901289, 0.08732045, 0.08655791, -0.12526011, -0.03135939, 0.1794143, -0.24608693, 0.0645482, 0.12225765, 0.03210595, -0.021884654, 0.01665124, 0.1396646, 0.11253494, 0.049798317, -0.112417355, 0.05746639, 0.13133588, 0.07212818, 0.010536633, 0.30532503, -0.05214051, -0.11852852, -0.14149928, 0.019648738, -0.17255384, -0.10979391, -0.19309978, 0.29319263, -0.31347772, -0.06729044, -0.09229119, 0.1734691, -0.35360596, 0.15216221, 0.018231334, -0.114251174, -0.21829356, 0.27511573, 0.14654717, 0.045602683, -0.48537454, -0.14818156, -0.007913236, -0.25216076, 0.109323725, 0.06981944, -0.18265335, -0.1881113, 0.061015952, -0.1358957, 0.05843786, -0.13134687, -0.06409598, -0.10796415, 0.056114063, -0.06370997, 0.09221727, -0.15566365, 0.07442965, -0.102700554, 0.08417263, 0.027606618, 0.085642815, -0.08096295, -0.031649485, 0.0788801, -0.11417464, -0.034052912, 0.06583776, -0.15625167, -0.05739239, 0.13487338, -0.086816944, 0.03573138, -0.040380348, 0.025199523, -0.1587032, 0.06725246, 0.032726564, -0.10023491, -0.023981465, -0.07975673, -0.022898415, 0.18786567, 0.035127874, 0.017043477, -0.19195785, 0.025802357, -0.06496088, -0.050812904, -0.09254512, -0.12544326, -0.2952944, 0.2272153, 0.15541126, 0.19885418, -0.058369327, -0.013393265, -0.09056472, -0.16015068, 0.12726046, 0.0032032637, 0.02297207, 0.08781408, -0.0023187855, -0.15873113, 0.107785314, 0.12108185, -0.10300561, -0.010559892, 0.14469966, 0.1017673, -0.0031466293, -0.0097757615, -0.1515245, -0.23196262, 0.07141343, -0.0779248, -0.03711771, 0.10075299, 0.015505955, 0.053792607, -0.08091096, 0.008087626, 0.111137286, 0.007408301, -0.0120465895, -0.055001672, -0.0040991, 0.25100893, -0.038912155, 0.028497525, -0.023589654, -0.05936995, 0.035292804, 0.17967238, 0.0021828243, -0.068684, -0.019448426, -0.029965853, -0.061623327, 0.035598747, 0.12429914, 0.018218389, -0.12708849, -0.043602534, 0.014880847, -0.058571022, -0.005610144, 0.12261618, 0.010713144, -0.07570359, 0.11848731, 0.00037217306, -0.26083413, 0.008667121, -0.03821054, 0.07454158, 0.15570615, 0.2393844, -0.06934498, 0.021408064, 0.05015963, -0.1762092, -0.11990884, 0.16794556, 0.025993267, -0.0028400365, -0.10227351, -0.2562645, 0.069282696, 0.16676909, -0.012110945, -0.0756194, 0.16986375, -0.024133928, 0.005684739, -0.01606172, 0.10236498, -0.036171533, 0.036373463, -0.09787332, -0.06267816, -0.07696574, -0.018450951, -0.06328559, 0.03225382, -0.25419477, 0.05031905, 0.033627704, 0.17520851, -0.033240568, -0.0015726999, 0.14783393, 0.06248188, -0.03465282, 0.043616183, -0.06411471, 0.013809056, 0.1895969, 0.12947786, -0.12100371, -0.04669422, 0.0036983711, -0.08452164, 0.008568086, 0.21380419, -0.0313092, 0.14868213, 0.057489723, 0.04969659, 0.1118067, 0.025291694, 0.12853809, 0.07952312, 0.05296765, 0.19510548, -0.037358757, -0.11240852, -0.07741435, -0.042543527, -0.06088502, 0.115218244, 0.087204665, -0.24824691, 0.056155924, -0.0056465664, -0.08007182, -0.10206251, 0.3060827, 0.21257882, 0.059966646, 0.0962379, -0.18444705, -0.09496595, 0.01789203, 0.1376904, -0.0032696044, -0.014359188, -0.06313667, 0.07716621, 0.07167871, 0.038572986, -0.037824117, -0.071979105, -0.032119107, -0.047722057, 0.14875983, -0.041351717, -0.18025818, -0.060172707, -0.1357677, 0.20785898, -0.012415323, 0.16824783, -0.00026952184, -0.0004020867, 0.18498625, 0.090335995, -0.013123046, 0.06949644, -0.1575649, -0.061121874, 0.13342245, 0.00036950654, -0.0671644, 0.05167521, 0.09647555, -0.2223744, -0.022085011, 0.03170293, 0.016001789, 0.017924812, -0.0008780873, 0.040113598, -0.009498441, -0.015433538, -0.05658087, -0.08396761, 0.028519347, -0.06022329, -0.0062450604, 0.1367532, 0.13091028, -0.20621397, 0.03722909, -0.043247696, -0.06492426, -0.37201214, -0.14604786, -0.06292375, -0.0075177965, 0.029143836, 0.08385708, 0.0039303787, -0.040911134, 0.097135834, -0.008451029, -0.11708041, -0.030336693, -0.0723845, -0.009524487, 0.00539159, 0.112832226, 0.045279484, -0.06445596, 0.021929115, -0.14328027, -0.058285475, 0.06419508, 0.03666982, 0.20608658, -0.04024791, -0.08438484, 0.03434092, -0.1882465, 0.08733377, 0.060620144, 0.03383456, -0.0028758966, -0.025951965, 0.23928747, 0.16502856, -0.05817812, 0.06983923, 0.0913474, 0.005431735, -0.12754384, 0.080890216, 0.042570394, -0.064404674, -0.07189446, 0.036208194, 0.024115816, -0.00977838, 0.14099768, -0.06446714, -0.021002484, -0.10194499, -0.010782682, 0.12651946, 0.021818526, 0.12651645, -0.05882656, -0.117827594, -0.037143577, 0.0010497696, -0.12487374, -0.06135209, -0.0141337, -0.009855655, -0.039488338, -0.07753671, -0.14957541, -0.03585567, -0.05636732, 0.011849804, -0.16410664, 0.05727889, 0.020582989, -0.1253646, -0.14073555, 0.062244788, 0.22433968, -0.040829487, -0.008024687, -0.10165868, -0.13818218, 0.12469456, -0.21496259, -0.1475997, -0.18333587, 0.015260277, -0.18649119, -0.06809762, 0.20060174, -0.0023014408, -0.13841522, -0.042724773, -0.08944681, 0.05030308, -0.0060491287, 0.021423599, 0.03860512, 0.073463015, 0.0003302819, -0.06806195, 0.041070778, 0.034877267, -0.01972808, -0.009160991, 0.027411684, -0.124336354, 0.0010193589, -0.028997673, -0.0813404, -0.082877375, -0.055058837, 0.12521572, 0.041622978, 0.10786934, 0.015903693, 0.023512987, -0.080238275, -0.04606141, 0.13175102, 0.10219368, 0.021441694, 0.15848283, -0.09829861, -0.08094556, -0.12740466, 0.15656398, 0.04399631, -0.11087019, -0.09596997, -0.15219909, 0.0010555091, -0.05935095, 0.10559298, 0.09084004, 0.06809898, 0.042263184, 0.07102891, 0.003627366, -0.1286825, -0.06224213, 0.19876713, -0.17368636, 0.09566615, -0.057389654, -0.2100785, 0.2831687, 0.077204295, 0.06285638, -0.07565749, -0.033985462, 0.015868098, -0.006087496, -0.005605099, 0.08127672, -0.13840374, 0.03033035, -0.16693027, 0.11628, 0.027611362, 0.1889627, 0.04141388, 0.046243805, 0.17595248, 0.031198319, 0.032239232, -0.031795386, 0.06832748, 0.030181432, 0.065447584, -0.05586462, -0.012463254, 0.036566675, -0.052088153, 0.08569937, -0.053553093, 0.10724365, -0.06543135, 0.08474975, -0.03116408, -0.06634031, 0.23923357, 0.06928526, 0.0541066, 0.09760721, 0.017094677, 0.22218306, -0.084545895, -0.04572382, -0.039064165, 0.086249635, 0.30494437, -0.17102571, 0.03219365, -0.16678773, 0.0894818, 0.05034445, -0.18502551, -0.19388345, 0.28037825, 0.18314178, 0.0028649648, 0.0916609, 0.01826937, -0.15624578, 0.08290762, -0.09336393, 0.049376175, 0.19342232, -0.2702526, 0.060518656, 0.03839624, 0.025473673, -0.21108365, -0.07136569, 0.09689257, 0.01325712, -0.05388389, -0.16983062, -0.15645331, -0.00076377596, -0.07693877, 0.16461492, -0.025449127, 0.061804276, -0.0711098, 0.077217124, 0.14035276, 0.20344129, -0.043649714, -0.028200116, -0.12347103, -0.026678583, -0.07093046, 0.015465281, 0.03842178, 0.067111015, 0.022866134, -0.058104172, -0.051913995, -0.11879167, -0.07568795, 0.0069851098, 0.08674185, -0.08830235, 0.039190356, -0.10262915, -0.036029898, -0.10389926, 0.02909668, -0.2321371, -0.09221085, -0.19014156, 0.040397573, 0.16627921, -0.04252979, -0.15963726, 0.0046422626, -0.17607713, 0.08335086, 0.05695711, 0.010932025, -0.03260706, 0.15300822, -0.1328696, 0.12509248, -0.09347785, -0.002769593, 0.0023021959, 0.0889331, -0.15058567, -0.009550786, -0.01376201, -0.1650261, -0.09117259, 0.11946015, 0.11224139, 0.030117558, -0.02766283, -0.19907056, 0.032957174, 0.14536126, -0.06182933, -0.03405024, 0.113176234, -0.13423602, 0.23435527, 0.03926753, -0.027018566, 0.0015685033, -0.059417315, 0.24262567, 0.18200497, 0.040577907, 0.23848455, -0.10174217, -0.07371929, -0.108878925, -0.16639489, -0.006061411, 0.030595511, -0.026242565, -0.16729179, 0.024656763, -0.09832763, 0.012565135, 0.025189703, 0.022541624, 0.026346812, 0.048677374, -0.07096402, 0.09095803, 0.06755676, 0.013225444, -0.02086716, 0.363438, -0.057539236, -0.1399973, -0.0175891, -0.001955041, 0.11108877, 0.24260521, -0.1910649, -0.3353843, 0.005257096, 0.009889036, 0.11768717, -0.1451141, 0.08648444, -0.045773067, -0.07788931, -0.09130036, 0.11687087, 0.38921085, -0.22193782, 0.018499745, 0.11889058, -0.13210659, 0.1950995, 0.1172648, -0.0828259, -0.2132455, -0.09925287, -0.16030128, -0.012311024, -0.17745925, -0.22068003, 0.05382902, 0.0038726006, -0.09357457, 0.25160116, 0.02751014, 0.0608479, 0.005597265, 0.06223784, 0.1922315, 0.04569694, -0.037973974, -0.055474855, -0.1429716, 0.060735986, -0.12783007, -0.051187053, 0.04687458, -0.020793412, -0.10188613, -0.088542245, 0.024086423, -0.10774452, 0.015665684, 0.05416292, 0.023627497, -0.08888928, -0.15022555, 0.04404663, 0.03410884, 0.14591607, -0.009815529, 0.08540882, 0.06629601, -0.10610195, -0.120582156, 0.1349544, 0.08458931, 0.35979626, 0.118397616, -0.01153958, -0.12124795, 0.026351802, -0.15141618, 0.006927004, -0.048519693, -0.11544475, 0.10481404, 0.2040628, 0.17166457, 0.14488463, 0.21708804, -0.21536024, -0.07151071, 0.002659492, -0.1695085, 0.19019076, 0.07219614, 0.0726294, 0.12615888, -0.018535156, 0.10413154, -0.016168823, 0.0013189916, -0.25987795, -0.18254049, -0.04113139, -0.25524697, 0.116394445, 0.038204163, -0.058259416, 0.019764578, -0.009317601, 0.12084735, -0.19882782, -0.05848859, 0.12851574, 0.03762177, 0.04504158, -0.0183686, -0.013354111, -0.074571624, -0.04659406, -0.16141856, 0.036478076, -0.010061412, -0.22455674, 0.048997276, 0.0916767, -0.023427512, -0.087447695, -0.06620917, 0.08040595, -0.017321963, 0.078662015, 0.060512032, -0.01598584, -0.20543034, 0.031298906, 0.11153261, 0.012318272, 0.118957706, 0.011372643, 0.019915776, -0.07435635, -0.20017555, -0.06134545, -0.06786166, -0.21566392, -0.041711334, -0.07079872, 0.04044247, 0.12571394, 0.1482918, 0.19267975, 0.17868558, -0.32748386, -0.06833092, 0.058436017, -0.22986437, 0.16225013, 0.18346293, 0.09086845, 0.024976762, 0.033598773, 0.21399127, -0.05149015, 0.038734213, -0.1252683, -0.28648344, -0.022751523, -0.3514385, 0.085315235, -0.010125334, -0.00031741365, 0.0076030847, 0.04718866, -0.051913213, -0.08096225, -0.06566371, 0.31746957, -0.09376895, -0.012892229, -0.07119274, -0.05838772, 0.042134162, -0.021597467, -0.10836821, -0.074828394, -0.062485285, 0.009832194, 0.016725646, -0.011067807, 0.04587387, 0.014035684, -0.111159824, -0.09711634, -0.10653712, -0.0237859, -0.0055988543, 0.16985816, -0.018985333, -0.16347097, 0.112866655, -0.17591818, -0.018331034, -0.22054116, 0.004883524, -0.031699795, -0.22168574, 0.013360968, 0.20267971, 0.057293456, -0.049765784, -0.2724425, 0.00086521066, 0.05394834, -0.10085291, 0.1557355, 0.10752878, -0.32667476, 0.033185553, -0.006739958, 0.23636737, 0.102179565, -0.10943019, 0.22108285, -0.008108456, -0.007258146, -0.088078305, -0.037151787, 0.2726914, 0.15062512, 0.09827392, 0.0049433, -0.19281232, 0.116825014, -0.021368641, 0.36969352, 0.044320587, 0.015013577, -0.021586874, 0.17544101, -0.0077221873, 0.10788704, -0.03889348, 0.036886103, 0.20870417, 0.057648137, 0.030244408, 0.024462972, -0.012445488, 0.3755406, 0.06655741, -0.013248232, -0.040770926, 0.36394006, 0.014395816, -0.066681616, 0.41568312, -0.072628535, 0.121863455, -0.19805121, -0.03080578, 0.1639154, 0.11167948, -0.26037502, 0.12223144, -0.5509068, -0.2628572, 0.19728422, -0.21939957, 0.103736386, -0.0010044541, -0.01898909, -0.21677844, 0.049065024, -0.18228418, 0.15344882, 0.050752368, -0.016179672, -0.11524388, -0.20035815, 0.3126394, -0.02574836, -0.00070925, -0.11884915, -0.1537765, 0.107825555, -0.29924136, 0.17949706, -0.21805507, -0.08709058, -0.15866208, -0.08041158, -0.15398702, -0.026323466, -0.069554076, -0.02495381, 0.13677011, 0.022160422, 0.0077609713, 0.13872348, 0.03797011, 0.08184497, -0.10157428, 0.09336792, -0.02631966, -0.02045456, -0.15350504, 0.04351996, 0.02131033, -0.10855817, 0.0012108694, 0.06124011, 0.025291244, 0.02653936, -0.02749969, -0.00674744, 0.09908421, 0.2298206, -0.005428586, -0.09340399, 0.07165174, -0.06482813, -0.03910008, 0.02991871, -0.03454218, 0.25312456, 0.036620654, -0.114160724, -0.17740753, -0.17559828, -0.20813224, 0.13979185, -0.10050219, -0.041335188, 0.07134671, -0.01662224, -0.036427602, -0.1909644, -0.20779489, 0.23394857, -0.008535749, -0.18477054, -0.046447296, -0.15867487, -0.0023295116, 0.07688355, -0.13747272, 0.009580644, -0.120737076, -0.092746526, -0.089746386, 0.07630576, 0.028068503, 0.07663864, -0.030742895, 0.031117722, 0.0803803, 0.12857568, 0.23814735, 0.0900868, -0.009471374, 0.1681764, -0.08055833, 0.12721133, -0.052389726, 0.09156622, -0.13303205, 0.11306186, 0.08857975, -0.15975434, 0.012972543, -0.0036899678, 0.0034471473, 0.1053436, 0.069225006, -0.018895563, 0.08916312, 0.112410165, 0.041790493, 0.22871162, -0.022426797, 0.027356887, 0.05427086, 0.0074750893, -0.045500666, 0.050762158, -0.026741454, -0.26949143, 0.011486068, -0.1037419, -0.000304898, -0.121378385, 0.04676968, -0.14335078, -0.11402677, 0.16909827, 0.0058037536, 0.304099, 0.13138431, -0.06098757, -0.1557609, -0.06031811, -0.26432863, 0.23487505, -0.06449111, -0.122195914, -0.021492952, -0.07185077, 0.2508995, 0.1202539, -0.0006270116, -0.21591784, -0.018614214, 0.13373174, -0.063563764, -0.08272945, -0.22548759, 0.09236794, 0.013777064, -0.025020355, -0.1889535, -0.07819177, -0.005256256, 0.067710906, 0.16763769, 0.1535398, 0.058005486, 0.13313724, -0.049819544, 0.05036896, -0.12497294, -0.002176603, 0.014706997, -0.20058946, 0.14277524, -0.027687365, -0.064245105, -0.08112321, 0.019589165, -0.033809517, -0.070975736, 0.26931307, 0.019889615, 0.3184636, -0.039332796, -0.05141432, -0.039341643, -0.00306813, -0.25687754, 0.027905012, 0.1137628, 0.10058291, 0.012628009, 0.051784854, -0.010611706, -0.19482401, -0.02589763, -0.027967697, -0.050902344, -0.13395464, -0.1572933, 0.26168033, -0.06940938, 0.023382176, 0.04405977, 0.11505266, -0.36604682, 0.35543153, 0.007712505, -0.15233243, 0.021425506, -0.0014334905, 0.10522015, 0.03173719, 0.04216111, 0.17103669, 0.21898265, 0.0070244563, -0.071951866, 0.19208048, -0.39536437, 0.051842384, -0.026595185, 0.03161063, -0.3943575, -0.072901696, -0.116127044, -0.029861221, 0.056418937, 0.16349702, -0.080793045, 0.06822121, -0.030526781, 0.100458205, -0.099599466, 0.26967943, 0.14386973, 0.14740136, 0.022535568, -0.057765428, 0.009473029, -0.13365431, 0.03393472, -0.04673192, -0.03583423, 0.060659252, 0.0067611486, 0.19285193, -0.06975162, 0.03586304, 0.010959671, -0.041708656, -0.021418791, 0.098950185, -0.013868977, 0.02605766, 0.009401845, 0.116797194, 0.110122584, -0.18848142, -0.004997528, -0.29919547, -0.025869552, -0.113787405, 0.009779991, 0.08412055, 0.0552658, 0.05906726, 0.08934893, 0.005979788, -0.004600977, 0.012865328, -0.01788843, -0.067162156, -0.20892893, -0.18085721, 0.104531355, -0.10451086, 0.049717408, -0.05770317, -0.017164873, 0.07041749, 0.13071498, 0.021387296, -0.081430174, 0.015699003, -0.2572321, -0.00042790174, 0.20997936, -0.21640411, 0.029137418, -0.026949985, 0.08499962, 0.040701047, 0.054269996, 0.040056147, -0.007693149, 0.06843994, -0.10580549, -0.11248506, 0.09412879, 0.12678549, -0.017762836, 0.010718343, -0.06988317, -0.010285701, -0.0028271822, -0.06588283, 0.035020735, 0.07608364, 0.05048172, 0.3041364, -0.0029679707, 0.17221561, -0.011652045, -0.042607706, -0.113804914, 0.0105267735, 0.068653114, 0.089937426, -0.03617979, 0.16759378, 0.09342384, 0.11665824, -0.12139974, 0.0903167, 0.021642918, -0.029305207, -0.1028685, -0.115283296, 0.03866738, 0.061474655, -0.27271327, -0.07537152, 0.14911939, 0.08338892, -0.013012583, -0.024552094, 0.23385307, -0.2701303, -0.017829841, -0.06782673, -0.0334043, 0.018927583, -0.03672737, -0.08035709, 0.1879832, 0.10777001, 0.085208274, 0.03542314, -0.019438786, -0.020079713, 0.30775642, -0.00021048813, 0.075458035, -0.026977751, 0.32499596, -0.049048793, 0.049797103, 0.030353388, 0.06229436, 0.03344128, 0.010651259, -0.056591813, -0.012369039, 0.024138547, -0.038968045, 0.041540593, 0.062564544, 0.11950651, -0.0050781583, -0.06357488, 0.014588869, 0.0026717088, -0.033404473, 0.23207422, 0.0036246455, 0.023274625, 0.023822475, 0.033715248, -0.05915841, -0.074485876, 0.112169966, -0.14136021, 0.043502294, -0.00784199, 0.0035780699, 0.031453088, 0.029903505, -0.07765054, -0.0858245, 0.039803162, 0.009046055, 0.1666832, 0.007647457, -0.035621006, -0.115376204, 0.07737675, 0.014409211, 0.03403533, 0.07721186, 0.054331243, 0.27233955, -0.11939862, 0.035846524, -0.10330868, -0.02676325, 0.1259753, 0.055962924, -0.12725633, 0.07166571, 0.11888854, -0.11667307, 0.16728638, 0.036663834, -0.038766157, 0.07057832, 0.07770215, 0.07191273, -0.0039027086, 0.15787998, 0.083177835, 0.05205016, -0.030742697, -0.061121415, 0.021886164, -0.04315763, 0.076257125, 0.014524389, 0.0112740975, 0.077167615, -0.03278476, -0.08181274, 0.07033514, 0.013000898, 0.0692381, -0.0040182555, -0.007430319, 0.0039279237, 0.1729064, -0.03951523, 0.0061744, 0.037772313, 0.03450418, -0.010239741, -0.016065635, 0.12998688, 0.13331485, -0.016262459, -0.20971069, 0.010705791, -0.03021325, 0.07778954, -0.12286758, -0.06175741, -0.06487736, -0.0020599507, 0.09773835, -0.092261024, -0.05970559, -0.05382491, -0.03361926, 0.19348565, 0.17103225, -0.03636199, -0.028681196, 0.17340912, 0.02642674, -0.08565081, -0.066260464, 0.042249843, 0.046204615, -0.0923678, 0.040271692, -0.100606285, 0.16630703, -0.26717544, -0.0044363793, -0.0911857, 0.065439746, 0.3156492, -0.1376644, -0.07157351, -0.033063143, -0.021243865, 0.19515856, 0.060376585, -0.013306889, -0.065092586, 0.008799053, 0.11929843, 0.17430097, 0.004288356, -0.025749918, -0.25566033, 0.0016228533, 0.0031698323, -0.024710052, 0.016271843, -0.055496927, -0.13413754, 0.00989426, -0.022312224, 0.20610471, -0.044073608, -0.09687722, 0.009312632, -0.0840685, 0.0762534, -0.016702747, 0.1870428, 0.10162078, -0.00024771545, 0.14967337, 0.20445675, 0.23972565, 0.07404898, -0.2661761, 0.009200737, -0.057053342, -0.07382468, 0.06874768, 0.06896525, 0.06449789, -0.23211762, -0.07565848, -0.10526853, -0.025358025, -0.08101175, 0.068011865, -0.09278007, -0.015738383, -0.11562821, -0.18119363, 0.063136466, 0.22013453, -0.27070358, 0.031224648, 0.22749314, 0.02821709, -0.10872483, -0.023560446, -0.1851227, -0.044837818, 0.12834512, 0.022018226, -0.02467008, -0.013737684, 0.20940049, -0.23296785, 0.045859367, 0.06849603, -0.05907495, 0.010962982, -0.06524222, 0.017986994, 0.046267472, -0.13024242, -0.15519398, -0.023072187, -0.063110515, 0.02836717, 0.0016937495, -0.04548075, -0.156181, -0.073666185, -0.028165303, 0.0343866, 0.01671314, 0.04267289, 0.17694128, -0.04828937, -0.07053757, 0.05732926, 0.03978411, 0.28982162, 0.059425708, 0.13232696, 0.09451178, 0.313228, 0.12305404, 0.09125553, -0.10398537, 0.12487664, -0.07700063, 0.016426407, -0.019770127, -0.0016904618, -0.15414175, -0.049311467, -0.027369177, 0.058724385, -0.0021778448, 0.14628518, -0.07545489, 0.008746458, 0.047688015, 0.10953008, -0.06722356, -0.017692363, 0.029074656, 0.09048379, -0.04583143, 0.3041669, 0.10843621, -0.069560304, -0.060454406, -0.022903454, 0.12291785, 0.06807741, 0.09073074, -0.0494996, 0.10595671, 0.009528334, 0.057857085, 0.01686797, 0.005547094, -0.0005181196, 0.0987409, 0.09679674, -0.021868318, 0.053196747, -0.17910014, -0.021641755, 0.07160896, -0.008682127, 0.07603868, 0.051418316, -0.18617478, -0.004637487, -0.044122316, 0.06539954, 0.08674422, 0.017224073, 0.05816808, -0.009388381, 0.10366261, -0.0074830055, 0.058338, 0.16687304, 0.004545913, 0.081533305, 0.08415471, 0.27291247, 0.14367086, -0.20481236, 0.025611406, 0.032204416, -0.15495749, 0.22701512, 0.04510973, -0.08455518, -0.27681765, 0.017315393, -0.05012444, 0.058859468, -0.015090681, -0.07026541, -0.04284563, 0.117479, 0.0813164, 0.007206798, -0.047197446, 0.08816617, -0.098008245, 0.038559653, 0.13844283, 0.05328311, -0.0978426, 0.1043536, 0.1879665, -0.011693933, 0.18981656, 0.18414067, 0.089577764, 0.027236806, 0.047328327, -0.045520317, 0.028430223, -0.01453281, 0.0054701716, 0.097825706, -0.05565429, 0.17350052, -0.016349366, -0.0072917584, -0.0133169945, -0.06810858, 0.011986449, 0.17638382, 0.0042491225, -0.032449603, -0.0040015136, 0.0025202753, -0.01823624, -0.05557996, 0.061923046, -0.051320355, 0.0035662993, -0.09002493, 0.08570307, -0.03215358, -0.009197877, 0.16278547, -0.046552144, 0.12794216, 0.007939393, 0.1377252, -0.012495755, -0.13878153, 0.061421778, -0.0348844, -0.0011414984, 0.08036406, 0.043251187, -0.021782674, -0.09339856, -0.068698645, 0.0009525275, 0.06939208, 0.14293829, -0.20652822, 0.10912548, 0.13005814, 0.18349147, 0.07668824, -0.04969907, 0.20537744, -0.019152917, 0.036653586, 0.080696635, 0.063204624, -0.02272392, -0.004352414, -0.028012924, 0.070289135, 0.056845944, 0.002502351, 0.0042017233, 0.0074356035, 0.057753928, -0.036054827, 0.038308963, 0.02052741, -0.03637902, -0.003398292, 0.028812593, 0.047033068, 0.006620739, 0.11034998, -0.15781026, -0.059790365, 0.023405997, 0.16693792, -0.0050233174, -0.0008787908, 0.035193823, -0.050932176, -0.0613763, 0.032547887, 0.026068227, 0.07632465, -0.025040213, -0.075794496, 0.15907691, 0.019719569, 0.1634386, 0.034393065, -0.051442355, -0.1428847, 0.08659377, -0.035031587, -0.030433837, 0.01878773, 0.03129687, 0.018415388, 0.10717264, 0.18512906, 0.0011671081, 0.052397557, -0.3288336, 0.12840459, -0.09495892, -0.119683556, 0.01713055, -0.1843415, 0.1787977, 0.105450645, 0.03756714, -0.1580092, -0.09671534, 0.1466067, -0.1318021, -0.0762144, 0.12756453, -0.036023244, 0.059175685, 0.08584943, -0.10784014, -0.05672543, -0.03820209, 0.13633797, 0.03833225, -0.016453572, 0.14689085, -0.05982244, -0.008881767, -0.1548565, 0.0044797896, -0.029379608, 0.020371698, 0.05816996, 0.012958234, -0.09826365, -0.25250205, 0.04072261, 0.0708486, -0.19271891, 0.044395022, -0.010712121, -0.23476863, -0.002779422, 0.069285065, 0.036471277, -0.051118303, -0.05303863, 0.0390818, -0.003148876, -0.050475363, -0.055149697, -0.032316763, 0.14355429, 0.07006739, 0.2200869, 0.08896372, 0.10313844, 0.14122114, -0.13338922, -0.10183581, -0.045688964, -0.0556546, 0.2101369, -0.068309925, 0.03037936, -0.226527, -0.010461152, -0.04338471, 0.092995115, -0.004309567, 0.063684694, 0.09009975, -0.11704353, -0.05474481, -0.0155836465, -0.053354226, -0.11803001, 0.024765262, -0.04042647, 0.28443626, 0.04685406, -0.06881651, 0.052711666, 0.028945064, 0.013886227, 0.037881203, 0.01631231, 0.050791867, 0.042638607, 0.4235556, -0.101388864, 0.011751882, -0.25181648, -0.05150286, -0.07911974, 0.09822129, -0.12003098, 0.096162446, 0.045584697, -0.25927624, 0.015430482, 0.034529738, -0.19376191, 0.059172567, 0.008726331, -0.025818974, -0.16028072, 0.005801752, -0.09888298, 0.050173715, 0.015394175, 0.07301145, -0.10804423, -0.095996976, -0.014336116, -0.116466224, -0.048341766, 0.07063856, 0.22517934, 0.13084991, 0.16769524, 0.06314045, -0.050805997, 0.10896426, 0.15659386, 0.1981629, 0.06851974, 0.0075180745, -0.05671599, -0.3046102, 0.105650224, -0.028301872, 0.195168, 0.060606003, 0.1381483, 0.031223709, -0.06884547, 0.08552009, 0.041478742, 0.060231242, 0.03951455, 0.06546174, 0.025953347, -0.03942858, 0.12567, 0.191387, 0.00018982381, 0.19063911, -0.057730965, -0.085034624, 0.0007629257, 0.16675729, -0.020870477, 0.08926211, -0.13509233, -0.008000518, -0.14118184, 0.06890463, -0.06790529, 0.03715914, 0.029526558, -0.002198221, -0.42226076, -0.095415495, 0.062412307, 0.001261143, -0.040134925, 0.059532404, -0.033586733, 0.29002297, 0.00018380585, 0.032291908, -0.03327641, -0.032640222, -0.028954266, 0.03192166, -0.10805388, 0.035974093, -0.100169726, -0.08752503, 0.0653005, -0.061894007, 0.1579574, 0.06709141, 0.015586339, 0.19239539, -0.067049116, 0.08986813, -0.004223676, -0.009540505, -0.17513849, -0.09108591, 0.047917202, -0.20215075, -0.25747192, -0.118605755, 0.11141458, 0.041413162, 0.20792143, 0.16764489, -0.07065559, 0.023432894, -0.02004448, -0.051857274, 0.25573492, -0.055361286, 0.12990913, -0.0044891452, 0.27512518, -0.0014759754, 8.747231e-05, 0.03613155, 0.004293366, 0.084062554, -0.04293621, 0.049820457, 0.008996745, 0.11402687, -0.06082901, -0.043747224, 0.05204472, 0.007307234, 0.043792307, -0.07263387, -0.018684044, -0.045943357, 0.021348398, 0.046245173, -0.006573703, 0.004962054, -0.089373015, 0.046540067, 0.07564146, 0.05348495, -0.017374948, -0.019241199, 0.010264537, -0.032523707, 0.073289566, 0.0038034758, -0.002573736, -0.0017788423, -0.039388835, 0.058453955, -0.022249538, 0.0660667, 0.06569654, -0.03153521, -0.04391544, -0.009043091, 0.048880924, -0.05571245, -0.0604598, -0.036292884, 0.027461406, 0.0064594382, 0.037593435, 0.02397858, -0.035698753, -0.074501276, -0.075334705, -0.06913536, -0.0542442, -0.047982927, -0.0060961368, 0.0051057762, -0.03685952, 0.016813293, 0.07934682, -0.030104583, -0.06344348, -0.020784318, -0.02817249, -0.013906166, -0.030141044, -0.02660628, 0.021916026, 0.049513664, -0.054973237, 0.022624537, -0.03411865, 0.05344135, 0.014234018, -0.044660848, -0.056688007, 0.06311333, 0.012348213, -0.017901806, 0.065345354, -0.03664719, -0.080755636, -0.04218444, 0.05537481, 0.008108846, 0.009129346, -0.0064142155, -0.039224446, -0.07328444, -0.038289905, -0.047043122, -0.06443067, 0.03888806, -0.0009256476, -0.020556591, -0.004923098, 0.059267387, 0.024724029, -0.016966594, -0.06352919, 0.03565847, -0.016336259, -0.0201024, 0.028387954, -0.053721827, -0.028957797, 0.06520875, -0.013060225, -0.037142098, -0.012849537, 0.012108553, -0.05605445, 0.03281193, 0.029506028, 0.046475332, 0.019130226, -0.05641351, 0.038453575, -0.007252406, -0.028117035, -0.06786325, 0.018360168, 0.0036400156, -0.036802154, -0.010788597, 0.0114154555, -0.074827716, -0.009709635, 0.0065493574, -0.0039525107, 0.029146183, -0.06127089, -0.01698982, -0.076078825, -0.03629319, -0.059071533, 0.01418316, -0.0032711572, -0.06766456, -0.07775003, -0.02340082, -0.002088137, -0.08152024, 0.017187316, 0.05698796, -0.011113452, -0.028131008, -0.013266529, 0.05311229, -0.027431455, -0.05523759, -0.006090856, 0.0322802, -0.0061850674, -0.045855545, 0.055674102, -0.06197933, -0.094864935, 0.030312786, -0.002286896, 0.05409038, -0.022827942, -0.044011675, 0.034511186, -0.008008532, 0.015733901, 0.038850494, -0.020182768, -0.00853936, 0.007419469, 0.018304193, -0.0045726676, -0.0062105013, -0.031546168, 0.0009439572, -0.020414263, 0.03955195, -0.03405503, 0.026275966, 0.022015573, 0.06741629, -0.005149151, -0.008551158, -0.07841769, -0.022308124, 0.009621634, 0.07134125, -0.011890751, 0.005531876, -0.017906845, 0.009746447, -0.027703317, 0.05274828, -0.05175671, -0.014198193, 0.02644877, 0.027757155, 0.03748551, -0.013418609, -0.002617821, -0.0795479, -0.045182776, 0.04437013, -0.04142512, -0.036073215, 0.063847244, 0.0071679507, 0.047344197, 0.017097685, 0.027386252, -0.06921304, -0.05671127, 0.012695335, -0.06785359, 0.0551569, -0.015108707, -0.060018506, -0.106033385, 0.059571654, 0.02915673, 0.034702763, -0.021786148, 0.03582435, -0.0706537, -0.02457381, 0.015723579, -0.06427417, 0.04201382, 0.04657843, 0.009294032, -0.0021590327, 0.023819735, -0.0045923586, -0.035306696, 0.03739963, -0.0023664678, -0.03462365, -0.024218742, -0.05844671, -0.036237866, 0.030985469, 0.018226089, -0.07144588, 0.0005837006, -0.004368545, -0.035558026, -0.01616479, -0.03138733, -0.060057558, -0.05376351, 0.009101962, -0.008505097, -0.056367867, -0.0067650843, -0.0786568, -0.07737888, -0.04293331, 0.061463654, -0.049189452, -0.024268432, -0.009701961, -0.06841105, 0.024291314, -0.008660257, -0.06303069, -0.073081784, -0.052576795, -0.029551407, 0.03540624, 0.011700738, -0.0048175817, -0.05703389, 0.0051806155, -0.07094608, -0.075187154, 0.02962397, -0.04981784, 0.011664465, -0.04152162, 0.047480475, -0.06794222, -0.05305875, -0.06613568, 0.039686162, -0.053629905, -0.02571352, 0.023542456, -0.03509422, 0.0036138634, 0.05953051, -0.077096, 0.05206185, -0.013980024, 0.013189336, -0.02195371, -0.007316584, -0.09046022, -0.049133472, 0.05246735, 0.06758874, 0.041891817, -0.031496227, -0.03939267, -0.0609455, -0.031815358, -0.02489476, 0.043950953, -0.036811866, 0.02507819, -0.01864503, 0.025760753, -0.06144844, -0.09998581, 0.0035084859, -0.052793406, -0.05336871, 0.031698048, -0.025164438, -0.061240554, -0.013297556, -0.084027044, -0.054303214, 0.014852149, -0.067886055, -0.076028146, -0.01443799, 0.0059028086, -0.048236348, -0.016808003, -0.005013239, 0.038080916, -0.005674715, 0.032924533, -0.0031876406, -0.001201535, -0.060239848, -0.026102738, -0.028995058, -0.013047075, -0.0014319686, 0.0074955774, -0.027583042, 0.023966635, 0.023481978, 0.056014147, -0.021023944, 0.012079313, 0.0067591765, 0.06996191, -0.07930013, -0.054975163, -0.0098269805, 0.008185273, -0.043061394, 0.07446769, -0.034601495, -0.046211384, -0.008532098, 0.04821919, -0.046408493, -0.08550524, -0.04633174, -0.042445302, 0.04666308, -0.09036623, 0.019147672, -0.012469573, 0.01682986, 0.04190472, 0.031164767, 0.02717765, 0.04354048, 0.023499079, -0.0635372, -0.0329044, -0.075678885, 0.02353272, 0.04160937, 0.06885242, 0.055142887, -0.014119486, 0.026640082, 0.03412096, -0.051490303, -0.0486459, -0.06499083, 0.034093224, 0.037637793, 0.03175424, -0.063158415, 0.019427055, -0.072726384, 0.058539305, -0.020711282, 0.03855584, -0.06562315, 0.053481314, 0.04420745, -0.03548567, 0.03797481, -0.007935308, 0.001253853, 0.05359782, 0.06658453, -0.0293412, -0.043543845, -0.007933726, -0.036253694, 0.027363045, -0.009960164, 0.016135737, 0.0145388115, -0.021721631, -0.010937536, 0.004005857, -0.06299623, -0.043735962, -0.05493152, -0.019732157, -0.003357961, 0.032628573, 0.05420207, -0.051810004, 0.050972886, -0.00353955, -0.07117823, -0.015673777, -0.079311065, -0.023817964, -0.031930815, 0.05676151, 0.012325664, -0.026857985, 0.0039735744, 0.011037502, 0.028386721, 0.053530168, -0.09304653, -0.012270749, -0.067250624, -0.0127901565, -0.00275065, -0.04430843, -0.008545614, 0.046573583, -0.0072635226, -0.0078069265, 0.040456276, -0.060535826, -0.0716857, -0.08101365, -0.045690145, -0.008515281, -0.07155005, -0.03324146, -0.018777873, -0.081219345, -0.03312855, 0.071093604, -0.00767106, 0.018744592, 0.011596602, 0.018813154, -0.06458278, 0.027788498, 0.007536518, 0.036158834, -0.0037151843, -0.030690946, -0.02650703, -0.010424684, 0.037702143, 0.060877595, 0.021364115, -0.06630305, -0.07078634, -0.0010200515, -0.09077717, -0.0444917, 0.04392302, 0.018562308, 0.024774931, -0.009944652, 0.0006308776, -0.015633602, 0.03552526, -0.03500029, 0.058836766, -0.052197054, 0.028015865, -0.059617758, -0.018652335, -0.07550944, -0.04970655, 0.015054707, -0.07930444, -0.013631915, -0.028680475, -0.00021583491, 0.019866675, 0.0013228522, -0.09915951, -0.044688474, -0.035523687, -0.05116269, 0.05373986, -0.036183026, 0.06131266, -0.05297755, 0.009688104, 0.04738718, -0.03639141, -0.034763694, 0.067181915, 0.0012643635, -0.039381016, 0.0068864506, -0.052557975, -0.10091281, -0.047443487, -0.044367485, -0.068596154, 0.016843066, -0.09620156, -0.07947972, 0.019846702, 0.02189611, -0.024184281, -0.024020305, -0.009652006, -0.028105415, 0.053217836, -0.06163809, -0.0027650131, -0.013785498, 0.06117722, -0.07566084, -0.011460533, -0.033836037, -0.029137375, 0.031972118, 0.068787605, -0.056230593, 0.022696942, 0.049057692, 0.05301784, 0.01967452, 0.07044706, -0.032221746, -0.040171158, -0.035345096, 0.018495653, -0.013321864, 0.022803819, 0.04553756, -0.047366157, 0.058617823, 0.022807956, 0.027890285, 0.060555916, -0.023569234, -0.0015087414, 0.050009385, -0.07240907, -0.01311166, 0.051992316, -0.07959542, -0.02727454, 0.03501716, 0.039563693, 0.04271923, 0.061788864, -0.02992984, -0.0026375488, -0.019727109, -0.03773656, -0.02817633, -0.050181866, -0.02235644, 0.029557552, 0.008371535, -0.08848105, 0.036168672, 0.07020399, -0.032297, -0.071506135, 0.02855751, -0.03588278, 0.063182905, 0.054182198, -0.01193024, 0.065213874, -0.0673395, -0.029497322, -0.035587, 0.014609766, 0.019179827, -0.03007256, -0.040391367, 0.00249814, -0.06104636, 0.047374777, 0.032317527, -0.0019595504, -0.008751564, 0.06430262, 0.03376368, 0.06027244, -0.043787338, 0.03558696, -0.020252384, 0.07045586, 0.058680803, -0.002731277, -0.0598281, 0.013082632, 0.042574607, 0.04044657, 0.052091897, -0.04183047, -0.07575425, -0.03213033, -0.062035583, 0.03415337, -0.007593641, -0.017807242, -0.07104755, -0.046983562, -0.06293497, -0.01900186, -0.05559236, -0.06420296, -0.10452017, -0.0582021, 0.06946033, 0.048147153, -0.063532025, -0.012001854, -0.07987962, -0.046483163, -0.007890754, -0.009964317, -0.058586504, -0.062045936, -0.042933367, 0.04439495, 0.02871195, 0.06046495, 0.033953097, -0.04763504, 0.06692958, -0.059772935, -0.023622667, -0.06546243, -0.05132774, 0.01945112, 0.01993366, 0.018048959, -0.051974967, 0.050833892, 0.051680066, 0.00010279504, -0.04996123, -0.0026801066, -0.050609604, 0.016309658, 0.023794271, 0.008380656, 0.037659444, 0.02881801, 0.07412282, 0.044772103, 0.018015362, -0.019244883, -0.08291267, -0.033296134, 0.059401497, -0.039106876, 0.016426232, -0.06787367, -0.09497792, 0.017997073, -0.067767635, 0.05530645, -0.092744455, 0.015843237, 0.00022787915, -0.04784757, -0.073242106, -0.047181353, -0.071128696, -0.05829474, -0.041508213, 0.05989206, -0.007567424, -0.0014897597, 0.024333762, 0.015130311, 0.05456462, -0.05295722, -0.01598553, -0.03677147, 0.021550646, -0.027492551, 0.008768023, -0.012944285, -0.054103747, 0.03988845, -0.017918542, -0.038713735, -0.0038079969, -0.048385866, -0.011261764, 0.053107273, -0.0626101, -0.043720625, -0.03675404, -0.012607656, 0.0490535, -0.060496453, 0.042960744, -0.07701508, -0.01563803, 0.016524602, 0.030791631, 0.046467565, -0.058067553, 0.05370573, -0.070781395, 0.05070724, 0.041365184, -0.058139596, 0.03593108, -0.03872336, -0.019035902, -0.07251417, -0.06906666, 0.06001413, -0.053654805, 0.008514409, 0.005589298, 0.0046464484, -0.09622507, -0.007991368, -0.100133054, -0.01241266, -0.06792271, -0.019215733, -0.07943505, -0.046575684, 0.03040453, -0.042034283, -0.013577576, -0.010172503, -0.02919994, 0.03184311, 0.07561829, 0.027787996, 0.038255934, 0.019144159, -0.07725362, 0.01830569, -0.024447195, -0.06450698, 0.026492001, -0.11142341, -0.06600056, -0.02171481, -0.025828822, -0.06347468, 0.05506681, 0.062207635, -0.00026354994, -0.043947197, -0.021651004, -0.035793208, -0.026033409, -0.014049605, 0.028542884, -0.02809035, -0.035108455, 0.06277035, -0.00945996, -0.034898728, -0.04545212, 0.034981534, 0.009616572, 0.046857778, -0.0373887, 0.0076489327, -0.039979648, -0.051418655, -0.07616212, -0.06334888, -0.03177966, 0.042529516, 0.03845644, 0.06517983, 0.045944165, 0.03918816, 0.034287468, -0.06529911, -0.057034116, -0.015232682, -0.061572324, 0.046534836, 0.0033425153, -0.05261963, -0.052396957, 0.0014250221, -0.06829295, -0.056160025, 0.0028467637, 0.044020277, 0.01295165, 0.010010738, -0.04486713, 0.05120438, 0.03877091, 0.0010453638, 0.015040749, 0.015923455, 0.021076834, 0.046615757, 0.030221842, 0.04604224, 0.029935999, -0.03823546, 0.02076803, -0.08855071, -0.0770244, -0.030050319, 0.029421406, -0.061789602, -0.01582823, 6.480195e-05, -0.026791597, -0.030219996, 0.013401591, 0.010807067, -0.07815704, 0.012085457, -0.024269782, -0.011895802, -0.009255193, -0.061835583, 0.021994911, -0.054402936, 0.016853271, -0.052538097, -0.043716036, 0.03588694, -0.00610598, -0.017659782, 0.02617049, 0.022692086, -0.009759003, 0.01965229, 0.054553106, 0.014817365, -0.013961289, -0.05651194, 0.037517227, 0.036823742, 0.021242058, -0.033745702, -0.054282892, -0.0045688436, 0.04914616, -0.0057332744, 0.032580696, -0.04073486, -0.0975066, 0.030797534, 0.028233618, 0.055119246, -0.023534793, -0.05392196, -0.08574241, -0.06869401, -0.05645036, 0.0332086, 0.01595084, -0.069342636, 0.027999166, 0.022001939, -0.0007336086, -0.02639658, 0.01320129, 0.055822983, -0.048877236, 0.013975173, -0.055754334, -0.011428947, 0.023173511, -0.039594296, -0.048431776, 0.04109744, 0.043500785, 0.028411377, 0.025600726, -0.014504414, 0.0364043, -0.068926945, -0.028977858, -0.061812047, -0.051671725, -0.052118443, 0.06467918, 0.03798099, -0.06396634, 0.017320652, 0.01729723, 0.06622697, -0.09352977, 0.02933174, 0.030032858, -0.00020082961, -0.025251303, -0.047399845, -0.026890116, 0.013635559, -0.039960094, 0.00884346, -0.019561492, -0.09637161, 0.038786393, 0.022930704, 0.01687124, -0.031175014, 0.02813971, -0.038998764, -0.028428473, -0.035488255, -0.06883198, -0.011723182, -0.06601594, 0.03946502, -0.0793973, -0.06818865, -0.042059306, 0.07175848, 0.015795594, -0.019407354, -0.07441649, -0.022357155, 0.06432602, -0.053559605, 0.057078417, 0.059827246, -0.04432234, 0.006180413, -0.07075254, 0.003549859, -0.08043842, -0.062892586, -0.019329011, -0.016993253, -0.025896639, -0.051860552, -0.007618303, 0.061023265, -0.030046249, 0.019957026, 0.008272241, -0.04698186, 0.023932999, -0.0048798025, -0.07839622, 0.020524632, 0.055621475, 0.03148384, -0.01030166, -0.061586387, -0.07408014, -0.06770956, -0.0034909258, 0.066174544, 0.027162082, 0.03711395, 0.018955559, -0.043691907, -0.024821822, -0.0018876921, -0.04994986, 0.045418363, 0.047273822, 0.038859203, -0.060058314, -0.05354018, -0.07670394, 0.039555214, -0.030322593, 0.040501058, -0.052326545, -0.05392463, 0.01695399, -0.0044876025, -0.078026295, -0.07383346, -0.061528943, -0.014678254, 0.046347536, 0.046858076, -0.01685734, -0.050842755, 0.0065231193, 0.04047354, 0.0535148, -0.047738917, -0.07076117, -0.10448195, -0.028383518, 0.034665946, -0.02561155, 0.038897116, 0.0062698866, -0.07135407, 0.067614675, -0.05490463, -0.040326796, -0.047899302, -0.05788909, -0.051330887, -0.0729775, 0.04847133, -0.012215491, -0.066054136, -0.038537145, -0.07611173, -0.029752713, -0.010037161, 0.0402777, 0.004653484, 0.029727442, -0.021012668, 0.07202121, -0.090101525, -0.0102467295, 0.21715954, 0.07850193, -0.049417503, -0.10189402, 0.01983254, 0.04216902, 0.18017997, 0.019461952, 0.03795884, 0.06870105, -0.053311452, -0.0055723116, 0.30380872, 0.0009919818, -0.13768834, -0.11643178, 0.009384174, 0.07945264, 0.104387514, -0.13068515, 0.02130539, 0.05690384, 0.089408986, 0.09153976, -0.06102074, 0.23668161, -0.013164388, 0.019895831, 0.2717316, -0.12532839, -0.09972738, 0.10821139, -0.06010294, -0.36043394, -0.08284552, -0.065408796, 0.045095466, 0.038419873, -0.10346313, 0.1518868, 0.12167266, 0.09140174, 0.09590823, 0.0068072374, -0.113949746, -0.2215812, -0.049414746, -0.20134692, 0.1577881, 0.16665958, -0.014668966, 0.2158975, -0.01564739, 0.08307888, -0.023905197, 0.16705348, 0.06816186, 0.14323351, -0.10473286, 0.00277075, -0.121166855, -0.028868834, 0.01634301, -0.07630924, 0.18088928, -0.007297793, 0.08644462, -0.05608183, -0.036246162, 0.07742295, 0.16593853, -0.037102215, -0.06313031, -0.05696537, 0.20961766, -0.020577535, 0.0139896, 0.06772522, 0.003878448, -0.01930445, 0.024279328, -0.1466317, -0.040000882, -0.01597442, 0.08211606, 0.04278708, 0.20204374, 0.0031224932, 0.16606723, 0.14558965, 0.1862563, 0.249835, 0.0667808, 0.03747173, 0.08928994, -0.044376142, -0.059463784, -0.12585843, 0.057240795, -0.15479888, -0.018794673, 0.022968384, 0.08259575, 0.06748865, 0.068343505, 0.06795229, 0.04772103, 0.0016504908, 0.02896454, 0.0215711, 0.0134714395, -0.1795941, 0.05198675, 0.1484983, 0.1589145, 0.15641047, -0.006098694, -0.12232938, 0.08296577, -0.055178028, -0.015551273, 0.31531322, -0.05948283, -0.057917215, -0.05374157, -0.037193485, 0.03027353, -0.0653935, 0.18054166, -0.014470775, -0.0846197, 0.051664982, 0.01620681, -0.057977855, 0.100108325, 0.0132328505, -0.038398642, 0.146726, 0.19646382, 0.059474215, -0.02763016, -0.028175592, -0.119102746, 0.028246159, 0.007345321, 0.14428656, 0.03312663, -0.10306964, -0.049386, -0.073766775, -0.3786371, 0.0947021, 0.113783814, 0.077508464, 0.08431902, 0.065390006, -0.08936224, 0.032166913, -0.037767667, -0.13131925, -0.041479897, -0.19507012, -0.056617476, -0.18408947, -0.11249677, 0.012778985, 0.0361161, -0.08996885, 0.14033024, 0.078407235, 0.073913135, 0.020027116, -0.07398091, 0.025025334, -0.18349084, -0.06853227, -0.002711881, 0.096578166, 0.05172372, -0.17841916, 0.0626082, -0.10210189, 0.023103215, -0.09868157, 0.034107488, 0.07680802, -0.13622656, -0.005837128, -0.054738663, -0.030358741, -0.03757131, -0.0685835, -0.040675584, 0.015556453, 0.17522746, 0.124858215, -0.0035820378, 0.005861243, 0.21446702, -0.02431663, -0.052175127, -0.08555466, -0.0068004057, -0.0694075, -0.055191524, 0.054054767, 0.1231407, -0.08250287, -0.08785984, -0.20613001, 0.051701542, -0.012190492, 0.10160824, 0.07702577, -0.227841, 0.25990418, 0.0060640974, 0.22374877, -0.0045536594, 0.17392305, -0.077126876, -0.008916156, 0.025104975, -0.049012654, -0.026442474, -0.13119303, 0.006252109, -0.23010771, -0.05265577, -0.0325845, 0.025330888, -0.049097955, 0.0939763, -0.07700554, 0.091348134, 0.0590545, 0.26634082, 0.026997048, 0.038381357, 0.08926906, -0.06728782, -0.07928004, 0.12530196, -1.7596321e-06, 0.04519913, -0.3068249, 0.09371824, 0.069569446, 0.03046988, 0.20827916, -0.07084346, 0.050616894, -0.041291192, -0.037796665, 0.0072569093, -0.07413085, 0.18639956, 0.07058332, -0.19852065, -0.0312525, 0.0666741, 0.023972351, 0.24506262, -0.024634635, -0.03206927, 0.061525047, 0.16888714, -0.036837213, -0.10758147, 0.051655576, -0.0901877, 0.037182365, 0.034899466, 0.05871623, -0.038173556, 0.04957359, 0.07408823, -0.030767763, 0.17114475, 0.109559976, 0.03550436, -0.00072504266, 0.16279852, 0.14204548, 0.010153745, -0.1128618, 0.4506867, 0.12995647, 0.028450366, -0.22775196, -0.014395315, -0.05209915, 0.065557994, 0.06338987, -0.05501926, 0.021209389, -0.071392074, 0.09731597, 0.15988635, -0.011231644, -0.021029383, -0.08830927, -0.0025245384, 0.115678355, 0.2470038, 0.2308573, -0.012913209, 0.08641164, 0.030440507, -0.12895139, 0.19960427, 0.2781005, 0.024960786, 0.22057508, -0.039946385, -0.015786644, 0.04945342, 0.035344705, -0.056748956, -0.1848351, 0.13678902, 0.010270829, 0.006896975, 0.056681156, 0.035887595, -0.022498121, 0.11563009, -0.02605466, -0.019403283, -0.009432595, 0.1230673, 0.0019103214, -0.09726909, 0.06182224, -0.059579678, 0.12300569, 0.034427714, 0.01870623, -0.022280289, -0.038656257, 0.17476474, 0.038486682, -0.055052795, 0.1273328, 0.11349331, 0.11181793, 0.09671805, 0.1573993, 0.062124122, -0.018387701, 0.32179445, 0.07575707, 0.0021806438, -0.1020056, -0.030750142, 0.12207288, 0.11772907, -0.05582445, -0.016115885, 0.16802087, 0.026752967, -0.010699001, 0.026746524, 0.1072104, -0.040681362, -0.047205783, 0.08185672, -0.024482671, 0.09266601, 0.03412971, 0.07371982, 0.013537166, 0.033382427, -0.052298754, 0.097936146, -0.01034013, 0.015723743, 0.15608756, 0.097048596, 0.073561065, -0.04623811, 0.056945894, -0.049657494, -0.12156683, 0.128452, 0.088011414, 0.03358896, -0.03176238, -0.038103282, 0.13865973, 0.16263025, -0.031923752, -0.01784607, 0.09922924, 0.06909581, 0.020577043, 0.24540241, 0.032020178, -0.20087841, -0.0068725287, 0.013694953, 0.032746483, -0.010749775, -0.19272517, -0.12964584, -0.04730316, -0.009764741, -0.005978204, -0.08919715, 0.08420201, 0.09774072, 0.045976233, 0.12746622, -0.05436461, 0.23252869, 0.023006545, 0.007937225, -0.09107673, -0.09544841, -0.08080655, 0.07443729, 0.03801377, 0.06276523, -0.078960046, 0.2164755, 0.07565496, -0.023709834, 0.023184724, -0.0720311, -0.0005519292, -0.035494335, 0.14306451, 0.025956117, -0.021315955, 0.16246356, -0.18977591, -0.048211765, -0.1877413, -0.01811849, 0.14215963, -0.054632764, 0.25197062, -0.0012417875, 0.032638595, -0.07129971, -0.02548058, 0.10939592, 0.018303497, 0.0369195, -0.0019751687, -0.056268264, -0.058873627, -0.06233144, 0.08456724, 0.26285264, 0.008128773, 0.03922389, -0.05778712, 0.053150292, 0.031846218, 0.20187311, 0.03366984, -0.005701559, -1.7876873e-05, -0.0023672588, 0.1908339, -0.024213303, 0.1082291, -0.06229176, 0.051767692, 0.23479453, -0.019640746, 0.12256984, 0.27734157, -0.073703915, 0.15815482, 0.025688255, 0.14782305, 0.116763994, 0.051867377, 0.039529413, -0.08563898, -0.16272712, 0.08537529, 0.31785384, 0.040234577, 0.13686572, 0.0035508182, 0.030045923, 0.25979292, 0.060859527, 0.0068705706, 0.01480672, -0.2199899, -0.084784575, -0.08912525, 0.031964928, -0.05670612, 0.0733127, -0.22667277, -0.03870322, -0.31928578, -0.001534805, 0.15541743, 0.016765667, 0.028054101, -0.104847394, -0.06298648, 0.21390134, -0.028390346, 0.051681947, -0.20874727, -0.09858417, -0.0477211, -0.1431539, -0.012338693, 0.07512485, 0.1272474, 0.35290855, -0.042444088, -0.040983666, -0.0052830526, 0.10309592, -0.012517661, -0.08463872, -0.004834613, 0.027797086, -0.025256278, -0.106419414, 0.05328171, 0.00034295447, -0.10546196, -0.025359431, -0.07362353, 0.07314815, 0.08292133, -0.014544614, 0.09808287, -0.08380922, 0.07672261, -0.14180999, -0.06848012, 0.1279984, 0.12931028, -0.0033724592, -0.100334056, -0.21093424, 0.05164898, 0.021647451, -0.0804989, -0.03515728, -0.10619707, 0.08733945, 0.23899154, -0.111053474, 0.008252187, -0.15723243, -0.20134728, -0.06433078, 0.05942818, 0.13367465, 0.008351828, 0.07442028, -0.07157622, -0.009126379, 0.09898092, -0.052885015, 0.4110714, -0.048255567, 0.2657343, -0.22590548, -0.049312204, 0.02209117, 0.030197471, -0.01105988, -0.20619278, -0.058137365, 0.025207302, 0.035547253, 0.09238818, 0.04273277, -0.019904878, 0.31619558, 0.075028956, -0.06845032, -0.33079463, 0.17917687, 0.035702057, 0.045726735, 0.054841414, -0.05981328, 0.023285488, -0.013344434, 0.07555761, -0.06217944, -0.003318082, 0.16082613, 0.020001562, -0.12767082, -0.032155782, -0.103702344, 0.13659765, -0.07797953, -0.037967056, 0.14979444, -0.0038913314, 0.0077521657, -0.04505908, -0.041902192, -0.09761618, -0.24004874, -0.061260432, -0.046768058, 0.030738516, 0.0706935, -0.045431446, -0.09214966, 0.14353994, 0.21971175, -0.060808502, -0.1150933, 0.045891386, -0.08741145, -0.002525493, 0.24044684, -0.036818232, 0.0017612613, -0.17642052, -0.009107868, -0.004456767, 0.10133268, 0.19088112, -0.067478284, 0.18324131, -0.20042922, 0.0059206137, -0.16997677, 0.07054303, 0.030383136, -0.066357575, 0.17594743, 0.0009449689, 0.15545818, 0.062102236, 0.029550947, 0.141235, 0.16588315, -0.015065488, 0.067033835, -0.055397898, 0.11642089, -0.024329359, 0.044964015, 0.07585955, 0.008334388, -0.017455287, 0.017385187, 0.058062367, -0.00392721, -0.0091341585, 0.033129845, 0.009444716, -0.06095927, -0.04798574, 0.12507774, 0.2016955, 0.04395633, 0.003088025, 0.090406835, 0.08954714, 0.102879755, -0.10992655, -0.07878309, -0.15027991, -0.18502723, -0.007653577, -0.0933639, 0.0985908, 0.16424482, -0.13520189, 0.08394787, 0.062128652, -0.025275597, 0.046825014, -0.076979026, -0.042287216, 0.08717315, -0.109556235, 0.17170514, -0.01615116, 0.07753738, -0.26123574, 0.07411657, -0.017932154, 0.16242498, 0.16947454, -0.010108058, -0.035189226, -0.23160261, -0.06107054, -0.08589637, -0.06752143, 0.07538527, -0.175811, 0.035986084, 0.054233424, 0.0079896, -0.040299077, 0.022400403, 0.052749094, 0.19081342, 0.030430458, -0.03818534, -0.061781704, 0.035268094, -0.040526185, -0.019570524, -0.02469084, 0.1530871, -0.07996085, 0.026636478, 0.25368387, 0.04099323, -0.021179006, 0.08981148, 0.06837122, 0.0471187, 0.058782354, 0.09204044, 0.09626112, -0.085643105, 0.04388307, 0.11122911, 0.11251996, 0.15665591, 0.05282702, 0.0076351613, -0.13169476, -0.094104, 0.23103912, -0.09408248, -0.03183044, 0.119952075, -0.10678336, 0.021478271, 0.12312033, 0.07478453, 0.032303963, 0.2104165, 0.07846434, -0.06315084, 0.05708614, 0.09585886, -0.16474941, 0.02863311, -0.31733957, -0.061927985, -0.19686449, -0.11238504, 0.26597622, -0.04162027, -0.12266783, -0.3157882, 0.0009023603, 0.26006258, -0.0066271457, 0.03921558, -0.118678086, -0.0039129425, -0.09394074, -0.2538178, 0.05733334, -0.024109954, 0.0055250525, 0.34734088, -0.063698456, -0.0276226, -0.06730021, 0.11457344, 0.06470612, -0.043457326, -0.04046129, 0.35117912, 0.15157826, -0.0085876845, 0.13382383, -0.05591845, -0.16183378, 0.13523757, 0.071147844, -0.049414273, -0.032012068, -0.052825376, 0.38533688, -0.19575948, 0.045265336, 0.06381811, -0.13035664, 0.18649332, -0.0011355195, 0.054793965, -0.3134911, -0.058639508, 0.032812513, 0.113047354, 0.07524923, -0.11103856, -0.06057202, -0.052430358, 0.124906674, -0.051525924, 0.07635929, -0.20961675, 0.08636702, -0.031025594, 0.161919, 0.029517606, 0.12054162, -0.045986563, 0.20732775, 0.047585726, 0.12553741, 0.06326422, 0.392181, 0.016205505, 0.26858768, -0.3023355, 0.063163124, -0.0016041942, -0.024377562, 0.10277017, -0.2263543, 0.05820212, -0.0370895, -0.1977642, 0.07321123, -0.07523569, 0.04910505, 0.34602, -0.04801116, 0.032912854, -0.13299204, 0.17033808, 0.07669918, -0.12274505, -0.109929256, 0.029093713, -0.0031436787, 0.033387765, 0.087620266, 0.057863224, -0.1452159, 0.23646864, -0.03818375, 0.0010492224, 0.027185999, -0.21701683, 0.067247264, -0.26742616, 0.015341189, 0.041922122, -0.032703947, -0.007051917, 0.20174903, -0.019692434, -0.075499356, -0.09038273, -0.06256475, 0.26229268, 0.11415922, -0.011682375, -0.0017814322, -0.040834777, -0.06301147, -0.01450992, 0.018835787, -0.10786372, -0.022040294, -0.023237871, -0.16663642, -0.024192031, -0.061647605, -0.056764737, -0.064730294, 0.02129253, -0.0970024, 0.036735006, 0.26906154, -0.00092522445, 0.31834176, -0.39081442, -0.029408753, 0.040750965, -0.018219315, 0.032460067, -0.12755339, -0.08195971, 0.041678973, -0.0055899518, 0.10073837, 0.06673718, -0.0603479, 0.25239715, -0.028170433, 0.058981687, -0.14406586, -0.05869468, -0.0067323605, -0.09963969, -0.10576375, -0.022997122, 0.0027178836, 0.024797441, 0.17145005, 0.027770448, -0.14012599, 0.40352482, -0.030196821, 0.0522232, -0.008206616, -0.17795797, 0.20114538, -0.085989475, -0.04887377, 0.21583706, -0.06735115, 0.10393943, 0.15596111, -0.066811614, -0.06547336, -0.124953486, 0.041121412, 0.17855993, 0.099049784, 0.005025413, -0.18909374, 0.020985607, -0.0571053, -0.005964831, 0.04546254, 0.06582727, 0.078930095, 0.05364065, -0.092452005, 0.020330394, -0.03997716, -0.015009594, -0.050779015, 0.068173386, -0.092685476, -0.07595115, 0.28111887, 0.008422939, 0.27119204, -0.40757722, -0.03377562, 0.041357502, -0.035339177, 0.031099334, -0.24777046, -0.010047164, 0.01171722, -0.32831353, 0.04618619, 0.014829106, -0.060908917, 0.3433233, 0.048664454, 0.05944742, -0.03232928, -0.043185152, 0.045483746, -0.02652851, 0.013405271, 0.103883594, -0.080520354, 0.013269389, 0.30417666, 0.044563983, -0.028948918, 0.11628936, -0.04369338, 0.30730364, 0.14993875, -0.0152565725, 0.2559515, 0.07794952, -0.019046886, -0.018737413, 0.2825426, 0.16549294, 0.022787208, -0.055809774, -0.36495984, -0.18413828, 0.30260658, 0.44369665, -0.04842692, 0.03718111, -0.03493494, -0.00055156933, -0.09621186, 0.030513095, -0.023165336, 0.10829777, -0.06835704, 0.08242484, 0.24366704, -0.0056111086, -0.2533938, 0.11387772, -0.21255311, -0.043172058, -0.06541332, -0.27983302, 0.11364174, 0.10669991, 0.20539431, -0.33959848, 0.05908493, 0.019948227, 0.042544346, -0.051399924, 0.10139224, -0.14708838, 0.044207945, -0.3291361, 0.35807067, 0.039667312, -0.09233953, 0.18998374, -0.065431066, -0.019991325, 0.10926336, 0.060948502, -0.073721506, -0.19446664, -0.07999547, 0.1990712, -0.0032193772, -0.10359374, -0.13469157, 0.0892093, -0.06265682, -0.15055637, 0.025898186, -0.012525011, 0.1008606, -0.24168071, 0.20753837, -0.18741639, 0.117956, -0.10731897, 0.021249702, -0.12651648, 0.046534467, -0.04226096, 0.0888599, -0.2970241, -0.19416492, 0.15647832, 0.028402131, 0.08801927, -0.052144714, 0.2078697, 0.11494583, -0.1668026, 0.019273864, 0.06775334, -0.21619512, 0.20486544, 0.033408202, 0.11861575, -0.04763833, -0.057323284, -0.38249207, 0.09864209, -0.15459053, -0.22770037, -0.1269372, 0.052520607, 0.017660812, -0.18369868, -0.054067433, 0.076429084, -0.056351896, -0.06247926, -0.251149, -0.05426581, -0.013988284, -0.2547501, 0.08463199, -0.06776866, 0.15027153, 0.23251128, 0.06147596, 0.0019409274, -0.2338278, 0.13317986, -0.043489683, -0.036251258, 0.09139762, 0.15964049, -0.084516905, 0.031531274, -0.014656777, 0.012461257, 0.070746586, 0.08223164, 0.028874941, -0.10536379, 0.012846519, -0.022753825, 0.13368593, -0.06721192, 0.20637526, 0.07290216, 0.16593777, 0.092109405, 0.03043319, 0.05752995, -0.11092137, -0.037789706, -0.0034975165, -0.11858509, -0.035651125, 0.097742274, 0.04035402, 0.3348426, 0.01068095, -0.28065434, 0.050995026, -0.095957786, -0.14893466, 0.11408493, 0.2557028, 0.14379078, 0.11079433, 0.022926126, -0.22155112, -0.024607284, 0.13534185, -0.30280632, 0.079122275, 0.0020107033, 0.18617728, -0.3913051, -0.008103485, 0.19974405, -0.06335853, 0.011402645, 0.01678105, 0.4075743, -0.005688981, -0.25321177, 0.052140146, -0.06405683, 0.1737928, 0.09929475, 0.08760234, 0.054399792, -0.22841857, 0.023399496, -0.026267514, -0.0362558, -0.058129214, 0.058047827, 0.076665446, -0.018652227, -0.024966773, 0.030182878, -0.057046335, 0.08653466, -0.040926285, -0.32285148, -0.011398969, 0.04713456, 0.41775662, -0.20068206, 0.1015419, -0.20147654, 0.07576165, 0.018006943, 0.038098145, 0.047096483, -0.18602292, 0.0507325, 0.067486696, -0.1723187, 0.008032111, 0.03137865, -0.03257494, 0.22084609, 0.034686945, -0.13697705, -0.022624332, 0.06162399, -0.1500929, 0.23869756, 0.11726206, -0.07041775, 0.052314393, 0.028546754, -0.090426214, -0.014417645, -0.09666811, -0.26492572, 0.012820821, -0.08093093, -0.1317437, -0.20511587, 0.04468701, -0.013641763, -0.05332034, -0.029204912, -0.006898414, -0.0384922, 0.07630384, -0.08660838, 0.20658478, 0.056879036, -0.026489034, 0.13419104, -0.07901025, -0.025229352, -0.35935098, -0.08786897, 0.05040504, 0.07426869, 0.030136785, 0.11487427, -0.0093680285, -0.046108097, 0.10477635, -0.006577918, 0.077864535, 0.2291336, 0.08281601, -0.15537155, 0.13019964, 0.067460746, 0.07707514, -0.14662418, -0.07663286, -0.039887358, -0.057222307, 0.07907501, 0.14145485, 0.0558437, -0.18825996, 0.108129926, 0.05677429, -0.15833041, 0.038190827, -0.10275607, -0.20125519, 0.32242426, 0.047342468, -0.20249374, -0.034058943, 0.19275165, -0.10654483, 0.11532395, 0.42444545, -0.059911948, 0.14411001, 0.057838947, 0.055608585, -0.03849508, -0.19538057, -0.20789567, 0.20520358, -0.07610912, 0.07075163, -0.2591207, -0.029606747, 0.22990407, 0.024879923, 0.05657138, 0.07521756, -0.19271106, -0.014130399, -0.2920453, 0.15328275, -0.017139846, 0.16451706, 0.12561908, 0.07127246, -0.011135146, 0.07471491, 0.0042208857, 0.03327772, -0.11014089, -0.01207263, 0.11196726, -0.02031763, -0.05906383, 0.08471763, 0.015877984, 0.11416819, 0.079618804, -0.018805783, 0.06372884, -0.14358719, -0.04937616, 0.055516627, -0.0065286746, 0.23906681, -0.20291609, 0.102985926, -0.12065098, -0.0014156139, -0.0448126, 0.09771614, -0.16720024, -0.19434543, -0.022621844, -0.036137722, -0.0024289272, 0.08885714, 0.09466028, 0.037159666, -0.13351934, 0.012252902, 0.11165705, 0.20386684, 0.19068256, 0.21989952, 0.083781786, -0.06803929, -0.054513436, -0.15325645, -0.040781267, -0.10269981, -0.13736798, 0.04794112, 0.020121604, 0.13348791, -0.19618332, -0.02906809, 0.07954393, -0.024603495, 0.08386751, -0.046206124, 0.07553946, 0.044813488, 0.001959937, 0.1878005, -0.05647011, 0.00085451175, -0.028593717, 0.032367527, -0.010526557, -0.11713946, -0.041218847, -0.016749457, 0.034921262, -0.037466805, 0.01868909, -0.04704472, -0.021044314, 0.07631473, -0.0044184197, -0.050282024, -0.08155756, -0.04635928, -0.075339526, 0.019195626, 0.023731252, 0.050514102, -0.06851347, 0.10659906, -0.020255217, -0.074849226, -0.11572593, -0.08943239, -0.051947378, 0.03122799, -0.028853767, -0.10935134, -0.035177007, -0.025479238, -0.15895644, -0.19157778, -0.0013139952, -0.05835407, -0.14869532, 0.08305006, -0.22370191, -0.18493797, 0.15994643, 0.052004017, -0.06334428, 0.056804076, -0.009137231, -0.25794628, 0.052714746, -0.05231397, -0.15945074, 0.06756358, 0.010703373, -0.19015518, -0.32021305, 0.042262163, 0.023841867, -0.0028289445, 0.06293286, 0.031848196, 0.05430841, 0.0016904953, -0.00982524, 0.22147885, -0.015172988, 0.11928447, 0.00539794, -0.036106765, -0.050238412, -0.4242005, -0.13425858, 0.02553714, 0.23892666, 0.026345741, 0.023485472, 0.14144619, 0.0026217338, 0.063492246, 0.040271845, -0.01663783, 0.09058986, -0.06495996, -0.21545877, 0.109099, -0.28383604, 0.13482177, -0.07381315, 0.005982778, -0.119590916, -0.06860446, -0.016095938, 0.0059464686, 0.035292976, 0.0013751346, -0.0036374244, 0.16402745, -0.2538431, -0.0187811, -0.07708278, -0.14493085, 0.008152693, -0.17064567, -0.15182847, -0.031415164, 0.14712045, -0.29162562, 0.15447639, 0.09492184, 0.07038287, 0.2864367, -0.009438095, -0.14368792, 0.033890426, 0.22469418, -0.08666302, -0.049572844, -0.07657821, -0.13008921, -0.07628476, 0.03246703, 0.023847705, -0.020501353, 0.06046584, -0.025804289, -0.032947596, -0.05189075, -0.011577702, 0.15546021, 0.064108245, 0.071559004, 0.0063193166, 0.021791825, -0.06761695, -0.4615656, 0.120377086, -0.026457157, 0.011895468, -0.0077067134, 0.20174363, -0.041257545, 0.010720281, 0.2941967, 0.04139118, 0.086627185, -0.0015239489, -0.046339616, 0.081311196, -0.06394846, -0.08504042, 0.041499954, -0.111624226, -0.06280991, -0.1205514, 0.11841352, 0.037505317, 0.17425813, -0.07843761, -0.2471022, -0.010369824, -0.08056309, -0.110570334, 0.04078983, -0.10933376, -0.1421993, 0.25571162, -0.04968137, -0.042534433, -0.020196276, 0.12128428, -0.026373476, 0.13359427, 0.16852398, 0.15665947, 0.072579354, 0.07006075, -0.18917418, -0.03507772, 0.028094001, 0.030874223, 0.06958045, 0.023552364, 0.030233053, -0.3121113, 0.030255176, 0.1708625, 0.041693874, 0.08174841, -0.058782846, 0.054917384, -0.05117732, -0.11307335, 0.02366123, 0.018207086, 0.10842623, 0.15437777, -0.024694715, 0.08186159, 0.090904236, 0.03695249, -0.01652423, 0.016342713, -0.04059853, -0.051501885, 0.032077253, -0.03915199, -0.04876962, 0.043384552, 0.12950586, -0.35787684, -0.012840931, 0.0034350443, -0.15818703, -0.03524155, -0.055304058, 0.1165538, 0.051064085, 0.08994748, -0.19644783, 0.074417494, -0.11906948, 0.07121704, 0.107902296, -0.110809535, 0.04823851, -0.012049583, 0.05341476, -0.11323602, 0.11377453, 0.01604417, -0.061194114, -0.16769135, -0.041427627, -0.19404285, 0.1300479, 0.0142865125, 0.072689876, 0.15737642, -0.06894437, -0.12350155, -0.0041270033, 0.039074764, -0.16950536, -0.24203338, 0.061709557, -0.02776412, 0.041659288, -0.25503084, -0.052989762, 0.088889435, -0.027423048, 0.066703804, -0.037876017, 0.0038250228, 0.019124342, 0.118222915, -0.08883637, -0.05324311, 0.04125318, -0.006991508, 0.020242935, -0.04979497, -0.16004956, 0.060024396, 0.030390054, -0.1411195, 0.06774395, 0.022172652, -0.02188402, 0.031980947, 0.06683137, -0.02102552, 0.10205095, 0.14475122, -0.003753313, -0.085727364, -0.039410997, -0.09631615, 0.07135437, -0.08477127, 0.030621111, -0.24276038, -0.14411609, 0.13780387, 0.19704817, 0.024593461, -0.018314041, -0.045183867, -0.018835612, 0.13381235, 0.030836165, -0.12121461, -0.19285347, 0.04157799, -0.112709105, -0.09087585, -0.032598164, 0.1598658, -0.009039627, 0.099977575, 0.2517504, 0.12715407, 0.09648256, 0.06712199, 0.10426793, 0.017021693, 0.026575759, -0.03473796, 0.06223316, -0.019540085, 0.33928385, 0.07683319, -0.020724578, -0.1689438, 0.08180785, -0.040867086, -0.04205828, 0.016656922, 0.009004149, -0.06189852, 0.035792165, -0.052657958, 0.18070139, -0.010831766, -0.052878357, 0.04862589, -0.14676301, -0.09368461, 0.06296933, 0.21898971, 0.09455801, 0.17093301, -0.06481594, 0.01620634, -0.15401255, 0.05552915, 0.1466748, 0.033846598, 0.02244616, -0.25305367, -0.10086511, -0.08286111, -0.053247023, 0.093638815, -0.22905587, 0.34734878, -0.19051391, -0.16291618, -0.018830206, -0.02836981, -0.0731289, -0.06637692, -0.005581707, 0.0028815502, 0.072894074, 0.0033155647, -0.1324014, -0.13759631, -0.0008753205, 0.10900895, -0.00026186544, -0.06492572, -0.028793985, 0.0014798176, -0.076004416, 0.15830037, 0.045076173, -0.15712152, 0.13240881, 0.058228232, -0.020503616, 0.32456872, -0.009634435, -0.07798078, -0.06662903, 0.039249577, 0.017166488, -0.086465746, 0.00013662424, -0.06315882, -0.18093115, -0.15621094, 0.071982384, -0.20299822, -0.079269886, 0.06598871, 0.12569398, 0.020384993, 0.034372382, 0.07832505, -0.14166613, -0.04006049, 0.00075279805, 0.073324926, 0.06532867, 0.24517763, 0.054243114, 0.055183753, 0.18344897, -0.043005534, 0.13467446, -0.06992139, -0.0067445454, -0.124052346, -0.06316746, -0.0074733943, -0.019395439, -0.064960904, -0.22039813, 0.03357077, -0.071025535, -0.07940309, 0.07467713, -0.09699911, -0.04534321, -0.022149516, -0.025067095, -0.07734968, -0.002067866, -0.07256548, -0.24067275, -0.039075546, 0.010313269, -0.033432625, -0.039229486, -0.01679307, -0.27046552, 0.07622583, 0.18717635, -0.014656561, 0.034688845, -0.09360137, -0.17435406, -0.04471617, 0.07332543, -0.15432213, 0.13987641, 0.057525374, -0.16866831, -0.28359342, -0.053381916, 0.181279, -0.039371166, 0.056122687, 0.15659769, 0.14691167, -0.0028043906, 0.017095244, 0.1238218, 0.020215793, 0.117427446, 0.14158587, -0.06337283, 0.04681293, 0.20029125, -0.16969953, 0.023540339, 0.05434406, 0.050742254, 0.22988041, 0.04934453, -0.07870134, 0.26431277, -0.018904906, 0.32513624, 0.08093307, -0.045429714, 0.093578786, 0.058871053, -0.17668618, 0.059887603, 0.09646193, 0.15603584, 0.22403648, -0.27353635, 0.017724477, 0.21235879, -0.061632466, 0.1461009, 0.08299304, 0.35647774, -0.014263794, 0.008963035, -0.027352208, 0.2278896, 0.20721893, -0.2241109, -0.10079047, -0.0077358186, -0.3330756, 0.13477167, -0.17904702, 0.309459, 0.14774905, 0.07270395, -0.032343764, -0.2737547, 0.077460445, 0.18821278, 0.17797343, 0.11479241, 0.015245707, 0.14109452, -0.25915316, -0.00010256799, 0.19619186, -0.055583335, -0.0444735, -0.022635814, 0.008464763, -0.017470192, -0.1713725, 0.01733973, 0.05895808, -0.09904336, 0.033344436, -0.049684662, 0.05018862, -0.110928126, 0.059701707, 0.005892665, 0.026469022, 0.012675453, 0.07949599, 0.049187694, 0.023364792, 0.068509564, 0.04809906, 0.002830978, 0.1424151, 0.0026894212, -0.16268048, 0.044333804, -0.10343317, 0.05188596, -0.16564052, 0.048523318, -0.10905137, -0.14688987, -0.013266497, 0.0005312816, -0.06949761, -0.097287945, 0.09346524, -0.032783955, -0.017694298, 0.116332844, -0.049903955, 0.080849, 0.060261447, -0.19272752, 0.07388201, 0.010517499, -0.09364176, 0.27471098, -0.11693505, 0.020882877, -0.04619005, 0.22495443, 0.07358862, -0.10907324, 0.040391333, 0.09262657, 0.001671548, 0.04060553, -0.01495986, 0.14064322, -0.24463747, -0.013289889, 0.15430756, 0.021492604, -0.049579278, 0.078774475, -0.061795916, 0.045202654, 0.0776026, 0.17025967, -0.019367244, 0.04271233, -0.020131798, -0.0055976985, -0.034077942, 0.025842732, -0.07289878, 0.0016857145, -0.062525146, -0.010097255, -0.025467083, -0.019684741, -0.005483962, 0.12384559, 0.04304833, 0.06784278, 0.011407848, -0.061723467, -0.2648794, -0.09119223, 0.056141306, 0.12955038, 0.029574804, -0.009800164, -0.024845121, -0.06393691, -0.026846483, 0.02755332, 0.03536006, 0.09677432, 0.16152917, 0.19670771, 0.02941172, 0.13977514, 0.042125594, 0.023003543, 0.11844962, -0.10494332, 0.07551926, -0.07355194, 0.2648127, 0.08072142, -0.07928862, 0.015152308, 0.13884395, 0.1598219, -0.028503302, -0.18742542, 0.032936074, 0.12956485, 0.23059379, -0.14463143, -0.011298263, -0.035634402, -0.08204931, 0.06578761, 0.073607355, -0.06486722, -0.030433416, -0.065116845, -0.06663024, 0.009371109, -0.2037994, 0.20290934, -0.04849235, 0.13044727, 0.10004777, 0.01862119, 0.019663464, -0.07755489, 0.12116798, 0.0061975573, 0.24415354, -0.022543028, -0.098558195, 0.019486556, 0.002595055, 0.30718762, 0.03793997, 0.13975497, -0.008785518, 0.03816671, -0.104507364, 0.022258824, 0.1931052, 0.030993765, -0.11691824, -0.08172594, 0.121763356, -0.12934029, -0.11032073, 0.11253427, 0.027010806, 0.13880402, 0.33115354, 0.3520899, -0.1940655, 0.06746248, -0.0010310032, 0.025723157, 0.015231434, -0.30906194, 0.0808531, 0.060188834, -0.08597308, -0.14712659, -0.035718847, 0.18013555, -0.004760069, 0.17853296, -0.067874536, -0.006847791, -0.050030977, 0.14831097, 0.11827851, -0.13907516, 0.013071705, -0.021062765, -0.15256129, -0.030444995, 0.22124745, 0.014889079, -0.01696304, -0.13089184, 0.3084535, -0.0237086, -0.034633864, 0.07008232, 0.04966566, -0.058849443, -0.129532, 0.00063033757, -0.052946728, -0.1021242, 0.1911865, -0.046930373, -0.32147256, 0.015789947, -0.046809006, -0.028356882, -0.121855885, 0.24099226, -0.0846353, -0.054000415, 0.024300754, 0.05561897, 0.030462107, -0.2379218, 0.25101063, -0.11509168, -0.27821139, 0.049137972, -0.14371449, 0.22327633, -0.0055141924, 0.11477105, -0.0060474877, -0.08095507, -0.060952615, 0.17183042, 0.018871548, -0.031978387, 0.08707884, -0.04243476, 0.075169176, 0.020289062, -0.34001353, -0.069650754, -0.18711822, 0.251789, -0.02537215, -0.16461346, -0.10400707, 0.15750417, -0.05614409, 0.009106371, -0.02324904, -0.16938438, -0.18766831, -0.09983499, 0.02539259, -0.17824993, 0.033593196, 0.03709381, 0.3470349, -0.025551245, 0.07216582, -0.08003426, 0.18005423, 0.018806834, -0.15955389, 0.13167086, -0.051655177, 0.061687384, -0.20257358, 0.11388679, 0.010789976, 0.057391368, 0.08979563, -0.036265865, -0.15864456, 0.071687095, 0.23353878, 0.047172725, -0.11361765, 0.13831422, 0.019552605, -0.20564404, 0.25320867, 0.027065117, 0.07218031, 0.054895878, 0.15185085, 0.0032649932, -0.08954709, -0.20930512, -0.0057426295, 0.13777477, 0.01034833, 0.16387768, -0.039176818, -0.24854693, -0.047807213, -0.057978205, 0.07729989, -0.0501723, -0.015511203, 0.104753196, -0.1589757, 0.04168367, -0.2951492, -0.023790844, 0.035957348, -0.15231054, 0.12448442, 0.035999734, 0.04473911, 0.09169958, -0.022737032, 0.16045333, -0.0891813, -0.117884114, 0.0025586393, 0.09585306, 0.04091368, -0.039599366, -0.043388456, 0.018826792, 0.3422141, -0.080222525, 0.038212158, 0.04469074, 0.038035467, 0.028819108, -0.35680398, 0.097597145, 0.056027163, 0.18071605, -0.06122986, 0.08616369, -0.04315408, 0.035211008, -0.07846828, 0.05562967, -0.1034782, 0.039826572, 0.31748313, 0.104760945, -0.11611039, 0.09015062, 0.014379271, -0.31344375, 0.03215277, 0.006661162, 0.26640937, -0.014534, 0.0038186251, -0.023386322, -0.14592609, 0.100259684, 0.22245392, 0.1486684, -0.14655232, 0.03638212, 0.014909914, -0.2160208, 0.048763745, 0.023027357, 0.14825244, 0.007705676, -0.03628884, 0.12553245, 0.0050921314, -0.074084096, 0.014195562, 0.033705067, 0.116468534, -0.061784927, 0.22880574, -0.1364177, 0.000773679, 0.020797968, -0.11360579, 0.10800142, 0.008701984, -0.11127255, -0.14445984, 0.16582617, 0.0016143688, 0.088392735, -0.13817075, 0.010466788, 0.229406, 0.061872847, -0.019543987, 0.13498007, 0.10764669, -0.06160306, -0.22692718, 0.063833974, 0.0597173, -0.13887033, 0.05831613, 0.09379493, 0.04056506, 0.23580976, 0.0032907347, -0.052505586, -0.061161775, 0.017329765, 0.28851765, 0.043462936, -0.024148071, 0.14259188, 0.053911388, -0.3433094, 0.09071404, -0.08047925, 0.19829291, -0.3126781, 0.0026588093, -0.095388696, 0.016219543, 0.026567105, 0.11329286, 0.0689647, -0.03337704, -0.07474532, 0.034770943, -0.03427214, -0.045007158, -0.09457287, 0.17777678, 0.042118113, 0.29283282, 0.07823157, -0.30081028, -0.124568634, -0.20520207, -0.028577546, 0.07104908, -0.1491635, 0.025528993, 0.02543235, 0.17202578, -0.037030615, -0.014155832, -0.0037972531, -0.06145986, 0.06716165, 0.051800348, -0.14494586, -0.005119197, -0.24746266, 0.027512271, 0.044790074, 0.16269489, -0.030566469, 0.078878134, 0.22862564, 0.002855765, -0.07348995, -0.003961875, -0.029339766, 0.010172845, -0.14123344, -0.19677642, -0.0029507808, -0.0460205, -0.11429253, -0.016332988, -0.044344384, 0.013078183, -0.07248664, 0.067446314, 0.00938219, -0.0027367051, 0.11443234, 0.02211559, -0.18861444, -0.12724571, 0.06267955, -0.02887475, -0.25285763, 0.114046395, 0.06798181, -0.15294309, -0.019622585, 0.0029789405, 0.026492702, 0.14506511, 0.16301462, 0.003532054, -0.07230556, -0.07160158, 0.07802133, 0.017945576, -0.026225228, 0.009696395, -0.2058134, -0.043148186, 0.024855515, -0.14430928, -0.038813025, 0.19709013, -0.098400086, -0.07036602, -0.10738807, -0.05137471, 0.08106652, -0.015762417, -0.014829798, -0.0005679609, -0.26455793, -0.2050733, -0.12377735, 0.035680242, -0.032340556, 0.028094782, 0.0050592534, 0.16401787, -0.0016825044, 0.01617787, 0.04942185, -0.06545755, -0.04823775, 0.015208374, -0.057709463, -0.016003972, -0.12979019, 0.087852515, 0.0494342, 0.065141745, 0.16055511, -0.03518509, 0.0060643926, 0.07732792, -0.023480758, 0.22931767, -0.0027777052, -0.07623253, -0.034799978, 0.016011523, -0.18299918, 0.23852828, 0.0663059, 0.19356085, 0.13909449, 0.07091219, -0.06766732, -0.12280141, 0.10204542, -0.025731301, 0.02610354, 0.025705844, 0.1400231, 0.062229056, -0.055454906, -0.0012832638, -0.24428263, 0.1627671, 0.014602192, 0.081850216, 0.09295873, -0.1340798, 0.04505362, 0.028065706, -0.03592159, 0.20378229, -0.0960873, 0.03925131, 0.0005650955, 0.098525226, -0.18019418, 0.0015109649, 0.023733437, 0.05316147, -0.09049778, -0.02456828, 0.1624755, -0.024840547, 0.22843091, -0.0058785765, -0.034819946, 0.14045252, 0.05451587, -0.042297907, -0.009311657, -0.021667277, 0.019772759, 0.04290305, 0.05785388, -0.03264533, -0.09592541, 0.0854572, 0.1273769, 0.022829223, 0.2152773, 0.07011932, 0.028686985, 0.06776562, 0.09618896, 0.14116786, 0.09836115, -0.100810744, 0.09910905, -0.032368798, -0.08477262, 0.076503195, -0.0027863772, 0.0037820698, 0.21494293, 0.094815366, -0.06280237, -0.019801993, 0.08724849, 0.01123676, 0.09426265, -0.027074259, 0.13442197, 0.018742338, -0.026721876, -0.22159822, -0.006203006, -0.009334158, -0.046554383, 0.0384625, 0.17861637, -0.13505416, 0.12168934, 0.18945085, 0.04067858, -0.02343679, -0.099858195, 0.03485939, -0.05269105, -0.11562939, -0.08270538, 0.05874553, -0.014516081, -0.010653831, -0.12483502, -0.013786472, -0.21520878, 0.07157317, 0.102390416, 0.049590647, 0.012036078, 0.029602252, 0.07001365, -0.04301781, 0.0903639, -0.00037352234, -0.081827454, -0.06001412, 0.2334464, 0.020878034, -0.06336129, 0.032269895, -0.0156236505, 0.026228564, 0.23287724, 0.21956018, -0.05999723, 0.039587505, 0.014057821, 0.030719614, 0.027743233, -0.098480105, 0.010801769, -0.020432245, 0.022274531, -0.016805302, 0.046557043, -0.10550744, -0.22671922, 0.07910316, 0.002560982, 0.117725916, 0.021484908, 0.09081933, -0.009481962, -0.05659825, -0.14270034, -0.025250461, -0.2103905, -0.0295897, -0.16502787, 0.08190283, -0.04655176, 0.13521938, 0.0061579947, -0.13555634, 0.15931989, -0.015800703, 0.07041865, -0.18880218, 0.1025057, 0.03198316, -0.24724276, -0.015849167, -0.043008126, -0.126001, 0.07935922, -0.052991115, 0.0207986, -0.06718157, -0.25877875, 0.027217751, 0.049547967, 0.09215469, -0.04903342, -0.07958606, 0.06870671, -0.007662927, -0.050387766, -0.0040115267, -0.045206964, -0.08429574, -0.050404847, 0.07610202, -0.18210031, -0.23860489, 0.014025604, -0.0045103463, -0.13782744, 0.21354212, -0.062267076, 0.21009448, 0.045988034, -0.16215809, -0.024785597, -0.06140398, 0.028092919, -0.05767123, -0.02844651, -0.20640004, -0.058134876, 0.13125902, -0.097886436, 0.23809935, 0.09755937, -0.038342267, -0.020735282, 0.20614904, 0.019795671, 0.05827154, 0.3018179, -0.0030565066, -0.054031692, 0.02260858, -0.005054471, -0.1399227, -0.12702477, 0.2250493, -0.1569356, -0.09581169, 0.017191049, 0.04490994, 0.08294989, 0.091928296, 0.14110035, 0.04366323, -0.040638555, -0.018873861, -0.14230536, -0.0074261953, 0.044974618, 0.05546572, -0.16359323, -0.16058952, -0.014419331, -0.10384478, 0.022661125, -0.02171693, -0.045865882, -0.035530727, -0.066475615, -0.014165853, 0.0006056306, 0.09534773, 0.009517131, 0.04155414, -0.05853424, 0.057517134, -0.09058026, -0.011171268, -0.02259857, 0.020325957, 0.058670484, 0.17610858, -0.04477781, 0.027318494, -0.010319145, 0.23744683, 0.13000168, -0.08295203, -0.05975576, 0.08134372, -0.015256067, -0.104195796, 0.049991462, 0.19985059, 0.03572347, 0.21133664, 0.034895707, -0.117698394, 0.044721454, 0.03044208, 0.18203753, 0.010142887, 0.21113144, 0.042198036, -0.067184165, 0.1127712, 0.071676895, 0.11091587, 0.10100173, 0.04245504, 0.043693896, -0.023434883, 0.18409656, 0.1477314, -0.07454284, 0.10240089, 0.15002298, -0.09511429, -0.090705566, -0.042695913, 0.07547419, -0.0054776175, 0.116595566, -0.016865855, -0.023299051, -0.066643655, -0.018110987, 0.037241522, 0.12088329, -0.056039397, -0.026454179, 0.022483267, -0.058751028, -0.016117016, 0.013393227, 0.08551453, 0.002346733, -0.037462614, -0.08005248, 0.05933165, 0.08216016, 0.0076406244, 0.05085394, -0.029439943, -0.09146808, 0.03049483, 0.01593586, 0.046084896, 0.08060044, 0.13743068, 0.07032445, -0.11446392, -0.023765469, -0.054410085, 0.085164495, 0.050917443, 0.055335112, -0.22215092, 0.01635798, 0.016675746, 0.0164816, -0.053124726, 0.05987687, 0.05058285, -0.023054937, 0.20638697, 0.1472257, -0.015243429, -0.09453066, -0.13285583, -0.042274073, -0.0767331, 0.03748784, -0.0723776, 0.0750997, -0.14931437, 0.0051685413, 0.025464762, -0.056873493, -0.024547825, 0.052593637, 0.002821242, 0.07404671, -0.0799073, -0.06953892, 0.07347171, 0.08459694, -0.049612906, 0.085007116, -0.0863373, -0.18113697, -0.0034490398, 0.24753374, -0.062736504, -0.039298397, 0.053759433, 0.06857047, 0.050472338, 0.04517687, 0.10777138, -0.024079852, -0.010942352, 0.05446313, -0.0643722, -0.13195884, 0.049202852, 0.07535721, 0.032219812, 0.10833829, 0.015670255, 0.041055456, 0.03686816, -0.07027213, 0.07505718, 0.06290844, -0.036836002, -0.02437478, 0.043959513, 0.24802968, 0.015389679, -0.0633222, 0.23516354, -0.23179328, 0.06969893, 0.0067690653, -0.040023636, 0.09266594, -0.0047163204, -0.01198249, 0.05940888, -0.025604557, 0.050050315, -0.29010314, -0.08960721, -0.17875956, 0.16047654, 0.033052575, 0.18903714, 0.1926289, -0.15959598, -0.014928558, -0.14270122, 0.050014243, -0.061559774, -0.102946594, 0.060402192, -0.005702333, 0.012564995, -0.03895411, -0.019327918, 0.18191583, -0.039526567, -0.17887908, -0.056262545, -0.24260017, 0.060984388, 0.24179174, -0.17109115, -0.062139634, -0.07160876, -0.04889555, 0.056134924, 0.01105324, -0.09817595, -0.095951, -0.15114202, 0.032978382, -0.014088663, 0.0021302458, -0.25153142, -0.024502601, -0.055838563, -0.21763353, 0.15131396, -0.028013261, 0.06607336, 0.06563809, 0.013083932, -0.0002608298, -0.05386173, -0.048600372, 0.02122897, 0.053322304, -0.030691827, 0.06767219, -0.08497072, 0.03476588, 0.11486896, 0.13849372, 0.06575703, 0.055971827, -0.055669732, 0.29268336, -0.07842342, 0.003070963, 0.027050693, 0.020371083, -0.056886178, -0.12515886, -0.53976065, -0.08174748, 0.040463604, 0.06338665, 0.1248888, 0.18696924, -0.19439389, 0.035065956, -0.042257253, -0.16730946, 0.21351308, -0.11473934, 0.21805696, 0.014233133, -0.026912598, -0.009208042, -0.06548598, -0.07832298, -0.07507359, -0.17632131, -0.008129213, -0.21065067, 0.06592968, -0.026240313, -0.076601155, 0.0080056675, -0.010820074, 0.24076621, -0.013975119, 0.024201196, -0.21151899, 0.23108229, -0.0562329, 0.09164001, -0.06487801, 0.041352652, 0.050985042, -0.32106957, 0.026868064, -0.07248428, 0.21281447, 0.095133126, -0.2377059, -0.032578275, -0.041352533, -0.08079097, 0.016668506, 0.074118465, -0.15462148, -0.0116735995, -0.12039958, 0.11710485, 0.17273487, 0.11963836, 0.18137546, 0.07604051, 0.10254374, 0.11825009, 0.0026873632, 0.15386644, 0.03640778, 0.13363153, -0.11785649, 0.06215324, -0.3648901, 0.023116222, 0.10054094, -0.019293398, -0.15753123, 0.21180692, 0.16121474, -0.04007573, 0.12175398, 0.16868865, -0.049944825, 0.16139753, 0.1221283, -0.034284618, 0.025747104, 0.058473166, -0.030296855, -0.089156866, -0.18387698, -0.11145388, 0.05102768, -0.011439534, 0.07813975, 0.029446641, -0.12291985, 0.06076403, 0.008029788, 0.052561622, 0.02526094, -0.031030567, -0.107168116, 0.084089056, 0.02141675, 0.1618194, 0.013935344, -0.061327085, -0.0068422444, -0.089517124, 0.04946732, -0.012060555, -0.10443912, -0.047502555, -0.18931766, 0.0886932, -0.058494296, 0.13375713, 0.004541225, 0.047362637, -0.009843119, 0.043950394, -0.035167694, 0.18556774, 0.22354613, 0.07939846, 0.22256324, 0.22820221, 0.25842494, -0.0028261542, 0.11965798, 0.006426694, 0.049858768, -0.15011688, 0.02712619, -0.14285369, -0.170656, 0.03094705, 0.01412188, 0.043647796, -0.09082844, 0.025413962, 0.04494659, -0.043199234, 0.13207936, 0.08741541, 0.027550718, 0.08659261, 0.13937692, -0.20860082, 0.034338668, 0.2603843, 0.06444146, -0.026121968, 0.027512183, -0.06396298, -0.045991655, 0.035427723, 0.026725493, -0.014311523, -0.17447026, -0.011344206, 0.030577136, 0.2242433, 0.08811507, 0.06250038, 0.014769119, -0.064224474, -0.04149216, -0.11105595, -0.060277674, 0.09285468, -0.025059743, 0.03723571, -0.038089328, -0.07384182, -0.20762806, 0.048940964, -0.018876748, 0.04497743, -0.046402328, 0.06822463, 0.015469473, 0.17582177, -0.048186854, -0.06936977, 0.09903109, 0.20315349, 0.076769225, -0.08057456, -0.050955836, 0.13101648, -0.2549323, 0.11296357, -0.23990817, -0.103697136, 0.05787116, -0.15334307, -0.06588647, -0.17036779, -0.30804873, -0.016236624, 0.09949377, 0.10167096, -0.31154987, 0.21440084, -0.18378073, -0.046611372, 0.16012159, -0.0952635, 0.22635517, -0.005329066, 0.080337584, 0.115862474, -0.14050099, 0.32944426, 0.038126577, 0.052942477, -0.11986555, -0.18415086, -0.025227142, 0.13069014, -0.11422652, 0.020549623, -0.05654205, 0.027857611, 0.05665829, -0.1975846, -0.074765146, -0.030316928, 0.15580778, -0.16533667, 0.039285816, -0.108478956, -0.10322603, 0.0058537754, 0.061380003, 0.017813062, -0.08474211, 0.024864942, 0.030673714, -0.0047683003, -0.100506164, 0.07759275, 0.0032201947, -0.10418179, 0.06988816, -0.20080064, 0.02156123, 0.061972763, 0.1646725, 0.09296742, 0.061958876, -0.0042349906, 0.039045002, 0.108946554, -0.124731146, 0.1615025, 0.20620295, 0.0054844124, 0.070841484, -0.08247097, 0.22195439, -0.023044202, 0.008478099, -0.074005686, -0.047757406, 0.15365258, 0.0575542, -0.0926734, -0.015971787, -0.07269644, 0.02231695, 0.23253694, 0.24305758, 0.09197702, -0.33363894, 0.31742907, -0.03534779, -0.019916605, -0.031794965, -0.16951148, 0.14496356, -0.04495772, 0.05852058, -0.12533315, 0.28942612, -0.012535288, 0.036484968, 0.021770358, -0.012597549, 0.10585467, 0.14001143, -0.035766743, -0.07012026, -0.1264997, 0.05999391, -0.048773974, -0.06996606, -0.033107646, 0.06789069, 0.21618792, 0.0011974808, -0.027766068, 0.0705544, -0.009270286, -0.0071373344, 0.023892622, -0.03735375, -0.013820036, -0.0688454, -0.13008578, 0.17006285, -0.008458756, 0.044990536, 0.15165122, 0.058658164, 0.09444222, 0.057662558, 0.020307397, -0.09793811, 0.0641329, 0.13847439, -0.16117789, -0.0019954946, -0.22754826, -0.039022993, 0.06605544, -0.01049184, -0.023667777, 0.05815067, -0.014408228, -0.3114678, -0.039175577, 0.33429754, -0.003724794, 0.08845234, 0.14758626, 0.3198004, -0.047729857, -0.036930207, 0.018225374, -0.06629266, -0.067820586, -0.062141974, -0.08003058, -0.077510275, -0.022323234, 0.020591939, -0.0469033, 0.060219068, 0.04803206, -0.080013305, -0.03570727, -0.042416226, 0.0466979, 0.07336236, 0.0044555273, -0.097784035, -0.18254769, -0.019943483, -0.010330264, -0.01223436, -0.02090145, -0.004589744, 0.16671771, 0.22011858, -0.06858632, -0.09845052, -0.022002693, -0.037039764, -0.04301927, 0.047920488, -0.045586064, -0.014900944, -0.09250363, 0.12887885, 0.051154584, -0.1515491, 0.15875696, 0.089070216, -0.045566957, 0.061010573, 0.07563699, 0.11731294, -0.0015117631, -0.07309545, -0.16556156, -0.0075866897, 0.10883639, 0.0429646, 0.007659786, 0.12753986, 0.072553456, 0.25622073, -0.08752654, 0.008035441, 0.06124015, 0.090617724, -0.046120323, -0.2692468, 0.099138014, 0.19849604, 0.04325373, -0.11368706, -0.0015344565, -0.15423238, -0.2867716, -0.023841642, -0.29290465, -0.055088904, 0.022747941, -0.054230962, -0.05365806, 0.08399835, -0.01358803, -0.044538386, 0.038794067, -0.0031230354, 0.08342794, -0.09721653, -0.012705568, -0.12978883, -0.12472209, 0.04432134, 0.0054647834, 0.18323103, -0.06508284, 0.030357832, 0.23844033, 0.1436867, -0.024181329, -0.023977626, 0.0073676594, -0.0374303, -0.03847696, -0.0055239243, -0.13541584, -0.0620682, -0.13130452, 0.2397268, 0.052507482, -0.098861195, 0.15977994, -0.082854934, 0.052098192, -0.15798809, 0.20469816, -0.10079721, 0.18677258, -0.0108349295, -0.11362191, 0.09511145, 0.021215156, -0.1929483, -0.068959065, 0.19801451, -0.014859523, 0.10306461, 0.30397993, -0.12364337, -0.049845975, 0.06925536, -0.060230784, -0.25309056, 0.2084332, 0.17404772, 0.044578586, -0.14749706, 0.06074561, 0.04406753, -0.0072916048, -0.0072595463, -0.18147694, -0.11282805, -0.0045346594, -0.060986485, -0.248216, -0.005838535, -0.045681536, -0.06809382, -0.01603895, -0.05281217, -0.117509656, 0.005869869, -0.04322562, 0.06716739, -0.04664244, 0.04544539, 0.012652688, -0.26340246, -0.060174998, -0.04253102, -0.20771222, -0.10540898, 0.016127206, 0.121629864, -0.034566775, -0.17413957, 0.09022441, -0.06069967, 0.15190618, 0.012188569, 0.090625726, 0.113684006, -0.02360943, 0.032239467, 0.13330929, 0.1525649, -0.03936344, -0.085390285, -0.061863594, -0.22249909, -0.1801571, 0.02023341, -0.24611351, -0.030346591, -0.3096236, 0.023283303, 0.25835988, -0.038909033, 0.01675131, 0.07935619, 0.27563775, -0.025761811, -0.08426353, 0.048773624, 0.08426161, 0.04795297, 0.102623016, 0.053377435, -0.06089154, -0.027214836, 0.08262089, 0.011496026, 0.28588635, -0.07115555, -0.25452957, -0.16169484, 0.2549028, 0.023958387, -0.05248354, 0.19886762, -0.04097565, -0.1451097, -0.023667416, 0.089925274, 0.046734393, -0.16324493, 0.03741262, -0.20697774, -0.12000418, 0.057839666, 0.28934157, -0.06158413, 0.041272555, 0.021218307, 0.008807308, 0.09535537, 0.026185662, -0.117043905, -0.054533817, -0.21893992, 0.0058852853, -0.04330226, -0.037759453, -0.07251198, -0.018771179, 0.052830875, -0.07042902, -0.13154486, 0.18775862, -0.08174672, 0.07405071, -0.11213105, -0.20139721, 0.050116822, 0.009982771, 0.008863939, -0.13582887, 0.05717096, -0.19874327, 0.13039765, -0.0055904277, 0.13262406, 0.04210436, 0.14149721, 0.038507257, -0.114725664, 0.079725444, 0.10577815, -0.10652998, 0.04874721, -0.0017654195, 0.08425249, 0.07513401, 0.27823204, -0.03296907, 0.08084481, 0.08230383, 0.051929988, -0.10313343, -0.20773152, 0.17462151, 0.028750852, -0.0616217, 0.101328045, -0.034437165, -0.14319783, 0.017745297, -0.003076714, 0.15544352, -0.06441352, -0.016276574, 0.06301189, 0.1031405, -0.06610241, 0.06608458, -0.06788749, 0.058301013, -0.0714071, 0.03313324, -0.029298639, 0.007659331, 0.09060688, -0.059890613, -0.2116513, 0.09937258, 0.06460434, 0.09596965, -0.0038207155, -0.053122267, 0.13249287, 0.0304072, -0.09828031, 0.2617914, -0.1922489, 0.16267629, -0.020579152, -0.0361156, 0.05245364, 0.041032776, -0.036763888, -0.025859073, 0.03279856, -0.03334254, 0.07902717, 0.024252329, 0.15010193, 0.010165478, 0.13666345, 0.16185626, -0.11982799, 0.06946162, 0.0269986, 0.03296192, 0.10304999, 0.19348039, 0.07907003, -0.022843083, 0.21055445, -0.15234639, 0.006393863, 0.20622149, 0.075599045, -0.307451, -0.048951045, -0.11542435, -0.071854, 0.15095082, 0.15969335, -0.02530111, 0.017893424, 0.08956124, -0.06774405, 0.061429303, -0.06647819, -0.065466434, 0.012651845, 0.0938499, 0.066035315, -0.02925779, 0.0704645, 0.06309576, 0.040857736, -0.035979178, -0.16537254, 0.05412662, 0.1244673, -0.013086199, -0.042106826, 0.046362363, -0.019538112, 0.038453955, -0.02220557, 0.10586947, 0.020869736, -0.06672663, -0.07879976, 0.07998729, -0.06922819, 0.02458968, -0.058396313, -0.13603854, 0.089601874, -0.051382452, -0.24542007, -0.21564275, 0.00672594, 0.042106964, -0.020438718, -0.13275903, 0.07978736, -0.049205035, 0.10836261, 0.2807271, -0.3059667, -0.09933153, -0.2702758, 0.00728666, -0.00036078988, 0.12587976, -0.0097001055, -0.14776917, 0.2506327, 0.023403322, -0.018129904, 0.19531932, 0.0054106135, -0.32873377, 0.04842179, 0.07818816, -0.02810393, 0.10977067, 0.086505994, 0.018996425, 0.041476537, 0.0029154953, 0.055127446, -0.024008306, 0.055572793, -0.0031408775, 0.18185157, 0.11659134, -0.007812955, 0.072155006, -0.27604532, 0.0206244, 0.019168194, -0.21506445, -0.106078334, 0.04112993, -0.26074934, 0.06837294, 0.046178736, -0.03565939, -0.0890506, 0.09043708, -0.051236305, 0.114157, -0.036445703, -0.07255112, 0.20240572, 0.2018634, 0.081928395, -0.030848157, -0.0744807, -0.16304271, 0.14004686, -0.13723311, -0.005853516, -0.19553255, 0.01362846, -0.12246287, 0.23685391, 0.14806852, -0.061077714, -0.0047304225, 0.15883832, -0.011063998, -0.056496106, -0.09426006, -0.006019896, 0.01644732, 0.06738536, 0.029242313, -0.06526567, -0.12004581, -0.12869489, 0.09234142, 0.028468573, 0.18698457, -0.041512426, 0.057653256, -0.14169808, -0.2125687, -0.0118776, 0.0106914425, 0.18080546, -0.0649223, -0.064333886, 0.055112068, -0.012861625, 0.03331464, 0.053512875, -0.053940784, -0.008540105, 0.16706517, 0.024937224, 0.11626513, -0.13495363, 0.035657067, -0.0058546355, 0.09173447, -0.0702573, -0.02876804, -0.12503242, -0.045761377, 0.09003611, 0.0024485937, -0.010825724, 0.0025548532, -0.0356623, 0.08066883, 0.090425126, 0.06738253, -0.14976402, 0.10157866, -0.18365069, 0.10320433, -0.00631272, -0.0071082455, -0.080760896, -0.050532162, 0.09678858, 0.032666568, 0.11077923, -0.037485514, 0.15702154, -0.011498404, -0.053788263, 0.10966566, -0.09990297, 0.12559292, -0.029380763, -0.051342472, -0.043925438, 0.05322204, 0.08976105, -0.1743504, -0.018023591, -0.17485663, 0.07726087, 0.062351868, 0.1166225, 0.07192374, 0.037304725, -0.16488211, 0.022863174, -0.07915648, 0.0068788812, -0.32293904, 0.13868505, -0.069640726, -0.0064315773, 0.01699905, 0.0037066527, 0.06987824, 0.17931545, 0.058622606, 0.04788093, 0.19750817, -0.0045147846, -0.052573472, 0.032294363, -0.009517489, 0.041641485, -0.0029540793, 0.0880976, 0.012518655, 0.21936466, -0.035216022, -0.3470972, 0.020747084, -0.021349525, 0.18724006, -0.034921665, 0.047471587, 0.1338412, 0.0040716417, -0.15247104, 0.13891122, -0.29532832, 0.2254833, -0.14189945, 0.110975, -0.09825608, -0.20635304, -0.16482599, -0.11790951, 0.08846359, 0.06397152, 0.075710125, 0.110635586, 0.1542618, -0.011302926, -0.043891825, 0.18452112, -0.29751763, 0.025133532, -0.07768239, -0.03985523, 0.16218573, 0.05065879, 0.08595766, 0.16931438, 0.1811596, -0.062690265, 0.072034225, 0.19742739, 0.07245073, 0.015192122, 0.11197204, 0.067755304, 0.043452404, -0.05418911, 0.2185491, 0.06190653, -0.07974694, -0.05348531, -0.032421768, -0.02627125, 0.09145206, 0.082548365, -0.036343664, 0.16411291, -0.026223678, 0.11061645, 0.15336476, -0.042314984, 0.033340428, 0.018043447, -0.1630908, 0.061562687, 0.027955035, 0.0119920205, -0.09943543, -0.035946738, -0.037192564, -0.021007963, 0.005937449, 0.04887199, -0.01838793, 0.014601283, 0.2548857, -0.03754467, 0.09968549, 0.11666772, 0.010971699, 0.030962238, 0.01969281, -0.08751642, -0.1650779, -0.37824768, -0.005974554, 0.019256154, 0.00967106, -0.018408312, 0.058584027, 0.10981115, 0.12750825, 0.20509794, 0.0051042004, 0.06978858, -0.13635184, 0.040138934, 0.17170614, 0.05369183, 0.1589284, -0.16748433, 0.11892812, -0.08946397, 0.032078974, -0.009097361, 0.0074722343, -0.35272682, 0.23104241, 0.070605196, -0.037481237, 0.14630501, 0.107669, 0.043531984, 0.017329782, 0.06318569, -0.009919863, -0.09677541, 0.14221923, -0.026450975, -0.050589297, -0.057033036, -0.048964567, -0.033062473, -0.2687937, 0.0064250403, -0.05070727, -0.14297704, -0.24192037, 0.041999508, -0.01437295, -0.019340204, 0.29954937, -0.033675738, 0.033220682, 0.09401864, 0.05297152, -0.03524736, 0.4163877, 0.03801778, 0.1520052, 0.0027609456, 0.1652892, 0.10986212, -0.15376236, 0.14668393, 0.13370593, -0.11168544, 0.087172836, -0.060909238, 0.028448125, 0.019290878, 0.3346412, 0.13761584, -0.21286793, -0.020200063, -0.06497211, 0.116383106, 0.19181524, -0.074043415, -0.31582803, 0.07358544, 0.20656048, -0.0137095135, -0.044445653, -0.017643321, 0.07945284, 0.11275976, -0.07951688, -0.2830549, 0.032665342, -0.006146001, 0.11386161, -0.274528, 0.061118707, -0.16876706, -0.001230851, 0.033389866, -0.0040468653, -0.056352865, -0.038149722, 0.051281422, 0.10029162, 0.003562845, -0.05727038, 0.13741234, 0.06774006, 0.05077192, 0.038525604, -0.014527891, -0.0056005097, -0.17065682, -0.22317125, 0.071465775, 0.07635105, 0.08542051, -0.22465171, 0.002681517, -0.049367316, 0.029608542, -0.03926885, 0.16510938, 0.033716023, -0.013025641, 0.07071041, -0.003079402, 0.05827933, -0.09828369, -0.03506347, 0.051079426, -0.074482776, 0.025502568, -0.10233091, 0.06419008, 0.07091588, 0.12030674, 0.026272425, 0.0016669753, -0.17269437, -0.08622917, 0.06332996, -0.08072414, -0.06184769, 0.13101411, -0.34497356, 0.06605355, 0.2946187, -0.011655763, -0.1628507, -0.13600476, 0.13319457, 0.10421546, 0.018843219, -0.0413977, 0.046763606, -0.09324242, 0.17089449, -0.0046828385, 0.07760938, -0.0043668207, -0.09193956, -0.02439797, -0.08999308, -0.047572926, 0.028611066, 0.00526139, -0.073492326, -0.0175798, 0.001868869, 0.13872845, 0.069110274, 0.0050907647, 0.18257247, -0.06403458, -0.05756529, 0.07653551, -0.029273322, -0.0016174607, 0.23703098, -0.077018104, -0.29592296, -0.0829826, -0.045596078, -0.087399736, 0.08854244, 0.124212675, 0.29269558, 0.04688599, 0.04100202, 0.06820169, 0.00402583, 0.13293743, 0.20602159, 0.329834, 0.13791886, -0.14619945, -0.27807984, 0.020741396, 0.009196097, 0.16735111, -0.051691506, 0.20400028, -0.005391435, -0.03531121, -0.07502817, 0.15034701, -0.2686902, 0.016107155, -0.4064872, -0.036068395, 0.08048505, 0.03397872, -0.2087186, 0.15060528, 0.11301045, 0.08922972, 0.025594164, 0.03695637, 0.068464994, -0.040249996, 0.163643, 0.0067888983, -0.0029404263, 0.10357604, -0.004308944, 0.008647509, -0.23452072, 0.037193257, -0.007778869, 0.00023197843, 0.27485505, 0.022607833, -0.100983165, -0.0023640518, 0.06485096, -0.16676112, 0.18791907, 0.04532444, 0.015042596, -0.106167406, -0.30531093, 0.0102693, -0.16056731, -0.07070931, 0.04922682, -0.04470909, 0.0390378, 0.040785003, -0.045244522, 0.12952287, 0.04028883, -0.03782713, -0.0822403, 0.19577353, 0.24013504, -0.10523262, 0.08386893, 0.26523995, -0.18703322, -0.020839028, -0.19358467, -0.09693751, 0.09698523, 0.22186139, 0.09409487, -0.055006303, -0.025891162, 0.08526965, 0.029105572, 0.24729726, 0.109054804, 0.006080558, -0.54228276, -0.03435774, 0.16023943, 0.047341283, -0.24570169, 0.09883738, 0.18937948, 0.07122426, 0.13348776, -0.11114015, 0.0073737716, -0.35383466, 0.055965487, -0.07165241, -0.025587251, 0.1979419, 0.10025325, 0.027632833, 0.079229325, -0.043048754, 0.017109234, -0.13743553, 0.049162947, -0.00034624338, 0.01826451, 0.050804734, 0.004289016, 0.14928949, 0.013558863, 0.021841967, 0.08334701, 0.08864873, -0.10741634, -0.03128213, 0.27228767, -0.057806153, 0.06309456, -0.07416619, 0.009503383, 0.07064599, -0.066594906, -0.002843168, -0.13701604, 0.027596451, 0.16781673, -0.0103672985, -0.0067509236, -0.21478653, 0.082632095, 0.11521404, 0.0880546, -0.0717956, 0.118946694, -0.04336593, -0.030732773, 0.08792412, -0.2194086, -0.1917712, 0.106516846, 0.04809471, -0.030298054, -0.29444697, -0.009249326, -0.031841524, -0.052279525, 0.088310935, -0.046790853, 0.02065022, -0.28266734, 0.20377451, -0.093587965, -0.43189183, 0.04204331, -0.2765354, 0.049223408, -0.1310307, -0.14172699, 0.095101945, -0.055269364, -0.041474815, -0.18203087, 0.062656075, 0.008292547, -0.036368325, -0.020192074, 0.08560679, -0.1056852, -0.056369025, -0.11427183, -0.2496274, -0.07217539, 0.019260028, 0.05609189, -0.06338974, 0.0505206, 0.010753454, -0.28272268, 0.00929483, 0.032790657, -0.060352065, -0.030244451, -0.076317474, -0.012140027, -0.11082797, -0.04797762, -0.059308525, -0.08073197, -0.07039512, 0.22243713, -0.12679131, -0.045521263, 0.036957234, -0.15619877, -0.110913604, 0.205571, -0.069804884, -0.20405427, 0.016526591, -0.069225125, -0.13100766, -0.009644199, -0.05773061, 0.08335769, 0.114680775, -0.037439674, -0.032649767, -0.1135724, 0.10903706, 0.26643276, -0.0465206, 0.11052325, -0.09584192, -0.26660624, 0.010449756, -0.07050925, -0.036958672, 0.11744386, -0.10107628, 0.09392565, -0.23700255, -0.060053285, 0.06659435, -0.0029179603, 0.32220355, -0.15628009, 0.05006662, 0.064299256, -0.0046935976, 0.017913813, -0.07456302, -0.030631388, 0.050331227, 0.06389871, -0.40363634, -0.032793306, 0.018754667, -0.10748722, -0.06729709, 0.030559666, -0.04552134, -0.29681277, -0.06766019, 0.2070891, -0.018761424, -0.1613702, -0.066726156, 0.03001203, -0.1168102, 0.059957787, 0.15563805, 0.076617405, 0.02941136, 0.20434156, -0.063170746, -0.031107955, -0.2707264, -0.17388886, -0.27794713, 0.14873001, -0.18460844, 0.15785359, -0.015914325, -0.0008525625, -0.11108003, 0.17611901, 0.018291794, 0.006729636, -0.055634875, -0.038311966, 0.15992445, -0.20202686, 0.12212911, 0.32021564, 0.05880099, -0.17511156, 0.16469264, -0.4727366, -0.21954215, 0.01891389, 0.088776544, 0.11806337, 0.058735687, -0.058363043, -0.18099916, -0.29153147, -0.035335038, 0.028061673, 0.23830901, -0.22282761, -0.07123328, -0.037925124, -0.012147427, 0.031276423, 0.111354694, 0.1697956, -0.03997311, 0.061977237, -0.08508515, 0.021242455, -0.28185263, -0.10096002, -0.03118921, 0.024587736, -0.30789658, -0.19327044, -0.057648122, -0.17920431, 0.068678625, -0.19308455, 0.04997998, 0.076974824, -0.04441888, -0.04489679, -0.13596822, 0.0024057475, 0.057863593, 0.26021448, -0.15318775, -0.032843594, -0.039440945, 0.10673475, -0.17070103, 0.30065876, -0.1736997, 0.19985388, 0.121262304, -0.067197464, 0.050777152, 0.085236676, 0.048093818, 0.15510191, 0.02278326, 0.13826808, 0.18990153, -0.1578043, 0.063402645, 0.19686311, -0.0841819, -0.18752337, 0.15167212, -0.5664779, -0.048022415, 0.07609077, -0.09154156, -0.022183169, -0.0022898023, 0.00233196, -0.10916017, -0.28441584, 0.09999215, 0.04997523, 0.28298616, -0.013982764, 0.012171224, 0.018296657, -0.045170102, -0.0028289123, -0.08349416, -0.030634336, -0.038795803, 0.08736933, -0.1764531, 0.029834837, -0.0751624, 0.0159385, -0.014829908, 0.056942374, -0.08251379, -0.08270324, 0.06138575, 0.050715517, 0.073702656, 0.19386154, 0.038416147, 0.023284912, -0.08773497, -0.002794425, 0.067512095, 0.08975586, -0.015034564, 0.094945066, 0.06594517, -0.056670167, -0.050207276, -0.059744515, -0.14582169, 0.10171022, -0.04207153, -0.21037552, -0.060732763, -0.049789928, 0.06998863, -0.25827798, -0.24683979, 0.11947474, 0.030017897, -0.12186419, -0.009780705, 0.14124486, 0.08513574, -0.229983, 0.07362705, 0.18459284, 0.1326995, -0.18182346, 0.22437426, -0.022993907, -0.2546925, -0.002774703, -0.2517158, 0.024258383, -0.1805278, -0.127554, 0.05112813, -0.04729982, -0.13250124, -0.17801496, -0.050336786, 0.18933477, -0.059953306, -0.042708788, 0.19995101, 0.07551827, -0.07388255, 0.07720308, -0.21393079, -0.060057998, -0.11230631, 0.077378824, 0.0061467513, 0.06651904, -0.01135089, -0.117995426, -0.045202218, 0.12118616, 0.091712885, 0.13259168, 0.067046896, 0.07600749, -0.11306629, 0.0044414247, 0.21201544, -0.12387995, -0.040741373, -0.199193, 0.08386324, -0.06810537, 0.011271577, -0.18099046, 0.02502869, -0.12352403, -0.10058655, 0.09911797, -0.23150404, 0.053786237, 0.21209115, -0.083654866, 0.070635594, 0.104035474, 0.08200962, -0.049520086, -0.011774221, -0.17214377, 0.008680919, -0.05705226, 0.08449498, -0.0048509873, -0.13018851, -0.24005641, -0.07747368, -0.20794888, -0.07230861, 0.07822385, -0.17211328, -0.052930035, -0.14321157, -0.08384524, -0.020829035, -0.00786171, 0.091277234, -0.08034932, 0.018647417, 0.15326683, -0.031145692, 0.08134914, 0.0451073, 0.07023035, 0.031983078, 0.075145274, -0.13749322, -0.016821694, 0.10667001, -0.03687469, 0.067122996, 0.027272396, 0.023888478, -0.1552507, -0.0380463, 0.1255919, -0.018142594, -0.036816936, -0.04191241, 0.005265897, 0.08420996, 0.074146174, 0.1936728, 0.13269441, -0.0028382167, 0.06036571, -0.0023846962, 0.11853251, 0.021299014, -0.23772314, -0.2669773, -0.038233917, -0.07371374, 0.1064981, -0.19677246, 0.050882056, 0.037796423, 0.25753078, -0.04945069, 0.028381957, -0.056031827, -0.13593042, -0.05404087, -0.19704524, 0.107531905, 0.10915887, -0.0029179365, 0.2634812, -0.0008731263, -0.31422392, -0.070054784, -0.047854993, 0.09546174, 0.1071466, 0.074505046, -0.04852414, -0.006896059, -0.22764127, -0.056988195, 0.04275968, 0.09203525, 0.108684674, -0.00062689185, 0.07684237, 0.021362267, -0.025841603, 0.008628703, -0.07187169, 0.05815886, -0.0030833627, 0.028784651, -0.012089901, -0.07327965, 0.06427916, 0.039133936, -0.032768995, -0.08940029, -0.1684567, 0.04282464, -0.10828323, -0.03378211, -0.13235201, -0.021612238, 0.13480271, -0.037010543, -0.015232157, 0.062849045, 0.11563357, 0.057987317, 0.28325495, 0.009098715, -0.048544526, 0.089212775, 0.27588165, -0.3772606, -0.0029043232, -0.15958005, 0.21317789, -0.07337336, -0.026298128, 0.16852383, 0.28166342, 0.21402721, -0.03336776, 0.00045802668, 0.027816532, -0.084228136, 0.037624545, 0.21772458, 0.023853155, -0.034031786, 0.024963446, 0.25443256, -0.20267747, -0.14970836, -0.039635137, -0.090344176, 0.14063033, 0.2558004, -0.009493664, -0.08055703, -0.11204028, 0.02650949, 0.0057415157, 0.15486106, 0.13647436, 0.01113835, 0.116958044, -0.012809355, 0.003724474, 0.030499613, -0.1432169, -0.041917548, 0.052883886, -0.026808243, 0.017296195, -0.11623719, 0.06855176, 0.07999651, 0.020244732, -0.13370803, 0.025440287, 0.055782914, 0.07448365, -0.0030309616, 0.18844073, 0.10078149, 0.049015436, 0.0024764217, 0.0028618365, -0.050742336, -0.13714308, -0.031635188, -0.086464085, -0.0067249937, -0.0062328824, 0.049860325, -0.023589771, -0.048971515, -0.18001534, 0.09411307, -0.053165663, -0.077349305, 0.062449828, 0.03514759, -0.04936958, -0.066796474, 0.13930477, -0.041377403, 0.20272094, -0.035893895, 0.26399025, 0.0050405143, -0.057746675, 0.05933175, 0.030522084, 0.24160407, 0.022524863, -0.15716673, -0.16179639, -0.02200515, 0.09375289, -0.052720606, -0.023972478, 0.033585966, -0.037782375, 0.08932015, 0.013200893, 0.0329006, 0.049171764, 0.057239026, 0.10429028, 0.036040016, 0.027535755, -0.04050405, -0.022204874, -0.043508254, 0.14063591, -0.048086137, -0.010764316, 0.005698846, -0.08259157, -0.043455936, -0.0070385486, 0.054100584, -0.13598055, 0.022846743, 0.05904996, 0.10414104, 0.25926927, 0.024320176, 0.032835238, 0.06903263, 0.05101721, -0.07166852, 0.060547408, 0.043030955, -0.2568817, -0.21766116, 0.107284, -0.11154971, -0.10937516, -0.0031665757, -0.11418574, -0.13219438, -0.009687821, -0.10707549, -0.044539504, 0.11109032, 0.00032059633, 0.11070404, 0.22777137, 0.06860544, -0.09114599, 0.18214798, -0.020448944, 0.15946662, -0.058303893, 0.033813633, 0.15174164, 0.0745684, -0.26327318, -0.15645604, 0.025236128, 0.2761718, 0.054752782, 0.09044027, 0.02989335, -0.0060836887, 0.28154907, 0.11004105, -0.030681942, -0.1002454, 0.111981176, -0.044867203, 0.08784266, -0.006023124, 0.0399178, 0.0060705105, 0.12101629, -0.00786227, 0.27603745, -0.18961799, 0.056773826, 0.069033474, 0.12175628, -0.014024642, 0.06976311, -0.07288839, -0.13336898, -0.045254998, -0.149801, 0.09667573, 0.12049404, -0.08688123, 0.1284541, 0.07166, -0.09169402, 0.00647168, -0.016756937, 0.04916971, -0.27257466, -0.17968869, 0.21466555, -0.03060314, -0.03399493, -0.15168408, 0.10066367, -0.06215976, 0.2794141, -0.20688006, 0.014036577, 0.2407181, 0.13151051, -0.08811709, -0.19842908, -0.014594715, -0.03530088, 0.06745787, -0.092794016, 0.27534845, -0.024176931, 0.025967099, 0.19896278, -0.16325207, 0.12668176, 0.03957669, 0.15069358, 0.19734947, 0.008345704, 0.15114121, -0.00488434, 0.19942401, -0.026682183, -0.07045702, -0.062299177, 0.08794604, 0.24876226, 0.00033468008, -0.021080896, -0.047585465, -0.04837221, -0.16836947, 0.009340801, -0.07844024, -0.020787517, -0.18829061, -0.004730746, -0.12696072, 0.08801567, -0.019011188, 0.024440676, -0.084355, -0.19747488, 0.046819694, 0.013948579, 0.080025956, 0.010645635, 0.11748135, 0.101651855, 0.049914278, 0.12469099, 0.21752033, 0.054689065, 0.049797468, 0.0140140895, -0.07448109, 0.055459544, 0.21124326, -0.071203, -0.078726985, 0.17925881, -0.06508174, 0.063913755, 0.0028350302, 0.047703825, 0.018663608, 0.029336229, -0.1420624, -0.09654476, 0.030042468, -0.031967893, 0.14177307, -0.04176252, 0.17705138, 0.013982227, 0.033198394, 0.14801513, 0.20572734, 0.05672979, -0.24041452, 0.048003945, -0.21458118, -0.037551805, 0.020100921, -0.08379075, 0.40858188, 0.05315482, -0.10994762, -0.00519225, 0.26870012, 0.12030606, 0.0445313, 0.06851742, -0.0019140914, -0.026234869, -0.2567272, -0.19645764, 0.06836335, -0.05787648, 0.09340936, -0.05838503, -0.05253149, 0.095501766, -0.0041012913, -0.07280412, -0.25684273, 0.11967524, 0.012329243, 0.070178226, -0.014101707, 0.2213161, -0.06237058, 0.127452, 0.0043018023, 0.03139811, 0.03982134, -0.21946126, 0.03504929, 0.02113169, -0.19982785, 0.15866314, 0.10095809, -0.25055787, -0.19484828, 0.03267334, 0.14624153, 0.11989109, 0.2601091, -0.04257118, 0.091762684, -0.2697303, -0.12564892, 0.013758512, 0.04827474, -0.22448067, 0.049176037, 0.22375351, -0.046222713, 0.15204895, -0.036244545, -0.22422108, -0.009922301, 0.00074662315, -0.31121054, -0.25209665, 0.062962204, 0.0045239595, -0.22505298, 0.05879405, 0.19895893, -0.021631021, -0.03032699, 0.09288207, -0.10790794, -0.048782345, 0.021381833, 0.13866974, 0.0077205226, 0.043486714, -0.17066534, 0.05427493, -0.0543885, 0.106766894, -0.03479306, -0.021894041, 0.08306311, -0.055525564, 0.047184955, -0.07251243, -0.047921564, -0.03673344, 0.0485498, 0.11523947, 0.10545358, 0.31073314, 0.08291339, 0.053554382, 0.1539916, 0.019907817, 0.13634403, 0.072589144, -0.031551797, -0.034065533, -0.09660064, 0.09044204, -0.055904645, 0.13432199, -0.16801842, 0.09470391, -0.025559364, -0.061426654, 0.09864444, 0.06472061, 0.28593805, 0.07923796, 0.1501615, 0.1221511, 0.05659111, -0.10078931, -0.08595101, 0.043999214, -0.014982572, -0.0151274875, 0.09126424, -0.0713939, -0.086551934, -0.029404968, -0.13002963, -0.18862347, 0.36940485, -0.026390705, -0.3323779, -0.01661494, 0.2139328, 0.014960141, 0.19662383, -0.051380493, 0.07887225, 0.07604365, 0.024219573, -0.07134443, 0.026359513, 0.06924953, -0.11766571, 0.07430325, 0.049919568, 0.15339534, -0.044252966, 0.033021666, -0.21738914, 0.021648552, 0.009997144, 0.037770487, -0.16723092, 0.090187, 0.072446615, 0.120392494, 0.0068711573, 0.17350109, -0.0012634007, 0.11402877, 0.14532292, -0.01656677, 0.039565407, -0.010526711, 0.014461763, -0.14953369, -0.04967174, 0.05682021, -0.08038523, 0.05509713, -0.04473972, -0.074647315, -0.004477482, 0.18182415, 0.030983854, -0.06833271, -0.111335024, 0.008747017, 0.078092165, -0.10520466, 0.08043506, 0.059020247, 0.3727134, 0.06983628, 0.11854269, -0.021762613, 0.04185661, -0.035406787, -0.23622908, 0.024425428, -0.026290761, -0.1330187, 0.21207783, 0.048293743, -0.4966207, 0.068717465, 0.06554129, 0.015330789, -0.014072515, -0.057171516, 0.07208856, 0.14113824, 0.014519148, 0.08659212, -0.07270241, 0.082898885, -0.3218126, 0.19066933, -0.025829118, -0.018930059, 0.12338999, -0.005576007, -0.009578068, 0.10308069, 0.03587677, 0.0141516775, -0.14017643, 0.16705543, -0.061666407, 0.3278758, -0.079621285, 0.043499768, -0.0094602825, 0.010814978, 0.16713025, 0.040098026, 0.010906018, -0.0670635, -0.07381042, -0.30046862, -0.42354855, -0.07848969, 0.11482325, 0.026195036, 0.19704093, 0.11354052, 0.0713869, 0.025368012, 0.0049177455, -0.054881908, -0.1355354, -0.1699785, -0.17337981, 0.0045836167, 0.009757163, -0.031606738, 0.13620847, 0.16996156, 0.1720459, 0.0011098093, 0.05058813, -0.14446491, -0.04058312, -0.036250528, 0.110749185, -0.009440111, -0.068823285, -0.088011995, -0.047053456, -0.0629113, 0.030280415, 0.06620459, -0.11775028, -0.008084379, 0.29655617, -0.26084644, 0.06675804, 0.23747507, 0.027496926, 0.023200234, 0.032004356, -0.080292694, 0.06481653, 0.0062370393, 0.09512932, -0.0011198027, 0.25283876, 0.17661338, -0.04142688, 0.044143956, 0.011694735, -0.10906419, 0.06925362, -0.047247443, -0.00824615, 0.096753255, -0.06809145, -0.04380134, 0.22050688, 0.05010448, -0.27236876, 0.066400796, -0.056873795, -0.097500145, -0.00031297482, -0.0750347, 0.019433863, -0.10260035, 0.13596071, -0.16541344, 0.038403437, -0.11152874, -0.09808828, 0.010548131, -0.10374032, 0.08086582, 0.008541161, 0.0980968, 0.0072240965, 0.020834286, -0.34270263, 0.19963719, 0.018729197, -0.051237646, 0.0089950245, -0.08692799, -0.3247773, -0.06796104, -0.12695064, 0.049808037, 0.06471108, -0.0011819635, 0.19734167, -0.05450159, 0.015936567, -0.2619744, 0.22563349, 0.064102635, 0.15981036, 0.005514759, 0.0049467697, 0.1769036, 0.063676216, -0.052286327, -0.013395781, 0.111727364, 0.03556175, 0.11465633, -0.008602923, 0.06634712, 0.092741214, -0.017111683, -0.023003388, 0.035699658, 0.3096343, -0.067074805, -0.045638654, 0.09525018, 0.072858214, 0.07482952, -0.017046465, -0.019321067, 0.09012427, -0.054123096, -0.27333298, 0.14942557, -0.039741326, 0.04567287, 0.06492119, 0.217651, -0.04557873, 0.29886582, 0.107207716, 0.027532674, 0.056524523, 0.027716316, -0.043469843, 0.08715139, 0.073562674, -0.07209567, -0.07031288, -0.07417129, -0.026505576, 0.10505616, -0.37780982, 0.12801081, 0.15391208, -0.19998662, 0.010750493, 0.054779198, -0.09121703, 0.018477743, 0.19575544, 0.112797655, 0.075841144, -0.0870353, 0.10059516, 0.09857129, -0.120683886, 0.035313804, 0.1140851, -0.02482886, 0.30112398, -0.020332599, -0.07569331, 0.1508921, 0.0077681676, -0.055896755, -0.007160939, 0.032816857, 0.0044565015, -0.06626497, -0.0360868, 0.07372282, 0.0009934603, 0.05043359, -0.054152753, 0.015589072, 0.22885, 0.12462593, -0.024478633, -0.01038756, -0.05840815, 0.0074260593, -0.040034957, -0.044155564, 0.12668823, -0.07071602, -0.23643665, -0.04179977, 0.02203685, -0.44006807, 0.008200037, 0.13605891, 0.088870086, 0.115684375, 0.042682625, 0.1899052, -0.025460802, -0.10557613, -0.032226615, 0.039838586, -0.097221114, -0.021000402, -0.11967242, -0.047567956, -0.0369854, -0.1319647, -0.35136038, 0.24691337, 0.0010549633, -0.13317393, -0.06478571, -0.15991333, -0.12841152, -0.13357194, 0.22143058, -0.08329533, 6.933075e-05, 0.004137908, -0.31148162, 0.06864047, -0.14745295, 0.0009179252, 0.04600501, 0.024303306, 0.012012018, -0.080611676, -0.020735016, 0.025804061, -0.1009018, 0.025753893, -0.037356883, -0.057208743, -0.05818737, 0.040902875, 0.10357188, 0.0119518675, -0.15758112, 0.2513555, 0.0013830392, 0.01929777, -0.06544868, -0.094034776, 0.011494793, -0.08224753, 0.0038114795, -0.0138397, -0.08900206, 0.01431512, 0.15453462, 0.03727671, -0.22277494, 0.23875464, -0.039245132, -0.15532036, 0.26535466, -0.03813407, 0.22821689, -0.07511219, 0.03592978, -0.052598886, 0.1184399, -0.054470073, -0.0816831, 0.048239548, -0.21206968, -0.010932652, 0.017287351, 0.14032274, -0.0840491, -0.12693729, -0.20479645, 0.22339982, -0.12619369, -0.21088676, 0.004541404, -0.07415583, -0.122138664, 0.16812271, 0.24726199, -0.036683336, -0.048227724, 0.01031023, -0.25251135, 0.09277422, -0.23992011, -0.0898558, -0.016837722, 0.050053164, -0.00558364, -0.05217241, -0.023776405, 0.21398163, 0.05214664, 0.04195605, 0.15878928, -0.04002477, -0.012291269, -0.007660706, -0.08930598, 0.0005276503, 0.055506323, 0.010766051, -0.07067994, -0.06880789, 0.160008, 0.0370011, 0.013164133, -0.06437324, -0.037977096, -0.06296442, 0.007929977, -0.10118414, 0.10777536, 0.06257709, 0.0023365947, -0.010231446, -0.00205002, 0.03510769, 0.023924539, 0.008726675, -0.12587005, -0.07263762, 0.18939166, -0.17865981, 0.14147314, -0.1555414, -0.09251949, -0.030818619, -0.22388951, -0.0043015527, -0.05951964, -0.023467496, 0.020205403, 0.07024669, 0.09276944, -0.06166806, -0.060514443, 0.017209118, 0.07066911, 0.052611288, 0.013928574, -0.09133233, 0.10537134, -0.015847214, 0.124501176, -0.06130045, -0.008046024, -0.028106758, -0.015970837, -0.0010015224, -0.040466473, -0.05627259, 0.16233268, 0.053963296, 0.04776439, 0.036533553, -0.040322587, 0.026790924, -0.058802497, 0.054158993, -0.061934337, 0.008068224, 0.051838327, 0.055992715, -0.0014764238, 0.18455587, -0.08265747, 0.03399088, 0.21462049, 0.0060144374, 0.047687694, 0.14250956, 0.044654388, 0.16613905, 0.06395576, -0.024515556, -0.15311453, 0.019344786, 0.059005115, 0.12593798, -0.042741213, -0.14337595, 0.12504056, 0.10903616, -0.013438713, -0.044663783, 0.17772837, -0.089943744, 0.10443869, -0.09887523, 0.0060543893, 0.047661245, -0.07274947, -0.018200506, -0.19918582, 0.08128702, 0.028887793, 0.040278055, 0.006408714, 0.04741474, -0.10549464, -0.2457644, -0.07999429, 0.03704315, -0.13263233, 0.088328786, -0.024547514, 0.08560805, -0.1156562, -0.10581606, 0.011441413, 0.061308894, -0.017700326, 0.18954127, 0.14564674, 0.025259277, -0.067081, 0.0042022006, 0.029548483, 0.061743107, -0.061111875, -0.060468055, 0.10397992, -0.03219766, 0.003109199, 0.04918955, -0.049575087, 0.080102704, 0.11888503, 0.16124181, 0.0079244245, -0.04951677, 0.11407696, 0.018210338, -0.043906447, 0.07410435, 0.04766272, 0.08021274, 0.044065602, -0.10759609, -0.050795622, -0.0721352, -0.11056418, -0.06608202, -0.011999682, -0.16580553, 0.05670289, 0.080628484, -0.059103727, -0.015744003, -0.015443349, 0.17010325, 0.07423774, -0.05907719, -0.03796674, -0.0090983175, 0.028358547, -0.16055347, 0.16222803, -0.19717327, -0.0034903102, 0.1724189, 0.04165074, 0.07107164, -0.021061467, -0.045155734, 0.048524857, -0.25777078, -0.20547149, -0.024432233, 0.19286515, -0.14962567, -0.085906945, 0.0034342501, -0.14245127, -0.023129204, -0.1964022, -0.10515333, 0.09182972, -0.059193198, -0.029500278, 0.06765477, -0.0145967305, 0.021521345, -0.057598304, -0.079389565, 0.0055480194, -0.060007222, 0.0005137172, 0.0069139367, -0.035113268, -0.016913235, 0.1367258, 0.36745322, -0.03265997, 0.015062621, -0.0014553777, 0.014697554, -0.012336481, 0.14573407, 0.016816527, -0.15919942, 0.0806689, -0.04204057, 0.23082207, -0.08227444, 0.02733651, 0.11787955, 0.05746669, -0.1894555, 0.26478577, 0.07463027, 0.16861208, -0.0034825322, 0.12629847, -0.1355432, 0.04728372, 0.13478258, 0.05238688, 0.031304527, -0.34913266, -0.18951912, 0.07937124, -0.0912382, -0.03163364, -0.0112091, -0.18030335, -0.13021149, 0.18012826, -0.0915545, -0.10988459, -0.21556309, -0.18685898, 0.03662692, 0.09391245, 0.19011407, 0.09823307, -0.025407247, -0.17651866, -0.012532531, -0.39307475, -0.13921873, 0.16117495, 0.10073159, -0.18197784, 0.0057639205, 0.05741453, 0.21612664, -0.025923297, 0.036315195, -0.00076880655, -0.13135457, 0.015510799, -0.14635235, -0.091722235, 0.015547403, -0.013134205, 0.12575008, 0.023819674, -0.076105066, 0.32900992, 0.17624275, -0.044307046, 0.06610925, -0.061251212, -0.12647255, 0.049902182, 0.010422266, -0.0065646954, 0.041184, -0.07713032, -0.00510709, -0.0777458, 0.053821705, 0.07640899, 0.09915511, -0.12996627, -0.10173244, 0.055501655, 0.012941866, 0.006771969, -0.02636651, 0.086369246, 0.02562839, 0.087305374, -0.136919, 0.058105618, -0.16930643, -0.03824307, -0.0018030012, 0.1372507, -0.10659489, 0.16346866, -0.024748165, 0.06589979, -0.036525916, 0.09247831, -0.17432587, 0.068507485, 0.052699964, -0.20193817, -0.09052778, 0.1388211, -0.043580424, -0.10085781, 0.04894051, 0.051794853, -0.087143235, 0.16202965, -0.019973977, 0.0065200143, -0.0142085655, 0.027812058, -0.010553812, -0.046171077, -0.099224076, 0.02565684, -0.054135546, 0.073873095, 0.017202469, 0.07394195, 0.2172593, -0.049938552, 0.05431713, -0.09214196, 0.13259813, 0.06286493, 0.10507402, -0.04149797, 0.15377197, 0.03667776, -0.053608887, -0.033085667, -0.074593484, 0.06617988, 0.18036619, -0.045215383, -0.20625584, -0.050092157, 0.075708255, 0.17924973, -0.11816936, 0.11964113, 0.16314739, 0.050331388, 0.00668006, 0.12212989, 0.068636104, 0.035646014, 0.116983265, -0.22461705, 0.07147396, -0.009651527, -0.02056286, 0.0967084, 0.042809743, 0.010147843, -0.087011054, 0.0016599781, -0.15897381, -0.1390824, 0.10374611, 0.0579619, 0.14918645, -0.061652914, 0.06812147, 0.075790524, -0.05636598, -0.08858887, 0.09334119, -0.15975085, 0.06754379, 0.08514202, -0.053709272, 0.035374556, -0.008322742, -0.021388788, 0.10103251, 0.079028405, 0.053655345, 0.026142484, -0.002620811, 0.04777551, -0.022819987, 0.2758191, 0.113605715, -0.0596335, -0.044865105, 0.13332607, 0.15095134, -0.040280823, -0.005106297, 0.024094023, 0.12128817, 0.030823901, 0.03826107, 0.070291676, 0.016973602, -0.048487287, 0.16887106, 0.019129468, -0.07423788, -0.097895816, 0.011356867, 0.17256892, -0.24408841, 0.18549293, 0.061046638, 0.08394488, 0.16989605, -0.107324265, 0.04981176, -0.026614992, -0.23145653, 0.015907707, -0.011613989, 0.026098032, 0.08679874, -0.01408815, -0.17117353, 0.08564361, -0.12249227, 0.027525987, -0.08990338, -0.13080344, -0.019694244, -0.15414342, 0.118618906, -0.27514425, -0.048055265, -0.088426426, 0.06108428, -0.22292124, 0.16794606, -0.15779659, 0.11844041, -0.028747108, -0.03548781, -0.042136066, -0.038445417, 0.022354301, 0.08197215, -0.08085118, 0.054803632, 0.055099245, -0.047408953, -0.0020834622, -0.03933943, 0.14854886, 0.076320946, 0.05218891, 0.033692803, 0.115335226, 0.16519846, -0.010502033, -0.040590946, 0.03585923, 0.017221002, 0.06892467, 0.039065327, 0.089080885, -0.030295026, 0.14454597, 0.014742334, -0.025192264, -0.3549994, -0.14192142, 0.21160096, -0.008284056, -0.09623218, 0.09612846, -0.076539434, 0.0549867, -0.07718927, 0.20478214, -0.032103073, -0.08220559, -0.034166083, 0.11383117, 0.1230139, 0.0890721, -0.08511322, 0.09059029, -0.16529542, 0.14524487, 0.006588287, 0.060232922, 0.1825735, -0.12825324, 0.045698218, 0.14071724, 0.062543206, -0.029290298, -0.023316296, -0.021275152, 0.07938952, -0.50987613, 0.061748117, -0.071624085, 0.061772507, -0.13032256, -0.067287505, 0.03910149, -0.028364375, 0.00641187, 0.04748456, -0.055105604, -0.20095281, -0.07562076, -0.14590828, -0.07056289, 0.023739336, 0.006559538, -0.12069557, 0.009321348, 0.04419513, 0.0769227, -0.035952907, -0.037541896, -0.021066502, 0.048478976, 0.22947478, 0.12143157, -0.02752702, 0.04754676, -0.07723148, -0.1452181, 0.035525773, -0.065694965, 0.026666112, 0.10464931, 0.16493107, 0.10911828, -0.26983756, -0.00046917115, -0.050141666, 0.03413245, 0.098276995, -0.14731765, 0.022232397, -0.35248876, 0.118468426, 0.2130819, -0.17199099, 0.03704152, -0.18705054, 0.18832333, 0.033730403, 0.24979603, -0.22735234, 0.043962672, -0.05863651, -0.035317186, -0.0053790105, 0.0782771, 0.05366411, 0.11948419, -0.029156838, 0.10294182, 0.059016045, 0.20767447, 0.02103264, 0.07831021, 0.014039397, 0.28477848, 0.11788595, 0.032640237, -0.10601229, 0.020566806, -0.03686889, 0.056808583, -0.05630537, -0.04889288, -0.09550461, 0.078803815, -0.0076097846, 0.16442385, 0.101525635, -0.027378041, -0.06630192, -0.23060572, 0.056721605, 0.0076807435, 0.05069756, 0.06994435, -0.06452478, 0.09084168, 7.9616175e-06, 0.11612423, -0.023173198, 0.0807555, 0.06431761, -0.011436723, -0.022792464, -0.07172118, 0.16145168, 0.14816464, -0.13010377, 0.022724004, 0.1383522, 0.109522216, 0.11933576, 0.14163616, -0.04345017, -0.088484176, -0.1354172, -0.18216148, 0.1251544, 0.036946747, 0.048429657, 0.026961057, 0.06524309, 0.02934005, -0.34536818, 0.024912367, -0.08839018, 0.048486106, -0.13024159, -0.28079754, -0.04264515, 0.046646036, -0.028651152, -0.14234462, 0.048999123, 0.17723398, -0.08914659, -0.11003119, 0.05697582, 0.25450122, -0.07146252, 0.03910198, -0.17468916, -0.047627527, -0.040073294, 0.088321745, -0.23499021, -0.0023275097, -0.0191524, 0.0745005, 0.051794477, 0.26522154, 0.1236922, 0.07304792, -0.02512744, 0.095297426, 0.03595894, -0.0056861467, -0.10255429, 0.06556403, -0.09537669, -0.011271507, 0.018527409, 0.1707336, 0.021293059, -0.09790135, 0.16395983, 0.01330478, 0.028572708, -0.15643372, 0.08030298, 0.20467556, -0.08152929, 0.101370566, -0.012666357, 0.067552954, 0.109456934, -0.16630064, 0.04979098, 0.059063002, -0.3729966, 0.0063636736, 0.22251302, 0.013910522, 0.029137421, 0.11397182, -0.1620562, 0.07801226, -0.23503697, 0.028944897, 0.10386996, -0.09309503, -0.0022507203, -0.11030417, 0.063049294, -0.28637666, -0.0024398582, 0.084523745, 0.02042532, -0.21798468, -0.14299761, -0.068424866, 0.009710747, 0.2579916, -0.23936237, 0.018850425, -0.008912567, 0.011569547, 0.010428711, -0.071742356, 0.010025238, 0.040741272, -0.25391203, -0.03712273, 0.06032, -0.012417235, 0.15246479, -0.009873882, 0.029873414, -0.1753098, -0.052051354, -0.042606592, 0.10858892, 0.07200117, 0.022621652, -0.021939097, -0.0083016325, 0.025301894, 0.0015311486, -0.004625342, 0.10418491, -0.06521927, 0.08388025, 0.13139829, 0.26131427, 0.0033976974, -0.035681773, 0.22309114, 0.054238852, 0.018581476, -0.09865652, 0.0506579, 0.06959314, -0.21205515, -0.2640252, 0.09767216, 0.09844635, 0.0640944, -0.06714194, 0.305691, -0.21534029, 0.1064491, -0.16166118, -0.017876666, 0.24650085, 0.011244195, 0.04122187, 0.054048713, -0.053125408, -0.29789224, -0.003901898, 0.10675879, 0.0753629, -0.054136, -0.26165375, -0.0054437565, -0.062179808, 0.26077533, -0.14467189};

const float dense_2_b[64] = {-0.0800276, 0.13925311, 0.0757901, 0.12420711, 0.062389296, -0.023015931, -0.052825566, 0.0078768665, -0.03549982, 0.03348716, 0.19024257, -0.025507882, 0.034027465, -0.0155828195, -0.21176104, 0.18073465, -0.08859791, 0.020598222, -0.07126078, 0.04043424, -0.030683255, -0.019304425, -0.013198472, -0.016965257, -0.08220892, -0.06294718, -0.025299095, 0.07379067, -0.019899946, -0.09481519, -0.025243562, -0.03244174, 0.13199332, -0.04145069, -0.00029766728, -0.035254486, 0.26894057, 0.13471368, 0.11050287, 0.13813871, -0.010680979, -0.020424455, -0.15632142, 0.1750245, -0.027824711, -0.025574317, -0.027718859, -0.044898137, -0.03242591, 0.070387915, 0.24526146, -0.05280121, -0.03329585, 0.24319689, 0.14706217, -0.037049226, 0.28972855, -0.013011949, 0.19530798, -0.1445946, 0.08960069, 0.15022786, 0.07796052, 0.19065928};

const float dense_3_w[640] = {0.18170916, -0.20426181, -0.008547969, 0.2908375, -0.087609455, 0.29326326, 0.039371215, 0.28878903, 0.20441003, -0.10321823, 0.15669106, 0.012273401, 0.2740789, -0.12761398, -0.045121018, 0.16429865, -0.108227275, -0.2674933, 0.10131044, -0.08225712, -0.2749661, -0.077984706, 0.12411877, -0.2936233, -0.045815725, -0.21694425, 0.23862167, -0.12818627, 0.14499252, 0.15767163, -0.29048163, 0.25587374, 0.18447192, -0.19775791, -0.07560812, 0.21514688, -0.119319655, -0.55388075, 0.3400116, -0.21103251, -0.023482908, -0.23070244, 0.12101379, -0.0019698157, -0.21981533, 0.09167078, -0.11638298, -0.08295013, 0.016906602, 0.13876005, -0.067174576, 0.09072571, -0.041662574, -0.39883402, 0.1433079, -0.25206423, -0.6550848, -0.1509526, -0.24961923, 0.00887528, 0.1455532, 0.13662893, 0.16520491, -0.29845822, 0.16475143, 0.39281213, -0.29675698, -0.3727038, 0.32999253, -0.27756256, -0.1849738, 0.3951967, 0.15503968, -0.10429199, -0.6506506, -0.19248255, 0.312873, -0.24597208, -0.11081371, -0.1976598, 0.05013129, 0.24763416, 0.12794411, 0.020553691, 0.04003371, 0.3053755, 0.07493652, -0.21152115, -0.075199395, -0.31899118, -0.033224545, -0.33453253, 0.11359257, 0.12810342, 0.09971146, 0.24905907, 0.028559625, 0.05192093, 0.21670261, 0.05589602, 0.0995852, 0.19659217, -0.024670018, -0.12452309, -0.17738295, 0.2362767, 0.3182328, -0.2664243, 0.05232787, 0.02537687, 0.18827309, 0.19061789, 0.1761587, -0.14273457, -0.19119534, 0.08238015, -0.23927142, 0.06288591, -0.05205916, 0.23721632, 0.16100763, 0.27304128, -0.442174, -0.19584632, -0.17381996, -0.22826058, -0.26197335, -0.43985096, 0.07764695, 0.28320435, -0.08885627, -0.22610101, 0.055287667, -0.04770805, 0.16788885, -0.10350673, -0.2161518, -0.21307547, 0.12036993, -0.12748958, -0.31126577, 0.05011201, 0.14942463, -0.30354103, 0.37138864, -0.16052838, 0.14519562, -0.024996761, -0.26079258, -0.36670858, 0.18257445, -0.27251136, -0.2574761, -0.039679814, 0.04991224, 0.27689818, -0.18587771, 0.3818707, 0.016733147, -0.24048379, -0.16262062, -0.028439524, -0.35178626, 0.10361016, 0.11404115, 0.04260676, 0.32095402, 0.07227134, -0.1362009, 0.066268705, -0.21770558, -0.17283425, 0.2011651, -0.046687674, -0.2101192, 0.4098511, 0.1391223, 0.13410702, -0.023120416, -0.07017759, 0.086013325, -0.39246818, 0.25289086, -0.049026348, -0.056951325, -0.23902152, 0.10290011, 0.24726926, -0.32094985, -0.0870686, 0.2598922, 0.11956914, 0.18940409, 0.094327696, -0.0984206, -0.058614217, 0.11022511, 0.16962391, 0.06934478, 0.07709398, 0.2171202, 0.13380098, 0.03097457, -0.18750016, -0.3934414, -0.09111647, -0.31440666, 0.23391889, -0.17023605, 0.02909142, 0.029906934, 0.08051187, 0.074167565, 0.17027923, -0.15859245, -0.17038332, -0.09051822, 0.033756305, -0.22761448, 0.114242874, -0.2343469, -0.15697706, 0.122220635, 0.21826112, -0.18984951, 0.12812899, -0.46568117, 0.110100254, 0.020908786, -0.37754747, -0.26501635, 0.12941794, 0.0056854235, -0.20361698, -0.31420147, -0.020764418, 0.01039676, -0.027634243, 0.17442341, -0.18396279, 0.033303365, 0.055156253, -0.230638, -0.01560161, -0.30706456, 0.16615188, 0.091836944, -0.30682757, 0.24302892, 0.06880217, 0.18488191, 0.07880953, 0.21129166, 0.03789118, 0.06220981, 0.15450855, -0.1757396, 0.24475731, 0.32670584, 0.047275197, 0.19107006, -0.25596657, 0.13204198, 0.004465995, -0.00017330139, 0.07963668, 0.18063131, -0.18009658, -0.30535784, 0.07059184, -0.21804704, 0.2295922, -0.5071383, -0.21206819, 0.058073178, -0.15206252, -0.08671659, -0.24938667, 0.16297619, 0.13893159, -0.290159, -0.12564757, 0.25591612, 0.19891064, 0.049517415, -0.08937391, 0.23336032, 0.24128725, 0.012517423, -0.003359032, -0.06454804, 0.19683304, 0.26977932, 0.3257864, 0.20357503, -0.27572948, -0.06218995, 0.0780608, -0.3885399, -0.0059220516, 0.16845243, 0.07433566, -0.124138065, -0.092293754, -0.10486708, -0.12502448, 0.13479924, 0.15884246, -0.044121657, 0.051640954, 0.20227142, -0.43510082, 0.047512878, 0.14037548, 0.32290912, -0.26893464, -0.4792033, -0.061920427, 0.14443499, 0.013023724, -0.19848104, -0.11332795, 0.1760856, -0.16980198, -0.2857644, 0.023584684, -0.015118056, -0.23183385, -0.16193026, -0.06501207, -0.035616286, -0.041199997, -0.14077453, 0.21637271, -0.21959889, 0.25020203, -0.21378909, 0.27835777, -0.1747423, -0.14230335, 0.102814406, -0.05333479, 0.21304831, 0.14423531, -0.010622549, -0.15277006, -0.04549047, -0.3600274, -0.15404014, -0.01426325, -0.20487933, 0.07287801, -0.31632113, -0.07968656, -0.457474, 0.07815603, -0.13165078, -0.15299165, -0.27243364, -0.2325604, 0.046860974, 0.17563485, 0.08981157, -0.17255174, -0.051941223, -0.065441124, -0.108827904, -0.13622804, -0.031020707, 0.1518544, -0.18657355, -0.14092353, -0.26986578, 0.20387813, 0.096873514, 0.24581979, 0.10504475, -0.038687114, 0.28250808, 0.21693137, 0.00907907, 0.1848007, -0.2657839, 0.24164493, -0.1253793, 0.30458105, -0.305944, 0.29525784, -0.43923634, -0.1489539, -0.19963652, -0.41625783, 0.23950602, -0.26000094, -0.056120843, 0.13542864, 0.2927624, 0.18521945, -0.2621179, -0.29022154, 0.20214365, 0.22192569, 0.070266984, 0.14358382, -0.119339, -0.16206585, -0.30525047, -0.08478167, 0.009868682, -0.010475512, -0.087257445, -0.5213914, -0.14178912, -0.22919786, -0.2553637, -0.19841054, 0.12572747, 0.046908077, -0.13374843, -0.040155053, 0.3357092, 0.22671676, -0.25023052, 0.07342077, 0.043648783, -0.1324263, 0.12723026, 0.3429582, -0.15987475, -0.033749327, -0.2581841, -0.0584339, -0.2135552, 0.07724569, -0.5879692, -0.13291624, -0.5178394, -0.00042530557, -0.0041561574, 0.08179056, -0.06858162, -0.1182447, 0.2225965, -0.13686502, -0.2611778, 0.09953113, 0.356873, -0.15711766, 0.28079584, 0.06858336, 0.28629532, 0.40692833, 0.24078137, 0.25875115, -0.062170047, -0.2790349, 0.18684803, -0.015726177, -0.075218536, 0.05970837, -0.10487392, -0.13757543, 0.123421706, 0.23019964, 0.05023657, -0.22690307, 0.2254804, -0.2858757, 0.1447074, 0.28707683, 0.09701336, 0.14966737, -0.029346474, 0.1790925, -0.004960516, 0.5210446, -0.17551486, 0.2232087, 0.20294018, 0.1604821, 0.0032413006, 0.16749269, -0.3168068, -0.14973858, -0.56657755, 0.15841402, -0.5192996, -0.10685624, 0.26609814, -0.26774007, 0.21922347, -0.119517274, -0.18920961, -0.29252112, 0.12332299, 0.3590657, 0.16482231, -0.24752165, -0.1823325, -0.034608297, -0.62017894, -0.018990794, -0.42408767, -0.4074343, -0.097631015, 0.1835689, 0.3142145, 0.2712637, -0.23880482, -0.5403255, 0.20607242, 0.03348444, 0.14597636, 0.23144285, -0.34421864, -0.09270316, 0.03250269, 0.28577164, -0.14884865, 0.036652643, 0.09783158, 0.25236684, -0.13846761, 0.042578876, 0.22996883, -0.09546012, 8.671718e-05, -0.3174231, 0.21122274, -0.45025754, -0.013500399, -0.5585134, -0.31716084, 0.3344917, -0.40112573, 0.23380402, 0.009826697, -0.24020252, 0.15316549, 0.18934788, -0.1551833, -0.3668119, 0.093147516, -0.07183298, 0.2140774, -0.14239876, -0.1698716, 0.040189315, 0.3699292, -0.10410761, 0.13327998, -0.54063976, -0.005606258, -0.16274779, -0.13274825, -0.49901208, -0.19777209, -0.28165624, -0.22812219, -0.024534428, 0.25307992, 0.3570444, 0.3915429, -0.32205257, 0.22420795, 0.33200893, 0.04967526, -0.044434015, -0.23695628, -0.2559795, -0.2216326, -0.37690982, -0.0538135, 0.3916516, -0.17951913, -0.01139449, 0.009362045, -0.19681697, -0.3921338, 0.008521013, 0.15878433, -0.0915033, 0.124649525, 0.1825948, 0.08354707, 0.112577446, -0.32259867, -0.18430303, 0.08355479, -0.010598963, -0.040045828, -0.3574876, 0.09462272, -0.17455675, 0.021628113, -0.20444976, 0.11195968, -0.06917336, 0.25613973, 0.14106658, 0.107922845, -0.30942622, 0.04231982, -0.13405538, -0.026243486, -0.26393062, -0.25732213, 0.1238905, 0.35358602, -0.24508117, -0.26838753, 0.1766986, 0.0533848, -0.24294117, -0.18791899, 0.41025, -0.2661023, -0.046891686, 0.15870236, -0.5291361, -0.033379797, 0.10797645, -0.28726435, -0.09060823, 0.12912083, -0.3824791, 0.38398406, -0.20733415, -0.17441624, -0.15196112, -0.3203439, 0.13823734, -0.09188194, -0.060235742, 0.015585987, -0.36505273, 0.327476, 0.07149551, 0.16089536, 0.21304512};

const float dense_3_b[10] = {-0.081611805, -0.15366247, -0.05411193, 0.0817731, 0.25151154, -0.042437322, 0.0011116087, -0.18599479, 0.06640113, 0.06486515};


#endif
